#version: 0.2 - Trained by `huggingface/tokenizers`
à ¶
à ·
Ġ à¶
à· Ĭ
à· Ĵ
à¶ ±
à· Ģ
à· ı
à¶ º
à¶ »
à¶ Ń
à· Ķ
à¶ ¸
à· ĥ
à¶ ļ
à· Ļ
à· ļ
à· Ħ
à¶ ½
à¶ §
Ġ à·Ģ
à¶ ¯
Ġà¶ ļ
à· Ĳ
Ġà¶ ´
Ġ à·ĥ
â Ģ
à· ĵ
Ġà¶ ¸
à¶ ľ
Ġà¶ ħ
âĢ į
à¶ ´
à·Ĭ âĢį
Ġà¶ ¯
Ġà¶ ±
à· ľ
à¶ «
Ġ à·Ħ
Ġà¶ Ń
Ġà¶ ľ
à¶ ¶
Ġà¶ ¶
Ġà¶ ĳ
à· ħ
à¶ ©
à· ģ
Ġà¶ ½
à· Ŀ
à¶ Ĥ
Ġà¶ º
à¶º à¶ļ
à¶ °
Ġà¶ ĩ
Ġà¶ļ à¶»
Ġà¶ »
à· Ĥ
à· ĸ
à·Ĵ .
Ġà¶ ī
à¶ ¢
à¶º à¶±
Ġà¶ Ĩ
à¶ ³
Ġà¶ ¢
. .
à¶± à¶º
Ġà¶ĩ à¶Ń
à·Ģ à¶±
Ġà¶ĳ à¶ļ
Ġà¶ Ķ
à·Ģ à¶Ń
Ġà·ĥ à¶¸
Ġà¶ Ĵ
Ġà¶ ĭ
à¶± à·Ģ
à¶Ń à¶»
à¶º à¶§
à¶ ł
à·Ģ à¶»
à·ı .
à¶¸ à¶§
Ġà¶ħ à¶´
à· ĳ
Ġà¶ļà¶» à¶±
à¶ ®
à·Ģ à¶ļ
Ġà·ĥ à·Ħ
à·Ģ à¶½
Ġà¶ħ à¶±
Ġà¶ħ à·Ģ
à¶» à¶¸
à¶ļ à¶»
à·ļ .
Ġà·Ģ à¶±
à¶´ à¶Ń
Ġà¶¶ à·Ģ
Ġà¶¸ à·Ħ
à¶ ·
à¶» à¶º
à¶« à¶º
à¶¸ à¶ļ
à¶º à¶½
Ġà¶ļ à·ħ
à¶» à¶ļ
à¶¸ à¶º
Ġ à·ģ
Ġà¶± à¶¸
à¶¸ à¶±
Ġà¶º à¶±
à¶½ à¶º
à·Ĭ âĢ
à·Ģ à¶º
à·Ĭ ,
à·ĬâĢ Į
à¶¸ à¶Ń
à·Ģ à¶§
Ġ 1
à·Ħ à¶±
à¶ľ à¶Ń
Ġà¶¶ à¶½
Ġà¶ħ à¶Ńà¶»
Ġ (
à¶ Ł
Ġà¶ļ à¶½
Ġà¶´ à¶»
à·Ģ à·ĥ
Ġà¶¢ à¶±
à¶» à¶Ń
Ġà¶ ·
à·Ĭ .
Ġà¶ ł
à¶± à¶§
âĢį à·ĬâĢį
Ġà·ĥ à¶³
Ġà¶´ à·ĥ
à¶± à¶¸
Ġà¶ħ à¶Ń
à·Ĵ à¶Ĥ
à· ĺ
à¶ļ à¶º
Ġà¶Ķ à·Ħ
Ġà¶ħ à¶º
Ġà¶ĳ à·Ħ
Ġà¶ī à¶±
Ġà·Ģ à¶½
Ġà¶½ à¶¶
Ġà¶ħ à¶¯
à·Ħ à·ĥ
Ġà¶ľ à¶±
à¶ ħ
Ġà¶ĳ à¶º
Ġ 2
Ġà¶ľ à¶Ń
Ġà·Ģ à¶ľ
à·ģ à¶º
Ġà¶ §
à¶½ à¶ļ
à¶Ń à¶º
à¶½ à¶±
à¶» à·Ģ
à¶ľ à¶±
à¶» à¶¯
Ġ âĢ
à¶ ¹
Ġà¶» à¶§
Ġà·ĥà¶³ à·Ħ
.. .
Ġà¶´ à¶Ń
à¶± à¶ļ
Ġà¶ħ à¶¸
Ġà¶ī à¶Ń
à·ĥ à¶±
à¶º à¶¸
à¶ľ à¶¸
Ġà¶¸ à¶ľ
à¶± à¶Ń
à¶§ à¶Ń
à¶ļ à¶¸
Ġà¶¯ à¶ļ
à¶ľ à¶º
à¶ ĳ
à¶§ à¶º
à¶» à¶«
Ġà¶¸ à¶Ń
Ġà¶¸ à¶¸
Ġà·Ģ à¶»
Ġà¶ĳ à¶¸
Ġà¶Ķ à¶¶
à¶ļ à¶§
Ġà¶ļ à¶Ń
Ġà¶Ķ à·Ģ
Ġà¶¸à·Ħ à¶Ń
à·Ħ à¶½
Ġà·Ħ à¶»
à¶Ń à¶±
Ġà¶ħ à¶°
à¶º à¶º
à¶¯ à¶±
Ġà¶ħ à¶»
0 0
à·ĥ à¶»
Ġà¶¸ à¶§
a n
à· Ĩ
i n
à¶¸ à¶«
Ġà¶Ń à¶»
à¶¶ à¶±
Ġà¶ ķ
Ġà¶ĭ à¶´
Ġà¶ī à¶¯
e r
à¶± à·ĥ
Ġà·ĥ à¶Ń
à¶¶ à¶³
Ġ -
à¶§ à¶¸
à¶¯ à¶»
Ġà¶Ń à¶¸
à¶º à¶Ń
à·Ģà¶» à¶º
Ġà·Ħ à¶¸
à¶¯ à¶º
Ġà¶¯ à¶»
à·ĥ à¶º
Ġà¶ħ à¶©
Ġà¶´ à¶¸à¶«
à¶ľ à¶½
à· ŀ
à·ĵ .
à¶ Ľ
Ġà¶½ à¶¯
Ġà¶ħà·Ģ à·ĥ
Ġà¶ Ĭ
Ġà¶» à¶¢
à·Ĥ à¶º
Ġà¶Ĵ à¶ļ
à¶» à·ĥ
Ġà¶´ à·ħ
Ġà¶¸ à¶±
Ġà¶ĳà¶ļ à¶ļ
o n
t h
à· Ľ
Ġà¶ħ à¶½
Ġà¶ °
Ġà·Ģ à¶©
Ġà¶ħ à·ĥ
Ġà¶ĭ à¶±
à·Ĥ à¶«
à·ı ,
Ġ Ġ
Ġà¶ĭ à¶Ń
à¶± à¶ºà¶ļ
Ġà¶ļ à¶§à¶º
à·ĥ à¶ļ
o r
Ġà¶´ à·Ģà¶Ń
Ġà¶Ń à¶¸à¶º
Ġà¶ķ à¶±
à·Ħ à¶»
à¶ļ à¶½
Ġà¶ ©
Ġà¶½ à¶ļ
à¶» à¶§
.. ..
à¶¢ à¶±
Ġà¶ĭ à¶¯
Ġà¶Ķ à¶º
à·ģ à¶´
a t
à¶§ à¶±
à¶» à¶±
à¶º à·Ģ
à¶ļ à¶ļ
0 1
à¶° à¶º
à¶Ń à¶ļ
à·Ģ à¶¯
à·Ĵ ,
Ġà¶ĳ à¶±
à¶Ń à¶¸
à¶´ à¶º
e n
Ġà¶Ń à¶¸à¶±
a l
a r
Ġà¶Ń à¶Ń
à¶© à¶ļ
Ġ1 9
à¶ Ķ
à¶¸ à¶»
Ġà¶ħà·Ģ à·ģ
à·ı à¶Ĥ
à¶ ¨
à·Ģ à¶¸
à¶ Ĵ
e s
Ġà¶´ à¶¯
à·Ĳ .
à¶ºà¶ļ à¶§
Ġà·ĥà¶¸ à¶ľ
Ġà¶¢à¶± à¶Ń
Ġ "
Ġà¶´ à¶ļ
à¶» à·Ħ
Ġà·Ģ à·ģà¶º
Ġà¶¯ à¶±
à¶¯ à¶½
à·ĥ à¶½
Ġà¶¶à·Ģ à¶§
Ġà¶Ĩ à¶«
à¶´ à¶ļ
Ġà¶Ĩ à¶»
âĢ Ŀ
Ġà¶Ĩ à¶ļ
Ġ S
à¶» à·ģ
Ġà¶Ĩ à¶¯
à¶´ à¶±
Ġ à·Ĩ
Ġà·Ģ à·ĥà¶»
à¶» à¶«à¶º
Ġà¶ļà¶» à¶¸
Ġà¶´ à·Ħ
Ġà¶ĩ à¶º
âĢ Ļ
à·Ģà¶½ à¶§
à¶» à¶°
Ġà¶´ à·Ģ
Ġà¶Ĵ à·Ģ
Ġ .
à¶§ à¶»
ĠâĢ ĺ
à¶±à¶º à¶§
Ġà¶ĳ à·ĥ
Ġ ,
à¶´ à·ĥ
Ġà¶ļà¶» à¶½
à¶ ¥
Ġà¶ĳ à¶½
à¶° à¶±
à·ĳ .
Ġ à·ħ
à·ļ ,
Ġà¶ľ à¶¸à¶±
Ġà·ĥ à¶¯
Ġ 3
Ġà¶Ń à·Ģà¶Ń
à·ĥ à¶Ń
Ġà¶ľ à¶«
à¶½ à¶ºà¶ļ
à¶ ī
Ġà·Ģà¶½ à¶§
Ġà·Ģ à¶Ń
Ġ C
Ġà¶Ĩ à¶º
à¶¢ à¶º
Ġà¶ļ à¶¸
Ġà·Ħ à¶¯
à¶» à¶ºà¶ļ
à¶» à¶´
Ġà·Ģ à¶§
à·ĥ à¶¸
Ġà¶ļ à¶«
Ġà¶ī à¶½
à·Ģ à¶ºà¶ļ
Ġ2 01
Ġ th
Ġà¶¶ à·Ģà¶Ń
à¶Ń à·Ģ
Ġà¶ļ à¶§
à¶½ à¶§
à¶º à¶¯
Ġà¶´ à¶±
à¶¯ à·Ħà·ĥ
Ġà¶º à¶¸
s t
i c
à·ĥ à¶§
à·Ķ .
Ġà·ĥ à¶·
Ġà¶ħà¶¯ à·Ħà·ĥ
à¶ļà¶» à¶±
à¶¶ à¶»
à¶½ à¶±à¶º
Ġà¶ħ à·Ħ
Ġà¶ļ à·Ģ
Ġà¶Ń à¶»à¶¸
à¶´ à¶ºà¶ļ
à¶º à·ĥ
Ġà¶¶à·Ģ à¶º
Ġà¶ĳ à·Ģ
Ġà¶¯ à·Ģà·ĥ
Â Ń
Ġà¶ļà¶» à¶±à·Ģ
à·Ĥ à¶«à¶º
à¶± à¶±
Ġà¶ī à·ĥ
Ġà¶ļ à¶©
Ġà¶¶à¶½ à¶±
Ġà·ĥà¶³ à·Ħà¶±
e d
ĠâĢ ľ
Ġà¶± à·Ģ
Ġà¶´à¶¸à¶« à¶ļ
Ġà¶ħ à¶·
i t
à¶½ à·Ģ
à¶ ¬
Ġà¶Ĩ à¶»à¶ļ
à¶ļ à¶ºà¶±
Ġà·Ģ à·Ħà¶±
Ġà·ĥà¶¸ à¶Ł
Ġà¶Ń à·Ģ
à·ħ à¶¹
à¶¸ à¶¯
Ġà¶ī à·Ħ
à¶ ĩ
à¶Ń à¶½
à¶º à¶ľ
Ġ A
âĢ ¦
à¶ļ à·Ģ
à¶» à¶ºà¶§
à¶ļà¶» à¶«
Ġà¶Ĭ à¶§
Ġà¶´ à·Ģà·ĥ
à¶ Ĩ
Ġà·ĥ à¶±
à¶» à¶½
Ġ s
Ġ c
Ġà¶ļ à¶±
Ġà¶ľ à¶¸
Ġ 5
Ġà¶º à¶§à¶Ń
Ġà¶ħà¶´ à¶§
à¶° à¶Ń
à¶ļà¶» à¶«à¶º
à¶½ à·ĥ
Ġà¶ ¡
Ġà¶± à¶ľ
Ġà¶ĳà¶ļ à¶Ń
à¶ļ à¶Ń
Ġ 4
Ġà¶ĩ à·ĥ
Ġà·Ħ à¶³
à¶¶ à¶½
à¶¶ à¶¯
à¶ħ à¶´
r e
Ġ M
Ġà¶ħ à¶ļ
à¶¢ à¶´à¶ļ
l e
i s
à¶ľ à¶ºà¶ļ
à¶ºà¶± à·Ģ
à¶º à·Ģà·ĥ
à¶´ à¶¯
à¶° à¶±à¶º
o m
à¶¸ à¶½
à¶ ¡
Ġth e
Ġà¶ī à¶©
in g
Ġà¶»à¶¢ à¶º
Ġà¶ļà¶» à¶º
à¶½ à¶°
Ġ p
Ġ P
à·Ļ .
Ġ o
à¶« à¶ºà¶ļ
à¶§ à·Ħ
à·Ķ ,
à¶½ à¶¸
à¶¯ à¶ļ
Ġà¶Ĩ à¶»à¶¸
à¶´ à¶»
Ġà¶ļà¶» à¶ľ
i on
à·Ķ à¶Ĥ
Ġà¶½à¶¶ à¶±
à¶§ à¶´
à¶ Ŀ
Ġ a
Ġ t
Ġà¶¸ à¶½
à¶¯ à¶ľà¶Ń
Ġà¶Ĵ à¶Ń
Ġà¶Ĩ à·Ģ
à¶º à·Ģà¶»
à¶§ à·ĥ
à¶¶à¶³ à·Ģ
Ġà¶» à·ĥ
à¶§ à¶½
Ġà·Ģ à·ĥ
Ġà¶ĳ à¶Ń
à¶½ à¶Ń
Ġà¶¶ à·Ħ
à¶ ĭ
à·Ĳ à¶Ĥ
Ġà¶ĳ à¶¯
à·Ħ à¶§
o u
Ġà¶» à¶±
Ġ T
à¶» à¶¢
à¶Ńà¶» à¶º
à·Ģà¶» à¶«à¶º
à¶ł à¶±
à¶´ à¶±à¶º
Ġà·ĥà¶¸ à·Ħà¶»
Ġà¶ĭ à·ĥ
à¶« à¶ļ
Ġà¶ħ à¶ľ
à·Ļ à·Ĭ
à¶© à¶±
à¶ļ à¶¯
à·ģ à¶±
à¶ľ à¶½à¶º
Ġ âĢį
Ġ w
Ġ f
à¶¯ à¶±à¶º
à¶« à¶Ń
Ġà¶ĩ à·Ģ
Ġ L
Ġà¶´ à¶§à¶±
Ġà¶ĳ à¶»
Ġà¶´à·ħ à¶¸
à¶¸ à·ĥ
an d
Ġà¶ī à·Ģà¶Ń
Ġà¶ľ à¶½
Ġà¶ħà·Ģ à·ĥà¶±
à·Ĥ à¶ļ
à¶ļ à¶±
Ġà·ĥà¶¯ à·Ħ
à·ı ..
Ġà¶ĳà¶ļ à¶§
Ġà¶¸ à¶°
Ġ b
Ġ G
Ġà¶¶à¶½ à¶´
Ġà¶´ à¶½
Ġà¶īà·Ħ à·ħ
ĠâĢ ĵ
Ġà¶Ķà¶¶ à¶§
a m
à·Ħ à¶¸
Ġ2 00
à¶ļ à·ĥ
à¶¸ à¶¸
a s
Ġà¶ħà·Ģ à¶°
à¶Ń à¶Ń
à¶¸ à·ħ
à·Ģà¶ļ à¶§
à¶»à¶¸ à¶º
à¶º à¶ºà¶±
Ġ D
Ġà¶¶ à·ĥ
Ġà¶´ à·Ħà·ĥ
Ġà¶¶ à¶½à¶º
Ġ 6
Ġ R
à¶± à¶¯
à¶¢ à¶±à¶º
à¶ļ à·ħ
a d
Ġ m
Ġà¶ľà¶« à¶±
Ġo f
à·Ħ à¶Ń
à¶Ńà¶» à¶¸
Ġà¶ĩ à¶¸
Ġà¶»à¶§ à·Ģà¶½
Ġà·Ħà¶» à·Ħ
i l
Ġ '
à·Ģ à¶ºà¶§
Ġà¶¸ à¶«
à¶Ń à¶§
Ġà¶ĳ à·ħ
à¶» à·Ģà¶»
à·Ģ à¶ľ
Ġ B
Ġà¶ļà¶» à¶ľà¶±
Ġà¶¸ à¶»
à¶½ à¶¯
Ġà¶ĭ à¶©
Ġ |
en t
Ġà¶ĳ à¶´
Ġà·ĥ à¶»
à¶Ń à¶±à¶º
âĢ ľ
Ġà¶ĩ à¶¸à¶Ń
Ġà¶ Ŀ
à¶ļ à¶ł
Ġ I
Ġ 0
à¶ºà¶ļ à¶º
Ġà·ģ à¶ļ
Ġà¶¸à¶Ń à¶ļ
à¶³ à·Ģ
âĢ ĺ
Ġà¶ī à¶³
Ġ d
Ġà¶¸ à·ĥ
o s
Ġ H
Ġà¶¶ à¶§à·Ħ
r i
Ġà¶ħ à¶»à¶¸
Ġà¶Ĩ à·Ħ
Ġà¶ħà¶± à¶Ń
à¶ħ à¶±
Ġ 7
Ġ N
Ġà¶ĳà¶ļ à¶¸
à·Ħ à¶º
Ġà¶Ń à¶±
ĠĠ ĠĠ
à·ı ...
Ġà¶Ń à¶¶
o l
e l
Ġà¶° à¶»
à¶ µ
à·ĵ ,
à¶ļ à¶ºà¶ļ
Ġà¶¶ à¶¯
à¶ł à¶»
à¶´ à¶½
Ġà¶´ à¶§
Ġ in
Ġà¶» à¶Ń
Ġà¶ł à¶»
Ġà¶ī à¶ļ
Ġà¶ĩ à¶¯
Ġà¶Ńà¶» à¶ľ
à¶Ń à¶ºà¶ļ
Ġà·ĥ à¶§
a c
Ġà¶ħà¶º à¶Ń
Ġ 8
Ġà¶¶ à¶»
à¶ĳ à·Ħ
Ġà¶ħ à¶ľà¶¸
à¶»à¶´ à¶§
Ġ h
Ġà¶¡ à¶±
Ġ F
Ġà¶º à¶±à·Ģ
à·ģ à¶±à¶º
à¶»à¶« à¶ºà¶ļ
à·ħ à¶ļ
Ġà¶ī à¶ľ
Ġà¶ł à¶±
Ġ1 0
Ġà¶º à·Ħ
Ġà¶Ĩ à·ĥ
à¶¯ à·Ģ
Ġà¶Ķ à·ĥ
Ġà¶¯ à¶¸
à¶» à¶§à¶Ń
Ġà¶Ĩ à·ģ
Ġà¶Ĩ à¶ľà¶¸
à¶¯ à¶ºà¶ļ
Ġà¶Ĩ à¶ºà¶Ń
à¶¸ à¶ľ
e t
à·Ģà¶» à¶«
k a
Ġà¶ħ à¶ºà¶§
Ġà¶ĩ à¶³
00 0
Ġà¶ Ī
Ġà¶Ķ à¶ļ
Ġà¶¸ à¶Ł
à¶± à¶ľ
r o
à¶´ à·Ģ
à¶¸ à·Ģ
Ġà¶¢à¶± à¶´
Ġà¶º à¶§
à¶® à¶º
à¶± à¶½
à¶» à¶ºà¶±
Ġà·ĥà·Ħ à¶·
Ġà¶ħà¶© à·Ģ
à¶« à¶±
Ġà¶¸ à·Ģ
à¶» à¶ł
à·Ĵ. .
Ġà¶ļ à¶®
Ġà¶ĩ à¶»
à¶º à·Ģà¶±
à·ģ à¶ļ
Ġ :
1 9
à¶° à·Ģ
à¶º à·ħ
Ġà¶ĭà¶´ à¶¯
à¶¸ à¶ºà¶ļ
Ġ W
i r
à¶½ à¶ľ
à·Ģ à¶ºà¶±
à¶º à¶ºà¶ļ
Ġà¶ĩ à¶½
Ġà·ĥà¶§ à·Ħà¶±
Ġà¶ļà¶» à¶´
i d
à¶ĳ à¶¸
à¶Ńà¶» à¶ļ
à·Ĭ ..
Ġ1 8
à¶ļ à¶©
à¶ºà¶ļ à¶Ń
Ġà¶Ĩà¶º à¶Ńà¶±
Ġà¶Ĩ à·ĥà¶±
e w
Ġà¶± à¶©
Ġà·ĥ à¶½
Ġà¶ĩ à¶±
Ġà¶ħ à¶¸à¶Ń
Ġà¶¶ à¶±
i p
à¶§ à¶ļ
à¶±à·Ģ à¶½
Ġà¶ĩ à·Ħ
à·ĥà¶§ à·Ħà¶±
Ġ 9
à·Ĭ ...
à·Ĥ à¶±
à¶Ńà¶» à·Ģ
o t
Ġà¶º à¶º
Ġà¶ļ à¶´
u n
à·ħ à¶³
Ġà·Ģà¶ľ à¶ļ
à¶ ¤
à¶½ à¶»
Ġà¶ħà¶´ à¶»
Ġà¶ļà¶» à¶ľà¶Ń
à¶± à¶»
Ġ E
Ġà¶ĩ à¶¸à¶»
à·Ħ à¶ļ
à¶º à¶»
a y
à¶© à¶¸
c h
à¶· à¶º
Ġ and
Ġà¶ĳ à¶ºà¶§
Ġ à·Ĥ
à¶ľ à¶»
à¶ Ĭ
à·ģ à¶ºà¶ļ
à·Ĭ )
Ġà¶¶ à¶º
à¶º à¶´
à·ħ à¶Ń
à·ĥ à¶³
Ġà¶ľ à·ĥ
à¶° à¶ºà¶ļ
at e
a g
à¶» à¶®
Ġà·ĥ à¶ļà·ĥ
à·Ĵ. ..
à¶© à·ĥà¶§à·Ħà¶±
/ /
Ġ2 0
Ġà·Ħ à¶§
Ġà¶ĩ à¶ľ
Ġà¶ī à¶»
à¶ħ à¶©
Ġà·Ģ à¶±à·Ģ
à¶½ à¶ºà¶§
Ġà·ĥà¶¸ à¶Ń
Ġà·ħ à¶¸à¶º
Ġà¶ī à¶§
Ġà·ĥ à¶½à¶ļ
Ġà·ĥ à¶§à¶±
h e
à·Ģ à·Ħà¶±
à¶® à¶ļ
à¶± à·Ħ
u m
à¶» à¶ľ
u s
à¶¸ à·Ħ
à¶º à·Ģà¶»à¶º
à¶© à¶½à¶º
à¶Ń à¶ºà¶§
Ġà¶Ĩà¶ºà¶Ń à¶±à¶º
Ġà¶ĭ à¶¹
Ġà¶Ĩ à¶ł
Ġ l
an ka
à¶± à¶ºà¶±
à·Ģ à·Ģ
à·ģ à¶ºà¶§
Ġà¶»à¶§ à¶ļ
Ġà¶´à¶¯ à¶±à¶¸
à¶¯ à¶¸
Ġ )
Ġt o
at ion
à¶ĳ à·ĥ
Ġà¶´ à¶«
à¶ł à¶±à¶º
Ġà·ĥ à¶´
Ġà¶ĳ à¶±à¶¸
Ġ1 5
à¶© à¶º
Ġà¶Ĩ à¶¯à¶»
2 01
i v
Ġà¶´ à¶»à¶¸
Ġ1 2
à¶Ń à¶§à¶¸
Ġà·Ģ à·Ħ
à¶¸à¶§ à¶Ń
c t
à·Ģ à¶·
Ġà¶±à¶ľ à¶»à¶º
Ġà¶¶ à¶©
à·ļ ..
Ġà·Ħ à¶¯à¶±
Ġà¶Ĩ à¶´
Ġà¶ľ à¶»
o w
Ġà¶Ĩ à¶°
Ġà¶Ķ à¶±
Ġ O
or y
u r
Ġà¶´à·Ħ à¶Ń
à·Ļ à·ı
à¶Ķ à¶¶
Ġà·Ģ à¶»à¶¯
Ġà¶¶à·Ģ à¶¯
Ġ n
Ġà¶¢ à¶ºà¶ľ
Ġà¶ħà·Ģ à¶¶
à¶Ķ à·Ħ
Ġà·ħ à¶Ł
Ġà¶Ń à·Ģà¶¯
Ġà¶ĭà¶¯ à·Ģ
Ġà¶¶ à¶«
Ġà¶ĭà·ĥ à·ĥ
Ġà·Ģ à¶ºà·ĥ
à·ħ à¶¯
Ġà¶ Į
à¶»à¶ļ à¶§
à¶º à·Ħ
Ġà¶± à·Ģà¶Ń
à¶» à·ħ
Ġà¶Ńà·Ģ à¶¸à¶Ń
Ġà¶¯ à¶Ń
Ġà¶ħà¶¸ à¶Ńà¶»à·Ģ
e m
à¶ī à¶Ń
Ġà¶¯ à·Ħ
à¶ĳ à¶ļ
Ġà¶¢ à¶½
à¶§ à·Ģ
Â ł
à¶»à¶¸ à·ĥ
Ġà¶» à¶®
Ġà¶Ĭ à¶º
à¶±à·Ģ à¶¯
à¶¸à¶ļ à¶§
Ġà·ĥà·Ħ à¶º
à¶» à¶·
Ġà¶´à·Ħ à·ħ
Ġà·ĥà¶¸ à¶±
à·Ħ à·Ģ
Ġà¶ľ à·Ħ
u l
à¶ħ à¶¯
à¶¢ à¶ļ
à·ĥ à¶ºà¶ļ
à¶Ķ à¶º
i m
Ġà¶¢ à¶½à¶º
à·ļ ...
Ġà¶¸ à¶¯
Ġà¶ļ à¶³
à¶ī à¶±
! !
Ġ ?
Ġà¶ħà¶´ à¶ľ
Ġà¶¯à·Ģà·ĥ à¶ļ
t er
ð Ł
Ġà·ĥà¶¸ à¶º
Ġà¶¢ à¶º
à¶»à¶´ à¶§à¶º
Ġà¶ «
à¶¯ à¶§
Ġ V
Ġà¶¸ à¶»à¶«
i g
à¶° à¶ļ
à¶ľ à¶¸à¶º
âĢ ĭ
) ,
Ġà¶ĭ à¶»
Ġà¶»à¶§ à¶§
à¶º à¶ºà¶§
à¶ĳ à¶º
à¶§ à·ĥà¶ļ
à·Ĥ à¶ºà¶ļ
à¶¶ à·Ģ
à·Ĵ âĢįà·ĬâĢį
o g
Ġà·ģ à¶»
Ġà¶ħà¶¸à¶Ń à¶ļ
Ġà¶½ à·ĥ
Ġà¶¸à·Ħ à¶±
) .
Ġà¶¢ à¶±à¶º
à¶½ à¶´
Ġà¶ħà¶» à¶ľ
ew s
Ġà¶ Ľ
Ġ /
o d
Ġ1 1
Ġà¶º à·ħ
Ġà·Ħ à¶º
Ġ K
Ġà¶ĭ à¶«
Ġ1 6
u t
à¶»à¶® à¶¸
Ġà¶¢ à¶±à·Ģ
à¶» à¶ľà¶Ń
Ġà¶´ à¶¸
Ġà¶ĭà¶´ à¶ļ
à¶ ŀ
à¶Ķ à·Ģ
Ġ19 8
Ġà·ĥ à¶º
à¶¥ à¶º
os s
Ġà¶´ à¶±à¶Ń
a p
Ġà¶īà·Ħ à¶Ń
Ġà·Ħ à¶¬
e b
à¶¯ à¶ºà¶§
Ġà¶´à·Ģà·ĥ à¶º
er s
Ġà¶ĳ à¶Ńà¶ļ
à·Ģà¶± à·Ģ
à·ĬâĢ Ļ
à¶±à¶ļ à¶§
à·ħ à¶Ł
Ġà¶ºà·Ħ à¶´à¶Ń
i a
à¶ļ à¶¸à¶ļ
Ġ19 9
Ġà·ħ à¶¸
Ġà¶Ĩà¶¯ à¶»à¶º
Ġà·Ģ à¶º
à¶»à¶ļ à¶¸
à¶Ńà¶» à¶ºà¶ļ
à¶³ à¶¸
Ġà¶´à·Ģà·ĥ à¶±
à¶» à·Ģà¶½
à¶§ à¶¯
Ġ [
Ġà¶īà¶© à¶¸
Ġà·Ħ à¶Ńà¶»
Ġà·Ģ à¶¯
Ġà¶° à¶±
Ġà¶º à¶Ń
à·Ģ à·Ħ
Ġ g
Ġà¶Ĩ à¶½
Ġà¶´ à·Ħà¶»
Ġà·Ģ à¶łà¶±
à·ľ à¶Ĥ
à¶ºà¶¯ à¶¸
Ġà¶ĳ à¶±à·Ģ
e x
à¶´ à·ħ
Ġà¶ħà¶Ń à¶§
Ġà·ĥà¶¸ à·ĥ
à¶Ń à¶ºà¶±
Ġà¶ħ à¶¶
à¶ĩ à¶Ń
.... ....
Ġà¶» à¶ļ
à¶ľà¶½ à¶ºà¶±
Ġà¶ĩ à¶Ł
à·ĥ à¶¯
Ġà¶± à¶»
Ġà¶¯ à·Ħà·ĥ
à¶§ à·ħ
à¶ľà¶Ń à¶º
Ġà¶ħà¶» à¶±
Ġ ..
Ġà¶ħà·Ģ à¶¯
Ġà¶ ¥
Ġà¶ļà·ħ à·Ħ
Ġà¶« à¶º
à¶»à¶¸ à¶ºà¶ļ
Ġà¶Ķà¶¶ à¶ľ
Ġà·Ħ à¶Ń
Ġ ...
Ġà¶ħà·Ģ à¶¸
à·Ĭ -
Ġà¶ĩ à¶ºà¶§
Ġ1 3
à¶ľà¶¸ à¶±à¶º
Ġà¶ħ à¶³
à¶ľ à¶ºà¶§
à·Ĥ à¶Ń
à·Ĥà¶« à¶ºà¶ļ
Ġ1 4
2 0
Ġ1 7
Ġà¶Ń à·Ħà·Ģ
à·Ģ à¶«
Ġà¶Ńà¶» à¶Ł
Ġà¶±à¶ľ à¶»
Ġà¶ĭà¶´ à¶±
à·Ĭ "
Ġà¶Ĩ à¶±
Ġà¶» à¶«
Ġ2 5
Ġà¶» à·Ħà·ĥ
Ġ U
Ġà¶¶ à·Ģà¶ļ
Ġà¶ħà¶´ à·Ħà·ĥ
Ġà¶ļ à·Ģà¶¯
à¶Ń à·Ģà¶Ń
à·Ļ à¶Ĥ
Ġ J
à·Ģà¶½ à¶¯
Ġà¶Ĩ à¶Ń
oss ip
à¶ľ à¶«à¶ļ
Ġà¶Ń à·Ħà¶±
Ġà¶ī à·Ħà¶½
ðŁ ĳ
Ġà¶Ń à¶¯
à·ı )
à·ĥ à·Ģ
à·Ħ à¶±à¶º
à¶¢ à·Ģ
Ġà·ĥ à·Ģ
à¶º à¶¸à¶ļ
Ġà¶ µ
à¶»à¶ļ à¶®
Ġà¶Ĵ à¶ļà¶§
Ġà¶º à¶ļ
Ġà¶ľ à·Ħà¶±
a k
à·Ĥ à¶ļà¶º
Ġà¶¯ à·ĥ
Ġà¶¸ à¶Ńà¶º
à¶ ķ
à¶¥ à¶ºà¶±
Ġ re
Ġà¶ĳà¶ļ à¶Ł
o p
Ġà¶ħ à·Ħà¶±
Ġ19 7
Ġà¶ľà¶« à¶±à¶ļ
Ġà¶Ń à¶±à¶Ń
Ġà¶¸ à¶±à·ĥ
à¶© à¶½
ate g
Ġà¶ħà¶º à¶ľ
à¶ºà¶ļ à¶ºà¶±
Ġ on
à¶ºà¶§ à¶¸
Ġà¶Ń à¶½
i st
Ġà¶¶à¶» à¶´à¶Ń
ĠâĢ Ŀ
à¶µ à¶½
ĠL anka
c e
à¶ľ à¶§à¶¸
Ġà¶ĳ à¶¢
ðŁĳ Į
Ġ3 0
ðŁĳĮ ðŁĳĮ
es s
Ġà¶ĭ à¶±à¶Ń
Ġà¶¸ à¶©
à¶»à·Ħ à¶«à¶º
Ġà·Ħ à·ĥ
à·Ģà¶Ń à¶Ń
Ġà¶¯ à·Ħà¶¸
Ġà¶¸ à¶º
Ġà¶º à¶¸à¶ļ
à¶± à¶ľà¶Ń
à¶© à¶»
Ġà¶Ńà¶» à¶ľà¶º
Ġà¶ħà·ĥ à¶½
à¶¸à¶§ à¶º
Ġà¶ĩà¶» à¶¹
h t
à¶ľ à¶½à¶±
Ġà¶ļà¶» à¶Ń
Ġà·Ģà¶½ à¶¯
Ġà¶ļ à·ĥ
à¶¯ à¶»à¶º
à¶³ à¶º
Ġ201 5
ĠG ossip
Ġà¶¯ à¶¬
à·ĥ à·Ħ
= =
à·ħ à¶§
Ġà¶Ńà·Ħà¶± à¶¸
à·ģ à¶ļà¶º
à¶»à¶¯ à¶»
a v
Ġà¶ĭ à¶ľ
ateg ory
Ġà¶ħ à¶ľà¶º
Ġ r
Ġà·ĥà¶¯ à·Ħà¶±
al l
Ġà¶¯ à¶©
Ġà¶¢à¶± à¶´à¶Ń
Ġà¶¸à·Ħ à¶¢à¶±
à ®
à¶± à¶ľà¶±
es t
Ġà¶ī à·Ģà¶»
Ġà·Ģ à¶»à¶ļ
Ġà¶īà¶³ à¶½
à¶¯ à¶½à¶ļ
Ġà¶¯à¶» à¶±
Ġà¶ĭ à¶´à¶Ń
u b
Ġà¶» à·Ģ
Ġ v
Ġà¶ĭ à·ħ
Ġà¶ħ à·ħ
Ġà¶Ķ à¶½
Ġà¶ļ à¶ļ
ĠĠĠĠ ĠĠĠĠ
Ġà¶ĳ à¶¶
Ġà¶Ķ à¶´
à¶»à·Ħ à¶º
à¶± à·Ģà¶±
Ġà¶¯ à¶¸à¶±
Ġ Â
Ġà¶ī à¶½à¶ļ
à·Ģ à¶¸à¶±
1 0
à¶´ à¶§
ĠI n
Ġà¶Ī à¶Ń
e v
a b
à¶´ à¶«à¶º
Ġà¶ļà·ħ à¶¸à¶±
à·ĥ à¶»à¶º
Ġ1 00
Ġà·ĥà·Ħ à¶Ń
Ġà¶½à¶¶ à¶º
3 0
à·Ĵ )
Ġ201 8
Ġà¶ĳà¶ļ à¶º
Ġà¶½ à¶±
à¶ļ à¶ºà¶§
a th
1 8
Ġà¶¢ à¶»
à·Ĥ à¶ºà¶§
Ġà¶ļà¶» à·Ģ
à¶¶ à¶º
à¶ºà¶½ à¶º
à¶½ à¶ļà¶º
Ġf or
Ġà¶± à¶Ńà¶»
à¶ħ à¶¸
Ġà¶¢ à·Ģ
Ġà¶¸à¶Ń à¶ļà¶º
à¶« à¶¯
Ġà¶´ à·Ħà¶½
à¶±à·ĥ à¶ļ
o st
à¶¶ à¶©
Ġà¶ĳ à¶Ńà¶±
o c
à¶´ à·Ħ
à¶ľ à·ĥ
Ġà·ĥ à¶ļ
Ġà¶ºà·Ħ à¶´
à¶ļà¶» à¶º
Ġà¶ħ à¶§
m ent
à·Ĥ à·Ģ
à¶ħ à¶Ń
i th
Ġà¶ħ à·Ģà¶ļ
Ġà¶´à¶¸ à¶«à¶º
Ġà¶Ĭ à¶±
à¶ľ à¶§
à¶¯ à¶ľ
Ġà¶ħ à·ĥà¶±
Ġà¶ļà¶½ à¶ļ
à·ı ....
Ġà¶ĭ à¶½
1 5
Ġà¶» à¶Ł
ĠS t
ĠC ategory
à¶Ĵ à¶ļ
Ġà¶ĳ à·Ģà¶±
Ġà¶¢ à¶ºà·ĥ
e c
Ġà¶ħà¶± à¶±
à·ħ à¶º
Ġà¶¶à¶½ à·Ģà¶Ń
Ġà¶º à¶®
à¶¢ à¶ºà¶ļ
Ġà¶ĭà¶´ à¶»
or e
à¶¶ à¶§
à¶© à¶´
Ġà¶ķ à¶ļ
ar d
Ġà¶ħ à·ģ
à·ģ à·Ģà¶½
à·ĳ ..
Ġà·ĥ à¶¶
à·ĵ âĢįà·ĬâĢį
Ġ is
Ġà¶± à·Ģà¶ļ
Ġà¶Ńà¶»à¶¸ à¶ļ
à¶³ à¶§
2 00
in d
à¶± à·Ģà¶Ń
à¶» à¶¶à¶½
Ġà¶½ à¶Ł
ar e
à¶º à¶¸à¶º
i k
Ġà¶ĭà¶± à¶±
Ġà¶ļ à·Ģà¶»
à¶º à¶«
5 0
à¶± à¶´
Ġà·ĥ à¶»à·ĥ
Ġà¶ī à¶©à¶ļ
à¶¶à¶¯ à·Ģ
iv e
à·Ŀ ,
Ġà¶¶ à¶³
Ġà¶± à·ħ
âĢ¦ .
Ġ st
ĉ Ċ
? ?
Ġà¶Ĩ à¶´à·ĥ
à·ĬâĢ Ŀ
à¶« à·Ģà¶Ń
ar t
à·Ħ à¶»à¶«à¶ºà¶ļ
Ġà¶¸ à¶¸à¶Ń
à·ħ à·Ģ
Ġ5 0
à·Ħ à¶¯
o k
à·Ģ à¶±à¶º
o v
à¶º à·Ģà¶½
Ġà¶ľ à·Ģ
Ġà¶ĩà¶º à¶ľ
Ġà¶ħ à¶Ł
à¶»à¶¸ à·Ģ
à¶´ à¶ºà¶§
Ġà·ĥ à¶¢
à¶ĭ à¶¯
Ġà¶ļà¶» à¶¯
Ġà¶ļ à¶¸à¶ļ
à¶° à¶´
Ġà¶º à·Ģà¶±
1 1
a h
à¶ļ à¶»à¶¸
Ġà¶ĭà¶´ à¶ļà¶»à¶«
à¶¸ à¶ºà¶§
Ġà¶± à¶»à¶ļ
Ġà¶¶ à¶Ń
Ġà·Ģ à¶ļ
Ġà·Ħ à¶±
âĢĭ .
ĸ à·Ĥ
- -
Ġà¶ĳ à¶Ńà¶»à¶¸
Ġ19 6
à·ı "
à¶ħ à¶º
c om
à¶Ĵ à¶Ń
Ġà¶»à¶¢ à¶Ń
ĠN ews
à¶ļà¶»à¶« à¶ºà¶§
Ġà·ĥ à¶»à¶½
Ġà¶ļ à¶³à·Ģ
i f
Ġà¶ħà¶Ńà¶» à¶Ń
Ġà¶´à¶» à¶«
Ġà·Ģ à¶łà¶±à¶º
Ġà¶ĳ à¶ł
Ġ2 4
ag e
1 2
u p
Ġà¶ ĵ
Ġà·Ħà¶¯ à·Ģà¶Ń
à¶Ł à·Ģ
Ġà·Ģà¶§ à·Ħ
id e
à¶© à¶±à¶º
à¶Ń à¶±à·Ģ
it y
Ġà¶¸ à·ħ
à·Ħ à¶ºà¶ļ
Ġà¶¶à¶½ à¶ºà¶§
à¶° à¶»
Ġà¶½ à¶ľ
à¶§ à·Ģà¶Ń
à¶Ĩ à¶»
um b
à¶¶ à·ĥ
Ġà¶¶à¶½ à·Ģ
Ġà¶Ń à¶§
à·ħ à¶´
à¶ľ à¶ºà¶±
Ġà¶ĭ à¶ľà¶Ń
Ġà·ģ à¶¶
Ġà¶´à¶» à¶´
à·Ĵ ÂŃ
Ġà¶¸ à¶»à¶«à¶º
Ġà¶ĭà¶´ à¶º
Ġà¶ ĸà·Ĥ
à¶§ à¶ľ
à·ĥ à¶½à¶ļ
an g
à¶ļà¶» à¶ľ
u d
à¶±à¶ļ à¶¸
à·Ģà¶» à¶ºà¶ļ
Ġà¶īà¶³ à¶±
à¶¯ à¶Ń
à¶¢ à¶ºà¶§
Ġ201 7
Ġà¶Ńà¶» à¶¸à¶§
à·ı ÂŃ
âĢ Į
Ġà¶Ĭ à·ħà¶Ł
.. ...
a in
i es
al a
à·ļ ?
Ġà¶´ à·Ģà¶»
Ġà¶ļ à¶¯
Ġà¶ħ à·Ħà¶½
ou n
à·Ĵ âĢį
à¶ľ à¶´
Ġà¶ħ à¶«
Ġà¶ħ à·Ħà·ĥ
à·Ģà¶ļ à¶º
Ġà·ĥà¶»à·ĥ à·Ģ
à¶½à¶ļ à¶ºà¶±
à¶Ľ à¶±
Ġà·ĥ à¶»à¶Ń
Ġà¶ħà¶¯à·Ħà·ĥ à¶ļ
à¶Ķ à¶±
Ġà·Ħ à·Ģ
à¶« à¶ºà¶§
Ġà¶§ à¶º
Ġà¶½ à¶º
à¶« à¶ºà¶±
à¶© à¶ºà¶ļ
à¶±à·Ģ à¶½à¶§
Ġà·Ģà¶»à¶¯ à¶ļ
Ġà¶» à·Ħ
à¶¢ à¶±à¶ºà¶ļ
Ġà¶¢à¶± à¶¸
Ġà¶ľ à·Ħà¶½
Ġà·Ģ à·ĥà¶±
à¶ħ à·Ģ
à·Ģà¶» à¶ļ
e p
t p
Ġà¶ħà·Ģ à¶§
Ġà¶¶à¶½ à¶½
à¶¸à¶§ à¶¯
Ġà¶¢à¶±à¶´ à¶¯à¶º
à¶´à¶Ń à¶ļ
à·ģ à¶±à¶ºà¶ļ
ou r
à¶ĩ à¶º
Ġà·ĥ à¶¶à¶³
Ġà¶¶à¶½ à¶¸
Ġ2 2
à·Ģà¶ļ à¶¯
Ġà¶º à¶¯
à¶ºà¶± à¶º
Ġà¶´ à¶º
à¶´ à¶ºà¶ļà¶§
Ġà¶ĵ à¶Ń
à¶ĳ à¶±
Ġ201 6
a w
à¶ľ à¶«
Ġà¶¢ à¶´
Ġà¶ĳà¶ļ à¶½
ĠT he
à¶¢ à¶»
: //
à¶ħ à¶»
à¶¯ à·ĥ
1 7
Ġà¶ħà·Ģ à·ĥà¶»
l y
à¶ļ à¶´
à¶¢ à¶°
ĠC h
à·ı âĢĻ
à¶¢ à¶±à¶Ń
q u
à·Ħ à¶¬
in e
à¶´à¶¯ à·Ģ
à¶ľ à¶±à¶º
à¶ļ à¶ļà¶§
à¶»à¶ļà¶® à¶±
Ġà·ĥà¶¸ à·Ħ
à·ĥ à¶±à¶º
Ġà¶± à¶±
Ġà¶» à¶®à¶º
à¶¶ à¶»à·Ģ
Ġà¶Ĩà¶´ à·Ħ
à¶¨ à¶º
à·Ĭ '
Ġà¶¸ à¶§à¶Ń
or t
à¶»à¶¸ à¶«à¶º
à¶© à·Ģ
Ġà·Ģ à¶¸
T he
Ġà¶»à¶¢ à¶ºà¶§
Ġb y
Ġà·ĥà¶¶à¶³ à¶Ń
on t
Ġà·ĥà¶½à¶ļ à¶±
à¶ł à¶º
à¶½ à¶±à¶ºà¶§
Ġc om
l o
Ġ2 1
à¶ľ à¶¸à¶±
à¶ľà¶½ à¶ºà¶ļ
Ġà·Ħ à¶¯à¶½
à¶« à¶§
à¶½ à¶½
Ġ !
à¶ļ à¶ľ
à¶ļ à¶ļà¶»
à·Ģ à¶´
Ġà·Ģ à·Ħà¶½
à·Ģà·ĥ à¶§
Ġà¶¸à¶Ń à·Ģ
Ġà¶± à¶º
Ġà·ĥà¶´ à¶ºà¶±
Ġà¶´à·ħ à·Ģ
ĠâĢ ¦
il l
Ġw h
à·ĥ à·Ģà¶º
Ġà¶´à·Ħ à¶ļ
à·Ħ à¶½à¶º
w w
e ct
à¶§ à¶§
à¶» à¶ļà¶»
ic k
Ġà·Ģ à¶ł
i al
à¶° à¶ºà¶±
à·ĥ à·ĥ
Ġà¶ļà¶» à¶¯à¶»
à·Ĭ ....
à¶ħ à¶½
ou s
à·Ĥ à¶ºà¶±
à·ĬâĢ ¦
1 6
Ġà·ĥà·Ħ à¶ľà¶Ń
Ġà¶Ń à¶¶à¶±
Ġà·Ģ à·ħ
Ġà¶Ń à¶ļ
à·Ļ ,
Ġà¶ħ à¶±à·Ģ
Ġà¶ķ à·ĥ
à¶½à¶ļ à¶§
à¶ĭ à¶Ń
Ġà¶¯ à¶º
à·Ĵ "
Ġà¶ļà¶» à·Ģà¶±
Ġà¶± à¶¸à¶ļ
Ġà¶ĳ à·Ģà¶ļà¶§
Ġ2 3
f t
à·Ħ à¶»à¶«
à¶¹ à¶±
Ġà¶¶à¶½ à¶ļ
Ġb e
Ġà¶ĩ à¶§
an t
is h
f f
à¶µ à¶½à¶ºà¶ļ
Ġà¶Ĩ à¶ļà¶»
Ġ e
Ġà¶¶à¶»à¶´à¶Ń à¶½
à·ı âĢĿ
Ġà¶ħ à¶ºà¶ļ
à¶½à¶± à¶ºà¶ļ
Ġà¶ĳà¶ļ à¶ļà¶§
à¶Ń à¶´
Ġà¶ĸà·Ĥ à¶°
Ġà¶ł à¶ļ
Ġ19 4
o ok
à¶ºà¶§ à¶Ń
à¶¶ à·Ħ
Ġà¶± à¶½
Ġà¶ľà¶Ń à·Ģ
Ġà¶ĭ à¶ľà¶±
a st
à·Ĥ à¶ļà¶ºà¶±
Ġà¶ł à¶¸
à¶© à¶ļà¶º
Ġà¶ħà¶Ńà¶» à¶¸
Ġ2 6
Ġà¶Ķà¶¶ à¶Ń
Ġ k
Ġà¶ľ à¶Ł
Ġà·ĥ à¶Ł
à¶¸ à¶ºà¶±
Ġa s
Ġà·ĥà·Ħ à¶±
à¶±à¶§ à¶Ń
p p
âĢ ĵ
ĠĠ Ġ
Ġà¶ī à·Ģà·ĥ
Ġ4 0
1 4
Ġà·Ħ à¶Ńà¶»à¶ļ
à¶ĳ à¶½
à·ı âĢ¦
Ġ19 5
à¶¸ à¶©
Ġà¶¸ à¶ļ
à·ģ à¶ºà¶±
à¶« à·ĥ
Ġà¶ĭ à·Ģà¶¸à¶±
à·Ģà¶» à¶«à¶ºà¶ļ
Ġ201 4
à·ĸ .
Ġ y
Ġà¶¸à·Ħ à¶½
or d
ĠC om
Ġà¶½ à¶Ń
r y
à¶§ à¶´à¶Ń
Ġà¶¶à¶½ à¶°
Ġà¶¢à¶± à¶»
Ġà·Ģà·ĥ à¶»à¶ļ
Ġà¶¯ à·ģà¶ļà¶º
à¶» à¶¶
Ġà¶´ à¶©
à¶Ń à¶¯
Ġà¶ī à¶¸
Ġà¶ī à·Ģ
Ġà¶ĭ à·Ĥ
à¶¯à¶» à¶§
à¶» à·Ģà¶±
Ġà¶ħ à¶ļà¶¸
à·Ĵ âĢĻ
Ġà¶¢à¶± à¶ľ
à¶» à·Ħà·ĥ
Ġà¶¢ à¶ºà·Ģà¶»
Ġ2 7
à¶· à¶ļ
à¶Ĭ à¶§
à¶¯à¶± à¶ºà¶ļ
à¶ľ à¶¸à¶ļ
ac k
Ġà¶» à¶ł
Ġw ith
à¶ºà¶ºà¶± à¶º
à·Ĵ âĢĿ
Ġà¶ĳà¶¸ à¶ľ
* *
Ġà¶»à¶Ł à¶´
ĠR e
Ġà¶· à¶º
ðŁĳĮðŁĳĮ ðŁĳĮðŁĳĮ
it e
à¶» à¶¹
à¶® à¶¸
à·ĥà¶¸ à·Ħà¶»
à¶» à·Ģà¶º
Ġà¶Ķ à·Ĩ
à·Ģ à·ħ
à·ĳ ...
Ġp ro
à·Ŀ .
ĠA n
Ġà¶ħ à¶¢
Ġà¶ĩ à¶´
à¶»à¶¸ à¶«
Ġà¶ī à¶´à¶¯
en d
à¶ħ à¶°
à¶¶ à¶Ń
à¶¸à¶ļ à·Ģ
à¶ľ à¶¸à¶§
à¶± à¶©
à·ģ à·Ģ
Ġà¶´à·Ħ à¶»à¶¯
Ġ2 8
ĠS ri
Ġà¶ľ à¶¶à¶©
Ġà¶¶à¶½ à¶´à¶Ń
à¶Ń à¶ļà¶§
à·ı âĢį
Ġà¶ĳ à¶»à¶§
à·Ĵ -
à¶½ à¶ºà¶±
Ġà¶º à¶½
ĠÂ »
on e
Ġà¶´ à·ģ
à·Ĵ !
Ġà¶» à¶łà¶±
Ġà¶Ĩà¶ºà¶Ńà¶± à¶ºà¶ļ
à¶Ń à·Ħ
à¶Ľ à¶«
à¶¯ à·Ħà¶±
à¶ľ à¶ļ
Ġà¶Ĩ à¶±à¶±
om e
ir u
à·Ļ ..
Ġà·Ģà¶» à¶§
Ġà·ĥ à·Ģà·ĥ
à¶ļà¶» à¶½
Ġà¶´ à¶¸à¶±
à·Ģà¶ļ à¶ºà¶±
à·Ĥ à¶¸
Ġà¶ĭà¶´ à·ĥ
à·Ģà¶± à¶¸
Ġà¶ħ à¶ľà¶±
à·ĸ ,
à¶±à¶ºà¶ļ à¶§
i an
à¶ĳ à¶¯
1 3
Ġà¶ºà¶± à¶ļ
à¶»à¶ļ à¶º
à¶ľ à·Ģ
à¶© à¶¶
a il
à·ħ à¶¸
Ġà¶¶à¶½ à¶ºà¶ļ
Ġà¶ĳ à·ħà¶¹
à¶« à·Ģ
' s
à¶® à¶ºà¶ļ
Ġà¶ħà·ĥ à¶»à¶«
à·ĥ à¶ºà¶§
à¶¯ à¶»à·Ģ
i z
2 2
Ġà¶´ à¶ł
à·ĳ ,
à·ħ à¶°
p t
el l
Ġà·Ģ à·ħà¶ļ
Ġà¶¢à¶± à¶´à¶¯
ĠâĢĺ âĢĺ
à¶ºà¶ļ à¶»
à¶Ń à¶ľ
à·Ĥà¶« à¶ºà¶§
à¶Ń à¶ļà¶»
à¶¯ à·Ħ
à¶»à¶º à¶Ń
à·Ĳ à·Ķ
o b
à¶½ à·Ģà¶½
Ġ à·Ļ
à·ļ )
à·Ĵ âĢ¦
Ġ Y
à¶¯ à¶ºà¶±
à¶ºà¶½ à¶Ń
u re
à·Ĵ ?
à·Ģà¶§ à¶Ń
Ġà¶ħ à¶¹
à·Ģ à¶ºà¶ļà¶§
Ġà¶Ń à·Ģà¶¸
à·Ħà¶½ à¶ºà¶±
2 5
à¶º à¶·
Ġà¶»à¶« à·Ģ
à·ĥ à¶ļà¶§
âĢĻ âĢĻ
' '
à¶Ń à¶ļà¶º
Ġà¶ į
Ġà¶ħ à·Ģà¶Ń
Ġà¶ī à¶¶
p h
à¶¹ à¶½
à¶½ à¶¶
Ġà·ĥà¶¸ à¶ľà¶¸
e ar
in h
Ġà¶ħà¶¯ à¶§à¶Ń
er e
Ġà¶±à·Ģà¶ļ à¶Ń
à¶º à¶¸à¶§
à·Ģà¶§ à¶¸
.... ..
à¶© à¶§
à¶© à¶Ń
Ġà¶¶à¶½ à¶Ńà¶½
Ġà¶Ĩ à¶¶
Ġà¶ļ à·Ħ
== ==
as s
âĢį âĢį
à¶Ĥ .
Ġà¶ħà¶» à¶ľà¶½à¶º
à¶Ń à·Ģà¶¯
Ġà¶Ķ à¶Ń
or g
à·Ļà·ı à·Ĭ
Ġà·Ģà¶ľ à¶±
Ġà¶Ķ à¶»
Ġà¶´ à·Ħà¶±
à·ĥ à¶·
à·ľ .
à·Ĵ. ...
à¶±à¶§ à¶¸à¶Ń
Ġà¶¯ à¶«
à¶º à·Ĥ
i le
ow n
à·Ĥ à¶½
Ġà¶ľà¶¸à¶± à¶ļ
Ġ an
à·ı !
Ġà¶ļ à¶º
u st
Ġh t
l d
Ġà¶Ĩ à¶±à¶ºà¶±
Ġà¶ĭ à¶ł
à¶ºà·Ģ à·ģ
Ġà¶ħà¶º à·Ģ
à¶¶ à¶½à¶º
à¶Ł à¶ļ
Ġà¶¯ à·ħ
à·Ķ ÂŃ
Ġà¶½ à·Ģ
à¶° à¶±à¶ºà¶ļ
Ġà¶ī à·Ģà¶»à¶º
à¶¯ à·Ħà¶¸
à¶® à¶±
Ġà¶» à¶³à·Ģ
à¶· à·Ģ
Ġà¶ħà¶Ń à·Ħ
à¶¨ à¶¸
Ġ200 9
à¶ľà¶Ń à·Ģ
à¶»à¶¸ à¶ºà¶§
Ġ2 9
âĢĺ âĢĺ
Ġà¶ħà¶´ à·Ħ
à¶³ à¶ļ
Ġ Ð
Ġà¶Ĵà¶ļ à¶ļà¶º
Ġ =
à¶» à¶ľà¶±
Ġà¶´ à¶½à·Ģ
Ġà¶¶ à¶§
Ġà¶ĳ à¶±à¶ļ
Ġà·Ħ à¶½
à¶Ń à¶¸à¶±
à¶ī à·ĥ
à·Ħà¶½ à¶§
Ġht tp
Ġà¶Ĩ à·Ģà¶»à¶«à¶º
à¶¸ à¶´
ex t
à¶« à·Ģà¶»
à¶ļ à¶ľà¶Ń
Ġ201 2
Ġ201 3
à¶» à·ĥà¶±
à¶³ à¶´
e y
à¶¢ à¶±à¶ºà¶§
à·Ģà·ĥ à¶ļ
à¶½ à·Ģà¶º
à¶º à¶¸à¶±
2 1
ic al
Ġà¶ĭ à¶ļ
à¶ĳ à¶±à¶¸
à¶ĩ à¶½
Ġà¶ł à¶Ń
à·Ģà·ĥ à¶»
à¶± à¶¸à¶ļ
Ġà¶ħà¶Ńà¶» à¶§
à·Ģà¶» à¶§
Ġà·Ģ à¶»à¶º
ĠH iru
à·ĥ à¶ľ
0 5
à·ĥà¶» à·Ħ
à·ļ âĢįà·ĬâĢį
à¶± à¶´à¶Ń
Ġà¶ļà¶Ń à¶±
Ġà¶ħà¶¯ à¶Ń
ic e
s e
à¶µ à¶½à¶º
à¶»à¶§ à¶§
à·Ħà¶» à¶«à¶º
r om
à·Ļ ...
Ġà¶¶à¶»à¶´à¶Ń à·ħ
Ġ6 0
Ġà¶ļà·ħ à¶Ń
à¶ľ à·Ħ
Ġd e
_ _
à¶ļ à¶¸à¶§
am e
u e
Ġ201 0
Ġà¶ľà¶± à¶±
à·Ĥ à¶»
ar y
ĠE n
Ġà¶ħ à·Ģà¶½
Ġà¶¶ à¶¶
à¶ļà¶» à¶Ń
Ġà¶ħà¶¸ à¶Ńà¶»
Ġà¶ĩ à¶©
v er
à·Ģ à¶©
ul l
à¶¸ à¶»à¶º
à·Ķ âĢį
à ¯
à¶ľ à¶©
Ġà¶ľ à¶½à·Ģ
Ġà·ĥà¶Ł à¶»
Ġà·Ħ à¶»à¶ļ
Ġà¶»à¶® à¶ºà¶ļ
Ġà¶¯ à·ħà¶¯
Ġà¶° à¶¸
i b
ĠT h
à¶» à¶ºà¶ļà¶§
Ġ un
Ġà·ĥ à¶»à¶«
à¶½ à¶Ńà¶¸
r a
à·Ĭ !
à·ļ ....
Ġà¶± à¶Ń
à¶´ à¶¸à¶«
à¶¢ à·ĥ
an s
o ft
ed ia
à¶´ à¶«
Ġà¶¯ à·ģà¶ļ
ter n
Ġà¶Ĩ à¶ļà¶½
à¶§ à¶¸à¶ļ
Ġà¶ļà¶» à¶«
à·Ĥ à¶¥
à¶» à¶¥
Ġà¶´à¶¯ à·Ģ
à¶« à¶ľ
g e
Ġà¶Ĵà¶ļ à¶Ń
Ġà¶º à¶ļà¶©
ĠA r
v i
Ġà·Ĩ à¶º
Ġà¶Ķ à¶§
Ġ X
à·Ģà¶» à¶±
p e
l k
à·ĬâĢĮ .
Ġà¶ħà¶±à·Ģ à·ģ
2 4
Ġà¶ħà¶´ à¶±à¶ºà¶±
à¶ĳ à·Ģ
à·Ģà¶»à¶« à¶ºà¶§
Ġà¶Ĵ à¶¸
à¶»à¶ł à¶«
à·ĥ à¶´
0 7
inh ala
à¶Ł à¶±
à¶ļà¶» à¶ľà¶Ń
Ġà·ĥ à¶½à·ĥ
à¶° à¶ºà¶§
Ġ or
an a
à¶° à¶±à¶ºà¶§
Ġà·ĥ à¶Ńà¶»
à·Ķ -
Ġà¶ħà¶º à¶¯
ar a
Ġà¶Ĵ à¶¸à¶§
à¶³ à¶§à¶¸
Ġc on
Ġp l
Ġth at
Ġw as
à¶ħ à·Ģà·ĥ
Ġ at
à·Ĭ (
à¶´ à¶¸
ig n
r ess
à·Ħà¶± à¶ºà¶ļ
Ġ7 0
Ġà¶± à·ĥ
à¶ĳ à¶Ń
Ġà¶¸à¶»à¶« à¶ºà¶§
Ġc h
Ġà¶¸à·Ħ à¶¢à¶±à¶Ń
ĠS h
à¶ľ à·Ģà¶½
à¶Ľ à¶º
ac h
Ġà·Ģà¶ł à¶±à¶ºà¶ļ
à·Ĵ :
av e
Ġ 01
à¶©à¶ļ à¶ºà¶±
L anka
Ġà¶ħ à¶¬
Ġà¶± à¶§
à¶»à¶« à¶ºà¶§
Ġà¶ħà¶» à¶ľà¶½
. âĢĿ
Ġà¶° à¶±à·Ģ
ã ģ
à·Ģ à¶³
Ġà¶´ à¶¬
ĠU n
à·ļ "
Ġà¶ĳ à¶©
i re
Ġ0 7
Ġ: )
s h
Ġà·Ħ à·Ģà·ĥ
Ġà·Ģà¶± à¶¯
19 9
à¶»à¶´à¶§ à¶ºà¶ļ
à¶ł à¶½
Ġà¶¯ à¶¹
ol d
] [
Ġ are
Ġà¶Ĩ à¶Ńà¶½
Ġà¶ĭ à¶ºà¶±
0 3
Ġà·Ģ à¶¯à¶±
Ġà¶ħ à¶ľà¶ºà¶ļ
Ġà¶¸ à¶ł
lo ad
à¶¶ à·ħ
ri g
à·Ĳ ,
Ġ â
à¶§ à¶½à¶º
Ġà·ģ à¶Ń
Ġà¶¯à·Ħà·ĥ à¶ļ
Ġ ....
à·Ģà¶½ à¶Ń
Ġ it
on g
à¶´ à¶ł
Ġà¶īà¶¯ à¶½
ide o
à¶ľ à·Ģà¶Ń
Ġà¶¶à¶½ à¶±à·Ģ
2 3
0 6
à¶Ńà¶ļ à¶¯
th er
à¶»à¶ļà¶® à¶±à¶º
c c
à·Ħ à¶ºà¶±
Ġs h
I n
Ġà¶ħà¶Ń à¶ļ
à¶¯ à¶´
ou t
Ġà¶ĳà¶ļà¶Ł à¶Ń
à¶ºà¶ļ à¶ľ
Ġà·ĥà¶¸ à¶»à·Ģ
à¶±à·Ģ à¶º
ic h
Ġà¶Ĭ à¶¢
Ġà¶ī à¶´
Ġà¶ħà¶¸ à¶»à¶Ń
à¶Ń à¶¸à¶º
p er
à¶¢ à¶½
Ġà·Ħà¶¯ à¶´
Ġà¶´ à¶´
à¶ĭ à¶±
Ġ al
à¶® à¶ļà·Ģ
à¶ļà¶» à¶ľà¶±
Ġ3 5
W eb
Ġà¶Ĵ à¶ļà¶º
Ġà¶ħà·ĥ à¶¸
ĠA l
en ce
201 8
à·Ĭ :
Ġ8 0
8 0
Ġ201 1
Ġà·Ģ à¶³
Ġà¶ħ à·Ģà¶±
à¶±à·Ģ à¶§
à¶Ĩ à¶»à¶ł
. "
Ġà¶» à¶º
ac t
Ġà¶¸à¶Ń à¶ºà¶ļ
Ġ +
à·Ķ ...
Ġ200 0
Ġà¶ħà·ĥ à¶Ń
Ġ3 1
à·ħà¶³ à¶´
Ġà·Ģà¶½ à¶ļ
ĠP h
Ġà¶´à¶¯ à¶ļ
re e
!! !
n e
Ġ us
à·ģ à¶ľ
Ġà¶¢ à¶´à¶±
Ġà·Ħ à¶ļ
à¶´ à·Ģà¶Ń
à¶Ĩ à¶«
Ġ200 8
Ġà·Ħ à¶ºà¶ļ
à·Ģà¶Ń à¶ļ
Ġà¶ī à¶¯à¶±
à·ģ à·Ģà¶º
à¶Ń à¶±à¶ºà¶§
à¶»à¶ł à¶½
à¶® à¶ļà¶Ń
à¶¯ à¶»à¶Ń
Ġà¶ħ à¶¸à¶±
Ġà¶ħ à¶Ľà¶«
or m
à·ı -
à¶ļ à·Ģà¶¸
Ð °
0 4
Ġà¶±à¶© à¶Ń
Ġà·Ģ à¶ļà·Ģ
Ġ0 3
Ġà¶Ķ à·ħ
à¶Ĵ à·Ģ
Ġà·Ģ à·Ģ
à·ĥà¶» à·Ħà¶§
Ġà¶¶ à¶¸
Ġt r
Ġà·ĥà¶§à·Ħà¶± à¶ļ
ĠP ro
à¶® à·Ģ
Ġ5 00
2 7
or k
r am
âĢ¦ ]
Lanka Web
eb ook
2 6
à¶ľà¶« à¶ļà¶º
Ġ0 5
0 9
à¶· à¶ºà¶ļ
à¶Ńà¶± à¶ºà¶ļ
b er
à¶ºà¶ļ à·Ģà¶»à¶º
à¶³ à¶ľ
w ik
0 8
u g
Ġ0 8
à¶» à¶§à¶¸
ation al
Ġà¶¯ à¶»à¶«
en s
Ġà·ĥ à¶´à¶º
à·Ħ à¶«
Ġà¶¯ à·Ģà¶½
à¶´à·ħ à¶¸
Ġà·ĥà¶¸ à¶»
à·Ĩ à¶»
en c
à¶ł à¶ºà¶ļ
ig ht
Ð ¾
as e
à¶ī à·Ħà¶Ń
ĠĠĠĠĠĠĠĠ ĠĠĠĠĠĠĠĠ
i y
à¶º à·Ģà¶Ń
Ġà¶ĭ à¶¸
à¶¶ à¶»à¶º
Ġà¶¯à·Ħ à¶ºà¶ļ
2 8
Ġ ex
Ġc l
à·ĥ à¶ºà¶±
à¶º à·Ģà¶ļ
Ġà¶±à·Ģà¶Ń à¶¸
. )
Ġà·ĥà¶¸à·Ħ à¶»à¶ļ
à¶»à¶ļ à¶ºà¶±
Ġ j
à¶ ª
Ġ &
à¶¯ à¶ļà¶º
Ġà¶ļ à¶Ńà¶»
Ġà·Ħà¶¯ à¶±à·Ģ
o og
à¶¸ à¶°
Ġà¶Ĵà¶ļ à¶ļ
Ġà¶© à¶¶
Ġ200 5
ac ebook
Ñ Ĥ
an k
Ġà¶ĭà¶© à¶»à¶§
le ct
i e
Ġà¶ĩà¶Ń à¶Ń
Ġà¶ħà·ĥ à¶¸à¶Ń
Ġà¶¸à·Ħ à·Ģ
Ġà¶· à¶ļ
à¶»à¶º à¶º
p l
l og
2 9
Ġ[ âĢ¦]
à¶¯ à¶¯
ul t
à¶¸ à·Ħà¶½
Ġà¶ī à¶»à¶«
oog le
201 5
G ive
ol og
à·ļ âĢ¦
à¶Ĭ à¶º
Ġà¶±à¶» à¶¹à¶±
à¶½ à¶·
Ġà¶´à·Ģà·ĥ à¶±à·Ģ
ar k
à¶±à¶º à¶º
it ion
à· ²
à¶» à·ĥà¶º
à¶¢ à¶±à¶ļ
Ġà¶Ĩ à¶¥
Ġà¶Ńà¶» à·Ħ
Ġà·ĥà·Ħ à¶ļ
Ġà¶ĩ à¶ľà¶º
Ġà¶¯ à¶½
Ġ0 2
à¶Ĩ à¶º
Ġà¶µ à¶½à¶¯
à¶Ĥ ,
à·ı. âĢĿ
Ġà¶ħ à¶»à¶ļ
à¶ļà¶»à¶« à¶ºà¶ļ
Ġà¶Ĩ à¶·
Ġà¶ļà¶½ à¶¶à¶½
à¶Ń à¶½à¶±
Ġa d
Ġà·Ģà·ĥ à¶»à¶ļà¶§
à¶Ĩ à·ģ
Ġà¶»à·ĥ à·Ģà¶Ń
à¶½à¶° à¶»
à¶ĳ à·ħ
oun d
à¶¯ à·Ģà¶±
à·Ĳ âĢį
0 2
à¶ľ à¶«à¶º
Ġà¶Ĩ à¶¸
Ġà¶Ĭ à¶§à¶Ń
Ġà¶ļà¶« à¶ľ
Ġà¶ĩ à¶¶
? "
à·ĥà¶½ à¶§
ac e
ic s
Ñ ģ
Ġà·ĥà¶¸à·Ħ à¶»à·Ģ
à¶§ à¶»à¶§
à·Ģ à·ģ
à·Ħ à¶ľ
6 0
-- --
Ð µ
Ġf rom
l ish
à·Ģà¶º à¶º
Ġà¶¢à¶±à¶ľ à·Ħà¶±à¶º
Ñ Ģ
Ġà¶ĳà¶º à¶º
ment s
à¶» à¶±à¶º
ĠRe ad
à¶½ à¶¹
à¶±à¶Ń à¶¸
Ġà¶ľà¶« à¶±à¶º
Ġà¶ĩà¶¯ à·Ħ
Ġà¶ĭà¶¹ à¶§
Ġà¶ľà·Ħ à¶±à·Ģ
à¶ľ à¶»à¶º
on d
Ġà¶ħà¶´ à·Ģ
Ġ200 7
à·Ģà¶» à¶¸
Ġà¶ĩ à¶ºà·Ģ
à¶¯à·Ħà·ĥ à¶ļ
à·ħ à¶ľ
rig ht
à¶ºà·Ģà¶» à¶ļ
Ġà¶Ĩ à¶©à¶¸
à¶ĭ à¶¹
à¶´ à¶ºà¶±
à¶ ĥ
u al
e e
à¶ĩ à¶±
Ġà¶± à¶¯
à¶½ à¶«
à¶±à¶§ à¶º
à¶´ à¶±à¶ºà¶§
u c
à·ĥà¶» à¶ºà¶ļ
à¶´à¶¯ à·Ģà¶±
ĠSt ory
Ġà¶ľ à¶¸à¶§
Ġà¶Ľ à¶±
à¶¸ à·Ħà¶±
à·ħ à·Ģà¶»
à·Ĳ ..
Ġ *
à¶¶ à¶½à¶±
Ġà¶° à¶±à¶º
à·ı '
own load
à·Ķ )
Ġà·Ģà¶» à¶´
ow s
à¶¯ à¶¸à¶§
à¶»à¶Ń à·Ģ
Ġà¶Ĩà¶¯ à¶»à¶«
Ġà¶±à¶ľ à¶»à¶ºà¶§
à¶ļà¶» à¶±à·Ģ
f er
Ġà¶¶ à¶³à·Ģ
Ġà¶ķ à·Ģ
âĢ¦ âĢ¦
à·Ĵ. âĢĿ
Ġà¶»à¶¢ à·Ģà¶»
à¶§à¶Ń à¶§
à¶» à¶¶à¶±
à¶» à¶¢à¶±
à·Ĥ à¶´
Ġ0 4
Ġ le
Ġà¶´ à¶¯à¶±
à¶½ à¶Ł
à¶© à¶»à¶½
à¶ºà·Ģ à·Ħ
à¶½ à¶ºà¶ļà¶§
ay a
e ch
à¶© à¶ľ
l es
Ġà¶ĩ à¶¹
à·Ĥ à¶ľ
4 0
at ing
at ch
à·ħ à¶±
à¶³ à¶½
Ġà¶īà¶©à¶ļ à¶©
Ġà¶¢à¶± à¶ļ
à¶ħ à·ĥ
ab le
Ġn ot
Ġà¶ħà·Ģ à·Ħ
Ġ19 3
Ġà¶ļ à¶´à¶±
à·ĥ à¶±à¶§
Ġà·Ģ à¶»à¶¸
19 7
, ,
Ġ Z
à¶¶ à¶ļ
à·Ĳ ...
re vi
à¶« à¶»à¶Ń
Ġà¶Į à·Ģ
à¶ĩ à¶¸à¶»
à¶ī à¶¯
à¶ºà¶§ à¶º
Ġà¶Ĭ à·ģ
à·ģ à¶«à¶º
à·Ķ ..
Ġ200 6
ĠIn d
à¶¶à¶» à¶½
Ġà¶¶à¶½ à·Ħà¶Ń
Ġà¶ĭà¶© à¶§
à¶©à·ĥà¶§à·Ħà¶± à¶ļ
à¶´ à¶±à¶ºà¶ļ
Ġ0 6
Ġà¶¢à¶± à¶¸à¶Ń
Ġà¶¢ à¶ºà¶±
à¶½à¶º à¶º
à·ı :
à·Ĥ à¶¸à¶Ń
oun t
à¶» à¶©
an ce
Ġà¶µ à¶½
Ð ¸
à·Ģà¶½ à¶¸
Ġ i
Ġà¶ļ à¶¶
Ġà¶ĩ à·ħ
Ġà¶īà·ĥ à·Ģ
Ġà¶ī à·Ĥ
Ġà¶Ĩà¶±à¶ºà¶± à¶º
à¶¸ à·Ħà¶Ń
à¶§à¶» à¶ºà¶ļ
à·ļ âĢĿ
Ġà¶¯ à¶Ł
Ġà¶º à·Ģ
Ġà·Ģà¶§ à¶´
à¶¸ à¶½à¶º
Ġ9 0
à·Ļ ?
th umb
Ġà¶Ńà¶»à¶Ł à¶º
à¶§ à¶»à¶º
à¶¢ à¶ºà¶±
Ġà·ĥà·Ħ à¶½
Ġà¶ļà¶Ńà¶» à¶ľà¶¸
Ġà·ĥ à·Ģà¶±
ĠA d
à¶´à¶Ń à¶§
Ġ4 5
à·ħ à·ĥ
Ġà¶Ĩ à¶´à¶¯
oc k
à¶ĩ à¶¸
à¶¯ à¶ºà¶ļà¶§
Ġà¶¸à·Ħ à¶¢à¶±à¶º
ak e
Ġà¶ĳà¶´ à¶¸à¶«
19 8
an n
à·ħ à¶½
à·Ĵ ;
à¶ļ à·Ģà¶½
as h
à¶© à¶½à¶ºà¶§
à·ģ à¶«
à¶° à¶ļà¶º
Ġà¶ļà¶½ à¶ļà¶§
Ġà¶© à¶ºà·ĥ
Ġà·ģ à¶½
à¶»à·Ģ à¶«à¶Ń
à·Ĥ à¶±à¶º
Ġ3 00
F ull
à¶§ à¶ļà¶º
à¶° à¶ļà¶ºà¶ļ
er n
od e
à¶ł à¶ļ
ĠS inhala
Ġà·ĥà¶¸ à¶ļ
Ġà¶Ń à¶«
Ġà¶īà·Ħà·ħ à¶¸
à¶±à·Ģà¶± à¶¸
Ġà¶į à¶¢
Ġà¶ħà·Ħ à¶±à·Ģ
ðŁĳĮðŁĳĮðŁĳĮðŁĳĮ ðŁĳĮðŁĳĮðŁĳĮðŁĳĮ
Ġà¶ħà¶¸ à¶»à·ĥ
Ġ ;
Ġà¶´ à¶½à¶¸
Ġà¶ĩ à¶»à¶½
Ġà¶ĭà¶´ à·Ħ
à¶½ à¶±à·Ģ
à·Ģà¶º à¶Ń
à·ĥ à¶¸à¶ļ
Ġà¶ĭ à¶¯à¶º
Ġth is
Ġà¶´à·ħ à¶½
Ġà¶´ à¶½à¶Ń
Ġà¶ ®
Ġth umb
Ġà¶ĩ à¶´à¶½
à·Ĵ à·Ĵ
à·ļ âĢĻ
Ġà¶¯ à·Ģ
à¶ī à¶»
Ġà¶Ĵà·Ģ à¶ľ
à·ħà¶¹ à¶§
l and
o x
à¶»à¶ļ à¶Ńà¶±
Ġà¶Ķà·ĥ à·Ģ
Ġp h
ĠEn g
à·ĥà¶½ à¶Ń
Ġà¶ħà·Ģ à·Ģ
ion s
I I
ï ¿
p x
Ġà¶°à¶± à¶´à¶Ń
Ġà¶´à¶» à¶¯
Ġà¶ħ à¶ł
Ġa pp
revi ous
Ġà¶ļà¶½ à¶Ń
Ġà¶Ŀ à¶±
à¶ļà¶§ à¶¸
à¶ĳ à¶Ńà¶ļ
Ġà¶¸ à¶»à¶±
Ġà¶¶à·Ģ à¶§à¶Ń
ww w
à·Ģà¶» à¶¯
Ġà¶´à·Ģà·ĥ à¶¸
Ġà·ĥ à¶´à¶Ń
à¶Ń à¶½à¶º
Ġp ost
à·ı.. ...
à·Ļ âĢį
Ġà·ĥà¶¸ à¶»à¶±
à¶¸à¶ļ à¶¯
Ġà·ĥ à·ĥ
à¶ħ à¶ļ
à¶½à¶± à¶¥à¶ºà¶±
Ġà¶Ĭà·ħà¶Ł à¶§
N A
à¶¶ à¶§à·Ħ
à¶ºà¶ļ à¶ºà¶ļ
at ed
Ġà¶´ à¶½à¶ļ
Ġà¶ħà¶´ à¶¯
in t
Ġà¶¶à¶½ à·ģà¶ļ
ï¿ ½
à·Ĵ à·ĬâĢį
Ġà¶»à¶§ à·Ģà¶½à¶§
ĠT r
ip edia
Ġà¶Ńà¶» à¶ľà¶ºà¶ļ
à¶¸à¶± à¶§
à·ģ à¶±à¶ºà¶§
à¶¸ à¶±à¶º
à¶ļ à¶¸à¶º
on s
à¶¯ à¶±à¶ºà¶§
à¶¢à¶± à·Ģà¶Ń
ind ows
Ġ200 4
Ġà·ĥà¶¸à¶Ł à¶¸
Ġà¶ī à¶Ł
à¶³ à·Ģà¶±
is s
à·ĥ à·Ģà¶ºà¶ļ
Ġà¶ºà¶§ à¶´à¶Ń
à·Ĭ ;
à¶»à¶Ń à¶½
Ġà·Ħ à¶»à·Ģ
or ld
am p
t e
Ġà¶© à¶º
à¶» à¶»
ir st
y st
is m
à¶® à¶±à¶º
Ġà¶ħà·Ħ à¶¸
Ġs p
ĠO ff
à·Ĥà¶« à¶ºà¶±
4 5
ĠC l
in k
à¶½ à¶³
l ic
Ġs c
ĠE x
Ø §
Ġà·ħà¶Ł à¶§
Ġà¶» à¶«à¶Ń
à¶ľ à¶¯
Ġà¶ħ à¶§à¶ļ
r es
t it
Ġà¶¯à¶© à¶ºà¶¸
ĠW eb
à¶¶ à¶ºà¶ļ
Ġà¶Ķà¶¶ à·Ģ
Ġà¶±à¶ľ à¶»à¶ºà¶ļ
à¶» à·Ħà¶½
Ġà¶Ń à·Ħ
à·Ĵ '
ation s
Ġà¶ĭà¶´ à¶ļà¶½
ht tp
Ġà¶ħà¶Ł à·Ħà¶»
à¶Ľ à¶ļà¶º
à·Ħ à¶ļà¶§
Ġs er
Ġà¶¯à·Ģà·ĥ à¶§
Ġà¶¢ à¶ºà¶Ń
Ġà·Ģà¶± à¶¢
Ġà¶´à¶¸à¶± à¶ļ
Ġà·Ģà¶± à¶Ń
à·Ģà·ĥ à¶±
r ap
Ġà¶´à¶¯à¶± à¶¸à¶ļ
Ġà·ĥ à·ħ
Ġà¶± à¶ľà¶±
Ġà¶Ĩ à·ĥà¶º
Ġà¶ĭ à¶¶
à¶Ŀ à¶±à¶º
Ġà¶ļà¶»à¶¯à¶» à¶ºà¶ļ
à¶± à¶¸à¶º
à¶¯ à·Ģà¶½
à·ľ âĢį
Ġà·ĥà¶¸ à¶ľà¶º
à·ľ à·Ĭ
Ġà¶ĳà¶´à¶¸à¶« à¶ļ
Ġà·Ħ à¶©
Ġcom p
à¶Ńà¶½ à¶¸
Ġà¶´ à¶¯à¶º
c l
Ġà¶¢ à¶ºà¶ļ
Ġ| |
ol l
201 7
Ġ3 3
a j
à¶±à¶§ à¶¸
ĠP l
er m
Ġà¶ľà·Ħ à¶´
à¶ļà¶§ à¶¯
Ġà¶¯à·Ħ à·Ģà¶½
r it
à¶Ľ à¶Ń
Ġà¶ļà·ħ à¶º
Ġà¶ļ à¶½à¶º
à¯ į
Ġà¶´à·Ģà·ĥ à¶Ń
ing s
à·Ħ à¶½à¶ļ
Ġh e
à¶±à¶ļ à¶½
à¶ļ à¶ľà¶±
Ġà¶°à¶± à·Ģà¶Ń
Ġà¶± à¶Ł
à¶»à¶¸ à¶ļ
Ġà¶¯ à·ģ
p en
à¶§ à¶ºà¶¸
Ġ3 6
Ġà¶īà·Ħà·ħ à¶§
à·Ħ à¶´à¶Ń
Ġà¶ľ à·ĥà¶±
all y
Ġ1 000
Ġà¶Ĩà¶ºà¶Ń à¶±à·Ģà¶½
à ¤
à¶» à¶¢à¶º
à¶ľ à·Ģà¶½à¶§
Ġà¶» à·ĥà¶º
i o
T h
à·Ģà¶§ à¶º
à¶±à¶ļ à¶±
à¶½à¶± à¶¥à¶º
à¶©à¶± à¶ľ
ĠA s
Ġà¶½ à¶½
Ġà¶· à¶§
w are
à¶ļ à·Ģà¶Ń
Ġà¶ľà¶Ń à·Ħ
Ġ0 9
à·Ħ à¶ºà¶§
Ġà¶½ à¶¸à¶º
Ġà¶ĩà¶¯ à¶ľ
à¶ľ à¶ºà¶ļà¶§
à¶« à¶¸
o od
Ġà¶ļà·ħ à¶¸à¶«
Ġà¶ħà¶» à¶½
ĠG oogle
u w
r ic
Ġn ews
ĠâĢ Ľ
at a
à· Ł
Ġ x
Ġà·Ħ à¶Ńà¶ļ
à¶Ķà¶¶ à¶§
à¶½à¶º à¶Ń
à¶½ à¶§à¶¸
à¶¸ à¶Ł
à¶ħ à¶±à¶Ń
Ġm an
Ġà¶¶ à·ħà¶ļ
à¶±à¶º à¶Ń
ad e
3 3
à¶¯à¶½ à¶§
Ġà¶» à¶¶à¶»
ro w
Ġà¶¶à¶© à¶ľ
Ġ199 0
à¶» à·Ħà¶»
Ġà¶ļà¶½ à·Ħ
à¶ħ à¶ľ
à·Ĭ ?
Ġà¶½à¶¶ à¶±à·Ģ
Ġà¶ļ à¶±à·Ģ
à¶© à¶ļà¶»à¶±
Ð ½
Ġà¶Ń à¶½à¶º
f orm
Ġà¶¸ à·Ģà¶ľ
à·Ķ "
Ġà¶¸ à·Ģà¶ļ
Ġ4 00
à¶¸ à·Ħà¶»
Ġà¶»à¶« à·ĥ
à·ĵ )
Ġà¶¶ à¶»à¶ļ
Ġà¶ľ à¶º
à·Ģà¶» à¶Ń
iv ers
Ġà·Ĥ à¶»
à¶ľ à¶«à¶±
à¶» à·Ģà¶»à¶º
à¶» à·Ģà¶½à¶§
Ġ| -
à¶ĩ à·ĥ
Ġ198 9
Ġà¶ľ à¶©
Ġà¶ĳà·ħ à·Ģà·ħ
7 0
e g
Ġ7 5
à¶ºà·Ħ à¶´
Ġà·Ģà¶º à¶¹
Ġà¶´à·Ħ à¶»à¶ļ
3 5
O T
à¶Ń à·Ģà¶½
u ct
à·Ĭ /
Ġà¶»à¶§ à¶ļà¶§
Ġ196 0
à¶»à·Ħ à¶«à¶ºà¶ļ
Ġà¶ļà¶© à¶¯
s p
Ġà¶ĩ à¶ļ
Ġ' '
à¶ Į
Ġà¶ł à¶½à¶±à¶º
à¶¢ à¶ļà¶º
Ġà·ĥ à·ħà¶ļ
wik ipedia
Ġà¶´ à¶§à·Ħ
à¶¨ à¶ļà¶º
ĠM ore
à¶¸à¶± à¶¸
Ġà·Ħ à¶´
Ġà¶ĭà¶¹ à¶½
à·Ģà·ĥ à¶¸
à¶ĭ à¶´
r os
à¶Ńà¶» à¶±
à¶ł à¶»à¶º
à¶»à·Ħ à¶«
Ġà¶ĳ à¶¶à¶³
er t
à¶» à¶ľà¶¸
Ġà¶Į à¶»
Ġà¶ĳ à·Ĩ
Ġà¶ľ à·Ħà¶ļ
à·Ĵ. "
Ġà¶īà¶»à¶« à¶¸
201 6
Ġà¶± à¶´
Ġ up
i x
Ġà¶´à·ĥ à¶ļ
Ġà¶¸ à¶½à¶º
h a
Ġà¶´ à¶»à¶ļ
à·ĥà¶» à¶ºà¶§
Ġ197 0
à¶§ à·Ģà¶±
==== ====
Ġà¶ļà¶± à¶ľ
à¶Ń à¶¶
Ġ #
à¶ļ à¶§à¶Ń
Ġà¶ļ à¶´à¶½
Ġc ont
Ġà¶ľ à¶ºà¶±
4 8
Ġà¶¢ à¶ľà¶Ń
.. ?
Ġy ou
Ġà¶± à·Ģà·ĥ
ĠâĢ Į
à¶Ľ à¶±à¶º
yst em
I S
à¶« à·Ħ
à¶° à¶ļà¶»
olog y
à¶¸ à¶¸à¶Ń
ar i
Ġà¶´ à¶±à·ĥ
p ort
Ġà¶īà¶¸ à·Ħà¶Ń
Ġà¶¶à¶½ à¶¯
Ġà¶Į à¶§
ĠH ot
ĠâĢ ¢
Ġ15 0
à·ļ !
à¶ļà¶» à¶±à¶º
Ġà·Ģà·ħ à¶½
à·ħ à·Ħ
b o
Ġà¶´ à¶±à·Ģ
à¶· à¶±
Ġà¶Ľ à¶«
à¶ī à¶ļ
à¶½ à·Ħ
Ġà¶¸ à¶½à¶ļ
Ġà¶ħà¶» à¶¹
Ġ200 1
à¶»à¶® à¶¸à¶º
3 1
w e
à¶º à·ģ
à·Ĵ. )
Ġà¶ĳà¶ļ à·Ģà¶»
P revious
Ġà·Ģ à¶§à¶º
rap h
à·Ĥ à·Ģà¶½
art ic
Ġà·Ħà¶¬ à¶ļ
à¶ł à¶¸
an th
à¶¯ à¶ºà¶Ń
Ġà¶»à¶§ à¶¸
à¶Ńà¶± à¶¯
à·ģ à·Ģà¶½à¶§
........ ........
à·Ļ à·Ĵ
à·ĥ à¶¸à¶§
à¶± à¶Ł
Ġ3 2
ĠS c
Ġ20 20
u k
Ġà·ĥ à·ĥà¶»
Ġà¶ļà¶© à¶±
Ġà¶» à¶³
Ġà¶»à¶« à·Ģà¶ļ
T E
à¶ºà¶ļ à¶¯
im e
Ġà·Ħà¶» à·ĥ
es e
ĠV ideo
à¶¶ à¶«
Ġà¶»à¶¢ à¶ºà¶ļ
e at
à¶§ à¶ºà¶ļ
Ġà¶ļà·ħ à¶¯
Ġà¶īà¶³ à¶ľ
Ġà¶¯ à¶¸à¶¸
à·Ĥ à¶ºà¶ļà¶§
e th
.... ...
ðŁ ĺ
m er
Ġà¶Ĩà¶ºà¶Ń à¶±à¶ºà¶§
à¶« à¶´
Ġ200 2
Ġà¶Ĩ à¶Ńà¶Ń
à·ĬâĢĮ ,
Ġà¶ľà·Ħ à¶ľ
Ġà¶´à¶» à·ĥ
Ġà¶ħà¶º à·Ħà¶´à¶Ń
à·Ħ à¶´
à·Ħ à¶ļà¶º
à¶ķ à¶±
à¶§ à¶¸à¶§
w ard
à¶ħ à¶·
Ġà¶´à¶Ń à¶±
à¶»à¶¸ à¶¶
à¶»à·Ħ à¶ºà¶ļ
er y
à¶· à·Ģà¶º
à¶ºà¶º à¶º
à¶© à¶½à¶ºà¶ļ
Ġà¶¸à¶Ń à¶§
Ġà¶´à·Ħà·ħ à¶§
à¶° à¶¸
y s
Ġà·ħ à¶¯à¶»
à·Ĥ à·Ģà¶»à¶º
Ġà¶¸à·Ħ à¶«
à·Ŀ ...
à¶ĳ à¶¶
Ġà¶¶ à¶ļ
Ġà¶»à¶ł à¶ļà¶º
O S
ub e
ĠA pp
? âĢĿ
r ou
à¶« à¶ļà¶»
Ġà·ĥà¶¸ à¶»à·ĥ
à·Ģà¶» à¶ºà¶±
er a
à¶Ķ à¶ļ
Ġà·Ģ à¶´
à¶Ŀ à¶º
Ġr es
à¶»à·Ģ à¶ºà¶ļ
à¶° à¶¯
Ġà¶¸ à¶¸à¶º
Ġà¶Ĩ à·Ģà¶Ń
Ġà¶ħà·Ģ à¶ºà·Ģ
à¶ļà¶» à¶´
à¶¶à¶» à¶ľà¶¸
Ġà¶¸ à¶±à¶¸
à¶Ńà¶º à¶Ń
Ġ4 8
ick et
Ġà¶ľà¶¸ à¶ľ
à¶¨ à¶ļ
Ġ $
Ġà·ĥà¶§ à¶±à¶ļ
à·ģ à¶Ńà¶ºà¶ļ
à¶»à¶ļ à¶ºà¶ļ
em ber
à¶¯ à¶ļà¶¸
Ġà¶ĩ à·Ĩ
à¶¢ à¶¸
Ġà¶± à¶§à¶±
an c
j ect
à¶ºà¶± à¶ļ
o h
à¶« à¶ºà¶ļà¶§
à·ı. "
5 5
à·Ĵ à·Ļ
à¶¸ à·ĥà¶±
à¶¸ à¶»à¶«
Ġà¶Ĵ à¶¢à¶±
Ġà¶© à·Ģ
Ġà¶ħà·Ħ à·Ģà¶½
à¶¸ à¶»à¶Ń
à¶½ à¶¸à¶ļ
Ġà·ĥà¶¸ à¶½
Ġ197 7
à¶ľ à¶ľ
à¶ºà¶± à¶¸
Ġ: -
9 9
Ġà¶ĳà¶ļ à¶´
Ġà¶» à¶¯
Ġà¶ľ à¶¸à¶ļ
à¶© à¶¯
à¶ļà¶½ à¶´
Ġà¶¸à·Ħ à¶´
à·Ŀ ..
à·Ĥ à·Ģà¶»
at er
à·Ĥ à¶§
à¶© à¶ļà¶§
à¶» à·Ģà¶Ń
à¶¯ à¶ļà¶§
à·Ļ à·Ĭ.
es h
Ġà¶ħà¶¸à¶Ń à¶¸
ĠI S
Ġà¶¢à¶º à¶»à¶Ń
à·ģ à¶¸
or s
Ġf irst
Ġà¶¸ à¶¯à¶ļ
à·Ģ à¶¸à¶ļ
Ġà¶ļà¶» à¶ļ
Ġà¶´ à¶¶
à¶« à·ģ
Ġà¶ĳà¶ļ à·ĥ
Ġ im
à¶´à·ĥ à¶§
ĠF acebook
ĠC ont
Ġd is
âĢ ¢
H ome
à¶ĳ à¶ºà¶§
oft ware
Ġà¶ħà¶» à¶ľà¶½à¶ºà¶ļ
Ġà¶» à·ħ
Ġà¶Ĩ à¶ľà¶¸à¶ļ
Ġl anka
à¶Ĩ à¶±
Ġà¶ĭà¶´ à·Ģ
Ġà¶ļ à¶¸à¶§
Ġà·Ģà¶º à·ĥà¶§
d er
Ġà¶ħà¶Ł à¶½
à¶ Ī
à·Ħ à·ħ
Ġà·ĥ à¶Łà·Ģ
Ġà¶¸ à¶³
à¶±à¶ļ à¶¯
Ġà¶º à·ĥ
Ġà·ĥà·Ħ à¶¢
Ġà¶½à¶¶ à¶¸
Ġà¶¸à¶ľ à·Ħ
o ol
à¶Ł à¶º
a z
à·Ķ âĢĻ
Ġà¶ļà¶»à¶± à¶ļ
en g
ĠW indows
Ġà¶ľ à·ĥà¶ļ
tit le
Ġ à®
ri v
** **
Ġà·Ģà¶½ à·Ģ
à·Ĭ.. ...
à¶§ à¶©
à¶ł à¶±à¶ºà¶ļ
ic t
à¶© à·Ģà¶½
Ġà¶Ĭ à·ĥ
Ġà¶ľà¶¸à¶± à¶§
I D
y pe
Ġà·Ģ à¶°
Ġà¶Ńà¶»à¶¸à¶§ à¶¸
e ad
Ġà·Ħà¶§ à¶ľà¶Ń
à·Ĳ âĢĻ
Ġà¶īà·Ģà¶Ń à¶§
Ġ198 0
Ġà¶Ĩ à¶ľà¶±
à¶¥ à¶ºà¶ļ
4 7
à¶¯ à¶»à¶ļ
à·ĥà¶ļ à¶ľ
Ġ all
à¶º à¶Ńà¶±
à¶ĩ à¶ľ
c ri
à¶ļ à¶¶à¶½
à¶« à¶½
à·ĥà¶» à¶«à¶º
à¶¸à¶» à¶ºà¶ļ
Ġà¶»à·ĥ à·Ģ
Ġm ore
l ine
at es
Ġà¶ĳà¶¸ à¶Ł
Ġà¶¢à¶º à¶ľà¶Ń
n a
Ġà·Ģà¶½ à¶§à¶Ń
à·Ģà¶ļ à¶¸
ĠS p
Ġa g
Ĩ Ĵ
Ġà¶ħà¶¯ à·Ħà¶±
Ġà¶¢ à¶¸
Ġa b
Âł Âł
à¶± à¶¸à¶±
ĠC ol
ĠAn d
à·ħ à¶«
ent s
Ġà·Ģà¶»à¶¯ à¶ļà¶»
à¶¸à¶Ń à¶º
à¶ĳ à¶ł
à¶Ĩ à¶¯
Ġ qu
ĠM ah
Ġt e
ĠIn tern
à¶ľ à¶»à¶§
http s
Ġ ev
Ġà·ĥà¶» à¶½à·Ģ
Ġà¶ħà·Ģà·ĥ à¶»à¶º
à¶´ à¶»à¶¸
à¶ºà¶± à¶ºà¶ļ
à¶º à¶ºà¶ļà¶§
à¶»à¶ļ à¶Ńà¶±à¶º
Ġpl ay
9 0
r al
Ġ200 3
Ġà¶ĩà¶Ł à·Ģ
Ġwh ich
N ext
Ġà¶ĩ à¶¯à¶½
Ġà¶ķ à¶±à¶¸
à·Ĥà¶« à·Ģà¶½
19 6
à·Ģ à·Ħà¶¸
Ġà¶Ĵà¶ļ à¶±
Ġà¶ķ à¶½
ĠS er
Ġà¶¢à¶±à¶» à¶¢à¶º
à·ĵ ...
Ġà¶Ĭ à·ħ
" .
ã Ĥ
Ġ198 7
ik e
Ġà¶»à·Ħà·ĥ à¶ļ
s i
Ġ Q
Ġthe ir
: -
Ġà·Ħà¶Ń à·ħ
it ed
à¶ºà·Ģà¶» à¶ºà¶ļ
t o
ã ĥ
à·Ķ âĢĿ
à·Ģà¶ļ à¶ľ
y n
à¶ħà¶´ à¶§
Ġà¶ħà¶ľ à¶ºà¶±
os e
Ġà·Ħà¶§ à¶ľà¶±
à·ı ?
à¶ºà¶ļ à¶»à¶«à¶º
ĠM an
3 2
à·Ģà¶± à¶§
à¶»à¶« à¶Ń
à·ĥà¶³ à¶±
Ġà¶¯ à·Ħà¶º
Ġà·ĥà·Ħ à¶±à¶ºà¶ļ
Ġà¶» à·Ģà¶§
à·Ģà¶» à¶ĳà·ħ
Ġà¶ĳà¶ļ à¶¯
Ġà¶ĳà¶º à¶Ń
3 8
Ġà·ģà¶Ń à·Ģà¶»
Ġà¶Ńà¶»à¶ľ à¶ºà¶§
à¶Ń à¶ºà¶ļà¶§
à¶ºà¶± à¶ľ
à¶ħ à·Ħ
ĠD ownload
Ġà¶Ķ à¶»à¶½
Ġà¶¯à¶© à¶ºà¶ļ
3 6
ad ing
7 5
à·Ģ à·Ħà¶½
à¶¸ à·Ģà¶±
ic ros
Ġà¶ħà¶ºà¶§ à¶Ń
à¶° à·ĥ
m an
Ġà¶ĩ à¶«
Ġà¶Ķà¶¶ à¶½
à·Ĩ à¶º
Ð¾ Ð
g h
Ġà¶ħà·Ģ à¶´
Ġ6 5
à¶± à¶±à·Ģ
Ġà¶ºà¶§à¶Ń à¶§
ĠD e
ow er
Ġà¶¶ à¶¹
en er
Ġà¶Ĭ à¶½à¶Ł
à¶ºà¶ľ à·Ħ
ĠP r
à¶ºà¶± à·Ģà¶¯
Ġâ ĨĴ
Ġà¶» à¶łà¶±à¶º
Ġb ut
s o
Ġh ave
à·Ģ à¶´à¶Ń
à·Ķ à·ı
à¶½ à·Ģà¶Ń
à¶© à·ĥ
ĠCom ments
à¶« à¶»
u th
Ġà¶¢ à¶ºà·Ģ
3 9
Ġ Ã
Ġà¶Ĩ à¶§
à·ĬâĢ ĺ
à¶ºà¶Ń à¶¸
à¶¶à¶½ à¶¸
Ġà¶Ĩà¶¯à¶» à¶ºà¶ļ
ig h
P h
à¶ļà¶» à·Ģ
= "
ĠS ub
à¶Ĥ ..
Ġà¶Ĩ à¶¸à¶±
à¶Ńà¶º à¶º
Ġ ~
Ġà¶ħà·Ħ à¶´
ĠM ar
à¶©à¶ļ à¶§à¶º
ev el
Ġ3 4
i ew
à·ĥ à¶ºà¶ļà¶§
Ġà¶ļà·ĥ à·ħ
à¶´ à¶ľ
à·ħ à¶ºà¶ļ
Ġà¶ī à·ģ
Ġà¶¯à·Ģà·ĥ à¶ļà¶§
à¶Ĩ à·ĥ
à·Ĳ âĢĿ
Ġà·ĥ à¶¶à¶»à¶ľà¶¸
] .
Ġw eb
ĠâĢ Ķ
+ +
Ġà¶§ à·Ģ
à·Ĵ. ....
8 9
à¶»à·Ħ à¶ºà¶±
o y
Ġà¶Ĩ à¶ľ
Ġà¶» à¶¸
Ġà¶Ĵ à¶ľ
" ,
Ġà·ĥ à¶±à¶Ń
C C
à¶»à·Ģ à¶«
Ġà¶Ĵ à·Ģà¶§
Ġà¶Ńà¶¶ à¶¸
3 7
icros oft
à¶ļ à¶«
à¶© à¶¸à¶ļ
Ġà¶´à·ħ à¶Ń
Ġh is
?? ??
n ews
à·ļ (
à¶¢ à¶ļà¶ºà¶±
Ġà¶Ń à¶¹
Ġà¶ľà¶Ń à·Ģà¶±
Ġ199 4
à¶» à¶±à·Ģ
à¶© à¶ºà¶§
Ġà·Ģ à·ĥà¶¸
ĠE d
t on
à¶¢ à¶ľà¶Ń
Ġà¶ħà¶´ à¶ļ
Ġ9 9
à·ĥ à¶¶
à¶§ à¶½à¶ºà¶ļ
A n
Ġà¶Ĭ à¶»
r ed
à¶±à¶§ à¶¯
Ġ198 8
Ġà¶ł à¶½
Ġà¶½à¶Ł à¶§
Ġà¶ħà¶ľ à·Ģ
à¶¯ à¶ļà¶½
à·ĥ à·Ģà¶ºà¶§
Ġà¶´ à¶§à¶º
Ġà·ĥà·Ħ à¶ļà¶»
!! !!
à¶Ńà¶» à¶ºà¶§
à·ĳ ....
à¶´ à·Ģà¶½
Ġ //
à¶½ à·Ģà¶»
à·ľ ,
ĠCom p
à¶º à¶´à¶Ń
in al
ph p
à¶ł à¶ļà¶º
O C
in i
Ġ3 8
Ġc an
Ġà¶ħà¶¸à¶Ń à¶±
us h
if ic
Ġà¶īà·Ģ à·Ħà¶½
Ġà·Ħ à¶¹
à¶® à¶ºà¶±
à¶´ à¶·
Ġà¶ľ à¶«à¶º
à·Ĥ à¶ºà¶º
Ġà¶ľà¶« à¶±à¶ļà¶§
Ġà¶ħà¶¯à·Ħà·ĥ à¶º
il m
à·Ģ à¶łà¶±à¶º
Ġon e
un g
Ġà¶Ĩ à·Ģà¶§
Ġà·Ģà¶º à·ĥà¶ļ
à·ĥà¶¸ à·Ħ
Ġà¶ħà¶» à¶¹à¶±
Ġ197 8
as ing
à·Ĥà¶ļ à·Ģà¶»à¶º
à¶ħ à¶ľà¶¸
s er
à¶ľà¶¸ à¶ľ
5 00
201 4
à¶ľà¶Ń à¶ºà¶ļ
Ġà¶ħ à¶ºà¶±
o o
à¶º à¶¸à¶Ń
à¶Ń à¶½à¶ºà¶ļ
Ġà¶»à¶¢ à¶¸à·Ħ
à¶»à¶¸ à¶±
à¶Ĩ à¶ľà¶¸
5 6
à¶½à·Ģ à·Ģ
ost ed
à¶Ĥ ...
Ġà¶» à·Ħà¶Ń
Ġà¶ľà¶Ń à¶º
Ġà¶´à·Ħ à¶ļà¶§
à¶½ à·Ģà¶±
à¶Ķà¶¶ à¶ľ
à¶½ à¶¶à¶±
Ġà¶ļ à¶¢
à·ģ à¶Ńà¶º
Ġà¶ĩà¶³ à¶ľ
ĠW orld
à·ı âĢ¦.
à·ĥ à·Ģà¶±
Ġ25 0
3 4
Ġà¶¸à·Ħ à¶¸
Ġà¶Ĩ à¶½à¶º
à·ĵ ÂŃ
et t
ivers ity
S t
ear ch
Ġà¶±à¶¸ à·ĥ
Ġ3 7
Ġà¶»à·Ħ à¶Ńà¶±
à¶ļ à¶½à¶º
à¶ºà¶± à·Ģà¶±à¶¸
à¶ľà¶Ń à¶ºà¶±
à¶¸à¶§ à¶¸
à¶ł à¶±à¶ºà¶§
à¶º à¶»à¶Ń
à·ĥ à¶»à¶«
Ġà¶» à¶Ńà¶±
à¶¶ à·Ħà¶§
Ġm e
Ġà¶ĭà¶´ à¶ºà¶±
à¶Ń à¶·
âĢ Ķ
Ġà¶Ńà¶» à¶«à¶º
Ġà·ħà¶Ł à¶¯
Ġà¶Ĭ à¶¸
Ġà¶»à¶¢ à¶»à¶§
ĠPh ot
à·Ļ ....
O M
à¶¢à¶º à¶ľ
Ġà¶ļà¶© à¶½
ĠR es
M ore
Ġà¶ħ à¶§à·Ģ
ou ld
Ġà¶ħà¶´ à¶Ń
Ġà¶¸à¶© à¶ļà¶½à¶´
à·Ĭ à·Ĭ
à¶© à¶ºà¶±
à¶Ń à·ĥ
Ġà¶īà¶© à¶¸à¶ļ
an i
el y
ĠU N
r on
à·Ŀ à¶Ĥ
Ġà¶Ĩà·ĥ à¶±à¶º
re en
am a
B C
Ñģ ÑĤ
m a
ĠâĢ ĭ
à¶± à¶±à¶¸
Ġ z
Ġà¶ľ à¶¶
Ġà¶ĳà¶Ń à¶±à¶§
Ġà¶ħà¶´à¶±à¶ºà¶± à¶º
à¶¸ à¶ºà¶ļà¶§
à·ĥ à¶ºà¶º
à·Ļ à·ĬâĢį
à¶¯ à¶¶
à·ĬâĢį âĢį
Ġà¶ħà¶¸ à¶»à·Ģ
Ġ4 7
Ġd o
Ġà¶´à·Ħà¶½ à¶§
à¶º à¶°
Ġà¶´ à¶³
Ġà¶ĭà¶´ à¶¸
Ġà·ĥà¶§ à¶±à¶§
ap t
Ġà¶¶ à¶ºà¶º
Ġ5 6
Ġ195 6
Ġà¶Ķà¶¶ à¶§à¶Ń
ro id
ĠB l
ic ial
à¶»à¶¸ à¶Ń
Ġà¶ħà·Ģ à¶·
al e
à¶ļà¶© à·Ģ
à·Ģà¶½ à¶º
à¶ļ à·Ģà¶»à¶«à¶º
Ġà·Ģ à¶¢
Ġh as
à·ĥ à¶½à¶º
à¶ī à¶½
Ġ5 5
Ġ ï
Ġ198 3
4 6
Ġà¶¯ à¶»à¶º
à·ģ à¶½
it al
A N
à¶¸ à¶ł
à·Ģà¶§ à¶¯
à¶±à¶ľ à¶»
. (
Ġà¶ĳà¶º à¶¯
à¶¯ à¶»à¶¯
à¶½à¶ļ à¶±
à¶º à·Ģà¶½à¶§
à¶¸ à¶łà¶±
à·ĵ -
à·Ħà¶¬ à·Ģ
at s
à¶º à¶ľà¶¸
Ġà¶± à¶¶
à¶ł à·ĥ
Ġa m
r icket
Ã ©
à·ĵ ..
Ġà¶Ĩ à¶»à·Ģ
iy a
à¶Ń à·Ģà¶±
à¶»à·Ģ à¶¸
S L
Ġà¶¶ à·ħà¶½
à¶ħà¶´ à¶»
à¶Ń à·Ģà¶½à¶§
à¶ļ à¶®
Ġà¶ĭ à·Ģà¶¯
Ġà¶¶à·Ģà¶§ à¶¯
Ġa cc
r il
à¶¸à¶§ à·Ģà¶Ń
Ġà¶¶à¶½ à¶±à¶ļ
Ġà·Ģà¶ľ à¶ºà¶ļ
Ġ ro
à¶ºà¶± à·Ģà¶±
Ġ ent
à·ı ]
Ġà·Ģ à¶±à¶º
Ġs u
ĠN ew
à·ĥ à¶ļà¶º
à¶°à¶± à¶´
à¶½ à¶ľà¶±
Ġà¶ħ à·Ĥ
Ġ4 6
Ġà¶ļà¶§ à·Ħà¶¬
Ġ.. ...
à¶ºà·Ģà¶± à·Ģ
oc i
ĠEng lish
à¶©à¶± à¶ľà¶±
m e
à¶¢ à¶ľ
à¶ºà¶Ń à¶±à¶º
Ġà¶īà¶© à¶¯
à¶§à¶´ à¶½
Ġà¶ ¤
Ġà¶ħà·Ħ à¶ļ
ub lic
à·ģ à¶ļà¶ºà¶ļ
à·Ĥà¶ļ à¶ºà¶ļ
à·ħà¶Ł à¶§
umb er
il d
Ġ ar
à¶¯ à¶»à¶¸
Ġà·ĥ à¶ł
ĠI I
à¶¯ à¶§à¶¸
à·Ĥ à¶¥à¶º
Ġà¶ħà¶º à¶º
à¶ħà¶´ à¶ľ
ĠâĢį à·Ļ
ĠC on
un d
ind ex
à¶»à¶« à¶ºà¶ļà¶§
4 9
ã Ģ
à¶¢ à¶´
a x
à·ģ à¶ļà¶ºà¶±
Ġ199 9
Ġà¶ĳ à·Ģà¶ļ
à¶° à¶ļà¶¸
Ġà¶´à·Ģà¶» à¶±
à¶§ à·Ģà¶½
à¶¸à¶» à¶ºà¶§
Ġà¶» à¶ľ
i i
à·ģ à¶¶
Ġà·ħ à¶ľ
à¶Ŀ à¶±
ĠR ev
à¶ļ à¶³
à¶© à¶±à¶ºà¶§
el d
1 00
Ġà¶½ à·ĥà¶±
Ġà·Ģà¶½ à¶Ń
à¶»à¶´à¶§ à¶ºà¶§
7 7
Ġà¶¸à¶Ńà¶ļ à¶ºà¶ļ
Ġà¶Ĩ à·Ģà¶¸
ĠP ort
Ġt w
à·ĥ à·Ģà¶½
Ġw ere
ri d
I C
Ġà¶¸ à¶³à¶ļ
Ġd es
à¶ĳ à¶ļà¶½
le t
Ġ ed
à·ļ '
à·Ĵ âĢ¦.
Ġà¶ħà·ĥ à¶½à¶§
Ġ4 2
à·ĥ à¶¸à¶º
Ġà¶Ń à¶»à¶º
à·ĳ à¶Ĥ
à¶§ à¶´à¶Ńà¶ļ
ĠF or
Ġà¶´ à¶½à·ĥ
Ġà¶± à¶¸à¶§
Ġ3 9
Ð »
à·Ħ à¶Ńà¶¸
à·ģ à·ĥ
at t
Ġà¶ļà¶» à·ħ
Ġà·ĥà¶¸ à¶±à¶½
em ent
evel op
e lect
Ġà¶ħ à¶»à·Ģ
Ġwh o
Ġà¶´ à¶§à¶½
Ġo ut
à¶ķ à¶ļ
Ġ194 7
à¶ł à¶Ń
Ġre c
Ġà¶ħ à¶ľà¶Ń
à¶´ à·Ħà¶Ń
à¶Ĩ à¶ł
à¶¸à¶ļ à¶º
in a
à¶¯à¶» à¶ºà¶ļ
Ġà¶ºà¶§ à·Ģ
st all
à¶¯ à¶ºà¶º
Ġcom ment
4 4
à¶¢ à¶¶
à¶ĭ à¶©
à·ļ.. ...
Ġ artic
Ġà¶´à¶Ń à¶½
Ġà·ĥà¶ļ à·ĥà¶±
Ġà¶¯ à·Ħà¶Ń
ech n
ire ct
C h
à¶½ à¶ļà¶»
Ġ6 00
ad i
a ir
Ġà¶¸à¶±à·ĥ à¶§
à¶« à·Ģà¶½
Ġm atch
Ġà¶¢à¶±à·Ģ à¶»
âĢĮ à·ı
Ġ18 9
ĠÂ ·
Ġà¶ĳà·ĥ à·Ģ
à·ĥ à¶§à¶º
à·Ģà¶º à¶¯
ind a
Ġ em
Ġà·ĥ à¶ľà¶º
Ġà¶ĩ à·ĥà¶§
Ġp er
am es
Ġà¶ĩà¶Ł à¶§
Ġhttp s
Ð º
Ġà¶´à¶» à¶Ńà¶»à¶º
âĢ¦ ..
ag es
à¶º à¶¶à·Ħ
à¶Ŀ à¶»à¶Ń
Ġà¶ħà·Ħ à¶ľ
ion al
âĢĮ à·Ļ
à·Ģà¶º à·ĥ
à¶ľà¶º à¶º
Ġà¶ĭà¶´à¶ļà¶»à¶« à¶ºà¶ļ
Ġ201 9
Â ´
à·Ħ à¶«à¶º
Ġà¶¸ à¶»à¶½
à¶±à¶º à¶¸
Ġà¶¸à¶Ńà¶ļ à¶ºà¶§
. [
Ġà·Ģ à·ģ
à·ı à·Ĭ
Ġ199 8
Ġà¶ĳà¶ļ à¶±
i ri
y m
à·ĵ âĢĻ
g ram
Ġà·Ħà¶Ńà¶» à¶ļà¶§
à¶½ à·Ģà¶½à¶§
C O
in ue
à¶¯ à¶¸à¶±
Ġà¶Ńà¶»à¶ľ à¶ļ
Ġà¶Ń à¶±à¶±
à¶° à¶ºà¶ļà¶§
à¶¢ à¶±à·Ģ
à¶· à¶¯
Ġà¶ħà¶¯ à¶§
Ġà·Ħà¶§ à¶ľ
Ġà·ĥà¶´ à¶ºà¶º
Ġà¶¸à¶Ń à¶ļà¶ºà¶±
ĉ ĉ
Ġà¶ļ à¶¹
og raph
Ġà¶ħà¶´ à¶º
201 2
f ter
y a
âĢį à·Ļ
Ġà¶ļà¶½ à¶¶
ĠW h
ðŁĳĮðŁĳĮðŁĳĮðŁĳĮðŁĳĮðŁĳĮðŁĳĮðŁĳĮ ðŁĳĮðŁĳĮðŁĳĮðŁĳĮðŁĳĮðŁĳĮðŁĳĮðŁĳĮ
o int
E D
à·Ĥà¶º à¶ºà¶±
Ġà¶Ĵà¶ļ à¶ļà¶ºà¶ļ
ĠM icrosoft
enc es
Ġà¶ħà¶¸ à¶»
à¶»à¶¸ à·Ģà¶Ń
ĠM ag
---- ----
5 8
o th
op h
à¶ľ à·Ħà¶±
à¶¢ à¶Ń
Ġà¶Ķ à¶©
à¶»à·Ģ à¶¯
à¶´ à¶ľà¶Ń
Ġà¶½ à¶ºà¶±
ĠU S
Ġà¶© à¶ºà¶½
à¶© à¶±à¶ºà¶ļ
à·ĥà¶» à¶±
is e
à·Ķ :
ro p
Ġà¶¸à¶Ń à¶·
Ġà¶ºà·Ħ à·ħ
à·ļ -
201 0
à¶¯ à¶ļà¶ºà¶±
ol it
à¶Ń à¶«
à¶½ à¶§à¶Ń
Ġà¶¸à¶±à·ĥ à¶ļ
à·ħà¶¹ à·Ģ
am il
B N
à·ı (
à¶½ à¶¸à¶º
Ġ5 8
at or
à·Ĵ ).
à·Ħ à¶§à¶¸
Ġà¶ľ à¶½à¶±
à·Ķ !
Ġà¶¯ à¶»à¶¸
à¶© à¶»à¶º
Ġà¶ļà¶¸ à¶½
o ot
à¶Ń à¶ļà¶¸
u ter
w ork
Ġ197 1
I N
à¶± à¶»à¶Ń
à·ģ à¶¯
à¶· à·Ģà¶ºà¶ļ
Ġà¶īà·Ģà¶» à·Ģ
Ġà¶±à¶§ à¶¶
à·ĥ à¶¯à¶º
Ġà¶½ à¶¸
ĠS ite
Ġà¶Ī à¶Ńà¶§
old id
Ġà¶§ à¶»
à¶¶à¶³ à·Ģà¶º
w ord
Ġà¶ħà¶· à¶º
Ġp r
à¶½ à¶´à¶Ń
Ġal so
à·ļ :
à¶¯ à¶¹
ud d
anth a
G B
à¶ºà¶¯ à¶¸à¶ļ
am b
Ġà¶ļà¶½ à¶¯
t r
Ġà¶±à¶» à¶¹
à¶º à¶¹à¶½
à¶½ à·Ģà¶ļ
5 2
à¶¸ à·Ģà¶Ń
à¶¸ à¶«à¶º
Ġà¶¢ à¶ºà¶¸
à¶· à·ĥ
or n
e al
g r
it t
à¶ºà¶ºà¶± à¶ºà¶ļ
à·Ķ à·Ķ
Ġà¶ľ à·ĥà¶¸
à·ħ à·Ģà¶½
A S
M S
à¶±à¶º à¶¯
ĠâĢ Ļ
ĠCom m
à¶¶ à¶¸
Ġà¶Ķ à¶Ńà¶±
Ġà¶ħà¶± à¶ľ
à¶§ à¶ľà¶Ń
Ġ Ø
à¶± à¶Ľ
à¶¢ à¶§
Ġà·Ħ à¶»à¶º
and a
Ġà¶ħà¶© à¶ļ
Ġà¶¯à·Ħ à¶¸à¶§
Ġ194 8
4 3
à¶± à·Ħà¶¸
if e
Ġà¶Ńà·Ħ à¶©
i j
ĠO ne
ov e
à·ĥ à¶ļà¶»
Ġà·ĥà¶¸à¶Ł à¶º
e ed
Ġà¶´à¶Ń à¶ļ
Ġof f
Ġcom m
rou p
à·Ģà¶Ń à¶º
à¶¨ à¶ļà¶ºà¶±
à¶Ń à·ģ
à¶Ĩ à·Ħ
Ġà¶Ń à¶©
ĠT est
m ail
Ġà¶ļ à¶©à¶ļ
à¶ļà·ħ à·Ħ
à¶¡ à¶±
m age
à·Ģà¶½ à¶§à¶Ń
Ġà¶´à¶± à·Ģà¶±
à¶©à·ĥà¶§à·Ħà¶± à¶§
Ġà¶ĳà¶Ńà¶± à¶¯
ĠUn iversity
c o
i ent
T A
ĠA m
Ġà¶ľ à¶ľ
à¶³ à¶±
Ġp art
à·Ģà¶ļ à¶»
Ġà¶ķ à¶ļà¶§
Ġà¶ļà¶´ à¶§
P osted
à·ļ. âĢĿ
Ġthe y
Ġà¶¸ à·Ģà¶±
Ġà¶¸ à·Ģà¶§
Ġ9 5
in s
à¶¶à¶³ à·Ģà¶Ń
à¶¥ à·Ģà¶»
Ġà¶¸à·Ħ à¶»à¶ľà¶¸
s ite
à·Ĵ (
ĠS L
à¶±à¶¯ à·ĥ
ĠAr t
8 6
Ġà¶ħ à¶«à¶¯
Ġà¶´à·Ħ à¶¯
ist ory
Ġà¶» à¶¹
Ġ 00
à¶Ń à¶±à¶Ń
Ġà¶¸ à¶»à¶¯
Ġà¶ł à¶½à¶±
à¶º à·ĥà¶±
ĠY ou
Ġà¶Ĩ à·Ģà¶»
ĠT V
à·Ĭ à·Ļ
à¶´ à¶§à¶º
à¶»à¶º à¶¯
à¶Ĩ à¶»à¶ļ
Ġà¶¸ à¶łà¶±
ĠP er
Ġà¶īà¶³ à¶½à¶¸
a i
200 9
à·Ģ à¶°à¶»
à¶ºà¶§ à¶¯
ut ion
i ence
201 3
er o
Ġ( )
5 7
à·Ĥ à¶±à¶½
ev er
à¶¸à¶Ń à¶ļ
E R
c ess
à¶ļ à¶¸à¶Ń
à¶»à¶Ń à¶±
ul ar
ĠÂ «
Ġà¶´ à¶Ńà¶»
à·ĵ à·ĬâĢį
à¶¸à¶± à·ĥ
Ġà¶ħà¶½ à·Ģ
à¶¯à·Ħà·ĥ à¶§
re at
Ġà¶ľ à¶½à¶ļ
ay s
A M
Ġà¶Ķ à¶ł
Ġs ystem
st r
Ġb l
Ġà·ĥà¶¸ à¶±à¶º
Ġà¶´à·ħ à¶´
en a
à¶¢à¶ºà¶ļ à¶½
ĠO n
Ġà·Ħ à¶´à¶±
Ġ199 6
y le
à¶ķ à·ĥ
Ġà¶ĭ à¶»à·Ħ
à¶ĳ à·Ĩ
our n
4 2
N ews
Ġ4 3
Ġ199 5
l l
Ġà¶ļà¶½ à¶§
or ies
à·ĥ à¶¸à¶±
Ġà¶ħà¶± à¶»
à¶»à¶ľà¶Ń à·Ģ
à·ı.... ..
ide os
6 6
à·ģ à¶ºà¶ļà¶§
à¶±à·Ģ à¶½à¶¯
Ġà·Ħ à¶¸à¶±
Ġà¶¸à·ĥ à¶ļà¶§
ĠâĢį âĢį
8 8
ur n
Ġà¶ļ à·ĥà¶½
Ġà¶¶ à¶ºà¶ļ
Ġà¶ħà·Ħ à¶¹
à¶ºà·Ģà·ĥ à¶¸
re t
Ġà·ĥ à¶»à¶¸
à·Ĳ ÂŃ
à·Ĥà¶« à¶ºà¶ļà¶§
Ġà·ĥà¶½ à·ĥà¶±
à¶ºà·Ģ à¶´
M D
Ġartic le
Ġà¶Ĩ à¶ľà¶¸à¶§
Ġà¶ħà·ĥ à·ħ
à·Ģ à¶¸à¶º
Ġà¶¢ à·Ģà¶±
Ġà¶īà·Ħà¶½ à¶§
b log
Ġ >
Ġà¶ľ à¶³
à¶»à¶¸ à¶½
Ġà¶¸à¶Ń à¶ºà¶§
asing he
Ġ Ø§
Ġà¶¸à·Ħ à·ĥ
ĠI s
Ġad d
ĠOff icial
Ġà·ĥ à¶¶à¶¯
à¶´ à¶½à¶ºà¶ļ
à¶ļà¶º à¶¸
Ġà¶´à·ħ à¶ļ
à¶ºà¶ļ à¶¸
ar g
Ġà¶ħà¶¬ à¶±
Ġte am
4 1
Ġ198 6
à¶» à¶ľà¶½
à·Ļ ÂŃ
Ġà¶¶à¶½ à¶ľà¶Ń
Ġà·ĥà¶» à·ħ
à¶ļà¶© à¶¸
Ġà¶¯à¶¹ à¶¯
à¶»à¶ºà¶§ à¶¸
i um
ĠH D
Ġà¶ħà¶º à¶»
i er
v a
Ġà¶´ à¶®à¶º
Ġà¶»à¶§ à¶Ń
à¶»à¶« à¶ºà¶±
cri pt
à¶»à¶° à¶»
Ġà¶¸à¶Ńà¶º à¶º
Ġ ðŁĺ
ang u
Ġ5 000
à·Ħ à¶Ńà¶»
à¶¯à¶» à¶ºà¶±
âĢį à·Ĭ
à¶© à¶ľà¶¸
à·ļ à·Ĭ
et work
ub lish
7 8
Ġà¶Ń à¶´
Ġà¶ħà¶¸ à¶»à¶¯
C om
Ġà¶± à·Ģà¶º
Ġà¶ĳà¶ļ à¶§à¶¸
à¶Ľ à¶ļ
Ġs ub
à¶»à·Ħà·ĥ à¶ļ
Ġà·Ħ à¶Ńà¶½
Ġà·ĥà·Ħ à¶¸
à·ħà¶¹ à¶¯
Ġser ies
à¶»à¶ļ à¶Ń
à·Ģ à¶¶
à¶Ńà¶» à¶½
Ġà¶Ń à¶®
m l
à¶¯ à·Ģà·ĥà¶ļ
Ġà¶ļ à¶¶à¶½
à¶¨ à¶½
Ġ4 4
Ġ4 9
Ġ199 1
Ġà¶ ¹
à¶± à¶Ńà¶»à¶¸
à¶¯ à·Ģà·ĥ
à¶»à¶¸ à¶»à¶Ń
a e
à¶»à¶Ń à¶º
à¶»à·Ħ à¶«à¶ºà¶§
ous e
p ress
6 5
à·Ħ à¶©
Ġà¶īà¶³ à·Ħ
r u
à¶¸à¶º à¶º
Ġ19 50
ĠS ec
à¶¯ à¶±à·Ģ
Ġà¶ľà¶± à¶±à¶ļ
c on
Ġà¶¢à¶± à¶±à¶º
ĠI P
Ġ <
à¶¢ à¶¸à¶º
Ġà¶ħà¶Ń à¶ľ
à¶ķ à·Ģ
l ad
Ġ199 7
ĠAl l
Ġà¶¸ à¶ļà¶»
à¶ĳ à¶¢
?? ?
T V
Ġà¶µ à¶½à¶º
Ġà¶ĳ à¶ľ
Ġà·Ĩ à¶»
Ġà¶½à¶Ł à¶¯
in n
à¶´à¶¸à¶« à¶ļ
à·ĥ à¶»à·Ģ
Ġà¶Ĵ à¶ļà¶»
Ġ6 4
Ġà¶Ŀ à¶±à¶Ń
Ġit s
à¶© à·Ģà¶½à¶§
à·ģà¶º à¶º
201 1
Ġ197 2
Ġà¶ĳà¶ļ à·Ħà¶¸
Ġà¶¸à¶Ń à¶ļà¶¯
Ġh ad
Ġà·ģ à¶±
Ġ3 000
Ġà·Ģà¶± à·ĥ
Ġ8 00
Ġus e
à¶§ à¶±à¶º
à·ĥ à¶ļà¶¸
Ġà¶ļà¶© à¶ºà¶ļ
ou th
Ġf ile
Ġtw o
Ġin d
Ġà¶ĳà¶ļà¶Ł à·Ģ
Ġfor m
Ġà·Ħ à¶Ł
à·Ĭ) ,
us e
Ġà¶´à¶±à¶Ń à¶ļ
à® ¿
A R
Ġà¶ļà¶» à·Ģà¶½
Ġ199 3
à¶½à¶ļ à¶ºà¶ļ
Ġà¶ļà¶½ à¶´
Ġ5 1
Ġw ww
Ġà¶īà·Ħà¶Ń à¶¯
ĠAnd roid
à·Ŀ -
Ġà¶ī à¶ľà¶±
Ġà·ĥà·Ħ à¶±à¶º
__ __
5 9
Ġt ime
à¶»à¶¥ à¶´
ĠCont inue
à·ı /
à¶ļ à·Ħ
Ġà¶· à¶§à¶º
Ġà¶ħà¶± à¶´
à¶ľ à·ģ
Ġà¶Ĩà¶ºà¶Ń à¶±à·Ģà¶½à¶§
Ġà·Ģà¶ł à¶±à·Ģà¶½
Ġà·ĥà¶¶à¶¯ à¶Ń
à¶ļ à¶±à¶º
Ġà¶ĳ à¶¸à¶±
el s
Ġà¶īà·Ģà·ĥ à¶±
Ġà¶ľà¶½ à·Ģà¶½
Ġre ading
ĠS il
it s
ĠF r
os h
Ġà¶ĳà¶ļ à¶§à¶Ń
Ġà¶´à¶± à·Ħà¶ļ
ur es
Ġà¶»à¶® à·Ģ
b le
8 7
Ġà·ĥ à¶¶à¶±
ut e
Ġà¶½ à¶¢
Ġà¶» à·ģ
ĠS am
ct ion
av a
Ġr un
U S
à·ļ à·ĬâĢį
Ġà¶´à¶» à¶½
ĠL e
Ġà¶ ŀ
Ġ4 1
m p
Ù Ħ
Ġ !!
Ġà¶ĩ à¶ļà¶©à¶¸
Ġà¶ļà¶» à¶§
Ġà¶ħà¶Ńà¶» à·Ģ
Ġà¶ļà¶»à¶±à·Ģ à¶¯
........ ..
Ġà¶¸à¶§ à¶±à¶¸
ĠR ah
Ġ12 0
à¶½ à¶¥à¶º
à¶¶ à·Ħà¶ļ
à·Ĥ à¶¥à¶ºà¶±
à¶ľà¶Ń à¶ºà¶§
à¶±à¶¸ à¶¸
à¶¢à¶º à¶¯
Ġo ther
Ġà¶ļ à¶¯à·Ģ
o on
à·Ħ à¶±à¶ºà¶§
à¶º à¶´à¶±
Ġà·Ģà¶» à¶§à¶Ń
» ¿
à¶½ à¶ļà¶»à¶Ń
à¶½à¶ºà¶ļ à¶¯
Ġà¶·à¶§ à¶ºà¶±
/ -
à¶´ à¶ºà¶º
T TE
Ġà¶¸à¶ľ à¶ļ
Ġà¶ļà¶§ à¶§
Ġà¶Ĩà¶· à¶»à¶«
Ġà¶ħà¶Ń à¶´à·ĥ
Ġà¶Ĵ à·Ģà¶º
à¶Ńà¶» à·Ģà¶½
200 8
âĢįâĢį âĢįâĢį
5 3
Ġ en
Ġà¶ĳ à¶±à¶Ń
â Ĩ
à¶º à¶ľà¶Ń
Ġà¶´ à¶¤
Ġà¶¸à·Ħ à¶¯
Ġà¶ļà¶½ à·Ģ
à¶»à¶« à·Ģ
r ent
Ġp re
I V
à·ĥ à¶±à¶¸
Ġag ain
I T
Ġà¶ĭà¶´ à¶ļà¶»à¶«à¶º
Ġà¶ĩà¶³ à¶½
à¶¯à¶± à¶ºà¶±
at ive
à¶ºà¶¸à¶± à¶ļ
à¶§ à·ĥà¶§
Ġà¶· à·Ģà¶º
à¶ºà·Ģ à¶¸
Ġà¶ħà¶Ńà¶» à¶¸à¶ľ
id ent
Ġà¶ĭ à·ĥà¶§
Ġà¶¸à¶Ł à·Ħ
Ġà¶ĳà¶½ à·Ģ
Ġà¶¸à¶½ à¶½
Ġà¶½à¶ºà¶± à¶½
b e
d uct
à·ģ à¶ľà¶Ń
à¶® à¶ºà¶§
Ġà¶ºà·Ħà¶´à¶Ń à¶ļ
m in
Ġà¶Ĵ à¶±
à¶»à¶¸ à¶ºà¶±
à¶ħ à¶§
Ġc ol
ĠO s
ap p
à¶½ à¶¯à¶ļ
Ġà·Ģà¶½ à·ĥ
ĠT e
à¶· à¶»à¶«
Â ·
Ġà¶ħ à·Ģà¶»
Ġà¶ĩ à¶¬
à¶Ńà¶» à¶§
. ,
à¶Ń à¶±à¶§
Ġà·ĥ à¶ļà¶½
à·ħ à¶´à¶Ń
Ġà¶Ĭ à¶½à¶ľ
Ġd ownload
Âł Ġ
... ?
Ġà¶° à¶¢à¶º
à¶ļà¶½ à¶§
à¶¢à¶± à¶ºà¶±
ar ath
Ñ ĥ
Ġà¶ħà¶» à¶·à¶º
Ġin ter
N OT
Ġw ill
à·ĥ à¶ľà¶Ń
à·ĵ "
à¶Ĵ à¶ļà¶§
à·ļ ;
ĠD is
Ġ7 1
ar m
à¶© à¶´à¶º
à¶ĭ à·ĥà·ĥ
7 6
an y
à¶¯à¶» à¶±
à¶ĩ à¶¸à¶Ń
us ic
à¶ħà·Ģà·ĥ à¶±
wik i
à¶¸ à·Ģà¶½
Ġà¶ł à¶«
Ġà¶¸à¶§ à¶¸
Ġà·Ģà¶»à¶¯ à¶§
ĠRev iew
à¶ºà·Ģ à¶¯
Ġà¶ļà¶§ à¶ļ
Ġ25 00
à¶§ à¶¸à¶ļà¶§
à¶¶à¶³ à·Ģà¶¯
à·ĥà·Ħ à¶ľà¶Ń
Ġd i
à¶´ à·ģ
Ġà·Ħ à·Ģà·ĥà¶§
à¶³ à¶ľà¶Ń
à¶» à·Ĥ
u x
Ġ {
Ġo ver
Ġ6 2
Ġà¶ļà·Ģà¶¯ à¶Ń
op y
NOT OC
| |
Ġ Î
Ġà¶»à¶§ à·Ģ
à¶Ķà¶¶ à¶Ń
Ġà¶Ńà¶»à¶Ł à¶ļ
ĠPort al
âĢį à·ı
à¶°à¶± à¶ºà¶±
Ġà¶ĳà¶ļ à¶ľ
Ġà¶ľà¶½ à¶´
ĠO r
Ġk n
à¶ ĵ
ĠR ating
Ġà·Ģà¶»à¶¯ à·Ģ
Ġà¶¶ à·ĥà¶º
Ġà¶» à·ĥà¶ļ
out ube
à ¸
Ġà¶ĩ à¶»à¶º
s on
Ġà¶ħ à¶ľà¶½
Ġy ear
Ġà¶ħà¶Ń à¶ļà¶§
Ġà¶´à¶§ à¶ļ
Ġ199 2
à¶± à¶ļà¶º
Ġà¶· à·Ģ
Ġà¶ħà·Ģà¶± à¶Ń
Ġà¶¢à¶º à¶ľà¶±
Ġr est
à¶Ń à·Ģà¶¸
à·ļ âĢį
Ġà¶´à¶±à¶Ń à¶§
ä ¸
à¶» à·ĥà¶»
Ġà¶Ĵ à·Ģà¶Ń
S ri
à¶ºà¶½ à¶¯
Ġà¶Ĩà¶» à¶ł
Ġà·Ģà·ĥà¶» à¶§
à·Ģà¶± à¶ļ
à¶± à¶»à¶º
fer ences
Ġà¶¶ à¶ºà·Ģ
à·Ĭ) .
ĠU p
ĠAs s
an e
à¶¨ à¶ºà¶ļ
Ġs up
ust ral
Ġà¶ħà¶¯ à·Ħ
Ġs m
à¶¤ à¶º
Ġ15 00
Ġà¶ħà¶¯à·Ħà·ĥ à¶§
ark et
Ġà¶ĩà¶¹ à¶»
à¶´ à¶½à¶º
ch i
8 5
Ġà·ĥ à¶»à¶¯
Ġà¶´à¶§ à¶½à·Ģ
Ġà¶± à·Ģà¶ºà¶ļ
Ġà·Ģà¶ľ à¶¶à¶½
ent er
Ġn ew
à¶® à¶»
à·ĥà¶¸ à·ĥ
3 00
à¶»à·ģ à·ĥ
ĠT w
P A
à·Ģà¶½ à¶ļ
à¶ľà¶«à¶ļ à¶ºà¶ļ
i eld
ic es
Ġ6 6
à·ĬâĢ¦ .
enc y
Ġà·Ħ à¶Ńà¶»à·Ģ
Ġà¶ħà¶Ń à·Ģà¶»
à¶ī à¶¸
à¶¯ à¶¸à¶º
Ġà¶ļà¶» à¶¬
à¶ļà¶»à¶« à¶ºà¶±
Ġà¶±à¶ľ à¶»à·Ģà¶½
ÑģÑĤ ÑĢ
Ġà¶ħ à¶§à¶¸
Ġà¶¯ à¶¸à¶º
Ġà¶½ à·Ħ
à·Ĵ. [
Ġà¶¯à¶± à·Ģà¶±
ĠV i
Ġà¶»à¶¢ à¶ºà¶±
ov er
a f
à·ĥ à¶»à¶¯
Ġà¶ĩ à¶½à·Ģ
Ġà¶´à¶¯ à¶ºà¶ļ
Ġà¶ľà¶« à¶ºà¶§
à·ĥ à¶±à¶ºà¶§
th e
ĠS ch
Ġ) .
à¶ł à¶©
à¶Ĩ à¶ļ
// //
à¶ºà¶½ à¶±
ĠĠĠĠ Ġ
7 9
Ġà·Ħ à¶¶
à¶»à¶§ à¶ļ
at ic
Ġ5 4
ov ern
Ġ %
à·Ķ '
st it
à¶ĭ à¶´à¶Ń
as a
Ġà¶´ à¶»à¶º
Ġà¶ĳà¶ļ à·Ģ
th i
al i
à·ĵ âĢį
ĠĠĠĠĠĠĠĠĠĠĠĠĠĠĠĠ ĠĠĠĠĠĠĠĠĠĠĠĠĠĠĠĠ
à¶¸ à¶»à¶±
à¶¢à¶± à¶´
Ġà¶¸à·Ħ à¶»à·Ħ
à¶¨ à¶Ńà¶¸
Ġo pen
à¶Ń à·Ģà¶º
l anka
à¶® à¶ļà¶º
Ġà¶´à¶Ń à¶±à·Ģ
à¶¸à¶» à¶«à¶º
Ġà¶¯à·Ħ à¶¯
à·Ħ à¶¶
à·Ĥ à¶ºà¶Ń
Ġà¶¸à·Ħ à¶¶
Ġà·ĥà¶» à¶ł
Ġà·ĥà·ħ à¶ļà¶±
Ġ198 5
B O
à¶´à¶ºà¶ļ à¶¯
Ġre g
iz ed
Ġ7 7
Ġ198 2
à¶ºà¶ļ à·Ģ
à¶¹ à¶§
Ġà¶ķ à·Ģà¶»
al k
à¶¢à¶º à¶¶
Ġ198 4
à·ĳ âĢ¦
à¶Ķ à·ĥ
Ġà¶ĳà·ħ à·Ģ
Ġon ly
Ġ196 5
Ġà¶į à¶Ń
Ġà¶ħà¶´ à·Ģà¶Ń
Ġ5 2
ĠD NA
Ġ8 8
D I
à¶® à·Ģà¶Ń
Ġà¶¸à·Ħ à¶ļ
à¶»à¶ļ à¶½
à¶Ľ à·Ģ
à¶ħà·Ģ à·ģ
Ġà¶º à·Ħà¶¸
Ġà¶¸à·Ħ à¶ľ
ĠM y
à¶Ń à¶¸à¶§
à¶±à·ĥ à¶ļà¶§
Ġà¶»à¶¢ à¶ļà¶¸
ĠInd ia
Ġà¶½ à¶«
à¶³ à¶¯
à¶Ŀ à¶«à¶º
Ġà·ĥ à¶ľà¶ºà¶±
âĢĭ ,
ĠJ ay
à¶¸ à¶ļà¶»
à¶ºà¶º à¶Ń
Ġw e
Ø ±
à¶© à·Ģà¶»
Ġà¶§ à¶ºà¶»
Ġg r
à¶» à¶±à¶ºà¶ļ
Ġà¶± à¶ļ
à·ģ à·Ģà¶ºà¶±
m m
p os
Ġà¶ļà¶© à¶º
iz e
Ġcl ick
I mage
d ate
ang e
l on
ang lad
anglad esh
A T
à·ģ à¶»
à¶ļà¶» à¶¯
Ġweb site
à¶»à¶ļ à¶¸à¶ļ
Ġy our
à¶ļ à·Ħà¶¸
Ġà¶¸à¶ľ à¶´
ir t
Ġ198 1
Ġà¶´ à¶«à¶Ń
Ġf l
ers ion
Ġà¶º à·Ģà¶½
Ġà¶ľà¶½ à¶ľ
Ph one
à·ı ;
Ġb et
à¯ ģ
ĠIntern ational
à¶ļ à¶¶
Ġà¶īà·Ħà¶½ à¶¸
iz ation
à·Ģà¶º à¶¸
à¶± à¶Ľà¶º
oc ial
à¶§ à¶ºà¶±
à·ģ à·Ģà¶Ń
à¶¸à¶ļ à¶¸
Ġde f
à¶Ĥ -
Ġà¶Ĩ à¶Ńà¶»
Ġus ed
Ġà¶ī à¶´à¶º
ĠA b
à·Ħ à¶³
Ġà¶Ĩ à·Ģà¶»à¶«
Ġs ec
Ġn o
c ol
k e
Ġà¶ļ à¶¨
à¶´ à¶´
Ġà¶ľ à¶¯
Ġre l
ath un
Ġ !!!
Ġà¶ļ à¶ł
à¶Ĩ à¶±à¶º
cl ud
à¶½ à·Ģà¶ºà¶ļ
o ther
à¶» à·Ħà¶±
i ed
ĠR ep
ĠMag a
Ġà¶½ à¶´
à¶Ł à¶½
Ġà¶»à¶§ à¶§à¶¸
âĢĻ ,
Ġà¶»à¶§ à¶´
Ġà¶° à·Ģà¶½
ĠB r
Ġà¶ħà·Ħà·ĥ à¶§
à·ı âĢĺ
à¶© à·Ģà·ĥà¶¸
à¶ĳ à¶ļà¶¸
un e
6 9
Ġà¶ħà¶» à¶ľà¶±
ward s
y p
ic a
à¶ £
à¶»à·Ħ à¶±à¶º
it ies
ter s
à¶· à¶ºà¶§
Ġà¶ºà¶± à¶Ń
ar n
A s
à·ħ à¶ºà¶§
à·Ŀ "
à·Ĵà¶Ĥ ,
ĠRah athun
à¶¨ à¶ºà¶±
à·ģà¶º à¶Ń
ĠS oftware
Ġà¶ĳà·ħ à·Ģà¶½
Ġà¶ļà·ħ à¶ļ
Ġà¶ħà¶Ń à¶½
Ġà¶´à¶Ń à¶¸
ĠR aj
ri st
à·ļ. "
à·Ķ /
en e
à¶» à¶½à¶º
à·ĥ à¶¢
à¶¸à¶± à¶ļ
à·Ĭ. âĢĿ
Ġà¶´à·ħ à¶ļà¶»
ĠL TTE
ĠD es
C ategory
P S
ï »¿
ĠB log
à·Ĥà¶« à·Ģà¶½à¶§
à¶©à¶± à¶Ł
à¶±à·Ħ à·Ģ
Ġà¶Ńà¶»à¶Ł à¶ºà¶ļ
Ġà¶ħà·Ģà·ĥà¶» à¶ºà¶ļ
Ġà¶¢à¶± à¶»à¶¢
à® ¤
Ġs oftware
Ġtr ans
ĠPl ay
p ro
Ġà¶Ĩ à¶´à¶±
à¶Ķ à¶½
ĠA cc
R e
ers on
S h
à·Ģ à¶łà¶±
Ġà¶ľ à·Ģà¶º
Ġà·ĥà¶¸ à·ĥà¶¸
à¶»à¶¸ à¶ºà¶ļà¶§
ot s
âĢĭ à·Ļ
Ġà¶½ à¶ľà¶§
Ġà¶¸à·Ħ à¶»
Ġ8 5
ur ed
Ġst ud
Ġbe en
I A
it ter
im es
200 5
Ġà¶´à¶»à¶« à·Ģ
p ar
à¶º à·Ħà¶¸
à·ģ à¶Ń
à¶Ľ à¶ļà¶ºà¶±
à¶»à¶ºà¶§ à¶º
Ġw ork
i ka
Ġà¶ļà¶» à¶«à¶º
Ġà¶ķ à¶¸
Ġà¶Ĵ à¶©
Ġà·ģ à¶Ńà¶ļ
Ġm od
Ġà¶Ĩ à¶»à¶«
à·ļ. )
ĠC o
à¶¶à¶½ à¶´
Ġà¶Ī à¶³
Ġ ĉ
à¶Ń à¶¥
is ion
e op
à¶´ à¶¶
Ġà¶´à·ħ à·Ģà¶±
âĨ ĳ
6 7
à·Ħ à¶§à¶º
ĠF M
ĠOs se
à·Ķ âĢ¦
à¶½ à¶ľà¶Ń
Ġa c
à·ģà¶± à¶ºà¶±
ist an
Ù Ĩ
Ġà¶© à¶©
Ġa fter
C l
O N
à¶ĭ à·ĥ
Ġ7 00
à¶± à¶±à¶º
à·Ĥ à¶¯
Ġà¶ĭ à¶¸à¶Ń
le y
à¶»à¶· à¶½
T M
l ed
à·ļ ÂŃ
ĠO pen
9 4
à·Ĥ à¶¶
à·Ģà¶» à¶±à¶º
Ġà¶´à¶¯ à¶¸
Ġà¶ľà¶½ à·Ģà¶±
Ġà¶ĳ à·Ģà¶½
à·Ģà¶» à·Ģ
Ġà¶ľà¶Ń à¶ļà¶»à¶±
Ġà¶´à·Ħ à·Ģ
Ġ197 9
ob ile
udd h
6 8
Ġà¶´à¶» à¶±
in c
ĠP ost
Ġà¶°à¶± à¶´
à¶» à¶´à¶Ń
ĠI II
od y
........ ...
5 1
Ġà·Ģ à¶ºà¶»
Ġs ome
Ġ5 7
Ġà¶ĳà¶ļà¶Ł à¶º
Ġà¶± à·Ħ
a ka
Ġà¶© à¶¶à¶½
à¶¨ à¶Ń
Ġb ec
et s
à¶®à¶ļ à¶®à¶±à¶º
à¶Ľ à¶Ńà¶¸
à¶ĩ à¶ºà¶ľ
ĠG u
à® ķ
ĠReview ed
t en
à¶º à·Ģà¶º
à¶´ à¶®
à·Ĥ à·Ģà¶½à¶§
Ġà¶¸à·Ħ à¶Ł
ot e
à¶½ à¶»à¶º
Ġà¶ħà¶´ à¶ł
à¶»à¶¸ à¶¯
à¶Ńà¶º à¶ľ
Ġà¶¸à¶ľ à¶©
Ġt ype
Ġ7 2
ril anka
ĠMah a
al ity
Ġà¶ľà¶« à¶ļ
Ġà¶ħà·Ħ à¶ľà¶±
Ġà¶ĳà¶¯ à¶Ń
ou gh
el f
et y
ur y
Ġagain st
à¶ľà¶¸ à¶ºà¶§
ĠS up
am ent
........ ....
à¶ĵ à¶Ń
à¶Ńà¶ļ à¶ºà¶±
Ġà¶ĩà¶» à¶ľ
à¶®à¶ļ à¶®
u ri
à¶« à¶¸à¶º
id er
Ġà¶ĭà¶´ à·ĥà¶¸
6 4
V D
v ent
Ġà¶´à·ĥ à¶§
Ġà¶ħà·ĥ à¶·
à¶¢à¶± à¶´à¶Ń
Ġà·ħà¶Ł à¶¸
ank an
Ġ right
à·ı à·Ļ
Ġà¶ħà¶´ à¶§à¶Ń
======== ========
à·ĥà¶½ à¶¸
v ice
à¶ĳ à¶¸à¶ľ
g er
à·Ģà¶± à¶Ń
à¶ļà¶» à·Ģà¶±
à¶¢à¶± à¶±
us s
ht ml
Ġab out
à¶ľà¶º à¶Ń
ĠS k
ï ¼
à·ħ à¶ºà¶±
à·ħ à·Ħà¶ļ
ĠD r
Th is
p r
Ġà¶´à·ħ à¶ļà¶»à¶±
p le
à¶¯ à·Ģà¶½à¶§
à¶´ à¶ºà¶Ń
à¶´ à¶»à¶º
à¶¶ à¶ľ
Ġs ex
ast er
f l
om bo
Ġà¶Ńà¶¯ à¶¶à¶½
Ġà¶ħà¶´ à¶¸à¶«
Ġà¶´à¶§ à·Ģ
ak ing
à¶»à·Ģ à¶«à¶º
um an
à·Ħ à¶ļà¶ºà¶±
Ġà·ĥà¶³à·Ħà¶± à¶ļ
ĠG r
en se
à·Ĭ.... ..
Ġà¶¯ à·Ħà¶±
à·ħ à¶¸à¶º
Ġv is
à¶´ à¶±à¶Ń
Ġà¶» à¶¯à·Ģ
à¶Ł à¶ºà¶ļ
Ġà¶« à¶ºà¶ļ
à¶¢ à¶¹
à¶Ńà¶» à¶¯
à¶§à¶Ń à¶¸
à¶Ľ à¶±à¶ºà¶ļ
Ġs e
ord er
p s
r ol
à·ĵ âĢĿ
Ġà¶¯ à¶¸à¶½
Ġà·Ħà¶» à·Ģà¶±
ĠF l
: )
à¶ħ à¶¢
à¶Ńà¶± à¶ºà¶±
ĠA ustral
Ġcon s
Ġà¶º à·Ģà¶±à·Ģ
Ġ8 9
Ġà¶¯à·Ħà·ĥ à¶ļà¶§
Ġà¶ĳ à¶±à¶ļà¶¸
Ġà¶ł à¶¸à¶Ń
Ġà¶īà·Ħà·ħ à¶º
p or
à¶® à¶»à¶º
Ġth an
il es
re ad
Ġà¶ºà¶§ à¶§
Ġwh en
Ġà¶ľà¶Ł à¶§
à¶Ĩ à¶»à¶¸
à·ħà¶¯ à¶´
5 4
à·Ĵ /
à¶ļ à¶½à¶ļ
8 3
à¶´ à¶»à¶ºà¶ļ
Ġà¶º à·Ħà¶±
à·Ģà¶½ à·Ģ
Ġà¶ļà¶» à·Ģà¶º
Ġà¶¸à·Ħ à·ħ
Ġa ct
Ġi Phone
sp ot
à¶ļ à¶§à¶º
Ġ195 2
ĠIntern et
v e
à¶» à¶»à¶Ń
ar s
à¶¯ à¶©
ĠA g
d e
à¶º à¶Ńà¶º
al s
Ġv ideo
oh n
E S
o f
Ù ĩ
à¶¢ à¶½à¶º
Ġm y
oll ow
à¶Ń à¶±à¶¸
Ġà·Ħ à·Ĥ
ist er
Ñ ı
ĠT ag
v ers
Ġà¶ħ à¶ļà¶»
Ġà¶ħ à¶¥
à·Ħà·ĥ à¶ļ
à·Ģ à¶¥
Ġà¶ļ à¶±à·ĥ
Ġà·Ģà¶© à¶±
c k
l a
Ġà¶ĳà¶º à¶¸
Ġà·ĥà¶¸ à¶´
Ġb log
Ġl ink
Ġà¶¢à¶±à¶ľ à·Ħà¶«à¶º
Ä ģ
à¶ļ à·Ģà¶¯
à·ĬâĢ ľ
un a
ĠV ideos
à¶¯ à¶ľà¶±
ad a
uc k
Ù ħ
à·Ŀ âĢĻ
Ġà¶ĳà¶ļ à¶±à¶¸
Ġc ricket
Ġh er
? âĢĻ
à¶±à¶ºà¶ļ à¶¯
Ġà¶Ŀ à¶«
Ġà¶¯à¶Ł à¶½à¶±
9 7
à¶ħ à·ģ
Ġà¶ĩà·ĥ à·ħ
Ġà¶ĩà¶³ à¶±
ur a
Ġ197 5
W h
t op
Ġà¶¶à·Ģ à¶§à¶º
à¶¸à¶½ à¶Ń
200 7
ep t
à·ĥ à¶»à¶Ń
Ġà¶¸ à·ĥà¶ļ
à¶±à·Ģ à¶¸
Ġc all
à¶ľ à·ĥà¶¸
à·Ħà¶» à¶±
Ġ16 0
Ġà¶¯ à·ĥà¶±
Ġà·ĥà¶¸ à·Ģ
re am
Ġà¶Ĩà¶ºà¶Ńà¶± à¶ºà¶±
Ñ ĭ
à¶»à·Ģà¶± à¶Ń
2 000
Ġà¶Ī à¶±
our ce
Ġà·ĥà·Ħà¶ľà¶Ń à·Ģ
g ed
à¶« à¶ļà¶§
à·Ĥ à¶¸à·Ģ
le ft
Ġà¶±à¶»à¶ļ à¶º
à¶ľ à¶±à¶ºà¶§
Ġà¶§ à¶ļ
ir us
eop le
I t
à·Ĭ à·ĬâĢį
Ġà¶¯à¶¸ à¶±à·Ģ
Ġà¶¯à·Ħ à¶ºà¶ļà¶§
I P
r or
Ġà¶¸ à¶¬
Ġà¶Ĵ à¶»
Ġà·ĥà·Ħ à·ĥ
à¶ºà¶¸ à¶ºà¶±
ĠF ile
Ġ18 15
ĠO S
ce pt
... "
Ġà¶ħà¶© à¶±
Ġà·Ģà¶§ à·Ģ
à¶»à¶¶ à¶½à¶º
ublish ed
à¶½ à¶©
Ġ5 3
ĠB e
Ġà¶¸à·Ħà¶»à·Ħ à¶Ńà¶±
Ġà·Ģà·Ħ à¶ľ
im a
à·Ģà¶Ń à¶§
à¶½à¶ļ à¶¸
à¶»à¶¯ à·Ģ
ĠN ational
à¶Ń à¶¥à¶º
Ġà¶± à¶Łà¶±
à¶¶ à¶»à¶ºà¶ļ
à·ģ à¶±à·Ģ
à·ĳ "
Ġà·ĥà·Ħ à¶ºà¶ļ
Ġà¶ħà¶º à·Ģà¶½
Ġà¶ļà¶© à·Ģ
Ġà¶ļà·Ģà¶» à¶ļ
Ġà¶ĸà·Ĥ à¶°à¶ºà¶ļ
Ġà¶¶à¶¹ à¶»
à·Ķ ;
Ġs pe
Ġp ass
Ġà¶ĭ à¶º
ĠP C
Ġh igh
evelop ment
à¶»à¶¯ à¶¬
form ation
ener al
ĠUN P
ĠSil va
Ġà¶ĩ à·Ģà¶±
Ġà¶ļà¶½ à¶¸à¶±
ĠC D
Ġg ame
à·Ŀ )
ĠG un
Ġent ry
Ġà¶Ķà¶º à¶ľ
à¶Ŀ à¶ļ
Ġà¶¯à·Ħ à¶±à¶º
Ġà¶ļ à·Ħà¶§
à¶ī à·Ħà·ħ
à¶¢à¶º à·Ģà¶»
Ġd ev
ĠF eat
9 8
U n
Ġà¶Ĩ à¶ľà¶¸à¶±
Ġo b
à¶¯à¶½à¶ļ à¶§
à¶¶ à·Ģà¶±
al ign
ĠS ystem
Ġf acebook
Ġà¶»à¶® à¶ºà¶§
9 6
Ġs ite
Ġ7 8
Ġl angu
Ġph ot
Ġà¶½ à¶Ŀ
Ġà·Ģà¶½à¶§ à¶¯
ĠC ar
Ġà¶¢à¶½ à¶¢
Ð ²
Ġà·Ĩ à¶±
à·Ģà·Ħ à¶½à¶ļ
Ġà·Ģà¶´ à·ĥà¶»
ĠPhot os
Ġà¶ľ à¶¢
à¶Ńà¶» à¶ľ
en n
Ġà·ĥà¶¯à·Ħ à¶§à¶¸
à·ĥà¶½à¶ļ à¶§
? )
ģ £
à¶ºà¶ļ à·Ģà¶»
Ġc apt
un t
Ġà·Ħà¶Ńà¶» à·Ģà¶±
Ġst r
à¶» à¶¸à¶§
Ġà¶» à¶¸à¶«
à¶½à¶± à¶¸à¶º
il ity
à·Ģà¶»à¶« à¶ºà¶ļà¶§
A r
à¶» à¶´à¶±
à·Ķ ....
à¶¶ à¶¯à¶º
à·Ĥ à¶Ńà¶¸
ur al
P U
à¶¶ à¶´
Ġà¶Ĵ à¶ļà¶¸
à¶Ľ à·ĥ
A C
à·ĥ à¶±à¶ļ
Ġà¶º à·ģ
ĠN umber
ir d
sh ip
Ġà¶Ĭ à¶½
Ġth ere
à¶ĭ à¶´à¶¸
Ġà¶±à·Ģà¶ļ à¶®
) :
Ã ¡
ĠB o
à¶»à·Ħ à¶¸
ĠA f
Ġin stall
à¶ĳ à¶Ńà¶±
Ġà¶ļà¶§ à¶ļà¶Ń
qu e
Ġà¶ĭà¶ļ à·Ħ
Ġà¶ĭà¶¯ à·Ħà·ĥ
à¶ĩ à·Ģ
à¶¸à·Ħ à¶¢à¶±
9 5
g y
: :
Ġà¶Ĵ à¶º
à¶ļà¶º à¶Ń
Ġc o
à¶½ à¶¥à¶ºà¶±
à¶ļà¶º à¶º
Ġà·Ħà¶¯à·Ģà¶Ń à¶§
iss ion
E n
à¶¸ à¶¸à¶º
in o
à¶Ĩ à·Ģ
à¶¡ à¶±à¶º
em b
Ġun der
E N
à¶» à¶½à¶±
ĠW adi
Ġà¶ĩà¶Ł à¶½
à¶ļ à¶©à¶ļ
à·Ļ à·Ł
Ġà·ĥà¶½à¶ļ à¶¸
Ġà¶īà·Ģà¶» à¶ºà¶ļ
Ġà·Ħ à¶ºà¶ļà¶§
Ġà¶» à¶ľà¶´
200 6
7 1
Ġ ðŁ
à·Ħ à¶»à¶º
à¶· à¶«
Ġà·Ģà¶ľ à·Ģ
ĠS outh
Ġc ount
ĠP ri
à¶Ńà¶» à¶ºà¶ļà¶§
Ġà¶»à¶¢ à¶ļ
Ġà¶ħà¶±à·Ģ à·ĥà¶»
Ġà¶ħà¶»à¶ľà¶½ à¶ºà¶§
a id
r ome
à¶Ń à¶ļà¶»à¶«à¶º
à¶´ à¶«à¶ºà¶ļ
à¶´ à·Ħà¶ļ
à¶Ĩ à¶¯à¶»à¶º
Ġ if
à¶ľà¶Ń à·Ħ
à¶ħ à¶¶
Ġk ey
Ġà·ģ à·Ĥ
à¶°à¶± à¶ľ
Ġà¶¶à·Ħ à¶§
E C
T C
Ġà¶ĩ à¶½à¶±
Ġà¶ĳà¶ļ à·Ģà¶»à¶¸
à¶»à·Ģ à¶ºà¶§
Ġà¶ħà·Ħ à·Ģà¶»
ri b
Ġ8 3
ograph y
l i
à¶ºà¶½ à·Ģà¶Ń
à¶¸à¶º à¶Ń
om en
ĠĠĠĠ ĠĠ
ot t
Ġ197 6
Ġr ating
n et
Ġ: (
res ent
M P
à·Ģà¶± à¶¯
Ġà¶ļà¶½ à·Ģà¶¸
Ġm ay
à¶³ à·Ħ
Ġà¶¢ à·ĥ
Ġà·ĥà¶¸ à¶ºà¶ļ
in ess
O R
Ġà¶¢ à¶½à¶ºà¶§
6 2
a u
à ¥
âĢį .
Ġà·Ģà·ĥ à¶»à¶ļà¶¸
ĠF m
à·Ģ à¶°
Ġà¶¸ à¶»à¶«à¶ºà¶ļ
à·Ģà¶½ à¶¸à¶ļ
à¶Ńà¶º à¶¸
à¶ī à·Ģà·ĥ
ĠM al
Ġm ost
Ġà¶ľà·Ħ à¶ľà¶±
Ġsu ch
à¶Ń à¶´à¶Ń
à¶¹ à¶º
à·Ĥà¶ļ à·Ģà¶»
Ġin clud
we en
y l
à·ļ âĢ¦.
Ġà¶Ĩ à·Ģà¶»à¶«à¶ºà¶ļ
à¶Ĩ à¶¯à¶»
S c
Ġ ......
à¶ºà¶¸ à¶ºà¶ļ
à¶ºà·ĥ à¶±à¶º
Ġà¶±à·ħ à¶½
echn ology
U R
Ġà¶Ĵà¶ļ à¶§à¶Ń
ey lon
ib le
Ġà¶´à¶» à·Ģ
à¶»à·ħ à¶º
d a
à· ´
Ġà¶º à·Ģà¶¸
Ġ6 8
à·Ĵ... ...
h am
à¶± à¶¶
à¶° à·Ģà¶½
à·Ģà·ĥ à¶»à¶ļ
Ġà¶ł à¶º
Ġà¶ķ à¶½à¶±
ĠL ED
Ġà¶ļ à·Ģà¶±
à¶ºà¶± à¶ºà¶§
à·Ģà¶º à·ħ
à·Ĵ. (
Ġà¶ī à¶«
at ure
Ġà¶»à¶Ł à·Ħà¶½
à¶ĳ à¶ļà¶ļ
ĠP re
à¶»à¶· à·Ģà¶º
bo ard
f o
Ġà¶´à·ĥ à·ħ
Ġà¶Ńà¶¯ à¶¶à¶¯à¶º
A D
à¶© à¶ħà¶Ń
Ġà¶ļà¶» à·Ģà¶¸
Ġd ec
Ġà·ĥ à·ģ
à¶¢ à¶ºà¶Ń
Ġà¶¸à·Ħ à¶»à¶¢
à¶ĩ à¶«
ĠF ree
Ġà¶Ķà·ĥ à·Ģà¶±
m y
s c
Ġà¶ħà¶¸ à¶»à¶«
9 2
H iru
S elect
à·ı âĢľ
Ġà¶ĳ à·Ģà¶»
Ġà¶¶à¶½ à¶´à¶±
Ġà¶ħà¶Ń à¶´à¶Ń
à¶Ńà¶º à¶¯
à¶»à¶´à¶§ à·Ģà¶½
à® °
Ġà·Ģ à¶½à¶º
Ġs o
ĠN ov
200 4
n ect
à·Ĳ "
à¶´ à¶½à¶ļ
in es
ĠA mer
Ġà¶´à¶§ à·Ģà¶±
6 1
T ube
f ore
à·Ģ à¶¢
à·ħ à·Ģà¶»à¶ļ
à·Ģà¶´ à·Ħà·ĥ
ĠEng land
Ù Ī
Ġà¶ĭà¶¯ à¶¸
Ġas s
E x
L e
Ġà¶ĳ à¶§
Ġà¶½à¶¶ à¶´
Ġà¶Ĵà¶ļ à¶¸à¶Ń
à¶® à·ĥ
Ġ( "
ol ution
E O
Ġm on
ĠB angladesh
L OM
n er
à¶¸ à¶¢
à·Ĥ à¶°
Ġà¶»à·ĥ à¶ºà¶ļ
à¶ľà¶« à¶±à¶º
ant s
à·ĥ à¶§à¶Ń
Ġà¶´ à¶ľ
à¶±à·Ģ à·Ģ
Ġà·ĥà·Ħ à¶ľà¶Ńà¶º
Ġà¶« à¶ºà¶§
à·ĥ à¶¢à¶±à¶ļ
à·Ļ à·Ļ
Ġà¶¸à¶ľ à¶¯
blog spot
à¶º à¶¸à¶ļà¶§
à¶±à·Ģ à¶ļ
à¶´à¶Ń à¶¸
à·Ĥà¶« à·Ģ
ĠR ate
ath er
7 3
à·Ĥ à¶»à¶Ń
Ġà¶ľà¶Ń à¶ļ
Ġà¶ħà¶© à¶´à¶«
Ġthe m
à¶»à¶ľ à·Ħ
oc al
à·ĥ à·Ħà¶º
à¶¯ à¶¸à¶ļ
Ġà¶Ńà¶» à¶¶
ĠR an
? .
à¶± à¶»à¶½
à·ģ à·Ģà¶ºà¶ļ
à·Ĵà¶Ĥ .
Ġà¶ļà¶»à¶½ à¶Ń
à¶ĩ à¶ºà¶§
ĠP ar
ĠI MD
à¶ļ à¶ºà¶ļà¶§
à¶° à¶¸à¶º
ĠS e
Ġà¶Ī à¶§
Ġà¶¶ à·ħ
Ġà¶ĳà¶½ à·Ģà¶±
Ġà¶ħà¶ľ à¶¶
Ġà¶¯à·Ħ à¶¸à¶ļ
ĠJ an
8 4
w ay
à¶¯ à¶ľà¶¸
Ġà¶± à¶ºà¶±
à¶¶ à¶½à¶ºà¶ļ
à¶ĳ à¶´à¶¸à¶«à¶ļ
à¶»à¶« à¶ļ
ĠI T
ĠTr ans
) )
Ġà·ĥà¶³ à¶»
à¶½à¶± à¶ºà¶ļà¶§
Ġà¶Ńà¶» à·Ħà¶ļ
ic an
Ġà¶ļà¶© à·Ģà¶½
LOM BO
8 2
ĠP M
Ġà¶ħà¶ľ à¶·
R ead
à·ĥ à¶Ł
Ġà¶ĩ à¶«à·Ģ
Ġà¶ħà¶Ńà¶» à¶º
Ġ4 000
ĠH istory
Ġcl ass
ĠIS BN
h ar
Ġà¶ĭ à¶¯à¶»
à¶ĳ à·Ģà¶ļà¶§
Ġ6 9
à¶¯à·Ħ à¶¸à¶§
Ġacc ount
à¶ļ à·Ģà¶½à¶§
Ġà¶ļ à¶§à¶Ń
Ġà¶¯ à·Ħà¶»
à·ħ à¶ļà¶§
Ġà¶Ĩ à¶Ľ
à¶»à¶¸ à¶ºà¶º
Ġph one
Ġ 000
le x
à·ģà¶ļ à·Ģà¶»à¶º
ur ing
uth or
B S
T r
Ġ ]
Ġ ì
à¶ľ à¶¸à¶ļà¶§
Ġà¶¶ à¶§à¶»
à·Ŀ âĢĿ
ĠS m
Ġà¶Ī à¶º
ir c
Ġpro gram
o om
it or
Ġ18 0
ff ect
âĢ Ľ
Ġà¶± à·Ħà¶»
2 50
U N
Ġà¶ķ à¶´
Ġà¶ħà¶· à¶ºà¶ľ
Ġà¶¶ à¶»à·Ģ
ĠF ilm
ak istan
à¶° à¶ľ
Ġà¶ĭ à·ĥà¶¸
à¶ł à¶ļà¶ºà¶ļ
Ġà¶Ĩà¶¯à¶» à¶ºà¶§
à·ľà¶Ĥ -
Ë ľ
à·Ĵ âĢĺ
Ġà·Ģ à¶¸à¶Ń
à¶ľà¶± à¶ºà¶ļ
in ce
à¶¥ à·Ģà¶»à¶º
Ġre m
à¶±à¶§ à·Ģà¶Ń
Ġ19 30
ĠC or
à¶´à¶ºà¶ļ à¶¸
ĠK ar
Ġà¶» à·Ħà¶ļ
à¶ĳ à·Ģà¶±
à¶Ĩ à¶½
Ġf ilm
Ġan y
Ġat t
CO LOMBO
ĠD iv
ĠSt ud
Ġ196 8
ĠCl ick
7 2
E T
Ġà¶ ¬
Ġà¶© à¶½à·ĥ
à¶ĭ à¶½
Ġd if
ĠK um
Ġà¶½à¶ľ à¶¯
riv e
à¶º à¶¢à¶±à¶ļ
à¶© à¶ļà¶»
à¶ºà¶½ à¶½
à¶»à¶« à·ģ
and ard
à¶¢à¶ļ à·Ģà¶»
Ġà¶¯à·Ħ à¶©
Ĥ ¬
Ġà¶± à¶¸à¶º
à¶° à·Ģà¶±
à¶¸à¶ļ à¶·
" |
à¶± à¶¸à¶§
Ġà¶± à·Ĥ
à·Ŀ ....
Ġà¶´à¶» à¶Ńà¶»à¶ºà¶ļ
Ġà¶ķ à¶º
à¶Ľ à¶»
**** ****
Ġà·Ħ à·ĥà¶±
à¶ļà¶» à¶ºà¶±
Ġw orld
ĠG ame
ĠD irect
à¶§ à¶¸à¶º
ĠS ur
Ġin to
ist s
à¶« à·Ģà¶½à¶§
à¶ºà¶± à¶§
on y
Ġc ap
à¶»à·ħ à¶§
ul a
Ġà¶ĭ à¶¶à¶½
à¶Ńà¶¸ à¶±à¶º
âĢĿ .
it iz
Ġà¶Ńà·Ħà¶± à¶¸à¶ļ
à·ĥà·Ħ à¶ºà¶ļ
Ġà¶ħà¶§ à·Ģà¶±
Ġpro t
Ġà·Ģ à¶¯à¶ºà¶ļ
Ġà¶ľ à·Ģà¶ºà¶±
à·Ĥ à¶ļà¶Ń
à¶ħ à·ħ
à·Ģà¶ºà¶ļ à¶¯
ĠN o
4 00
à·Ĵ ),
Ġà·Ģà¶§ à¶ºà¶§
ateg ories
d ay
à¶Ń à¶½à¶§
à·Ĥ à·Ģà¶Ń
Ġs l
A l
à¶¸ à·Ģà¶»
Ġà¶ļ à¶±à¶§
ĠĠĠĠ ĠĠĠ
Ġà¶¸ à¶©à¶ļ
Ġà¶± à¶ľà¶¸
Ġà¶Ń à¶½à¶ºà¶ļ
à·ģ à¶«à¶ºà¶ļ
à¶° à·Ģà¶½à¶§
à¶»à¶º à¶¸
Ġà¶¶à¶½ à¶ľ
Ġl a
Ġà¶Ĩà¶¯à¶» à·Ģà¶±
a à¶§
Ġ ext
à¶ļ à·Ģà¶»
Ġà·ĥ à¶»à¶«à¶º
à·ĵ à·Ĵ
à¶¢ à¶ºà¶¸
Ġà¶ħà¶´ à¶½
à¶® à¶Ń
à¶ļà¶½ à¶ºà¶ļ
Ġà¶´à¶§ à¶ºà¶ļ
Ġà¶ļà¶» à¶½à¶º
Ġà¶±à¶¸ à¶Ń
al t
Ġb ook
ĠW e
à¶¸à·Ħ à¶«
ĠApp le
à¶ľ à¶½à¶ļ
à¶´à¶Ń à¶±
à¶ĳ à¶¸à¶±
à·Ĩ à¶½
Ġ5 9
od ay
pl ay
Ġbet ween
Ġrating Give
A L
à·Ģ à·Ģà¶Ń
à¶´ à¶ļà¶»
Ġà¶Ĩ à·ĥà¶¸
ĠD ec
à¶© à¶ľà·ĥ
Ġà¶¸à¶¸ à¶¯
Ġà¶Ĵà¶ļ à¶ļà¶ºà¶§
Ġà¶ĭà¶´à¶¯ à·Ģà¶±
us iness
ä º
à¶° à¶ļà¶ºà¶±
à·ĥà¶» à¶½
ri end
Ġ12 5
Ġn ame
P ro
à¶¢ à¶·
ĠC up
Ġb ack
ĠB ro
ĠI t
à¶¯ à¶«
à¶³ à¶ľà¶±
Ġà¶ħà¶Ń à¶´à¶º
à·Ĩ à¶±
Ġà¶ĭà¶¯ à¶»à¶º
ĠM edia
im al
uc ation
7 4
u ch
Ġà¶Ĵ à·Ħ
à·Ĭ. "
Ġà¶Ĩà¶ºà¶Ńà¶± à¶ºà¶ļà¶§
ath a
ah a
â ĸ
à¶® à¶ľ
ĠD VD
à¶´à·Ħ à¶¯
Ġ196 4
tern ational
M B
à¶¯ à·ħ
it ch
Ġc he
à·ĥà·Ģ à¶ºà¶ļà¶§
Ġ196 7
row ser
Ġà¶Ń à¶«à¶ļ
Ġà¶½à¶¶ à¶Ń
à¶º à¶©
Ġà¶ļà·ħ à¶¹
à¶½à¶ļ à¶«
ĠC he
Ġst yle
V ideo
Ġà¶· à¶¯
ĠI C
à® ¾
Ġch ar
ĠInd ian
6 3
x x
Ġà·Ħà¶» à·Ħà¶§
as ed
iv es
Ñ Į
Ġà·Ģ à·Ħà¶»
Ġà¶Ń à¶½à¶Ń
Ġà¶Ķ à¶ºà¶Ń
à¶«à¶º à¶Ń
Ġà¶¸à¶± à¶»à¶¸
Ġ3 50
Ġà¶´à¶± à·Ħ
Ġà·Ģà¶¸ à¶±à¶º
per t
à·Ļ "
à¶ľà¶½ à¶§
Ġà¶´à·Ħ à¶Ńà¶§
le ase
et er
à¶´ à¶ļà¶º
Ġà¶± à¶Ńà¶»à·Ģ
ĠV im
i ous
Â »
à·Ħ à¶±à·Ģà¶½
à·Ģà¶» à¶´
ĠA t
Ġ9 2
Ġpro f
ĠQ u
p ect
à¶ºà¶ļ à¶§à¶¸
Ġà¶ĳà¶ļ à¶ľà¶Ń
ĠS l
as on
Ġ196 2
Û Į
Ġà¶© à¶ľ
Ġc ode
à¶Ĭ à¶¢
à¶ºà·Ħ à¶´à¶Ń
à¶Ń à·ħ
à¶ļ à¶Ńà¶»
à·ļ ).
Ġà·ĥ à¶ľà¶»
Ġà·ĥà¶¸ à¶Ńà¶½
Ġà¶ĭ à·ĥà¶ļ
ĠB ook
à¶Ĭ à·ħà¶Łà¶§
ðŁĳĮðŁĳĮðŁĳĮðŁĳĮðŁĳĮðŁĳĮðŁĳĮðŁĳĮðŁĳĮðŁĳĮðŁĳĮðŁĳĮðŁĳĮðŁĳĮðŁĳĮðŁĳĮ ðŁĳĮðŁĳĮðŁĳĮðŁĳĮðŁĳĮðŁĳĮðŁĳĮðŁĳĮðŁĳĮðŁĳĮðŁĳĮðŁĳĮðŁĳĮðŁĳĮðŁĳĮðŁĳĮ
Ġà·ĥà¶¸ à¶§
à¶»à·ĥ à¶¸
Ġà·Ģà¶© à¶¸
ĠA p
Ġà¶Ĩà¶ľà¶¸ à¶±à¶º
à¶Ĭ à·ħà¶Ł
Ġ197 3
T S
Ġà·Ģ à·ĥà¶º
Ġà¶Ĭà¶§ à¶´à·ĥ
Ġc ar
à¶ºà¶ºà¶± à¶ºà¶±
ĠC S
Ġà¶Ķà·ĥ à¶´
Ġre p
g ossip
o le
y e
à¶» à·Ģà¶ļ
Ġà·Ģ à¶¯à¶º
Ġà¶Ķ à¶¸
à¶ħ à¶Ł
Ġà¶¸à¶Ń à¶¸
à¶¨ à·Ģ
itiz en
8 1
Ð ¼
à¶¯ à¶¢à¶±à¶ļ
Ġà¶ļ à¶±à¶Ń
Ġà·ĥà¶¸ à¶¶à¶»
à·Ģà¶ļ à¶ºà¶ļ
Ġà¶´à·ħ à¶³
à·ģ à·Ģà¶ºà¶§
Ġà¶¸à·ħ à¶ľ
à·Ģ à¶¸à¶§
à¶´ à¶¸à¶º
Ġà·ĥà¶¸ à¶®
Ġà¶»à¶¢ à·Ģ
ĠM ac
à¶ºà·Ģà·ĥ à¶§
im b
Ġà¶µ à¶½à¶ļ
. -
A d
u ro
Ġ end
à¶» à¶łà¶±
à¶Ń à¶¶à¶±
à¶© à¶Ńà¶½
à·ģ à¶ļà¶Ń
Ġà¶ī à¶º
.. "
Ġà¶¸à¶ľ à¶§
ĠM ed
X X
à·ĳ !
Ġà·Ģà¶ľ à¶º
Ġm at
Ġ194 5
Ġà¶ħà¶Ńà¶» à¶¯
or a
ĠA ir
Ġw ould
ĠN etwork
ĠW ij
Ġà¶ħà¶¸à¶Ń à¶ļà·Ģ
ur ity
ĠRes p
l ing
Ġà¶¯ à¶©à¶º
Ġà¶ĩà¶Ń à¶¸
à¶´à¶Ń à¶±à¶º
à¶· à·Ģà¶±
Ġà¶¸à¶Ń à¶°
à¶¯à¶» à¶ºà¶§
ĠG e
ay ake
Ġà¶ĳà¶±à¶ļ à¶½
" )
à¶Ń à¶§à¶Ń
Ġà¶± à·Ħà¶º
à¶¶ à¶½à¶ļ
à¶¢ à¶±à¶¸
Ġà¶¢ à¶ºà¶½à¶Ń
er ing
ĠA M
Ġd et
Ġ11 3
. âĢĻ
h i
à·Ļ )
Ġf un
op e
ain t
à¶¸ à¶½à·ĥ
à·Ĳ `
Ġ9 00
ĠO DI
a use
à¶§ à¶¹
Ġà¶± à·Ģà¶¯
ĠI D
Ġd r
Ġd ep
ac y
ĠJ ava
aw e
t d
à·ĥ à¶§à¶¸
à¶§ à¶ļà¶¸
Ġà·ĥ à·ĥà¶³
à·ĥà¶½ à¶ºà¶ļ
Ġ9 8
Ġ; )
Ġà¶Ń à·Ģà¶»
ĠL ike
Ġb r
ĠJ ohn
Ġ197 4
à¶¢à¶±à¶ºà¶ļ à¶§
b al
à·Ĭ *
à·ĥ à¶ºà¶Ń
Ġà·Ģà¶½ à¶§à¶º
Ġc r
ĠM ost
ĠP art
amp le
overn ment
F or
k ara
Ġà¶ļà¶»à¶± à¶½à¶¯
à·Ħà¶½ à¶ºà¶ļ
Ġs et
Ġs ch
Ġw rit
ĠO ct
Ġ196 9
Ġà·Ģà¶ł à¶±à¶ºà¶§
ÂłÂł ÂłÂł
u ally
à·Ļ âĢ¦
Ġà·Ģ à·ħà¶³
ĠA ct
Ġc opy
ĠR ec
Ġ9 6
Ġà¶±à¶§ à¶¹
w n
y d
à¶§ à¶ľà¶±
Ġà¶ļ à·Ĥ
Ġà¶ħ à¶¢à¶±
Ġà¶¸à¶Ń à¶ºà¶±
un ic
Ġà·Ģà¶¯ à¶±à¶ļ
Ġà·Ħà¶¯à·Ģà¶Ń à¶ļ
Ġà¶ħ à¶»à¶«
à·Ĥ à¶·
Ġà¶Ĵ à·ĥ
Ġà¶ĭ à¶»à¶ľ
Ġà¶ºà¶±à·Ģ à¶¯
Ġà·Ģà·Ħ à¶±à¶º
à¶º à¶ľà¶½
à·Ħ à¶ļà¶Ń
Ġà¶ĭà¶´ à¶¯à·Ģ
à¶©à¶ļ à¶ºà¶ļ
og n
Ġ194 0
b ack
à·ļ ......
Ġà·ĥ à¶»à¶±
à¶«à¶º à¶º
ĠH ar
Ġà¶¢à¶±à¶ľ à·Ħà¶±
à¶Ń à·Ģà¶»
Ġà¶ĳà¶ļ à·Ħ
Ġà¶ł à¶¸à¶½
Ġà¶Ńà¶¸à¶± à¶§
A B
W S
Ġà¶» à¶¯à¶ľ
Ġà·ĥà¶¸ à¶»à¶ļ
Ġà·ģ à¶Ńà¶ļà¶º
à¶ļà¶½ à¶Ń
Ġg roup
++ ++
D F
à¶´ à¶ļà¶»à¶«à¶º
à¶´ à·ħà¶ļ
in ia
ĠB and
Ġde g
r en
Ġà¶´à¶¯ à·Ģà¶±
ĠC ricket
Ġà¶´à¶½ à¶ļà¶»à¶±
à¶»à¶ļà¶® à¶±à¶ºà¶ļ
ĠâĢĿ âĢĻ
à¶¯ à¶·
à·Ĥ à¶±à¶ºà¶ļ
à¶ħ à·Ħà·ĥ
à·Ķà¶Ĥ -
Ġà·Ģ à¶¸à¶§
à¶Ńà¶» à¶ºà¶±
à¶ľà¶º à¶¯
Ġà·Ħà¶» à·Ģà¶Ń
Ġà¶ķ à¶´à¶±
à¶»à¶ľà·Ħ à¶ļà¶±
à¶Ńà¶» à¶Ń
one y
Ġà¶ĩ à·ĥà¶ļ
à¶ļà¶» à¶ºà¶ļ
ĠM ov
f ul
à¶§ à¶±à¶¸
Ġà¶ħà¶» à¶¶à¶º
ic les
Ġc ategory
à¶ºà·Ģà¶» à¶ºà¶±
Ġn umber
à·ĬâĢĻ âĢĻ
200 1
. //
à·Ģ à·ħà¶ļ
à¶Ń à¶©
à¶Ń à¶§à¶º
âĢ ļ
à¶ł à·Ģ
Ġà¶§ à¶Ń
à¶ĳ à¶´
Ġà¶ħà·ĥ à¶½à¶¯
à¶¨ à¶ºà¶§
à¶Ŀ à¶«à¶ļ
ĠYou Tube
o or
Ġà¶ĳ à¶¢à¶±
à¶»à¶¸ à¶«à¶ºà¶ļ
Ġà¶ħà¶º à¶®
Ġin t
à¶©à¶¶ à¶½à¶±
P P
à¶ľ à¶Ł
Ġà¶½ à·Ģà¶«
Ġà¶ļà¶»à¶±à·Ģ à¶§
à·Ĵ. âĢĻ
on es
Ġc ur
Ġw ord
à¶±à·Ħ à·Ģà¶ļ
Ġg o
H e
à¶¸à¶± à¶§à¶¸
ic ro
Ġp ar
à¶§à·ĥ à¶ļà¶§
Ġà¶Ńà¶¯ à¶¶à¶¯
Ġbe ing
ĠAr ch
Ġà¶ļ à¶¸à¶Ń
à¶Ĩ à¶Ń
Ġ7 6
ĠJ ul
Ġsp ec
Ġà¶ĭà¶¹ à·Ģ
Ġe lect
Ġà¶ĳà¶±à¶ļ à¶±
/ =
E L
P H
S inhala
Ġà¶ħ à·ĥà¶»à¶«à¶º
à¶¯à¶» à·Ģà¶»
Ġà¶´à¶¸à¶« à¶§
Ġà·Ģà¶§ à¶ºà¶ļ
Ġà¶±à¶© à¶º
Ġà·ĥà¶´ à¶ºà¶¸
aw an
TM L
à¶º à¶¯à¶»
à¶ļ à¶ºà¶§à¶¸
à·Ħà¶½ à¶ºà¶§
ĠW est
Ø ¯
Ġà¶± à·Ģà¶¸
Ġà¶Ķà¶¶ à¶¸
in ux
ĠIS O
à¶ºà¶± à·Ģà¶½
à¶¸à¶§ à¶±à¶¸
ĠS rilanka
ad er
ri pt
Ġ à·Ĭ
à¶½ à¶»à¶Ń
ĠI m
Ġ11 0
Ġà¶¢à¶±à¶¸à¶Ń à¶º
Ġà¶Ĭà¶½à¶Ł à¶§
âĢĶ âĢĶ
i am
à¶½ à¶´à¶»
Ġà¶Ķà¶¶ à¶±
Ġw on
Ġ6 7
ig ital
Ġà¶µ à¶½à¶ºà¶ļ
ist ry
ĠâĢ¦ .
à¶ĥ ,
ĠOn line
à·Ħ à¶»à¶ļ
à¶ĭ à¶«
Ġl ike
Ġà·Ģà·Ħ à¶½à¶º
ourn al
n ess
Ð ´
à¶½ à·Ģà¶½à¶¯
Ġà·ĥ à·ĥà¶³à¶±
à¶ľà¶½ à¶ľ
le v
Ġà¶ĭà¶¹ à¶½à¶ľ
ĠAustral ia
à¶° à¶±à·Ģ
à¶»à¶ļ à¶¯
Ġà¶ºà¶± à¶ļà¶¸
Ġà·Ģà¶½ à¶½
le te
Ġ6 3
Ġà¶ĭà¶¹ à¶½à¶§
h an
l ess
à·ĸ -
âĢĿ âĢĿ
Ġà¶Ńà¶»à¶¸ à¶ļà¶§
ĠK ing
Ġ13 0
ĠPh one
ĠMan ag
à·Ģà¶ļ à¶§à¶¸
ĠA wards
ĠM ay
u y
Ġ eng
Ġà·ĥ à¶ºà¶±
à¶ł à¶ºà¶±
Ġth ree
um p
Ġà¶¶à¶© à·Ģ
à¶´à·Ħ à·ħ
aw a
Ġman y
S p
à¶º à¶®
Ġà¶ļ à·ģ
à¶¢à¶± à¶ľ
Ġ19 20
Ġp oint
Ġwh ere
ob er
I M
f or
à¶¯ à¶±à¶ļ
à·ĸ )
à¶ºà¶§ à·Ģà¶Ń
th a
à¶Ńà¶¸ à¶ºà¶±
Ġà¶´à·Ħ à¶§
ĠC eylon
Ġf ree
ir l
ip s
à¶ľà¶«à¶ļ à¶ºà¶§
Ġà¶īà¶©à¶ļ à¶©à¶¸
fer ence
g an
à¶½ à¶ł
à¶° à¶¸à¶±à¶º
Ġà¶ĭ à¶¢
à¶ºà·Ģ à¶ľ
Ġc ent
Ġà¶»à·ĥ à¶¯
à¶±à·Ħ à·ħ
200 2
ram a
res ident
à¶° à¶ºà¶º
Ġà¶Ĭ à·ħà¶ľ
ĠB uddh
Ġà¶ĭà¶© à¶¯
Ġà¶īà¶©à¶ļ à¶©à¶ļ
Ġà¶¯à¶« à·Ħ
à¶ļ à¶ļà¶»à¶«à¶º
à¶¢ à¶ºà¶ļà¶§
or rent
à¶¶à¶½ à¶Ń
ĠI CC
à·ıâĢĻ âĢĻ
Ġpro cess
ib r
à¶© à·Ģà¶±
Ġ- -
Ġh im
Ġà¶į à¶«
l er
Ġà¶ħà¶¯ à¶¸
ĠT amil
à·ĥ à¶¥à¶º
Ġà¶½à¶¶ à¶½
or th
Ġà¶ļà¶§ à¶´
Ġà¶¶à·Ħ à¶ļ
à·Ĭ _
à¶± à¶½à¶º
à¶º à¶¶
à¶¸ à¶¢à¶ºà¶±
Ġà·ĥ à·ĥà¶½
Ġà¶Ķ à¶´à¶»
Ġà¶ļà¶½ à·Ħà¶ļ
Ġà¶¢à¶± à¶±
ĠM od
Ġà·Ħà¶¬ à¶±
Ġon line
âĢ¦âĢ¦ âĢ¦âĢ¦
ĠAd d
Ġà·ĥ à¶Ńà¶»à¶ļ
Ġà¶ĭ à¶¶à¶§
à·Ģà¶» à¶ºà¶§
Ġà¶¸à¶Ń à¶¯
à¶Ĩ à¶´
Ġà¶´à¶½ à¶¯
Ġ7 3
à·ĴâĢĻ âĢĻ
ĠHiru gossip
à¶±à¶ļ à·Ģà¶Ń
Ġà¶´à·ħ à¶ļà·ħ
it er
Ġà¶Ŀ à¶§
Ġd ay
Ġ8 1
à·ħà¶³ à·ĥ
rou gh
ific ation
à·Ģ à¶±à¶ºà¶§
à¶º à¶»à¶º
Ġà¶¯ à·Ĥ
à¶Ĵ à¶ļà¶Ń
ĠC ent
ĠD ay
à·ı.... ...
Re ferences
à¶© à·Ħ
à¶ī à¶³
ĠM usic
Ġà¶ļà¶® à¶±à¶º
à·ħà¶³ à¶´à¶½
Ġ195 8
à·ĵ âĢ¦
Ġà·Ħ à¶ºà·Ģà¶±
Ġà¶¶ à¶»à¶«
ĠC O
Ġ: :
à·ļ /
à¶Ńà·Ģ à¶¸à¶Ń
ĠA c
ðŁĳ į
à® Ł
Ġ196 3
Ġ22 5
ĠFeat ured
Ġà¶¸ à¶¤
Ġà¶± à·Ģà¶½
il le
Ġv i
ry pt
ĠE l
IS BN
% )
à·Ĵ âĢĮ
Ġà¶´ à·Ģà¶±
Ġà¶ľ à·Ħà¶§
Ġà·Ģà¶½ à·Ģà¶½
à¶ľà¶¸ à¶±à¶ºà¶§
Ġf ollow
Ġà¶ħà¶¹ à¶»
oci ety
a ut
à¶Ń à·Ħà¶¸
à¶½ à·Ģà¶¸
Ġà¶ľ à¶ľà¶±
à¶¢ à·Ģà¶½
ĠC itizen
Ġ et
à·Ĳ âĢ¦
Ġà¶ĭ à¶³
à¶±à·Ģ à·Ħà¶»
ĠS w
Ġà·Ģà¶§ à¶½
Ġp age
Ġà¶ħà¶¶ à¶½à¶±
p a
p ut
Ã Ń
ì Ŀ
à·ĳ âĢĿ
à·ĥà¶± à¶ºà¶ļ
at i
ĠF B
Ġg u
Ġ195 3
à¶Į à¶»
Ġyear s
C D
P ublished
S P
à¶»à¶º à¶ľ
Ġà¶¶à¶½ à·ĥà¶¸
Ġà¶ļà¶© à·Ģà·ĥà¶¸
as k
ee k
s a
à¶ľà¶Ń à¶¯
à¶ĩ à¶»
ĠM on
Ġb o
à¶ī à¶ľ
à¶Ŀ à¶»
Ġ9 4
ĠCol ombo
A A
c ont
à·ı à·ı
à·ĥ à¶±à·Ģ
Ġà¶¶ à¶ºà¶§
Ġà¶ĭ à¶·à¶º
Ġà·Ģà¶± à¶±
Ġà¶ļà¶© à¶īà¶¸
Ġh ere
200 3
inh al
à¶ļ à¶·
à·Ħ à¶½à¶ļà¶§
Ġà¶ħ à¶½à¶ļ
à¶»à¶¯ à¶º
ad d
ĠF ire
Ġà¶ĸà·Ĥ à¶°à¶º
à¶ĭà¶¹ à¶§
ĠS un
Ġt ext
um ent
ang ala
à¶½à·Ģà¶ļ à·Ģ
à·Ĵ à·Ĭ
Ġà¶± à·Ģà¶»à¶Ń
Ġà¶¶à¶½ à·ĥ
Ġà¶´à¶» à¶¯à·Ģ
à¶ī à¶¶
ĠC an
ĠIn stit
Ġà¶¸ à·ħà·Ģ
ĠH e
ict ion
Â °
à·ĵ '
Ġà¶ķ à·Ĩ
Ġs im
Ġà¶¶à¶¯ à·Ģ
ot a
à¶±à¶Ľ à¶ºà¶±
I F
k m
r is
à·ģ à¶±à·Ģà¶½
à¶ºà¶± à¶ºà¶±
ĠM in
Ġà¶Ŀ à¶»
ĠIn ter
ach chi
u ary
à·Ķ `
à¶´ à¶½à¶¸
Ġà¶ħà·ĥ à¶¶à¶©
ĠS MS
ĠP H
Ġà·ĥà¶½à¶ļ à¶±à·Ģ
Ī Ĵ
à·Ģ à¶³à¶ļ
à¶¶ à·Ģà¶§
à¶ºà¶± à·Ģà¶§
Ġà¶´à·Ħ à¶Ńà¶»à¶§
ith a
lo od
, âĢĭ
Ġà¶¸ à¶§à¶º
ĠP ress
Ġd ata
-------- --------
ĠAcc ount
à·Ħ à¶ľà¶Ń
à¶« à¶±à·Ģ
it es
Ġà¶ĭà¶¹ à¶Ń
Ġre t
à·ı ).
à·ı. âĢĻ
Ġ1 01
à¶ħ à¶Ńà¶»
ĠA ug
ĠN e
Ġ8 4
Ġà·Ħà¶Ńà¶» à¶§
à·ĥà¶¸à·Ħ à¶»à·Ģ
k y
Â ¼
à¶© à¶ļà¶¸
à¶»à¶¸ à·ģ
Ġà¶Ķà¶¶ à¶§à¶¸
à·ı, ,
Ġà¶¯à·Ģà·ĥ à¶¸
Ġ8 7
ĠRe g
Ġà¶¢à¶±à¶´à¶¯ à¶ºà¶§
à¶Ńà¶» à¶ļà¶»
à¶® à¶¯
Ġà¶ħà·Ģ à¶¸à¶±
Ġà¶Ĭ à·ħà¶¸
Ġà¶¯à·Ħà·ĥ à¶º
ition s
) ;
S A
à¶±à·Ģ à·ĥ
à·Ĥà¶« à·Ģà¶½à¶¯
à¶»à¶ºà¶§ à¶Ń
Ġà¶ĩà¶¯ à¶ľà¶±
od a
Ġ196 1
Ġ195 9
Ġà·Ģ à·Ģà¶±
à¶´ à·Ħà¶±
à¶ºà¶ļ à¶½
à¶ľà¶± à¶ļ
Ġà·Ģà¶§ à¶»à·Ģ
à¶©à¶± à¶Łà¶±
Ġ8 2
Ġà¶¸à¶Ł à¶´
Ġre qu
à·Ħà¶»à¶« à¶ºà¶ļà¶§
b ox
Ġà¶ļ à¶±à¶ļ
à·ģ à¶¸à¶Ń
Ġà¶ļà¶» à¶´à¶±
à¶ļà¶½ à¶±à¶º
à¶ħà¶© à·Ģ
Ġà¶»à¶Ł à¶±
Ġà¶¸à¶Ł à¶ļ
Ġà¶½à¶Ł à¶¸
âĢĮ à·ļ
ĠComp uter
ÂłĠ ÂłĠ
ept ember
u es
à¶ľ à¶ľà¶Ń
à¶´ à·Ģà¶½à¶§
à¶»à·Ħ à¶ºà¶§
ĠCh and
ĠCom ment
ĠSec ret
à¶Ń à¶¸à¶ļ
Ġà¶ħ à¶ļà¶½
à¶´ à¶ļà¶»à¶«
Ġà¶Ń à¶º
Ġà¶ĭ à·Ħ
ĠL ink
Ġk m
uk thi
olit ical
ĠAf ric
O L
à·ı ),
Ġà¶Ĵ à¶¶
ed i
Ġp ublic
Ġf ast
ĠL ankan
ri es
à¶Ńà¶ļ à¶ºà¶ļ
Ġs ur
ĠG roup
Ġ8 6
oun c
ver t
Ġsec ond
c ast
å ¤
à¶º à·Ħà¶±
à¶§ à¶¸à¶Ń
à·ľ ..
à¶« à¶ļà¶»à¶«à¶º
Ġà¶ķ à¶ľ
Ġ, ,
à·ľ ...
ĠW ar
Ġl og
iv er
Ġà·Ħà¶Ńà¶» à¶¯
Ġ194 9
Ġà¶ħà¶ľà¶± à¶ľà¶»à¶º
i h
à¶ļ à·ĥà¶±
à·ĵ à¶Ĥ
à·Ģà¶½à¶§ à¶¯
Ġà¶Ĩà·ĥà¶± à¶ºà¶ļ
ĠE m
à·Ģ à¶Ł
à¶´à¶Ń à¶ļà¶§
à¶»à·ħ à¶¶à¶©
à¶»à¶· à·Ģ
ĠIn t
Ù Ĭ
à·Ģ à·ģà¶º
à·ģ à¶ļà¶»
ĠP akistan
ĠD ush
our s
gr ound
Ġà¶¢ à·Ģà¶º
à¶±à·Ģ à¶ºà¶±
ĠP ower
Ġà¶Ńà¶»à¶ľ à¶ļà¶»
ĠK al
olog ical
à·ĥà·Ģà¶ºà¶ļ à¶¯
Ġà·Ģ à¶ºà¶½
à¶¶ à¶¶
Ġà¶ĩ à¶ºà¶Ń
Ġs ign
ĠM e
ap ak
Ġv al
ĠðŁ Ļ
ĠVim ukthi
Ġà¶¸ à¶¸à¶±à¶¸
à¶´ à·ĥà¶º
à¶ľà¶¸ à¶ºà¶ļ
Ġà¶ļà¶§ à·Ģ
Ġà¶ļà¶© à·Ģà¶Ń
Ġà¶¶à¶© à¶§
if t
T I
Ã ³
à¶» à·Ĩ
à¶¯ à·Ħà¶Ń
à¶¸à¶Ń à¶ºà¶±
à·Ĳ. âĢĿ
ĠPro f
arath na
Ġ el
à·Ħ à¶¸à¶º
Ġà¶» à¶ľà¶»
à¶±à¶º à¶§à¶Ń
ĠC ard
ou d
ĠT oday
ï¼ Į
A pp
Ġ ........
à·Ģ à¶¥à¶ºà¶±
à¶´ à¶¤
Ġà¶¯à¶» à¶±à·Ģ
Ġà¶ħà¶ļ à¶§à¶º
Ġp eople
à·Ģ à¶«à¶º
Ġà¶ļ à·Ģà¶º
Ġà¶ĳ à¶¸à¶§à¶º
Ġà¶ĳà¶ļ à·ħ
Ġà¶ħà·ĥ à·Ħà¶±à¶º
à¶±à¶¯ à¶§
ĠUn ited
199 0
r ation
Ġà·Ħ à¶ºà·Ģ
à¶³ à¶Ń
à¶Ńà¶» à¶¸à¶º
à·ĺ à¶Ĥ
Ġà·Ģà¶ľ à¶ĭà¶Ń
Ġo pt
à¶ļà¶© à·Ģà¶½
ah inda
sp an
ĠAss oci
æ ľ
à¶º à¶Łà¶º
Ġà¶ī à¶¹
à·ı. )
âĢĿ ,
Ġ7 4
Ġà·Ħà¶Ń à¶ļà¶§
ah ara
R C
b y
x y
Ġà¶ī à¶»à¶§
Ġà·Ĩ à¶ºà¶»
Ġà¶ĩà¶³ à¶§
// /
ast e
à¶» à¶Ł
à¶¢ à¶´à¶±
à¶»à¶ļ à¶±
ĠP ol
Ġf r
ĠL ead
Ġ6 000
à¶Ĭ à·ģ
Ġà·Ħà¶¬ à¶§
Ġà¶¶ à·ĥà¶§
à¶© à¶»à¶ºà¶ļ
Ġà¶ī à¶ºà¶±
à¶¢ à¶¢
ĠM P
ĠT o
Ġà¶´à¶½ à¶ºà¶±
ri m
Ġà¶»à¶® à·Ģà¶½
à ª
à·Ģ à¶ľà¶±
à¶ļ à¶±à¶¸
à¶ľ à·Ħà·Ģ
Ġà·ĥà¶¸ à¶ł
à¶½à¶± à¶ºà¶±
al d
ĠG am
Ġd ist
Ġ14 0
Ġà¶ħà¶±à·Ģ à·ĥà¶»à¶º
ult ure
à¶´ à¶©
à·Ŀ '
à¶ł à¶»à¶¸
Ġà¶ħà¶» à¶ľà¶Ń
ĠL td
Ġb el
ĠR awan
Ġà¶ĳà·ħ à¶ļ
Ġà¶Ńà¶¶ à¶º
Ġl ist
O n
à·Ĳ ....
à¶½à¶º à¶¯
Ġà¶ħà¶Ń à·Ħà¶»
à¶Ķ à¶»
à·ĳ. âĢĿ
Ġà·Ħà¶¯ à¶±à¶ļ
Ġà¶ĳà¶Ń à¶±à¶¸
à¶ľà¶¸à¶± à¶ºà¶ļà¶§
red it
ĠDush antha
ĠRawan asinghe
à¶° à¶»à¶º
Ġà¶Ŀ à¶±à¶ļà¶¸
lo bal
à¶ľ à·ĥà¶±
Ġà¶¯ à¶¯
Ġà·ĥà¶Ń à¶ļ
à·Ĥà¶«à¶º à¶º
à¶Ĩ à·ĥà¶±
Ġm in
Ġà·ħà¶¸ à¶ºà¶§
Ġpro v
P l
à¶»à¶ļ à¶©
Ġà¶ħà¶½ à·ĥ
ĠM ini
à¶Ŀ à·Ģ
à¶»à¶¢ à¶Ń
à·Ģà¶»à¶«à¶ºà¶ļ à¶¯
à¶½ à¶»à¶ºà¶ļ
à¶§ à¶ľà¶¸
Ġà¶¯ à¶±à·Ģ
Ġà¶Ń à¶½à¶ºà¶§
Ġà¶ĩ à¶©à¶¸
à¶ł à¶½à¶±à¶º
à¶¹ à¶»
Ġp os
Ġà¶ļà¶½à¶¶ à¶½à¶ļ
t a
à¶¸ à¶ļà¶»à¶«à¶º
à¶© à¶¸à·Ģ
à¶ºà·Ģ à¶©à¶±
Ġà·Ħà¶¯ à¶¸
à¶ĩ à¶³
Ġà¶´à·Ħà·ħ à·Ģ
à® ®
Ġà¶ħà¶ºà¶ļ à¶»
Ġle t
ĠSub title
à¶¢à¶± à¶ļà¶º
à¶Ŀ à¶§à¶ļ
Ġà¶ĩà¶¯ à·Ģ
od es
erm an
ĠðŁĺ Ģ
Ġrun s
g et
à·Ħ à¶¯à·Ģ
à¶ľ à·Ģà¶±
à¶½à¶º à¶¸
à·Ģà¶§ à¶±
à¶Ķ à¶§
Ġf eat
Ġ12 00
ow ever
à¶Ńà¶»à¶ºà¶ļ à¶ľ
Ġà¶ħà¶¸ à¶½
Ġà¶ĳà¶½ à¶¹
ĠC C
à¶ĭ à¶´à¶±
Ġ195 1
old er
à¶ľ à·Ħà¶½
à¶¶ à·Ģà¶ļ
à¶¶ à¶»à¶Ń
Ġà¶ľà¶Ń à¶ļà¶»
Ġà·Ĩ à·Ģ
Ġem ail
, "
> >
å ı
à·Ĭ ]
à·Ĵ `
Ġà¶ĭ à¶ļà·ĥ
Ġà¶ħà¶¯ à¶¯
Ġst ate
Ġ195 7
Ġà¶´à·Ħà¶± à¶ļ
,, ,,
à¶¶ à¶¸à¶º
er v
à¶Ĩ à¶±à¶±
Ġm ade
Ġà·ĥà¶½ à¶ļà¶º
à¶±à¶ľà¶Ń à·Ģ
ial og
Ġà¶ħà·Ģà¶Ń à¶ļ
! "
s y
à·Ĳ à·Ļ
à¶´ à¶®à¶º
à¶´à¶± à¶ºà¶±
à·ı... "
à® ²
à¶»à¶¶à¶½ à¶Ń
vi ew
irt ual
à¶Ńà¶» à¶ľà¶º
à¶±à·ĥ à¶§
ĠS ir
Ġs inhala
Ġt erm
à¶ĭ à¶¶
Ġg ood
Ġà¶ħà¶§ à¶ļà¶§
à¶Ī à¶Ń
Ġà·Ģà¶° à·Ħ
Ã ¤
Ġà¶ļà·ħ à·Ģ
à¶¯à¶º à¶¯
ĠC r
Ġ6 1
ĠN E
ain ing
ĠY ork
Ġà¶¯à·ģ à¶¸
Ġà¶± à¶»à¶ļà¶¸
à·Ĥ à¶½à¶Ń
Ġà¶ĳà¶ļ à¶§à¶º
à¶»à¶¯ à¶ļ
Ġà¶½à¶¯ à·Ħ
Ġà¶° à¶¸à¶±
Ġp erson
ĠÃ Ĺ
Le ave
S cript
f ace
à¶½ à¶¢
à·Ĥ à¶»à¶º
Ġà¶ħà¶¯ à¶º
Ġà¶ħà¶» à·Ħà¶Ń
Ġà¶ħà·ĥ à·Ħ
ĠS eptember
à¶¯à·Ħà·ĥ à¶ļà¶§
Ġc or
Ġp artic
Ġb oth
ĠD ata
el a
à¶µ à¶½à¶¯
um n
ĠVi ews
9 1
à·Ĵ âĢľ
à·ĥ à¶¸à¶Ń
at us
ĠPro gram
str uct
à¶½ à¶ľà¶¸
Ġà¶´ à¶½à¶±
Ġà¶ħà¶° à¶»
Ġc ard
à¶ĭ à¶»
Ġh and
Ġn eed
Ġlangu age
M A
z z
à¶º à¶ľà¶±
à¶ľ à¶¢
Ġà¶± à·Ģà¶±
à·Ģà¶½ à¶´
Ġà¶¶à¶½ à¶ºà¶±
Ġà¶Ńà¶»à¶Ł à¶ºà¶§
Ġà¶ħà¶»à¶¹ à¶º
ĠArt icles
Ġprot ect
Ġà·Ģ à¶»à¶ļà¶§
Ġà·Ģ à¶°à¶ļ
à¶ľ à¶ºà¶¸
Ġà¶»à¶§ à¶§à¶Ń
à¶ļà¶¸ à¶½
à·Ĥà¶º à¶ºà¶ļ
Ġà¶ħà·ĥ à¶´
at ter
Ġà¶´à·Ħà¶» à·Ģà¶½
à·Ĵ" .
org an
ĠÐ ¿
Â´ Â´
Ġà¶ľ à¶¢à¶¶
à¶»à¶¸ à·Ģà¶½
à¶ļà¶½ à¶¸
Ġà·Ħà¶¯ à¶¯
Ġ9 3
Ġ196 6
lic ation
Ġplay ed
ĠTw itter
i or
Ġà¶ħ à¶»à¶º
à¶ł à¶ļà¶ºà¶±
à¶»à¶Ń à·Ģà¶±
à·ħà¶¹ à·Ģà¶±
à¶ļà¶»à¶« à¶ºà¶ļà¶§
am m
ĠBl ack
ĠSch ool
à·Ħ à¶§à¶Ń
Ġà¶° à¶±à·ĥ
ĠS en
Ġo ur
à¶¯à¶ļ à¶ºà¶ļ
Ġà¶ļà¶´ à¶±à·Ģ
à·ĳ.. ...
ĠTh is
Ġ36 5
f ox
à¶º à¶¹
à¶¢ à¶ļà¶»
à·ĬâĢ ĭ
Ġà¶ļà¶½ à¶»
Ġp ol
ĠPer era
Ġ{ |
ĠOct ober
m s
à·Ģ à¶«à¶ļ
à¶«à¶º à¶¯
ĠP e
ĠG old
if y
ĠAr una
f ord
v el
Â µ
Ġà¶ľà¶Ń à¶ļà·ħ
Ġà¶ķ à¶»
.... .....
Ġà¶ļà¶© à¶Ń
ĠH IV
olit ics
ĠAug ust
9 3
B M
u le
à·ı ........
Ġà¶ĭ à·Ģà¶Ń
th ing
Ġs k
ou g
Ġh ot
id d
Ġ) ,
Ġwh at
ond on
Ġà¶Ńà¶»à¶ľà¶ºà¶ļ à¶¯
F C
o ice
Ġà¶ĳ à·Ģà¶±à·Ģ
à·Ģà·ĥ à¶»à¶ļà¶§
Ġà¶īà¶¯ à¶ľ
à¶±à¶ľ à¶»à¶º
ul ation
ĠK ey
qu ot
Ġmatch es
ĠIMD B
p ost
à·ĥ à¶»à¶¸
à¶© à¶ľà¶±
Ġà¶ĭ à¶¸à¶ľ
Ġà¶¸à·Ħ à¶±à¶ľà¶»
el p
Ġ01 1
ech à¶ļà¶Ń
Ġvis ited
Ð ¹
om an
Ġà·ĥà¶§à·Ħà¶± à¶§
R E
g mail
Ġà¶ħ à¶ļà¶»à¶Ń
à¶½à¶ļ à·ĥ
à¶»à·ĥ à·Ģ
Ġà·Ģ à¶³à·Ģ
à·ĥà¶» à·ĥà·Ģ
on se
Ġà¶ħà¶ľ à¶§
à® ©
Ġv ersion
II I
Ð½ Ð¸
eth od
à¶¢à¶±à¶ľ à·Ħà¶±à¶º
V P
å ħ
Ġ _
à¶¯ à·Ģà¶Ń
Ġà¶± à¶ļà¶½
à¶ºà¶º à·ħ
at uw
Ġà·ĥà¶¸à¶ľ à¶¯
Ġà·Ģà¶§ à¶ļ
Ġth ese
à¶ĩ à¶´à¶½
ĠM obile
à¶§à¶½ à¶ºà¶§
Ġm ov
Ġ193 1
197 7
ĠSc ience
ðŁĳį ðŁĳį
ĠInstit ute
G O
à·ı !!!
à·Ķ (
à¶½ à¶¸à¶§
à¶¯ à·ģà¶ļ
Ġà¶¢ à¶©
à¶Ĵ à·Ĥ
à¶ī à¶©à¶¸
ĠM a
à¶ĭ à¶ľ
Ġw ater
ĠW ik
ãĢ ģ
à¶½ à·ĥà¶±
Ġà·ĥ à¶ºà¶±à¶º
Ġà¶ĩ à¶±à¶½
à¶ĳ à¶»
iv al
y c
à¶¸ à·Ģà¶½à¶§
à·ĥ à¶¥à¶ºà¶±
à¶¸à¶Ń à¶ºà¶ļ
à¶ºà¶Ń à¶½
à¶Ľ à¶¸
à¶ħà¶¸ à¶»à¶Ń
Ġev en
Ġ à¤
Ġà¶ļ à¶ľ
à¶° à¶ºà¶Ń
Ġà¶ħà¶½ à·Ģà¶±
Ġc re
Ġw in
ĠE r
Ġà¶ħà¶ºà¶ļ à¶»à¶±
Ġor ig
199 4
197 0
Ġ @
à·ħ à·Ģà¶§
Ġà¶ī à¶»à¶ļ
Ġw ell
Ġe ar
eal th
Ġà·Ħ à¶©à¶ļ
à¶¶ à·Ģà¶Ń
Ġà·Ģà¶± à¶¸
ar ch
Ġ er
Ġ ï¿½
à·Ģ à¶ł
à¶½ à¶¸à¶±
Ġà¶ĩ à¶¸à¶º
à¶ºà¶± à¶ºà¶ļà¶§
Ġà¶¶à¶½ à¶Ń
à¶ħ à¶³
à¶»à¶«à¶º à¶º
Ġth rough
ap e
Ġst art
ight s
Ġj ust
à¶Į à·Ģ
ãĢ Ĥ
rid ge
L C
Ġ á
à·Ģ à·Ħà¶Ń
Ġà¶ļ à·Ĩ
Ġà¶Ń à¶½à¶±
à¶ºà¶¸ à¶«
in ation
Ġà¶Ńà·Ħà¶± à¶¸à¶§
à® ª
Ġà¶±à¶»à¶ļ à¶¯
t ext
v en
à·ĥ à¶ł
Ġà¶ºà¶± à¶ļà¶½
il os
Ġ18 00
um e
our t
Ġà¶¸ à¶¢
Ġà¶Ń à·Ģà¶ļ
à¶® à·Ģà¶½
Ġà¶ļà¶½ à¶¸
Ġà¶ħà·ĥ à¶½à¶¸
Ġà·Ĩ à¶½
Ġ4 50
Ġp m
Ġf ull
com m
Ġà¶ħà¶¬ à¶±à·Ģ
# #
' ,
o ad
à·ĥ à¶´à¶Ń
Ġà¶º à·Ħà¶½
Ġà¶ķ à·Ģà¶§
en u
ar achchi
it a
ĠB ar
Ġ7 9
Ġin v
ĠIn stall
à·Ħà¶¬ à¶Ń
Ġman ahara
R ip
d om
à·ĥ à·Ģà¶ľ
Ġà¶ĭ à¶ºà¶½
Ġt est
Ġm edia
ip l
ĠE lect
Ġ? ?
Ġv ery
Ġà¶¢à¶±à¶ľ à·Ħà¶±à¶ºà¶ļ
Ġà¶ľ à¶±à¶º
à¶ļà¶ļ à¶¯
à·ĳ. "
ĠM ad
à¶ļà·ħ à¶Ń
à·Ħà¶»à¶« à¶ºà¶§
Ġbe fore
Ð ¿
à·ĸ âĢį
à·Ħà¶» à¶´
ĠC ategories
à¶ĩ à¶§
ĠM S
Ġp ower
ĠP ass
Ġà¶Į à¶±à¶Ń
ut o
ph one
\ \
m ing
r ing
à¶§ à¶ļà¶Ń
Ġà¶ħ à·ĥà¶»
Ġà¶ļà¶» à¶«à¶ļ
Ġà¶Ĩ à·Ģà¶¯
à·Ģà¶» à¶°
à¶· à¶Ń
ad em
Ġd el
à¶¸à¶ļà¶§ à¶¯
Ġà¶ļà·Ģà¶» à¶¯
ain s
à¶±à¶ļ à¶¸à¶ļ
Ġth en
re ed
ĠL inux
ĠI à·Ģà¶±
ĠH TML
ĠW ill
Ġà¶´à·Ħà¶½ à·Ģ
Ġà¶´à¶½à¶ļ à¶½
à¶ĭà¶© à¶»à¶§
ĠNov ember
ĠJan uary
à·ĥ à¶§à¶±
à¶½ à¶»à¶ºà¶§
à¶½à¶± à¶¥à¶ºà¶ļ
Ġà¶ĳà¶½ à·Ģà¶½
ãģ ®
Ġcomp uter
ĠMar ch
à·Ĭ |
à¶´ à·Ģà¶±
Ġà¶¯ à¶¶à¶»
Ġà·Ħ à¶¢
Ġà¶ĭà¶± à·Ħà¶¸
Ġà¶´à·Ħ à¶º
ĠT echnology
Ġm arket
ĠB rit
ust om
ĠEng ine
ĠAmer ican
I L
Ġà¶¢ à¶ºà¶½à¶½
à¶ºà¶½ à¶ļ
Ġà¶ļà¶§ à·Ģà¶½
ĠP ay
Ġf our
ĠD ev
ĠN ot
ĠN eth
ĠO f
Ġapp ear
ķ Ķ
à¶½ à·Ģà¶»à¶«à¶º
in fo
Ġt ag
à¶¸à·Ħ à·Ģ
if ied
tit les
ĠâĢĭ à·Ļ
à¶¸ à·ĥà¶¸
à¶´ à¶¯à¶º
Ġà¶Ĩ à¶Ŀ
.. !
à¶Ńà¶± à¶ľà¶½
Ġf ound
Ġm ag
à¶Ĭ à¶±
fer ent
ĠComp any
H O
Î ±
à¶½à¶ļ à¶ľ
Ġà¶Ķà¶¶ à·Ģà·Ħà¶±
Ġà·Ģà·ĥà¶» à·Ģà¶½
Ġs ing
Ġs ame
à¶¡ à¶Ń
ĠH ome
ir on
ĠCh rist
Ġà¶ĩà¶§ à¶ºà¶ļ
Ġà¶»à·Ģà¶§ à¶±
à¶ļ à¶¸à¶ļà¶§
à¶´ à¶»à·Ģ
à¶ħ à¶±à¶±
à¶¬ à¶½
ĠR ed
Ġl ife
à·ģà¶±à¶ºà¶ļ à¶§
Ġres ult
Ġï ķĶ
Ġà¶¸à¶©à¶ļ à·ħà¶´
à·ļ. [
Ġà¶¶à¶½ à¶ĩà¶«
à·Ģà·ĥ à¶ļà¶§
Ġà¶»à¶§ à¶ļà¶¸
à¶½à·Ģ à¶ºà¶§
Ġa v
Ġà¶Ī à¶Ńà¶ļ
ĠðŁĻ Ĥ
ilos oph
C S
b it
c ent
o z
Ã ¶
à¶½ à·ĥà¶ļ
âĢ ī
Ġà¶ħà¶± à¶°
à¶Ĵ à·Ģà¶ľ
ad u
ad io
Ġ195 4
? ...
Ø ¨
å ®
à¶ļ à·Ģà¶»à¶«
an ayake
ĠS an
Ġà¶¯à¶¸ à¶±à¶º
Ġl ine
c es
á ¹
à¶ļà¶© à¶ľà¶½
ff ic
199 9
à¶ºà·ĥà¶± à¶ºà¶ļ
Ġsup port
m ar
n d
à¶ºà¶ļ à¶»à¶±
Ġà¶ĳà¶ļ à¶½à·ĥ
à¶Ľ à¶±à¶ľà¶Ń
âĢĮ à·ľ
Ġà¶ħà·ĥà¶»à¶« à·Ģ
ĠRaj apak
à·Ŀ ÂŃ
Ġà¶ī à·Ģà¶ļ
al y
Ġ3 60
ĠM arket
Ġp op
à¶ĭ à¶¸
Ġf ield
Ġà¶ĳà·ħ à·Ģà¶±
Ġd irect
ĠJ une
à·Ħà¶¯ à¶Ń
' t
O ne
Ð ±
Ġà¶¶ à¶»à¶§
Ġà¶ļà¶» à·Ģà¶±à·Ģ
Ġà·ĥà¶¸ à¶ºà¶§
Ġà¶ķ à¶±à¶º
ĠM ax
Ġb ro
à¶µ à¶§
un ity
à¶´à·ħ à¶§
ann el
à¶½ à¶Ŀ
âĢ İ
Ġà¶¸ à¶»à¶´
à¶´ à¶»à¶«
Ġà¶» à¶¶
à¶ļà¶¸ à¶¯
Ġà¶ķ à¶©
Ġà¶© à¶ļ
Ġ19 00
à¶¨ à¶´
Ġp ort
à¶ĭ à¶¹à¶½
Ġsc ript
ĠUS B
à¶»à¶¯ à¶ľ
Ġà·Ħà¶³ à¶ľà¶¸
Ġà¶´à¶½ à·Ģà¶±
Ġà¶ĭà¶© à¶ľ
Ġl aw
à¶»à¶ļà¶® à¶±à¶ºà¶§
Ġre ad
Ġà·Ģà·ħ à¶ľà¶¸
Ġà¶»à¶ł à¶ļà¶ºà¶±
Ġdis c
ĠTag ged
k k
â ģ£
à¶± à¶¸à¶ļà¶§
Ġà·ĥ à·Ĩ
à¶´ à¶»à¶ºà¶§
Ġà¶ĳ à¶±à·Ģà¶¯
à¶° à·Ģà¶º
à¶±à·Ģ à¶ľ
Ġà¶ħà¶» à·Ħ
at ab
à¶»à¶ºà¶ļ à¶¯
om b
ĠL a
ĠB est
Ġà¶ļà¶® à¶±
ang a
ud e
Ġim age
Ġ est
à·Ģ à¶Łà¶±
Ġà¶Ĩ à¶ºà¶¸
à¶»à¶¸ à¶ºà¶Ń
à¶¸à¶º à¶¯
ĠA sh
à¶¸à¶½ à¶ľ
Ġà·ĥà¶» à¶½à¶º
em ory
Ġà¶¸à¶»à¶«à¶º à¶Ń
Q L
Y ou
v ices
Ġà¶ĭ à·Ģ
Ġà¶ĳà¶ļà¶ļ à¶¯
Ġà¶ħà¶½ à¶ľ
Ġà¶Į à¶Ń
à·Ĭ" .
à¶»à¶¶ à¶½à·Ģ
tern al
aya ka
Ġadd ress
à¶½ à¶§à¶º
à·ģ à¶ľà¶Ńà·Ģ
à¶° à¶±à¶ºà¶ļà¶§
Ġà¶ī à¶½à¶±
Ġà¶ħà¶½ à·Ħà¶´
Ġà¶±à¶§ à¶±à·Ģ
Ġ.... ...
In d
ĠOff ice
D A
Ã ¼
à·ĥ à¶ľà¶¸
à¶§ à·ĥà¶º
à¶¯ à¶»à¶ļà¶§
Ġà¶ħà¶Ń à¶±
à¶Ľ à¶ºà¶ļ
à¶½à¶° à¶»à¶º
à¶ĭ à¶ļ
ĠG od
à·Ģà¶ºà¶§ à¶Ń
ĠÂ ´
ud io
à·ıâĢ¦ ..
Ġcon f
à·ĥà¶¸à·Ħ à¶»à¶ļ
l im
à¶ ĸà·Ĥ
à·Ħ à¶©à·Ģ
à¶ºà¶ļ à¶ļà¶¸
Ġà¶ļà¶© à¶¸
Ġs w
Ġt it
à¶ļà¶© à¶º
à¶Ńà¶ºà¶§ à¶Ń
ĠO b
ist or
Ġà¶»à¶ł à¶ļ
end er
par ent
Ġà·ĥ à¶µà¶½
à¶ļà¶» à¶ºà¶§
Ġà¶© à¶±
iv ing
15 0
ĠEd ucation
Ġdes ign
Ġrec ogn
g en
Ġà¶ ³
Ġà¶ľ à¶ľà·Ħ
à¶ºà¶º à¶¯
on om
ar ge
ĠC amp
ĠB BC
ct or
à¶»à·ħ à¶±
Ġà¶ľà¶Ł à¶ļ
cc ess
ĠSer ver
ett ings
à¶ļ à¶®à¶±à¶º
Ġà¶ķà¶± à¶¯
ĠR ob
Ġm ed
Ġà¶´à¶§ à¶½à¶º
Ġà¶¢à¶±à·Ģ à¶»à¶¸
Ġrec ord
ĠØ§ ÙĦ
N eth
æ ĸ
à¶º à¶ĩà¶½
Ġà¶ħ à·ĥà¶º
Ġà¶ļà¶½ à¶±
as es
ÑĢ Ð°
Ġsc reen
Ġkn ow
à¶¶ à·Ģà¶º
à¶ħ à·Ģà¶¸
Ġà¶§ à·Ģà¶»
Ġà·ĥà¶´ à¶ºà¶±à·Ģ
ĠIs land
e h
à·ĥ à·ħà¶ļ
à·Ĥ à¶¸à¶±
Ġà¶Ńà¶» à¶ľà¶¸
ed er
it ive
le ge
ĠP revious
ĠF eb
19 80
ĠCh in
à¶ľà¶¸à¶± à¶ºà¶ļ
Ġad min
Ð¾Ð ²
ĠDiv is
Ġdeg ree
Ã Ĺ
à¶± à¶½à·Ģ
à·Ļ .....
Ġà¶¸ à·ħà¶ļ
Ġà¶ĩ à¶§à¶º
Ġà¶» à·ĥà¶§
Ġ19 17
à¶ĩ à·Ħ
Ġs earch
Ġw es
Ġg ossip
ep h
à·Ĭ.... ...
d d
y r
à¶ľ à¶µà¶½
Ġà¶¶ à¶§à¶±
Ġà·ħ à¶º
id es
Ġl ong
Ġà¶´à¶¸ à¶±à¶º
Ġhe ad
Ġà¶Ĩà¶´à¶± à·ģ
B l
Ð ³
Ñ ĩ
Ġà¶ĳ à¶±à¶º
à¶Ľ à¶±à·Ģà¶½
ĠR NA
Ġm ar
il a
ĠH er
ĠV is
ill age
ect ion
atuw angala
z a
à¶ į
Ġà¶¶ à¶Ńà¶½
Ġà¶ħà¶¸ à¶»à¶´
à·ĥà¶ļ à¶ºà¶±
re ak
Ġo wn
ap er
ĠSh are
Ġ193 9
ĠCl ass
à¶ºà¶° à¶»à¶«
à·Ħ à¶¸à¶±
à·Ĵ. âĢĻâĢĻ
Ġw indows
ĠB M
Ġ100 00
ens ion
198 9
ĠJul y
t i
à¶º q
Ġà¶ħ à¶§à·ĥ
à·Ģà¶± à¶ºà¶ļ
Ġà¶Ĵ à·Ĥ
Ġà¶ºà¶± à¶ļà¶±
Ġà·Ģà¶» à¶ºà¶ļ
à·Ģà¶« à¶§
à¶»à¶¶à¶½ à¶¸
Ġcon nect
ĠPl an
imb ab
ĠJava Script
o ff
Ġà¶¶ à·Ħà¶»
à·Ģà¶¯ à¶Ń
ĠS ath
ĠC al
à¶»à¶´ à¶»
ri p
Ġà¶ĩà¶³ à¶ļ
ĠV ik
199 6
Ġsh ould
ĠAs ia
ĠRep ublic
imbab we
Ġà¶ļ à·Ģà¶»à¶º
à¶ĳ à¶©
Ġà¶ķà¶± à¶±
ĠS ong
à¶¢à¶º à·ĥ
Ġà¶Ńà¶»à¶Ł à¶ļà¶»
tern et
Î ¿
Ø ª
à¶± à¶»à¶ºà¶ļ
à¶Ń à¶½à¶ļ
à¶¸ à¶½à¶ļ
à·Ŀ âĢį
Ġà¶ĩ à¶¯à¶±
à¶´à¶Ń à¶½
Ġà¶¸à·Ħ à¶ľà¶¸
à¶ĳ à¶ļà¶§
in ed
ĠS ocial
Ġl ost
Ġcomm on
à¶± à·ģ
Ġà¶¢ à¶Ń
à·ĳ )
à·Ħà¶± à¶ļ
Ġà¶· à·Ĥ
Ġs ave
à¶°à¶±à¶º à¶Ń
ĠH ol
Ġà·Ģà·Ħ à¶ľà¶±
ĠSer vice
C E
a ff
Ġà·Ħ à¶ºà¶¯
Ġà¶¶ à·ĥà¶ļ
à¶Ĥ ....
Ġà¶ļà·ħ à¶ľ
à¶´à·ĥ à¶¸
à¶ĭ à¶´à¶¯
ĠR el
à·ħà¶³ à¶ľ
Ġn on
Ġà¶Į à¶»à¶±
Ġg et
Ġà¶ļà¶»à¶¯ à¶»à¶ļ
ib er
uw a
Ġup date
ĠAfric a
à¶¸ à¶³
Ġà¶» à¶³à·Ģà¶±
Ġà¶īà¶¯ à¶½à¶¸
ĠL ife
ol a
ourn ament
duct ion
? ,
e el
k top
em pl
Ġà¶ĭà¶´à¶Ń à¶ļ
ĠSup er
à¶ļà¶Ńà¶» à¶ľà¶¸
à·ĥ à¶Ńà¶»
à¶§ à¶ºà¶§
à¶« à¶ļà¶º
Ġà¶Ń à¶«à¶Ń
à¶° à¶Ŀ
à¶¸à¶§ à¶ľ
Ġà¶ļà¶© à¶´
âĢ¦ ?
Ġd evelop
à¶»à¶ł à¶ļ
Ġ18 18
à¶®à¶ļ à¶®à¶±
ap an
Ġà¶ħà·Ģà¶½ à·ĥ
ID EO
F F
b ima
u j
z e
Ġà·Ģ à¶¸à¶±
Ġà·Ģ à·ĥà¶ļ
à¶¯ à·ħà¶¯
Ġà¶ħ à¶¹à¶±
à¶ºà¶ļ à¶©
Ġà¶Ĩ à¶±à¶Ń
Ġà¶Ńà¶» à¶½
Ġà¶Ĵà¶ļ à¶´
ĠP resident
ou ch
ĠD evelopment
il i
Ġsh are
à·Ĭ ........
à·Ħ à¶ºà¶ļà¶§
à¶§ à·Ħà¶»
Ġà·ĥà¶¸ à¶ľà¶Ń
à¶Ĵ à¶ļà¶±
ĠC ode
Ġà¶ºà¶¸ à¶´
Ġc ase
à¶Ŀ à¶±à¶ļ
Ġf inal
ĠG l
ĠD i
ol ar
amil y
T P
à·ļ âĢĺ
à¶´ à¶»à·ĥ
ĠS ing
Ġt our
Ġm ake
av id
ell a
con om
T F
Ġà¶¯ à¶Łà¶ļ
Ġà¶Ń à¶´à·ĥ
à¶° à¶·
Ġà¶ĳà¶ļ à·Ģà¶Ń
à¶»à¶Ń à¶¸
Ġà¶īà·Ħ à¶½à¶º
re land
ĠP a
Ġà¶´à¶½ à¶´
ac ter
à¶¢à¶ļ à·Ģà¶»à¶º
ĠCh ar
ill a
Ġà¶ĳà¶ļ à¶ļà¶¸
à¶® à¶ºà¶º
à¶»à¶ļ à¶¸à¶§
Ġà¶ļà¶»à¶½ à¶¸
le g
is k
Ġh ome
à¶¯à¶ºà¶ļ à¶¯
Ġà¶ĩà¶³ à¶´
ĠW id
ep end
ĠFor ex
6 00
s ung
u ild
Ġà·Ģ à¶ľà¶Ń
Ġà¶´à·ĥ à¶¸
Ġs he
ers h
Ġwh ile
Ġà¶±à¶»à¶¹ à¶¸
Ġcall ed
ĠResp ons
à¶¯ à·Ģà¶¸
à·ģ à¶´à¶Ń
al es
Ġà¶Ĩà¶¯ à¶¸
Ġd own
Ġ9 7
Ġà¶ħà¶Ńà¶»à¶¸ à¶Ł
ĠAl p
Ġfast news
ĠNE WS
à·ĥ à·Ģà¶½à¶§
à¶Ĥ "
à¶® à¶ļà¶¸
ĠL ist
Ġ| --
Ġà¶ĩà¶³ à¶ľà¶Ń
ir ed
à¶»à¶ļà¶§ à·Ģ
20 20
à¶ľà·Ħ à¶±à·Ģ
Ġcount ry
à¶¸ à·Ģà¶º
Ġà¶¸ à¶¯à¶º
à·ģ à¶·
à¶· à¶ºà¶±
Ġà·Ħà¶» à¶¹
à¶Ńà¶¸ à¶½
ĠP age
ĠD o
à¶¯à·Ģ à¶ł
Ġ? "
ĠSt r
Ġ195 5
Ġsex ual
D es
Ġ ant
Ġà·ĥ à¶ļà¶»
Ġà·ĥà¶¸ à¶¶à¶»à¶Ń
Ġà¶ħà¶¸ à¶»à¶ļ
âĢ¦ âĢ¦.
ĠH igh
ot ion
ess ional
ĠCh ina
P F
r an
à¶ľ à¶¶
Ġà·Ħ à¶ºà¶§
à·Ģà¶» à¶¯à·Ģ
à¶ºà¶½ à¶¸
à¶»à·ĥ à¶ļ
Ġà¶ļà¶« à¶§
à¶¶à¶½ à¶ºà¶§
ĠR oy
Ġ10 7
à¶ºà·Ģà¶± à¶ļ
Ġe qu
ĠDes ign
C ont
b ed
ä »
à¶§ à¶ļà¶§
Ġà¶» à·ĥà¶½
Ġà¶ĭ à¶»à¶«
à¶»à¶¸ à¶«à¶ºà¶§
à¶»à¶ļ à¶§à¶º
à¶¸à¶Ń à·Ģ
Ġà·Ħà¶» à·Ģà¶½
ĠH ow
ĠAn g
uro pe
Ġeng ine
à¶¸ à¶½à·Ģ
à·Ħ à¶Ł
Ġà·ĥà¶¸ à¶¸
à¶¸à¶º à¶¸
... !
Ġà·ħ à·Ħ
ent al
ĠI V
Ġ10 5
ir m
Ġn etwork
ĠSecret ari
à¶¸ à·ģ
à¶§ à¶ļà¶ºà¶ļ
Ġà·Ħ à·ħ
à·Ĭ. )
Ġà¶Ķà¶º à·Ģà¶ľ
ĠS ociety
à¶§à¶» à¶ºà¶§
Ġw icket
et ic
Ġà¶ħà¶¸à¶Ń à¶ļà¶º
R A
Ġà¶· à·Ģà¶Ń
in ary
à¶´à¶º à¶¯
ar ia
à·ĥà¶§ à¶¯
Ġ7 50
Ġin c
ak er
ak es
Ġe ffect
ĠEn ter
Ġser ver
ĠSub titles
unt u
PH OT
e f
à¶½ à·Ģà¶§
à¶° à¶ľà¶º
Ġà¶ħà·Ģ à¶¢
Ġà¶ļà¶½ à¶¶à¶½à¶º
à¶±à¶Ń à¶ļ
Ġà¶¸à¶§ à¶¯
Ġà¶ļà¶« à¶´
re w
ri al
Ġà¶ļà¶³ à¶±
199 7
ĠAs ian
Ġpass word
ĠAlp inia
w a
Ġ ka
à¶½ à·ĥà¶§à·Ħà¶±
à¶¯ à¶±à·Ģà¶½
Ġà¶ľ à¶¸à¶»
Ġà¶½ à¶§
à·ĸ ...
à¶ľà¶Ń à¶´
Ġà¶© à¶ºà¶±
Ġd uring
à·ľà¶Ĥ ,
Ġr ed
ail y
ie f
ject s
i od
à·Ĥ à·ĥ
à·ı. âĢĻâĢĻ
à¶»à¶§ à·Ģà¶½
Ġc ould
le ment
Ġw omen
à·Ĵ.. !
19 60
ĠW ord
Ġà·Ģà·Ħ à¶½à¶ļ
à¶»à¶· à·Ģà¶ºà¶ļ
8 00
Ð ·
Ġ Ï
à¶¸ à¶¤
à·Ĳ )
à·Ŀ !
Ġà¶ħà¶¯ à¶ļ
Ġà¶ľà¶Ń à¶ļà¶½
Ġm ember
Ġman ag
Ġsch ool
B A
y outube
à·Ĵ. //
à·Ĵ. ......
à·ļ. (
al le
à¶´à¶ºà¶ļ à¶§à¶¸
à¶§à·Ħ à¶Ń
ĠL aw
Ġà¶¸à¶» à¶±à·Ģ
à¶©à·ĥà¶§à·Ħà¶± à¶ļà¶§
Ġv ol
oc ument
à·ĴâĢį .
ill ion
à¶§à¶»à¶§ à·Ģà¶½
Ðº Ð°
à¶» à¶ļà¶»à¶«à¶º
à·ĥ à·Ĩ
à·ģ à¶±à·Ģà¶½à¶§
Ġà¶¸à·Ħ à¶¸à¶ľ
Ġà¶¢à¶± à·ģ
à¶Ńà¶¸ à·Ģ
al th
ĠM et
Ġà¶ĳà¶¯ à·Ģà·ĥ
Ġf act
ĠB ut
ĠH uman
à¶½à¶ºà¶§ à¶¸
Ġà¶ľà·Ħ à¶±à¶º
ĠAssoci ation
b ook
à¶½ à¶¶à·Ģ
Ġà¶¢ à·Ģà¶ºà¶ļ
Ġà·ĥà·Ħ à¶¶
Ġà¶¢à¶± à·ĥ
à¶ļà¶º à¶¯
re g
ĠM ich
Ġà¶Ĩà¶ł à¶»à¶«à¶º
Ġto p
ĠV ol
Ġà¶¯à¶© à¶¶
oc r
ĠMah inda
s s
à¶§ à¶±à·Ģ
à¶« à¶·
Ġà¶ĳ à¶¸à¶§
à¶ºà¶½ à¶§
à¶ºà¶¸ à·Ģ
Ġà¶´à·ħ à¶ļà¶»à¶¸
à¶¢à¶± à¶±à¶º
om a
and o
à¶»à¶¶à¶½ à¶ºà¶±
ĠDivis ional
à¶¸ à¶·
à¶ĳ à¶ļà¶Ń
à·Ħà¶» à¶±à¶ºà¶ļ
âĢ¦ âĢĿ
Ġs aid
ew a
Ġà·ĥà¶½à¶ļ à¶½
em a
Ġ194 2
199 8
Ġà·Ħà¶Ł à·Ģà¶±
Ġdif ferent
a el
d uc
å ľ
à¶§ à¶ļà¶¯
Ġà¶ħ à¶łà¶½
Ġà¶± à¶¸à¶ļà¶§
.. âĢĿ
à¶ļà¶» à¶§
à¶ħ à¶¹
à¶»à¶« à¶¯
in u
à¶¯à¶» à¶§à¶¸
à¶Ľ à¶«à¶º
ĠT imes
ri x
ĠF C
Ġ17 0
Ġsh ow
Ġex per
R I
a à¶±
à·Ļ !
Ġà¶ļ à¶¯à¶¸
Ġà¶´ à¶¶à·ħ
à·ģ à·Ģà¶ļà¶»
à·Ĥ à¶ºà¶¸
Ġà¶ħà¶º à¶¸
à¶ļà¶§ à·Ģà¶Ń
Ġà¶Ĭ à¶©
Ġà·Ģà·ĥ à¶Ł
à¶´à¶½ à·Ģà¶½
un ch
Ġà¶¯à·Ħ à¶ºà¶§
Ġtr ade
ĠSec urity
Ġà¶ħà¶Ńà¶»à¶¸à¶ľ à¶¯
atab ase
. âĢĻâĢĻ
d u
r ay
Ġà¶ħ à¶®à¶Ń
Ġà¶ĩ à¶±à·Ģ
Ġà¶ºà¶± à·Ģà¶±
à·ģà¶º à¶¯
à¶Ľ à¶ºà¶§
à¶»à·Ħ à¶ļ
ur ation
G E
G oogle
N ew
h ot
v ille
Ķ ¨
Ġà¶ļà¶» à¶¯à¶»à¶º
Ġà¶ļà¶»à¶± à·Ģà¶±
ĠG eneral
as iri
ĠV en
Ġà·Ģà¶»à¶¸ à¶ļ
ann a
Ġï ĳ
Ġà¶ļà¶½à¶¶ à¶½à¶ºà¶ļ
f acebook
Ġ ĉĉ
Ġà¶¯ à·ħà¶³
Ġà¶ī à¶ł
Ġà·Ģà¶» à¶«à¶º
er c
à·Ĥà¶«à¶º à¶Ń
à¶ĩ à·Ĩ
Ġà¶¸à·ĥ à¶¯
um a
Ġà¶Į à¶±
ath il
Ġâ Ĥ¬
Ġex ample
ĠÂ´ Â´
G ossip
w h
Ù İ
à¶º à¶¢
Ġà¶ħ à¶Ľà¶±
Ġà¶º à·Ģà¶´
à¶ºà¶ļ à¶§à¶Ń
à¶¢ à¶ºà·Ģ
à¶¸à¶± à¶ºà¶ļ
Ġà¶ķ à¶©à¶»
à¶ĩ à¶¯
ĠB h
Ġ9 1
à·ļ? "
Ġe ach
ĠSer ies
cript ion
Ġïĳ ¤
à¶¢ à¶¯
Ġà¶ĭ à¶§
à¶»à¶ļ à¶Ńà¶±à¶ºà¶ļ
Ġà¶´à¶± à·Ħà¶ļà¶§
à¶ºà¶ºà¶± à¶ºà¶§
Ġà¶»à¶§à·Ģà¶½ à¶¯
im ate
Ġà¶ºà·Ħà¶´à¶Ń à¶§
ĠJ ames
av el
ind ow
Ġà¶ļà·Ħ à¶´
Ġà¶ļà¶½à¶¶à¶½ à¶ºà¶§
à¶»à¶¢à¶± à¶±
riv ate
ĠSecretari ats
Ġà·Ģ à¶«
Ġà¶ĩ à¶§à·Ģ
Ġà¶ħà¶Ń à¶¸
Ġà¶ħà¶½ à¶½
is ed
ĠD em
Ġà¶¯à¶¸ à¶ºà¶±
Ġkn own
f r
o e
w ar
Ġà¶ļ à¶¶à¶»
Ġà·ĥ à¶½à¶¸
à¶ľà¶¸ à¶¯
in ter
ĠC enter
Ġà¶Ĩà·Ģ à·Ħà¶¸
ĠâĢį âĢįâĢį
Ġà¶¶à·ĥ à¶ºà¶ļ
Ġ11 8
IN G
à·ĥà¶»à¶¯ à¶ºà¶ļ
à¶¯ à¶§à¶Ń
Ġà¶´ à¶®à¶ºà¶ļ
Ġà·Ģà¶± à·ĥà¶±
Ġ1 19
Ġà¶¢à¶± à·ĥà¶Ń
Ġà·ĥà¶³ à¶ļà¶©
à¶¹ à¶ľ
ĠP an
ĠH u
iv id
à¶°à¶ºà¶± à¶§
ĠSh ow
Ġspe ed
Ġ art
à¶ļ à¶Ńà¶±
à¶¯ à·ģ
à¶¢ à·ģ
ĠII à·Ģà¶±
Ġdev ice
ĠPH P
C H
R L
à·Ħ à¶Ńà¶»à¶ļ
à¶½ à¶·à·Ģ
Ġà·ĥ à¶ľ
à¶© à¶´à¶Ń
à¶ºà¶ļ à¶±
à¶· à·Ģà¶Ń
Ġà¶ħà¶© à·ĥ
à¶Ľ à¶ļà¶ºà¶ļ
Ġà¶ĩà¶º à¶¯
Ġm usic
ĠH ealth
19 48
ip p
Ġà¶´à¶« à¶´
The y
Ġà¶Ĭà·ħ à¶ľà¶§
à¶ĸà·Ĥ à¶°
S D
k s
v ed
Ġ \
Ġà¶± à·ĥà¶±
Ġà¶» à·Ĥ
Ġà¶ĭ à¶»à¶¯
à¶»à¶¯ à¶¸
Ġà¶Ĭ à¶ºà¶¸
Ġà¶ħà·Ħ à¶¯
Ġo per
Ġt ournament
Ġh ost
Ġn ow
av ing
Ġà·Ģà·ħ à·Ģà¶½
p g
Ġ order
à¶± à·ħ
à·ı !!
à·ĵ /
Ġà·Ħ à¶ºà·ĥ
Ġà·Ħ à¶Ńà¶»à¶º
Ġà¶ľ à¶¸à¶º
Ġà¶Ĵ à¶½
à¶¸à¶Ń à¶ºà¶§
à¶½à¶ļ à¶¯
ĠP al
ad asa
ĠE ar
ĠÐ ¸
Ġsh ort
C on
Ġà·ĥ à¶°
Ġà·ĥà¶³ à¶ļ
à¶¸à¶½ à¶°à¶»
Ġà¶ħà¶ľ à¶»à¶¯à¶ľ
Ġà¶ºà¶±à·Ģ à¶½
Ġà¶¢à¶±à·Ģ à¶»à¶¸à¶ļ
aw bima
ase kara
Ġi OS
oug ht
C ol
à¶´ à¶¢
à¶´ à·Ħà¶½
Ġà¶ĳ A
Ġà¶½ à¶³
Ġà¶Ĵ à¶¯
à·Ģà¶ļ à¶Ń
Ġà¶ħà·Ģ à¶¥
à¶¸à¶« à¶§
om et
and s
ĠN AB
iv en
ĠFire fox
F P
n ow
y th
à·ĵ ....
Ġà¶¯ à¶»à¶Ń
at form
à¶Ĩ à¶°
Ġs ide
re f
Ġp at
Ġb est
Ġà¶ĳà·ħ à¶¯
ĠF ull
ĠF orm
Ġ17 5
Ġcom ments
Ġ194 4
à·ĴâĢĿ .
à¶»à¶¢à¶± à¶±à¶º
ĠInd ies
col span
ĠIII à·Ģà¶±
b ol
Ġ Ñģ
à¶Ń à¶ļà¶»à¶º
à¶´ à¶½à¶§
Ġà¶Ķ à·ĥà¶»
Ġà·ĥà·Ħ à·ĥà¶¸
ĠT op
ĠW ith
iv il
Ġà¶¸à¶© à·Ģà¶½
à¶»à¶¶à¶½ à¶Ńà¶¸
Ġcapt ion
N S
c enter
Ġà¶ļ à¶¶à¶©
Ġà¶¸ à·Ģà¶ļà¶§
à·ħ à¶¶
Ġà¶ĩ à¶ºà¶º
Ġà¶ļà¶»à¶± à·Ģà¶±à¶¸
Ġà¶Ķà¶¶ à¶º
Ġs ong
ĠP at
Ġà¶¶à¶½à¶´ à·Ģà¶Ń
as y
Ġà¶¶à¶½à¶º à¶Ń
Ġ7 20
Ġà¶´à¶§ à¶¶
ĠF irst
ĠV al
ĠCh rome
ian s
Ġle g
itt le
ru ary
PHOT OS
G A
R O
l am
à¶¸ à¶ŀ
à·ĵ à·ĵ
à¶Ĥ âĢĻ
à¶±à¶º à¶§à¶º
Ġà·Ģà¶± à¶ľà¶Ń
à¶¢à¶º à¶»à¶Ń
à¶¡ à¶º
ill er
SL R
Ġper form
ĠRespons es
M aha
P C
a ug
à¶½ à¶´à¶±
à¶§ à¶¶
00 00
Ġà¶ķ à¶ļà¶º
Ġ19 12
à·Ĳ. "
it z
Ġt ake
Ġà¶ħà¶ľ à·Ħà¶»
ĠD ep
à¶½à¶ºà¶§ à¶Ń
our se
act ion
ĠEx t
Ġser vice
Com ments
ĠOr gan
s k
à¶½ à¶Ńà¶½
Ġà¶¸ à·Ģà¶Ń
à¶´ à·Ģà¶»à¶ļ
à·Ŀ ?
à·ģà¶º à¶¸
à¶»à·Ħ à¶«à¶ºà¶±
Ġà¶ļà¶« à·ĥ
à¶½à¶±à¶º à¶Ń
Ġs elect
ĠT orrent
à·ı.. !
Ġ8 000
ĠO pt
ĠSt ar
ain ed
ĠTh ero
Ġun p
ach ine
Ġbec ause
à¶ħà¶Ł à·Ħà¶»
à·ĵ à·Ĭ
Ġà¶ħ à·Ĩ
à¶´ à·Ħà·ĥ
Ġà¶ľ à·ĥà¶§
Ġà¶ľ à·Ħà¶º
à·ħ à¶ļà¶±
à·Ģà¶½ à¶ļà¶¸
à·ĺ à·ĺ
Ġw ay
Ġ10 3
ot o
Ġ20 25
Ġto ol
Ġan n
à¶ľà·Ħ à¶ľ
à·ĥà¶»à¶¯ à¶º
ounc il
Ġ **
Ġ organ
à·Ķ à·Ļ
Ġà¶´ à¶½à¶º
Ġà¶Ń à¶½à¶ľ
à¶ł à¶»à¶ļ
Ġà¶´à¶Ń à¶§
à¶»à¶§ à¶¯
Ġ19 29
ĠC N
à¶ĩ à¶©
is c
à·Ķà¶Ĥ ,
ĠT ime
Ġb ow
ĠB i
ĠE UR
iv ity
Ġà¶ħà·Ģà¶¸ à¶Ł
à·ļ.... ...
Ġà¶»à¶¯ à·ħ
Ġà¶łà¶½à¶± à¶ºà¶±
sy ch
H anda
b r
n y
w ood
à¶ļ à¶½à¶±
à·Ĥ à¶¯à¶º
à·Ģà¶Ń à¶ļà¶§
à¶»à¶¸ à·Ħ
à¶»à¶« à·Ģà¶½
ĠL at
ĠE v
Ġà¶¸à·ħ à·ĥ
05 30
Ġ:- )
inc ip
ĠPre m
a a
v iron
à¶Ń à¶±à¶ļ
à¶¶ à¶ļà¶»
Ġà¶º à¶§à·Ħà¶Ń
Ġà¶ļà¶» à¶«à·Ģ
à¶±à·Ģ à¶»
Ġ12 3
Ġà¶»à¶® à¶ºà¶ļà¶§
Ġà¶ĭà¶ľ à·ĥ
198 3
198 7
ert ain
ater ial
ĠSath Handa
c ient
n ing
w eb
Ñ ħ
Ġà·ĥ à¶±à·ĥ
à¶ľ à¶»à¶ºà¶ļ
Ġà¶ħà¶Ń à¶´
Ġà¶¸à¶ľ à·Ħà¶»
à¶»à¶« à¶ļà¶¸
à·ĥà¶º à¶ľ
ĠR ay
Ġd om
à¶Ĭ à¶½à¶Ł
à·Ĭ" ,
ĠJ VP
Ġal ign
ĠBuddh ist
l ock
à¶Ń à¶¥à¶ºà¶±
à¶ºà¶ļ à¶ºà¶§
à¶»à¶¸ à¶ľ
Ġà¶±à¶¸ à¶¯
ĠC ity
Ġs ri
Ġm et
Ġv iew
âĢĮ âĢĮ
ĠY outube
197 8
En g
à·Ĵ à·ĵ
à·Ģ à¶łà¶±à¶ºà¶ļ
à¶ļ à·ģ
Ġà·ĥ à¶Ńà¶±
Ġà¶º à·Ħà¶Ń
Ġà¶´à¶¯ à¶¸à¶§
ĠS earch
à¶ī à·Ģ
le an
le ar
Ġb ar
am era
ĠN ext
sh a
A uthor
D P
V IDEO
n ail
à¶´ à¶½à·Ģ
à¶ł à·ĥà¶¸
à·ĳ âĢ¦.
à¶ľà¶Ń à¶ļ
à¶Ł à¶ļà¶¸
ic ally
Ġs ocial
à¶¶à¶¯ à·Ģà¶º
ou ble
ĠL ondon
am inda
Ġà¶ĩà¶ľ à·Ģ
ap s
aw ard
Ġà¶¯à·ģ à¶ļà¶ºà¶ļ
ĠBo ard
M C
à ¹
à¶º à¶»à¶§
à¶§ à¶´à¶±
à¶· à¶ļà¶º
Ġà¶ļà¶½ à¶¸à¶«
à¶´à¶º à¶»
ĠL ive
Ġà·ĥà¶´ à¶®
Ġv ari
Ġ194 6
ra ft
ĠâĢĻ âĢĻ
à·Ĭ !!
à·Ķ âĢĺ
à¶´ à¶«à¶ºà¶§
Ġà¶» à¶¯à¶½
à¶ľà¶± à¶ļà¶º
Ġà¶»à¶§ à¶º
Ġà¶ħà·ĥ à·Ģà¶½
Ġà¶ĭà¶¯ à¶ļ
ĠC redit
Ġà¶īà¶³ à¶ľà¶±
ĠH old
ĠH OT
Ġà¶ºà¶±à·Ģ à¶§
Ġà¶ħà¶ºà¶§ à¶º
Ġà¶ºà¶§ à¶ľ
Ġà·ĥà¶¸à¶± à·ħ
Ġ16 00
Ġà¶¥ à¶Ń
Ġwith out
Ġed it
âĢįâĢįâĢįâĢį âĢįâĢįâĢįâĢį
Ġcap ital
M O
g o
r oll
à¶Ń à¶ļà¶»à¶«
Ġà¶ħà¶´ à¶»à¶¯
à¶»à¶¸ à¶±à¶º
à¶»à¶« à·Ģà¶½à¶§
at o
ĠS pe
ĠC PU
ĠA v
Ġf riend
Ġà¶Ī à¶¯
ro ph
iv ed
ur s
à® ¯
à¶»à¶¸à¶« à·ģ
Previous Previous
Ġà¶Ĩà¶ľ à¶¸à¶ļà¶§
u f
à¶§ à·ĥà¶Ń
à·Ĳ !
Ġà·ĥ à¶ľà·Ģ
à·ĵ !
Ġà¶¶ à¶§à¶º
à¶® à¶»à¶ºà¶ļ
Ġà¶¸à¶¸ à¶¸
Ġà¶ĳà·Ģ à¶´
Ġp rom
Ġà¶´à¶½ à¶½
à·Ĵ.. âĢĿ
ĠW ork
id s
ition al
à·Ĭ à¶Ĥ
Ġà¶ļ à¶¸à¶º
Ġà¶´ à·Ģà¶ļ
à¶ľ à¶»à¶Ń
Ġà¶ĩ à¶§à·ĥ
Ġà¶¢ à¶½à·Ģ
à¶ľà¶½ à·Ģ
Ġ19 15
ĠG o
Ġà¶ħà¶ºà¶§ à¶¯
ir a
Ġà¶ĳà¶ºà¶§ à¶Ń
Ġà·Ĥ à¶©
ĠÂ £
Ġà¶ħà¶±à·Ģ à¶¶
Ġà¶ħà·Ģà¶ºà·Ģ à¶ºà¶ļ
Next Next
Ġà·ģà¶Ńà¶ļ à¶ºà¶ļ
D r
à¶½ à¶³à¶´
Ġà¶ħà¶Ń à·ħ
à¶Ńà¶± à¶ºà¶ļà¶§
Ġà¶ľà¶« à¶±à¶§
ĠA C
Ġs ource
Ġ10 8
Ġ11 2
ĠÂ ¥
Ġpl ace
ĠZ imbabwe
l or
s ide
Ġ ep
à¶« à¶±à¶º
Ġà¶Ĩ à¶»à¶±
Ġà¶Ĭ à·Ģ
à¶»à·ĥ à¶ºà¶ļ
à·ĥà¶¸ à¶½
Ġs yn
Ġc al
Ġà¶¡ à¶º
Ġd em
Ġin formation
Ġà¶ĩà¶» à¶¶
Ġà¶µ à¶ļ
end ed
ys ics
Ġev ent
Ġev ery
. âĢľ
d r
m ark
Ġ å
à¶Ĥ âĢĿ
à·ĥà¶» à¶§
en ing
Ġà·ħ à¶¸à¶ºà¶ļ
is ode
ĠD ialog
à·Ģà¶ºà¶§ à¶¸
Ġà¶ĭà¶© à¶¸
Ġh istory
Ġacc ess
Ġsm all
Ġinclud ing
ĠAp ril
à ¦
à¶´ à·Ħà¶»
à·ľ ÂŃ
Ġà¶½ à¶½à¶±
Ġà¶¢ à¶ľ
à¶ħ à¶¯à·Ħà·ĥ
Ġà¶»à¶¢ à¶ºà¶ļà¶§
à¶ļà¶½ à·Ħ
ĠS A
Ġp ress
à¶Ŀ à¶¸
Ġt er
à·ı.. "
Ġd evelopment
ac ka
ĠF S
ĠV ersion
Ġg ener
à¯ Ī
cl us
à·ĬâĢĭ à·Ļ
à¶ļ à·Ĥ
Ġà·Ħ à·ĥà¶»
Ġà¶ĩ à¶»à¶´
Ġà¶ħà·Ģ à·ģà¶º
Ġp p
Ġb ox
Ġb rowser
ĠE conom
ĠÂ °
ĠSt ates
ĠSm art
H z
j i
Ġ es
Ġà·Ģ à¶±à¶ºà¶§
à¶ł à¶Ńà¶¸
à·ı. (
Ġà¶¸à¶Ń à¶ļà¶±
à·Ĥà¶º à¶»
Ġà¶ľà¶¸ à¶±à¶º
à¶ĭ à¶ľà¶Ń
ĠD el
Ġ10 6
Ġl ight
Ġà¶±à·Ģà¶Ń à¶±
Ġà¶ħà·Ģà¶½ à¶¸
199 5
Ġâ ģ£
Ġà¶ħà·ĥà¶¸ à·ĥà¶¸
Ġ193 6
aj or
An d
ii i
ĠCor por
à¶¯ à·Ģà¶º
à¶´ à¶½à¶Ń
à¶³ à·ĥà¶½
Ġà¶ħà¶Ń à¶§à¶¸
Ġà¶Ĭ à¶Ńà¶½
ĠC ons
am al
à¶Ĭ à¶§à¶Ń
ur r
Ġà¶ľà·Ħ à¶«à¶º
à·ĥà¶½à¶ļ à¶±
ill s
In ternational
Ġres earch
Ġbl ock
Ġsm art
viron ment
F i
à¶© à¶±à¶ºà¶ļà¶§
à·ĳ âĢĻ
à·Ĭ, ,
Ġà¶ħà¶º à·Ģà·ħ
à¶ī à¶§
Ġs ay
Ġf in
Ġà¶īà¶³ à¶ľà¶Ń
ĠDec ember
à¶¯ à¶»à¶ļà¶¸
Ġà¶¯ à¶Ńà¶ļ
à¶° à¶¶
à¶ł à¶¯
Ġà¶ħà¶Ń à¶¯
Ġà·Ģà¶½ à¶§à¶¸
er g
à¶±à·ĥ à¶Ń
à¶ºà¶Ń à¶§
Ġà¶´à¶¸à¶« à¶ļà¶§
à¶´à¶¯ à·Ģà¶º
and y
Ġà¶Ńà¶¶ à¶±à·Ģ
ĠE p
ist ic
Ġà¶¸à¶ľà·Ħ à¶»à·Ģ
ĠKum ar
ĠWill iam
a ult
d f
Ġ ec
à¶§ à¶ľà·ĥ
Ġà¶ħ à¶§à¶´
Ġà·Ħ à¶ľ
à·Ĥ à¶ļà¶¸
à·Ģà¶ļ à·Ģ
à¶´à¶Ń à¶¸à¶º
à¶· à¶ºà¶Ń
ĠC IA
à¶½à¶±à¶º à¶º
ri ed
Ġst andard
Ġà¶ħà¶Ł à¶½à¶ļ
ĠÐ ¾
à¶¸à¶»à¶Ń à¶±
____ ____
Ġprotect ed
P L
Ġà¶Ĩ à¶¢
Ġà·ħ à¶³
Ġà·ħ à¶ľà¶§
Ġà¶ľà¶¸à¶± à¶ļà¶§
st yle
Ġs ee
is ch
Ġb all
Ġg oogle
Ġà¶´à¶»à¶« à¶ľà¶¸
ĠÐ ²
Ġ193 8
ï¿½ ï¿½
................ ................
ys is
H D
i ally
à·ĥ à¶¯à¶±
Ġà·ĥ à·ĥà¶´
à¶ºà¶ļ à¶»à¶«
à¶° à¶»à¶ºà¶±
Ġà¶ĭ à¶«à¶Ń
Ġà¶ĭ à¶·à¶Ń
à·Ģà¶» à¶·
Ġà·ĥà·Ħ à¶ºà¶§
à¶´à¶Ń à¶º
ĠĠ ĉ
Ġà¶ļà¶§ à¶ĭà¶Ń
is on
Ġà¶ħà¶ľ à¶ºà¶§
Ġm ess
19 52
ur g
Ġà¶¯à·Ħ à¶±à·Ģ
ev ed
Ġà¶¸à·Ģà¶ļ à¶ľ
ĠRes earch
1 000
Ġà·ĥ à¶»à¶¸à¶ļ
à·Ģà¶½ à¶§à¶º
Ġà·Ģà¶± à·ĥà¶Ń
Ġà·Ħà¶³ à·Ħà¶±
à¶¶à¶½ à¶°
ĠL og
ĠB usiness
Ġà¶ļà¶³ à¶ļ
Ġre f
Ġà¶±à·Ģà¶ļ à¶º
ĠCol lege
ĠTag s
à¶º à¶ºà¶¸
Ġà¶ħ à¶§à¶¯
à¶¸à¶± à¶Ń
Ġà¶ł à¶¸à¶»
à¶ħ à¶«
Ġ2 20
à¶»à·Ģ à¶ľ
Ġp en
ĠP DF
Ġf iles
Ġà¶ľà¶½ à·Ħ
ĠG B
ĠR A
Ġm ethod
ri y
à¶»à¶´à¶§ à¶ºà¶ļà¶§
à¶½à¶ľ à¶§
ĠO per
Ġà¶ħà¶Ł à·Ģ
Ġch ild
Ġdo es
inn ing
t il
ç ļ
ê µ
à¶» à¶®à¶º
à¶´ à¶»à¶ļ
à¶ºà¶± à¶±
à·Ģà¶± à¶ºà¶±
Ġà¶±à¶¸ à¶±
Ġà¶¢à¶± à¶ľà¶Ń
Ġà¶Ķà¶¶ à¶¯
Ġ- --
ar ed
à¶»à·Ħ à·Ģ
ĠS im
Ġt able
Ġw atch
ĠB y
ĠI reland
ĠH ind
Ġh elp
à·ħà¶Ł à¶ļ
Ġg overnment
ĠIn formation
ob ia
ĠQ ual
Ġbl ack
Ġfun ction
Ġà¶Ńà¶¯à¶¶à¶¯ à¶ºà¶ļ
ĠFeb ruary
S M
W e
a im
Ġà¶ľ à¶ºà¶¸
à¶ł à¶½à¶Ń
Ġà¶¶à¶½ à¶¸à¶«
Ġà¶· à·Ģà¶ºà¶ļ
Ġà¶Ńà¶» à¶½à¶º
ĠS ud
ĠM awbima
Ġw id
Ġà·ĥà¶½ à·ĥà¶º
Ġà¶»à¶§à¶ļ à¶¢
Ġà¶¯à·Ħ à¶ħà¶§
Ġpl an
ĠRead ing
, âĢĿ
A m
M ar
a us
o ch
à·ļ à¶Ĥ
Ġà·ĥ à·ħà·ĥ
à¶° à¶±à¶§
or ed
ar ies
Ġth ose
Ġà¶ļà¶§ à·Ħà¶©
Ġà¶ħà·Ħ à¶¸à¶©
il y
ag ram
Ġ12 8
Ġg en
Ġwh it
ĠÐ ½
ung a
osh op
led ge
ĠKar un
à¶ľ à¶¸à¶Ń
à¶´ à¶»à¶Ń
à·ľ `
Ġà·Ħ à¶¶à¶½
à·Ŀ âĢ¦
Ġà¶ħà·Ģ à¶¸à¶º
ĠP ublic
Ġà¶´à¶½ à¶ļà¶»
ĠB atuwangala
Ġin n
à·Ģà¶»à¶« à¶ºà¶±
Ġ9 78
à·ĥà¶³ à¶ľà¶±
à® ³
ric t
inhal ese
ĠCC TV
ersh ip
A t
P G
Ġ enc
à¶º à·ĥà¶¸
à¶¸ à·Ħà·ĥ
Ġà¶ĳ à¶´à¶»
à¶łà¶± à¶ºà¶±
ĠB ank
ĠH ard
Ġ20 30
Ġl ast
ĠV id
ĠU b
ec ial
Ġle ft
ĠManag ement
b ps
l t
â ĪĴ
Ġ !!!!
à¶» à¶Ńà¶»
Ġà¶ĳ à¶¬
Ġà¶Ĩ à¶ļà¶»à¶º
à·Ħà¶» à¶ºà¶ļ
à¶»à¶«à¶º à¶Ń
à¶ī à·Ħà¶½
ĠA D
à¶°à¶±à¶º à·Ģ
Ġà¶ħà¶ľ à¶¯
ĠD igital
ĠW ick
ag ue
Ġà¶¸à¶¯ à¶ļà¶§
Ġà¶Ĭà¶½à¶ľ à¶§
ĠBlog ger
ibr ary
c m
s m
v al
à¶¯ à¶ļà¶»
à¶· à¶¸
Ġà¶© à¶¸
ic on
Ġh ow
Ġà·ĥà¶½à¶ļ à¶Ń
ut om
ec k
oun g
198 8
iction ary
m et
t y
à·Ģ à¶¯à¶º
à¶½ à¶·à¶º
à¶« à¶Ŀ
à¶¶ à¶ºà¶±
Ġà¶ļà¶»à¶± à¶±
Ġà¶ħà¶± à¶¸
Ġà¶ĳà·Ħ à¶¸
à¶½à¶ļ à¶½
à·ĥà¶» à¶ºà¶±
Ġà·ĥà¶Ń à¶ºà¶ļ
à¶ľà¶½ à¶¸
à·ĥà¶ļ à¶Ń
Ġà¶© à¶»
à¶Ķ à¶´
ĠG reen
Ġd er
à·ħà¶³ à¶ľà¶Ń
Ġl ove
Ġà¶´à¶« à·Ħà¶ļ
Ġà·ĥà¶»à¶½ à·Ģà¶¸
à¶¸à¶© à¶ļà¶½à¶´
199 3
ĠPro v
Ðµ ÑĢ
Ġbut ton
Ġà¶¢à¶±à¶»à¶¢ à¶ºà¶ļ
A P
Â ¹
Ġ ë
Ġà¶´ à¶®
à·ĬâĢį ...
Ġà·Ħ à¶Ńà¶»à¶¸
Ġà¶ľ à¶¢à¶¸
à¶© à·Ģà¶Ń
à¶¢ à¶±à·Ģà¶½
Ġà¶Ĩ à·Ģà¶½
à¶ĩ à¶´
à¶ļà¶»à¶« à·Ģà¶½
ĠN et
à¶¯à¶¸ à·Ħà¶Ń
Ġà¶´à·Ħà·ħ à¶¸
Ġà¶ĩà¶§ à¶ļà¶§
ell ing
197 1
r as
r act
Ġ u
Ġà¶¯ à·Ģà¶§
Ġà¶» à·Ħà¶º
Ġà¶Ĵ à¶´
à¶· à¶´
à¶¸à¶º à¶¢à¶±à¶ļ
à·Ģà·ĥ à¶±à¶º
Ġà¶´à¶¸à¶« à¶¯
âĢĻ .
ĠH ad
Ġ7 000
Ġà¶¯à·Ħ à¶ħ
oc us
Ġà¶¸à·ħ à¶½
Ġpro ject
à¶½à·Ģà¶º à·ĥ
ron ic
hot news
e k
n g
p al
á Ī
Ġ à·Ĵ
Ġà¶ļ à¶¬
Ġà·Ħ à¶Ńà¶º
Ġà·ĥà¶¸ à¶¶à¶»à·Ģ
à·Ĥà¶º à¶¯
at ural
à¶¯à¶½ à¶Ń
Ġà·Ģà¶§ à¶ļà¶»
à¶¸à¶½ à¶»
Ġd id
Ġà¶¯à·Ħ à·Ģ
Ġre ce
op s
à® µ
199 2
ug g
æ Ĺ
Ġà¶¸ à¶ļà¶±
Ġà¶ľ à·ĥà¶º
à¶»à¶º à·Ģ
Ġà¶¢à¶± à·Ħà¶¸
à¶¨ à·ģ
re l
Ġo cc
ĠG lobal
ĠD h
ad cast
Ġm ain
ĠN GO
Ġà¶Ńà¶»à¶ľ à¶ºà¶ļà¶§
ĠK h
uw an
Ġinter est
ĠUp date
. __
b and
e in
e le
i qu
à·Ģ à¶¯à¶±
à·Ģ à¶łà¶»
à·Ħ à¶ºà¶Ń
à¶§ à¶ľà¶»
à¶ºà¶ļ à¶»à¶«à¶ºà¶§
an o
Ġt yp
ĠT echà¶ļà¶Ń
Ġà¶ĭà¶© à·Ģà¶½à·Ģ
ĠH ouse
Ġ10 2
à¶»à¶®à¶¸ à·Ģà¶»à¶§
ĠSt ate
Ġ193 7
Ġqu ality
' .
S I
n ey
à·Ģ à·Ħà·ĥà¶ļ
à¶Ń à¶±à·Ģà¶¯
à·Ķ .....
Ġà¶¯ à¶ľà¶½à¶±
à¶»à¶¸ à¶«à¶ºà¶±
Ġà¶¢à¶± à¶¶à¶½à¶º
ed y
à¶ļà¶Ń à¶§
Ġà·Ħà¶³ à¶§
Ġw ar
ol es
Ġà¶Ńà¶»à¶ľ à·Ģà¶½
ir th
ay er
à¶ħà¶¯ à¶§à¶Ń
ĠĠĠĠĠĠĠĠ Ġ
à·ı: -
198 2
anc es
Ġcons ider
Ġmon th
? '
O pen
] ,
i que
à·ĥ à¶¶à¶»à¶ľà¶¸
à¶° à·Ģà¶Ń
Ġà¶ļà¶» à¶ļà·Ģ
à·ĸ à¶Ĥ
ĠM r
ĠD iss
ĠR ich
Ġd on
19 56
Ġ18 48
Ġà·ħà¶¸à¶º à¶ľ
ĠJ ournal
à¶ķ à¶»
à¶´à·Ħ à¶ļà¶§
ĠRe ferences
Ġà¶¶à¶§ à¶½à¶±
à¤ ¾
As ian
Ġstud y
E E
c ed
à·ĥ à·Ħà¶±
à·ĥ à¶ľà¶±
à·Ļ âĢĿ
à¶¯ à¶¬
Ġà¶ķ à·Ģà¶½
Ġà¶° à¶±à¶ºà¶ļ
ĠS u
à¶ºà¶¯ à¶¸à¶§
ĠM us
Ġà¶¸à¶½ à¶½à·ĥ
ĠG ames
Ġm ult
il ar
ĠF ound
ĠO ut
Ġà¶ħà·ħ à¶½
ind s
awe i
ĠBrit ish
K A
ì Ķ¨
Ġà¶´ à¶¹à¶º
Ġà¶¯ à¶©à¶¸
à¶Ĩ à¶¸
Ġà¶¸à¶½ à¶¶
à¶»à¶¢ à¶¸
ĠH ost
Ġà¶¸à¶Ł à¶§
Ġn e
Ġà¶¯à·Ħ à¶±à·Ģà·Ģ
ev en
Ġfor ex
Ġà¶ħà¶§ à¶§
à¶»à·Ħà·ĥ à¶±
Ġcont rol
Ġlanka hotnews
ĠHold ings
F acebook
e ep
i us
o in
Ġà¶ ¨
à¶º à¶Ł
Ġà¶¯ à·Ģà¶±
Ġà¶ĳ à¶»à¶±
Ġà¶Ķ à¶Ńà¶½
à¶ħ à·ĥà¶±
Ġà·Ħà¶» à¶ºà¶ļ
Ġà¶ħà¶» à¶ľà¶½à¶ºà¶±
al pa
ĠR av
Ġin ternational
Ġà¶Ī à¶´
Ġà¶ľà¶» à·Ħà¶±
ur ch
Ġ194 3
ail s
Ġun d
Ġj ob
Ġcur rent
H E
l in
à¶± à¶·
à·Ģ à·Ģà¶½
à¶ļ à¶½à¶±à¶ºà¶ļ
à·Ļ à·Ĭ,
Ġà¶Ń à¶ļà¶Ń
à¶© à¶ºà¶ļà¶§
Ġà¶½à¶¶ à¶¯
à¶ľà¶± à¶ºà¶±
ĠS um
Ġp ay
ĠH y
Ġh ouse
Ġà¶Į à¶±à¶±à¶º
à¶ħà¶¯ à¶Ń
ĠJ ob
Ġà¶ļà·Ģà¶» à¶ºà¶ļ
aw ans
Ġà¶ĳà¶ļà¶ļà¶§ à¶¸
à·ĥà¶¸à¶± à¶½
. '
j ith
à¶ľ à¶±à·Ģ
Ġà¶¯ à·ĥà¶Ń
Ġà¶¶ à¶»à¶º
à·Ĥ à·Ģà¶»à¶ºà¶ļ
à·Ģà¶Ń à¶±
à·Ģà¶§ à·Ģà¶Ń
Ġ19 18
Ġ19 21
à¶Ĵ à¶¸
re et
à¶»à¶¢ à¶±à¶ļ
ĠL ove
ĠR ath
ĠE ast
ĠE urope
ag on
he ad
Ġg irl
à® ±
à·ľâĢį à·Ĭ
Ġres p
à¶¨à¶ļ à¶®
ĠGe org
ĠFC ID
Â ¾
à·Ħ à·Ģà·ĥ
Ġà·ĥ à¶¤
Ġà·Ħ à¶ºà¶»
à¶© à¶´à¶Ńà¶ļ
Ġà·ĥà¶¸ à¶»à¶¸
à¶ł à¶´
à¶ºà¶½ à¶ľ
Ġà·Ģà¶½ à¶¸
à¶ºà¶¸ à¶¯
ĠC re
Ġà·ĥà¶± à·ĥà¶±
ot al
Ġl os
201 9
Ġg ames
Ġ13 5
à·Ĥà¶«à¶ºà¶ļ à¶¯
Ġà¶ħà¶« à·ĥà¶ļ
Ġ193 3
uw ath
H owever
Î ¹
à·Ģ à¶¢à¶±
à·ĥ à¶¥
à·Ħ à¶ºà¶º
Ġà¶´ à¶¢
à·ĵ :
Ġà¶ħ à·Ħà¶»
à¶© à¶¸à¶±
Ġà¶½ à¶ľà¶¸
Ġà¶ħà¶´ à¶§à¶¸
à¶Ĵ à¶ļà¶º
Ġà¶īà¶½ à·Ģ
ĠM c
Ġp oss
ĠG PS
ĠR as
Ġg l
ev e
ĠPhot o
ĠSam ar
à¶®à¶ļà¶® à¶±à¶ºà¶ļ
m en
à¶¯ à·Ģà¶±à·Ģ
à¶Ńà¶» à·Ģà¶»
Ġà¶ħà¶´ à·ĥ
Ġà¶¸à·Ħ à¶´à¶§
à·Ģà·ĥ à¶º
à¶Ľ à¶½
Ġ19 24
Ġà·Ĩ à·ĥ
Ġà¶Ńà·Ģà¶Ń à·Ģà¶Ń
Ġs qu
ĠM B
ĠM ark
ĠP olitics
ĠD avid
à·ģà¶ļ à·Ģà¶»
à¶»à¶· à·Ģà¶ºà¶±
Ġà¶´à·Ħà¶» à¶§
Ġre al
à·ĴâĢ¦ ..
row n
ĠCol umn
let te
à¶¸ à¶»à¶ļ
Ġà¶¸ à¶»à¶ļ
Ġà¶ľ à·Ħà¶¸
à¶° à·ģ
à·Ĥ à¶±à¶ºà¶§
à¶Ńà¶» à¶«à¶º
à¶¸à¶ļ à¶½
Ġà¶ºà¶± à·Ģà¶±à¶¸
à¶ħ à¶ľà¶±
à¶§à¶Ń à¶¯
Ġà·Ħà¶» à¶´
th ers
Ġt ry
Ġb it
ĠB rowser
ac ed
ĠW ater
Ġl ess
199 1
Ġro om
angu age
- )
9 00
É Ļ
å Ĳ
à¶½ à¶¶à¶º
Ġà¶ļ à·Ģà¶¸
à·Ĳ '
Ġà¶ħà·Ģ à¶ºà·Ģà¶º
à¶»à¶¯ à¶ºà¶±
ĠB al
Ġ15 4
iv ely
Ġà·Ģà¶»à¶¯ à¶ļà¶§
em at
Ġà¶ľà·Ħ à¶«
........ .....
à¶´à¶§ à¶ºà¶ļ
à¶ľà¶¸à¶± à¶ºà¶±
ĠPro ject
pl or
Ġle vel
Ġlink s
c ap
u el
Ġà¶¯ à·ħà¶¹
à¶· à·Ģà¶±à¶º
à¶»à¶« à¶§
es is
ĠS he
Ġà·ĥà¶¸à¶Ł à¶¯
à¶ºà·Ģà·ĥ à¶ļ
Ġà¶īà¶© à¶¸à¶§
ĠI mage
Ġin f
im i
ĠAd v
Ġà¶ļà¶»à¶ļ à·Ģà¶±
Ġpr act
à¶¶à¶½à¶ļ à¶©
ĠPass word
j a
Ë Ī
à¶± à¶ļà¶»
à¶ľ à¶ļà¶»
à¶ľ à¶»à¶ºà¶§
Ġà·Ħ à¶ŀ
Ġà¶¶ à¶ļà¶¸
Ġà¶Ķ à¶¯
à¶· à¶ºà¶ľ
Ġà¶´à¶» à¶ľ
Ġà¶° à¶¢
à¶ļà¶½ à·ĥ
ĠS ave
Ġo pp
Ġm uch
Ġà¶ĩà¶ľ à¶§
à¶´à·ħ à·Ģà¶½
à·ı" .
Ġà¶¯à·ģà¶ļ à¶ºà¶ļà¶§
Th ere
! âĢĿ
D E
S C
ĉ Ġ
Ħ ¢
à·Ĵ *
à¶± à¶¸à¶Ń
à¶¸ à·ĥà¶ļ
Ġà·Ģ à·Ħà·ĥ
à¶³ à·Ģà¶½
à·Ģà¶Ń à¶ºà¶ļ
à·Ģà¶ļ à¶§à¶Ń
Ġà·ĥà·Ħ à·ģ
Ġà¶ħà·Ģ à¶¸à¶ľ
Ġà¶Ńà¶» à¶±
.... "
at ors
al in
à¶ĩ à¶Ł
ĠD il
ĠB as
Ġd ue
os a
ir ror
ag s
,, ,
reed om
w atch
Ġ ================
à·Ģ à¶¸à¶Ń
à¶´ à¶ºà¶¸
Ġà¶± à¶¢
Ġà¶ĩ à¶»à¶Ń
à¶¢ à¶»à¶Ń
à¶· à¶ļà¶»
Ġà¶±à·Ģ à¶ľà¶Ń
Ġh ack
im ation
ut ure
op p
ĠâĢ¦ ..
ðŁĳĮðŁĳĮðŁĳĮðŁĳĮðŁĳĮðŁĳĮðŁĳĮðŁĳĮðŁĳĮðŁĳĮðŁĳĮðŁĳĮðŁĳĮðŁĳĮðŁĳĮðŁĳĮðŁĳĮðŁĳĮðŁĳĮðŁĳĮðŁĳĮðŁĳĮðŁĳĮðŁĳĮðŁĳĮðŁĳĮðŁĳĮðŁĳĮðŁĳĮðŁĳĮðŁĳĮðŁĳĮ ðŁĳĮðŁĳĮðŁĳĮðŁĳĮðŁĳĮðŁĳĮðŁĳĮðŁĳĮðŁĳĮðŁĳĮðŁĳĮðŁĳĮðŁĳĮðŁĳĮðŁĳĮðŁĳĮðŁĳĮðŁĳĮðŁĳĮðŁĳĮðŁĳĮðŁĳĮðŁĳĮðŁĳĮðŁĳĮðŁĳĮðŁĳĮðŁĳĮðŁĳĮðŁĳĮðŁĳĮðŁĳĮ
Ġbo ard
I G
à·ĥ à·Ģà¶Ń
à·Ļ à·Ĵ.
Ġà¶¯ à¶»à¶¯
à·ģ à·Ģà¶½à¶¯
Ġà¶¢ à¶§
à·Ħà¶½ à¶Ń
à¶»à¶ºà¶ļ à¶¸
à·Ģà¶ºà¶ļ à¶º
ĠD SLR
à·ļ... "
Ġv irus
ab ility
ec ut
à·Ħà¶¯ à·ģ
OS S
Ġim port
Ġlangu ages
ĠChin ese
athil aka
å ¸
à¶´ à¶°
Ġà¶Ń à·ħ
à·Ĵ. '
Ġà¶Ĵà¶ļ à¶½
al ysis
à¶©à¶ļ à·ħ
à¶ľà¶ºà¶ļ à¶¯
à¶¡ à·Ģ
à·Ļ. "
Ġm obile
Ġ11 1
à·ĬâĢĻ ,
Ġg iven
Ġ14 00
à¶ķ à¶½
Ġà¶ħà·Ħà¶± à¶ļ
Ġv ict
Ġà¶į à·Ĥ
Ġteam s
ĠBand ara
ĠWik ipedia
T B
d rop
å ¹
à·Ĵ !!
à¶¸ à¶½à¶§
à¶¯ à¶½à¶º
à¶¶ à·Ģà¶¸
Ġà¶ĳà¶ļ à¶¸à¶º
Ġà¶ħà¶´ à¶¸à¶«à¶º
Ġà·ĥà·Ħ à¶±à¶¯
Ġà¶© à¶ŀ
à¶ĩ à¶ļ
re y
re es
Ġp olitical
Ġt echn
ĠD rama
à·ļ.. ?
ap ers
ĠCh amp
à·ĴâĢĻ .
à¶ľà·Ħ à¶´
Ð° ÑĢ
ĠEx press
Ġfollow ing
I R
L O
g l
j pg
Î ½
à¶± à¶»à¶ļ
à¶ļ à¶½à¶ļà¶§
Ġà¶ļ à¶łà¶½
à¶ľ à¶°
Ġà¶Ń à·ĥ
à¶ĳ à·ħà¶¹
Ġà¶´à¶¯ à¶ºà¶§
ĠA ction
ĠG en
ĠR em
Ġà¶»à¶§à·Ģà¶½ à¶Ń
ĠB ox
Ġin st
à¶ĳà¶¸ à¶Ł
Ġ11 5
Ġ24 0
198 5
t s
v es
Ø ³
à·ĥ à·Ģà¶ļ
à¶³ à·Ģà¶¸
Ġà¶ĳà¶± à·Ģà¶±
à¶Ĵ à¶º
es tern
Ġa ward
Ġà¶±à¶ľà¶»à¶º à¶º
Ġ? ??
âĢĭ ?
Ġà·ĥà¶Ńà¶» à·Ģà¶±
ĠCon f
Ġphot o
Ġwicket s
I f
Ġ }
à¶´ à¶¸à¶±
à·Ģà¶± à¶´
à·Ħà¶± à¶¸
Ġà·ĥà¶³ à¶¸
à·ĵ. )
Ġà¶´à·Ħ à¶¸
ĠC ong
Ġth read
Ġà¶ļà¶§ à·Ħ
re m
à¶»à¶ľ à¶¸à¶±
anc ed
Ðº Ð¸
Â ®
à¶± à¶´à·Ħ
Ġà·Ħ à¶Ńà¶§
à·ħ à·Ģà¶±
Ġà¶ĭ à·ĥà¶º
Ġà¶ĭà¶´ à¶ľ
Ġ19 14
st er
ic le
it ation
Ġs ens
ĠK ore
à¶¯à¶ºà¶§ à¶Ń
Ġà¶ħà¶ľà¶º à¶ºà¶±
198 4
und ay
ym bol
ĠMov ie
lev ision
ilosoph y
7 00
? ..
à¶ļ à¶ļà¶¸
Ġà¶ĩ à¶¯à¶ľà¶Ń
à·Ģà¶½ à¶ľ
à¶¸à¶ļ à·Ģà¶±
Ġà¶Ńà¶» à·Ģà¶§
Ġà¶Ĭ à¶ľ
ed d
Ġc amp
à¶©à¶± à¶ºà¶±
à·Ħà¶¸ à¶©
ĠH ack
ac es
ĠF in
ĠV irtual
Ġre port
Ġle ad
197 2
Ġcont ent
ĠDe f
âĸ ł
Ġvi ews
P N
r est
s ch
à¶± à¶ľà¶¸
à¶¸ à·Ħà¶¸
Ġà¶¶ à¶¢
Ġ19 22
ĠA th
ĠA ward
à¶ļà¶»à¶« à·Ģ
ĠT echn
Ġb ody
ac he
Ġ10 4
up t
Ġà¶ĳà¶»à¶§ à¶§
Ġqu e
Ġsu ccess
c y
â ĺ
ì Ħ
à·Ħ à¶±à·Ģà¶½à¶§
Ġà¶¸ à·Ģà¶º
à¶¶ à¶¢
Ġà¶º à·Ĥ
à¶³ à·ĥ
à·Ģà¶º à¶¹
Ġ19 25
ĠC ouncil
Ġc irc
ĠT ool
ĠD on
ĠD rive
ĠR AM
ur u
Ġg reat
à·Ħà¶¬ à¶º
Ġà¶¶à¶§ à¶ºà¶ļ
Ġtr ad
cri be
Ġqu al
L L
Q u
g ing
y es
Â ģ
Ġ Ùħ
à¶» à¶ľà¶¸à¶±à¶º
à·Ħ à·Ģà¶½
à¶« à·Ħà¶¸
Ġà¶ļà¶½ à¶ļà¶¯
an ch
à¶¶à¶± à¶±à¶º
à¶ļà¶½ à¶¯
à¶§à¶» à¶ºà¶ļà¶§
re aking
à¶ĭ à¶ºà¶±
Ġm ust
Ġof ten
Ġà·ĥà¶» à·ĥà¶±
Ġh ard
Ġl ook
Ġre pl
Ġà¶Ńà¶½ à¶ºà¶ļà¶§
à¶ļà¶¸à¶§ à·Ģà¶Ń
ĠUn ion
Ðµ Ð½
ĠSc reen
Ġcent ury
E d
P M
c el
e er
s l
ï Ģ
à·Ĭ &
à¶» à¶ļà¶»à¶±
Ġà¶¸ à·Ģà¶¸
à¶´à¶Ń à¶±à¶ºà¶ļ
Ġà·ģ à¶¸
Ġà¶ħà¶Ń à·Ģ
à¶Ĩ à¶´à¶¯
ĠM ath
Ġà¶¸à¶½ à¶ľ
Ġà¶ħà¶ľ à¶ºà¶¸
à·Ĥà¶± à¶»
Ġà¶ļà¶´ à¶´
Ġv er
Ġbe h
Ġ193 5
ict ure
à¶Ńà¶¥ à¶Ń
ĠGold en
o à¶ļ
å Ń
à·Ħ à¶ļà¶ºà¶ļ
à·ĵ ;
à¶Ĥ ?
à¶ł à¶§
à·ĬâĢĮ "
à·ĬâĢĮ )
à¶ħ à¶»à¶¸
Ġà¶ĳà¶º à¶¸à¶º
à¶»à¶« à¶ļà¶»
Ġà¶ħà¶½ à·Ģà¶½
en ch
Ġà¶ļà¶© à¶±à·Ģ
à¶ĩ à¶»à¶½
Ġm en
ĠW i
our ces
ĠCh at
ĠY ear
Ġsc ience
Ġrecogn ized
b l
h u
Ġà·ĥà¶¸ à¶¢
à·ı. '
Ġà¶ħà¶º à·Ģà¶Ń
à¶»à·ĥ à¶ºà¶§
Ġà¶´à·Ħ à¶«
Ġp resent
ĠL ine
ĠR un
Ġà¶ĩà¶¯ à¶´
et te
à·Ĭ.. !
Ġl oss
ĠV iew
Ġà¶ħà¶Ł à·Ģà¶±
lect ion
eng th
à¶Ĩà¶¯ à¶»à¶«
Ġpr int
ĠPri y
ĠCS S
M icrosoft
P I
à¶ľ à¶³
à·ģ à¶§
à·Ĥ à¶ľà¶Ń
à¶¢ à¶±à·Ģà¶½à¶§
à·Ģà¶» à¶ľ
Ġà¶ħà¶¯ à·Ģà¶±
à¶ħ à¶¸à¶»
à¶±à¶Ń à¶±
or ial
Ġo vers
ĠF ern
ip h
à¶»à¶´à¶§à¶º à¶º
ĠJ apan
âĢįâĢį âĢį
ãģ Ĺ
eal and
ĠTe am
Ġcapt ain
Ġorig inal
A fter
b ar
k g
u it
Ġ id
à¶º à¶«à¶º
à·Ļ âĢĻ
à·Ħ à¶Ńà¶ļ
à¶© à¶ľà¶Ń
Ġà¶ĩ à·Ģà¶»
à¶¢ à¶«
à¶ł à¶ºà¶§
à·Ĩ à·ĥ
on ym
Ġà¶ĭà¶¯ à¶ºà¶±
à¶¥ à¶Ń
Ġà¶ħà·Ħ à·Ģà¶»à¶º
à¶Ńà¶½ à¶Ń
à¶»à¶ºà¶§ à¶¯
ou lette
ĠR uss
Ġà¶ĭà¶© à¶Ł
ent y
ĠW il
em ail
Ġ14 5
ah oo
Ð½ Ñĭ
ix el
Ġappear ed
ĠMich ael
] ]
v t
Ġ ide
à¶´ à¶Ńà¶»
Ġà¶¯ à¶ºà¶½
Ġà¶ħà¶´ à·Ħà¶§
à·Ģà¶º à·Ģ
Ġà¶¶à¶½ à¶½à¶¸
à¶¹ à·ĥ
ĠM icro
Ġt ab
Ġf older
ĠN am
el le
Ġto ok
Ġ11 00
ĠJ ack
Ġà¶ĩà¶´ à¶ļà¶»
ãģ «
ĠCl ub
ĠWh at
gy pt
B e
b an
n o
ì ł
à·ļ âĢľ
à¶¯ à¶ł
à·Ŀ à·Ĭ
à¶ľà¶½ à¶¯
th ough
ĠS iy
à·ĥà¶¸ à¶ľ
it ect
ĠP ark
Ġà¶ĩà¶± à·Ħ
Ġn ext
à·ļ... ?
ĠU RL
Ġex am
ĠZ ealand
ĠBl ue
Ġtit le
N U
W indows
c a
s et
å Ī
à·Ļ ?"
à·ĥà¶½ à¶»
ĠM or
à¶¯à¶ļ à·Ģà¶»à¶º
Ġà¶Ńà¶»à¶ľ à·Ģà¶½à¶¯
Ġ10 80
Ġà¶ĳà¶ºà¶§ à¶¸
Ġn ational
Ġà¶Į à¶«à¶Ń
à¶´à·ħ à·Ģ
Ġà·ĥà¶Ł à·Ģà¶±
Ġà¶»à¶ł à¶ļà¶ºà¶ļ
Ġcon d
ĠPlay er
Ġà·ĥà¶¸à¶® à¶ºà¶ļà¶§
à¶Ń à¶¹
à·ĥ à¶¸à¶»
Ġà¶´ à¶¹
Ġà¶Ĩ à·Ģà·ĥ
à¶»à¶ļ à¶Ńà¶±à¶ºà¶§
Ġà·Ģà¶» à·Ħà¶±
ĠS yn
ĠC ap
ic ense
à·Ķ. âĢĿ
à¶Ĩ à¶§à¶±
Ġà¶ļà¶± à¶´
Ġo ld
Ġt em
à¶ļà¶© à¶ºà¶ļ
à·Ĭ... "
Ġl im
ist ant
à·ĴâĢį âĢį
Ġà·Ģà¶ł à¶±à·Ģà¶½à¶§
à·ĬâĢ¦ ..
Ġ194 1
Ġà¶īà¶»à¶« à¶¸à¶ļ
Ġapp ro
ĠCont rol
ett ing
ĠSam sung
ĠSk ype
à¥ į
M E
w ays
à¶§ à·Ģà¶ļ
Ġà¶¯ à¶½à¶º
Ġà¶º à·Ģà¶º
Ġà¶¢ à¶ºà¶§à¶¸
Ġà¶¸à¶§ à¶±
Ġà¶»à¶¢ à¶ľ
Ġ19 10
ĠS at
Ġà¶ĳà·ĥ à¶¸à¶º
Ġà·ħ à¶´à¶§
Ġs ince
ĠM aster
ĠB ack
Ġà¶ºà¶§ à¶ļ
Ġ18 80
ĠJ e
Ġ26 00
ãģ Ł
ĠIS IS
Ð¾Ð ¼
asing ha
unic ation
à·ĵ (
Ġà¶¶ à·ħà¶±
Ġà¶Ķ à¶ºà¶§
er ry
à¶»à·ĥ à¶·
à·ĥà¶ļ à·ĥ
al og
Ġà·ĥà¶» à·ħà·Ģ
ĠN orth
à¶»à¶ł à¶ļà¶º
Ġ11 4
ĠĠĠĠĠĠĠĠ ĠĠ
ah am
Ġde ath
Ġplay ers
Ġsystem s
Ġcount ries
çļ Ħ
A ll
N o
S O
b s
d es
m al
à·Ļ âĢ¦.
Ġà¶¸ à¶»à¶¸
à·ģ à¶«à¶ºà¶§
à¶Ĥ à·Ļ
Ġà¶Ĩ à¶±à¶¸
à·Ģà¶ļ à¶§à¶º
an ayaka
er i
Ġà¶ħà·ĥ à¶¸à¶ľ
Ġ19 27
ĠS ee
Ġà¶¯à·Ģà·ĥ à¶º
à·Ļ. âĢĿ
ĠL ight
am ed
à·ĥà¶³ à·Ħ
à·Ĵ... "
Ġl ow
Ġà·ħà¶Ł à¶§à¶¸
ut ch
Ġst atus
Ġpro duct
ra ffic
Ġà¶¢à¶±à¶¸à¶Ń à·Ģ
Ġdis play
amb ots
Ġform at
P R
v ey
Ï ģ
à·ĥ à·Ħà¶Ń
Ġà¶± à¶§à¶½
Ġà¶Ĵ à·Ģà¶±
Ġà¶¶à¶½ à·Ħ
Ġà¶ħà¶Ń à¶Ń
à¶»à·ĥ à¶½
ĠS ex
is ing
ĠT om
Ġd rive
os p
Ġà¶Ī à·Ģ
à¶Ĭ à·ĥ
à·ģà¶ºà¶ļ à¶¸
ĠU s
ĠPro cess
ank s
Ġà¶´à¶¯à¶± à¶¸à¶§
198 6
Ġsp ambots
ĠUb untu
. âĢį
V I
g ov
à·Ģ à·Ģà¶±
à¶Ń à¶¢
à¶±à¶º à¶§à¶¸
à·Ģà¶± à·ĥ
Ġà¶¶à¶½ à¶ļà¶»
Ġ. !
ic ine
Ġst ory
à·ı" ,
ob e
ĠWh ite
Ġà¶ĳà·Ģà¶» à·ĥ
Ġet c
s ub
s inhala
á Ģ
à¶ļ à¶´à¶§
à·Ļ âĢįà·ĬâĢį
Ġà¶Ĩ à¶¢à¶±
à¶ħ à¶±à·Ģ
Ġ2 10
Ġà¶Ĭ à¶§à¶¸
Ġà¶Ĵà¶ļ à¶¯
at ory
à¶½à¶° à¶»à¶ºà¶±
ĠT ype
à¶»à¶¢ à¶»à¶§
à·Ģà¶ļà¶§ à¶¯
ĠI d
Ġà¶īà¶³ à¶´
os c
Ġà·ĥà¶¸à¶± à¶½à¶º
ĠU K
Ġà·ĥà¶¶à¶³ à¶ļà¶¸
Ġ07 7
Ġus er
Ġex p
ãĥ ¼
Ġà·ĥà¶»à¶¯ à¶¸
ĠRajapak sa
Ġà·ĥ à¶ŀ
Ġà¶¸ à¶ļà¶½
à¶« à¶°à¶»
à¶© à¶©
à¶· à¶ºà¶º
à¶»à·Ģ à¶ºà¶±
Ġ19 19
Ġ19 05
à¶»à·Ģà¶» à¶ºà¶ļ
ent ial
à·Ģà¶»à¶« à·Ģà¶½à¶¯
Ġst ill
use um
Ġà¶ĭà¶¯à·Ħà·ĥ à¶§
äº º
Ġdr aw
1 01
< /
k i
m i
à¶¯ à¶ºà¶¸
Ġà¶º à·ĥà·ĥ
Ġà¶» à·Ħà¶§
Ġà¶» à¶«à¶ļ
Ġà¶ĩà¶Ń à¶º
Ġ( âĢľ
Ġà¶¢à¶± à·ĥà¶¸
Ġà¶§ à¶¸
à·ĥà¶± à¶Ń
Ġà¶ķ à¶ļà¶±
Ġà¶ĭà¶¯ à¶½
ar an
ĠC opy
Ġà·Ģà¶§ à¶¯
Ġc m
ĠM eg
ing er
and ing
Ġb lood
ĠG reat
ent ly
à·ģà¶±à¶º à¶º
à¶Ńà¶ºà¶§ à¶¸
Ġà¶ľà·Ħ à¶¯
av i
Ġà¶±à·Ģà¶ļ à¶ºà¶±
à·ıâĢ¦ âĢĿ
Ġà¶¯à¶Ł à¶»
ĠĠĠĠĠĠĠĠĠĠĠĠĠĠĠĠĠĠĠĠĠĠĠĠĠĠĠĠĠĠĠĠ ĠĠĠĠĠĠĠĠĠĠĠĠĠĠĠĠĠĠĠĠĠĠĠĠĠĠĠĠĠĠĠĠ
k in
u ff
Ġ ^
à·ħ à¶´à¶±
Ġà¶Ķ à¶ľà·ĥ
à·ĳ '
à¶® à¶½
à¶¸à¶± à¶¯
Ġà¶Ĭ à¶½à¶¸
Ġà¶´à·ħ à¶¯
Ġà·Ĩ à¶§
à·ļ, ,
Ġc ell
à¶ļà¶»à¶«à¶º à¶º
Ġf ive
Ġ? âĢĿ
Ġ13 8
ĠIn c
ĠIn st
art ment
Ġà¶ĭà¶´à¶ļà¶»à¶« à·Ģà¶½
ĠUn ivers
iy an
ðŁĺ Ĥ
Ġme an
ograph ic
Ġret urn
) (
O r
U p
à¶± à·Ħà¶½
à¶½ à·Ħà¶ļ
Ġà¶ļ à¶¸à¶±
Ġà·Ħ à¶½à¶±
Ġà¶¢à¶± à¶ļà¶º
à¶ħ à·Ģà¶ļ
Ġà¶ħà¶© à¶ļà¶§
Ġà¶ķà¶± à¶±à¶¸
à¶ī à¶©
Ġs ix
ĠL ab
ĠG raph
Ġà·ĥà¶½ à·ĥà¶¸
Ġ12 2
Ġà·ħà¶Ł à¶º
ist r
à·ļ? âĢĿ
Ġwh ite
Ġus ually
Ġ193 4
Ġcont act
Ġtrans l
â Ħ¢
à¶» à·Ģà¶±à·Ģ
à¶ľ à·Ħà¶ļ
Ġà¶Ń à·Ģà¶½à¶¸
à·ħ à¶ľà·ĥ
à·Ŀ .....
à¶¢ à¶ļà¶Ń
Ġà·ĥà¶¸ à¶¶à¶±
Ġà¶¸à·Ħ à¶ĩà¶¸à¶Ń
à¶±à¶ļ à¶ļ
Ġà¶© à¶ºà¶»
Ġ19 23
it ing
à¶Ĩ à¶¶
Ġ5 50
as ena
ent ion
ig e
op er
à·Ĥà¶ºà¶§ à¶Ń
end ing
ther n
ĠKum ara
Ġspec ial
Ġpos ition
g u
r ite
à·ı ][
à¶º à¶Ĩà¶»à¶ł
à¶ļ à¶±à·Ģ
à·Ĳ ?
Ġà¶¶ à¶¢à¶§
à·ħ à¶Ķ
Ġà¶Ĵ à¶Ńà¶»à¶¸
Ġà¶ļà¶»à¶±à·Ģ à¶½
à¶ºà·Ģà·ĥ à¶ļà¶§
à¶Ŀ à¶Ńà¶¸
ðŁ Ĵ
Ġg eneral
oc ol
Ġy outube
Ġwith in
à¶Ńà¶ļà¶§ à·Ģà¶Ń
ĠÐ º
à¶´à¶¸à¶« à¶¯
Ġus ing
Ġad v
ĠTr ade
ade ep
Ġà¶ļà¶§à·Ħà¶¬ à¶ļ
Ġdev ices
Ġsing le
) -
D T
R R
l ight
Ã §
à¶« à¶§à¶¸
à¶¶ à¶½à·Ģ
à·ħ à¶ļà¶»
Ġà¶ĩ à¶»à¶±
Ġà¶» à·ĥà¶¸
à¶ł à¶ŀ
on n
ĠS D
ĠS om
Ġà·ħ à¶ļ
ĠA z
à¶ļà¶»à¶« à¶¸à¶º
Ġs am
Ġs ound
ĠM at
Ġ6 50
à·Ģà¶ľ à¶ļ
ĠN a
ĠN ame
Ġ16 8
à·Ģà·ħ à¶½
Ðµ Ð»
Ġà® ķ
Ġà·ĥà¶»à¶¯ à¶¸à¶ļ
D S
m as
v align
Ø ¹
Ġ à·ı
à¶» à¶©à¶ļ
à¶Ń à·Ħà·ĥ
à¶ļ à¶¢
Ġà·Ģ à·ĥà¶½
Ġà¶¸ à¶±à¶Ń
Ġà·Ħ à¶«
à¶¶ à¶»à¶ļ
à¶© à¶ļà¶½
Ġà¶ī à·Ĩ
Ġà¶ī à¶ºà¶»
Ġà·ĥà¶¸ à¶»à¶Ń
à·Ģà¶ļ à·Ģà¶Ń
Ġà¶ļà·ħ à¶«
Ġà¶¢à¶± à¶ļà¶Ń
al f
Ġ19 28
à¶¸à¶» à·Ģà¶½
Ġà¶¯à¶± à¶±
Ġs ol
à¶ĭ à¶´à¶ļ
ĠR am
Ġà·Ħà·ĥ à¶»à¶ļ
à·ĴâĢį à·Ļ
ord ing
ĠPro t
198 1
arg et
rib ut
Ġà¶ľà¶ľà¶± à¶ľ
M R
à¶º à¶»à¶ļ
Ġà·Ģ à·ħà·Ģ
Ġà·Ħ à¶¶à¶»
à¶Ńà¶» à¶¸à¶ļ
Ġà¶· à¶ľà·Ģà¶Ń
à¶»à·Ģ à¶¯à¶±
ĠS a
à¶ĩ à·ħ
Ġs em
Ġà¶ħà¶´à¶§ à¶¯
ĠV er
Ġre v
ok ia
ala xy
Ġ35 00
ĠHot News
à¶±à¶Ł à¶§
???? ?
V Q
b a
ä ½
Ġ æ
Ġà¶¯ à¶»à¶¯à¶¬
à·Ŀ (
Ġà¶ļà¶» à¶©
Ġà¶Ĵ à¶¸à¶º
à¶ºà¶½ à¶ºà¶§
à¶ħ à¶»à¶½
Ġà¶ĳà¶¸ à¶»
à·ı, âĢĿ
à¶¯à¶½ à¶¸
à·ĥà¶½ à·Ģ
it el
il it
Ġà¶ĭà¶© à¶´à¶±
Ġh eld
Ġl o
ul es
ap h
umb ers
Ġcom e
Ġà¶»à¶ł à¶±à¶ºà¶ļ
ID S
Ġper iod
Ġoff ice
******** ********
âĢĶâĢĶ âĢĶâĢĶ
ĠCorpor ation
" "
O ff
m istry
Ã ł
à¶± à¶¶à·Ģ
à¶½ à¶´à¶¯
à¶»à¶º à·ħ
Ġà¶´à¶» à¶Ń
Ġ19 11
Ġ19 26
à¶¬ à·Ģ
à¶Ĩ à¶´à·Ħ
Ġc are
Ġm ail
Ġm emb
ĠW atch
à·Ħà¶¯ à·Ģà¶Ń
Ð½ Ð°
col or
Ġspe ak
ĠPa ul
J un
g oogle
à·Ĵ ]
Ġà¶ĭ à¶«à¶ļ
Ġà·ĥà·Ħ à¶½à¶ļ
à¶´à¶Ń à¶¸à¶ºà¶±
Ġà·Ģà¶» à¶½
Ġà¶ħà¶° à¶¸
Ġà¶ķ à¶±à·Ģà¶§
à¶Ľ à¶±à¶ºà¶§
Ġà¶»à¶¢ à¶ºà¶Ń
à¶½à¶¸ à¶®
and er
à¶±à¶ľ à¶ļ
Ġà¶ĩà¶Ł à·ħ
Ġà¶Ĩà¶±à¶ºà¶± à¶ļà¶»
ber g
Ðµ ÑĤ
ĠSp ace
Ġent er
Ġ> >
3 50
M y
P E
v ideo
Ä «
å Ĭ
à·Ķ ?
à¶§ à·Ģà¶»
Ġà¶´ à¶®à¶ºà¶§
Ġà¶ĳ à¶±à·Ģà¶½
Ġà·ĥà¶¸ à¶ºà¶±
à·Ĭ. (
Ġà¶ħà¶© à¶¸
Ġà¶´à·ħ à¶³à¶±
à¶©à¶± à¶ľà¶¸
Ġw he
ĠG ood
Ġm ode
ĠE mail
ag ama
em s
âĢĭ âĢĭ
à¶ķ à¶¸
ov ery
ail able
Ġà¶ļà·Ħ à·Ģà¶Ń
ĠX P
ens is
ĠâĢĽ âĢĽ
ãĤ Ĵ
++++ ++++
ivid ual
G r
Ļ ķ
à¶Ĥ )
à¶ł à¶½à¶¸
à·ĳ ......
à¶ħ à·ĥà¶¸
ĠS iri
à¶Ńà¶½ à¶ºà¶§
Ġthe ory
ĠI N
Ġd ays
à¶µ à·ĥ
id a
Ġà¶µ à¶½à¶ļà¶º
Ġà¶ľà·Ħà¶± à¶ļ
ind er
Ġst age
ĠY our
Ġan other
ĠÐ ´
Ġrep resent
g n
Ñ Ĩ
Ġà·Ģ à¶°à¶º
Ġà¶ľ à¶¸à¶ļà¶§
Ġà¶Ĩ à¶³
à¶· à¶ľ
à¶¸à¶Ń à¶½
Ġ. "
Ġà¶ħà·Ħ à¶½à¶ļ
ĠA k
Ġs it
ĠM ess
Ġà¶»à·ĥ à¶ºà¶§
Ġb us
as c
ĠD uration
ĠB el
et ri
Ġà¶¶à¶»à¶´à¶Ń à¶½à¶¸
à® ļ
Ġà¶ĵ à¶±
ech an
az on
ĠIC T
ĠManag er
empl ate
T w
r d
Ġà¶´ à¶¨à·Ģ
à¶ľ à¶©à¶¸
à·ħ à¶½à¶ļ
à¶ºà¶ļ à¶§à¶º
à¶¢ à·ĥà¶±
à¶Ńà¶» à·Ģà¶½à¶§
Ġà¶ł à·Ģ
Ġà·Ģà¶» à¶½à¶Ń
ar c
à¶¸à¶» à¶ºà¶ļà¶§
Ġb as
os is
Ġh uman
ay an
ĠV irus
Ġ25 000
Ġis s
aw k
à¶½à¶¹ à·Ģ
Ġall ow
ser v
oo th
Ġ< /
Ġword s
yc le
c ut
à¶° à¶ł
ĠC H
Ġà¶ļà¶« à¶©
à¶¬ à¶»
ĠA re
ĠA lex
ect or
ell ig
à·Ĥà¶¥ à¶ºà¶ļ
Ġà¶±à¶§ à·Ģà¶±
196 4
Ġbec ame
ĠAdd ress
ĠCamp us
Asian parent
M an
T T
g ress
r ish
Ë Ŀ
à¶» à¶¥à¶º
Ġà¶ľ à¶³à¶ļ
à¶© à¶´à¶ºà¶ļ
à·Ĥ à·Ģà¶º
Ġà¶Ĩ à·Ģà¶±
à¶³ à·Ģà¶º
à¶»à¶¸ à·Ģà¶½à¶§
Ġà¶ĭà¶´ à¶ļà¶»à¶±
Ġà¶»à¶¢ à¶ļà¶¸à¶§
ar at
ĠS and
Ġth ink
re qu
ĠG overnment
ĠH el
ĠH imi
ri ver
à¶µ à·Ģ
Ġà¶Ĩà·ĥ à¶±à¶ºà¶§
Ġ18 90
um er
um ents
av y
Ġun til
ãģ ¨
à·Ħà¶½à¶ļ à¶¸
anc er
ĠPhot oshop
yth on
B angladesh
u ation
Ø ´
à¶ľ à¶´à¶±
Ġà¶ĩ à·Ģà¶Ń
à·ĸ âĢĻ
Ġà·Ģà¶± à¶½
à·Ħà¶± à¶ºà¶ļà¶§
ĠS ign
ĠC all
à¶±à¶± à¶ľ
Ġp erm
ĠL evel
ĠD C
Ġà¶¶à¶½à¶º à¶¯
ac c
Ġ18 33
à¶¤ à¶Ń
im ent
ex e
Ġà¶ļà·Ģà¶¯ à·Ħà¶»
ab lish
Ġà¶ĵ à¶ļ
ĠCh ild
Ġe ye
ach el
Ġ193 2
ĠAd min
Ġ189 5
ĠWh ats
D L
f ield
m on
n ight
Ø ©
Ġ ==
à¶º à¶´à¶±à¶º
à¶ļ à·Ģà¶±
Ġà·Ħ à¶ł
Ġà·Ħ à·Ĩ
Ġà¶ļà¶½ à¶ľ
à·ĥà¶» à·ĥ
à¶¯à¶» à¶ľ
ar un
ĠC y
âĢ¦ "
Ġp ot
ot ic
op t
Ġà¶±à¶»à¶ļ à¶ļ
Ġapp s
apt op
fl u
atter y
ĠFern ando
E X
Ä ±
à¶º à¶»à¶ºà¶ļ
à¶½ à·Ģà¶»à¶ļ
Ġà¶ļ à¶¸à¶ļà¶§
Ġà¶¯ à·ĥà¶ļ
Ġà¶¶ à·Ħà¶½
Ġ2 30
à¶¶à¶± à¶±
à¶Ńà¶ļ à¶ºà¶§
ar ian
Ġà¶ºà¶¸ à·Ħà¶½
ic ode
Ġà¶ĳà·Ģ à¶ľ
om as
à¶¸à¶½ à¶»à¶Ńà¶±
ing ton
ĠP ic
Ġm other
à·ı... !
Ġin s
Ġg e
com p
ĠNews Leave
Ġe le
Ġoff icial
Ġà·Ģà·ħà¶³ à¶±
ĠSiy atha
h ana
å Ĩ
Ġà·ĥ à¶¯à¶±
à¶´ à·Ģà¶»
Ġà¶¶ à¶»à·ĥ
à·ħ à¶ľà¶§
Ġà¶ļà¶» à¶ļà·Ģà¶½
à·Ģà¶½ à¶±
à¶±à¶Ń à¶ļà¶§
Ġ19 07
Ġà¶±à¶ľ à¶»à·ĥà¶·
à¶¶à¶¯ à·Ģà¶Ń
Ġp o
ĠP en
ĠL ocal
ĠD om
Ġà¶ĭà¶© à·Ģà¶Ń
ri me
Ġà¶Ĩà¶ºà¶Ńà¶±à¶º à¶º
Ġà¶ľà·Ħ à¶ľà¶Ń
à¶»à·Ģà¶½ à¶¯
Ġà¶ļà·Ģà¶¯ à¶¯
à¶»à·Ħà¶«à¶º à¶Ń
Ġcl ose
Ġà¶Ĩà¶· à¶»à¶«à¶ºà¶ļ
Ġsp ace
Ġcomp et
yn or
ĠSL FP
Ġob ject
Ġopt ion
ĠHu awei
ĠFound ation
) "
C N
à¶Ń à·Ģà¶»à¶º
Ġà¶ļ à·Ģà¶§
à¶ł à¶»à¶¯
Ġà¶ħà¶» à·ĥ
à¶ľà¶½ à¶Ń
à¶ļà¶ļ à¶§à¶º
à¶¯à¶ļ à·Ģà¶»
à¶¯à¶ļ à¶¸à¶§
à¶ĭ à·Ĥ
ĠT NA
Ġb ased
Ġ10 9
à·Ĵ... !
Ġ12 6
Ġà¶¯à¶¹ à¶»
âĢ¦âĢ¦ ..
à¤ °
US D
ĠIMD b
ĠVik alpa
ĠRay ynor
T R
g a
á ī
Ġà¶ ĸ
à·Ģ à¶¸à¶ļà¶§
à·ı à·Ĵ
Ġà·Ģ à¶¯à¶ļ
à¶´ à¶«à¶ºà¶±
Ġà·Ħ à·Ħ
à¶¶ à¶»à¶¸
Ġà¶¶ à¶ľ
à·ħ à·Ģà¶½à¶§
à·ħ à·Ħà¶§
à·ı. âĢľ
Ġà¶¸à·Ħ à¶¸à¶Ł
Ġà¶ļà·ħ à¶¶à¶½
Ġà¶ļà¶½ à¶¹
à¶§à¶¸ à¶»
ic y
Ġà¶ħà¶· à¶ºà¶·
ĠM art
ĠM oh
à¶ĭ à¶ł
ĠL anguage
19 47
Ġn ov
Ġà¶ħà¶¶ à¶¸à¶½
est ival
ãģ Ħ
à·ģà·Ģà¶º à¶¸
Ġà¶ħà¶»à¶¹ à¶¸
ĠAc adem
C o
b on
d rome
r ad
~ ~
à¶» à¶±à¶¸
Ġà·Ģ à¶ºà¶±
Ġà¶¸ à¶¸à¶±
à¶ľ à·Ģà¶½à¶¯
Ġà¶ĩ à¶½à·ĥ
à¶¢ à¶ºà¶º
à¶¸à¶ļ à·ħ
à¶ħ à·Ģà¶¯
à¶»à·Ģ à¶´
à·ı, "
Ġ19 0
à¶½à·Ģ à¶´
à¶Ĩ à¶ºà¶Ńà¶±à¶º
Ġc ourt
ĠM p
Ġthe Asianparent
Ġb al
Ġb usiness
Ġà¶´à¶½ à¶³
Ġr ate
ĠSt ore
à¶ľà¶¸à¶± à¶ļ
Ġà¶ħà¶¢ à¶§
ib ility
Ġâ ĪĴ
Ġplay er
ĠSub z
Ġà¶¶à·ħ à¶ĩà¶«
ĠFS X
U B
l ist
à·ļ âĢĻâĢĻ
Ġà¶ĳ à¶ŀ
à¶ºà¶§ à¶»
Ġà¶ħà¶´ à¶ľà¶¸à¶±à¶º
Ġà·ĥà·Ħ à¶»
à¶»à¶ļ à·Ģà¶»à¶º
Ġà¶´à·ĥ à¶±
à¶ľà¶± à¶±
ĠS n
à¶±à¶ºà¶§ à¶¯
ĠP ad
à¶Ŀ à¶§
Ġm ahinda
ĠW omen
à¶»à¶® à¶¸à¶ļ
Ġà¶ĭà¶¹ à¶ľ
Ġà¶ĩà¶Ł à¶´à¶Ń
ĠU d
ĠâĢĿ âĢĿ
ĠÂ ½
à·ı.... .....
Ġà¶¸à·ħ à¶¸
ort s
ult ural
à¶Ĩà¶º à¶Ńà¶±
197 9
Ġapp lication
Ġup load
ys ical
az ine
!!!! !!!!
onym ous
F A
V C
o id
u a
Ù ģ
Ġ ................
à¶¯ à¶»à¶«
Ġà·Ħ à¶¯à¶º
Ġà¶¶ à¶ł
à¶±à¶ºà¶ļ à¶¸
ĠT ab
ĠL ak
à·ı.. âĢĿ
à¶ļà·ħ à¶º
ĠB en
Ġà·Ħà¶¬ à¶¸
Ġ13 2
ak ari
ath na
Ġà¶»à¶Ł à¶¯
Ġà·Ģà·ĥà¶»à¶ļ à¶¯
sh an
à¶§à¶»à¶§ à¶ļ
à¶«à¶»à¶Ń à¶±
ĠAmer ica
ĠCong ress
H S
d is
ä ¼
Ġ ur
à¶± à¶½à¶¯
à·ı ''
à¶ļ à¶Ńà¶ļ
à·Ħ à·Ħ
Ġà¶´ à¶ºà¶§
Ġà¶ħ à¶½à¶º
Ġà¶ħ à¶¤
à¶© à¶½à¶¸
Ġà¶ļà¶» à¶ļà¶»
Ġà¶¢ à·Ħ
à¶ł à¶½à¶ºà¶§
à¶Ł à¶¸à¶±
Ġà¶ħà¶¯ à¶§à¶¯
à¶ľà¶¸ à¶±à·Ģà¶½à¶§
à¶ĳ à¶§
Ġà¶ķ à¶§
Ġà¶¯à¶» à¶´
ĠM ur
à¶¸à¶½ à¶»à¶Ń
ĠP ur
Ġf ire
à¶´à·Ģ à·Ħà¶±
à¶»à¶ľ à¶«
........ ......
Ġà¶µ à¶½à¶ºà¶§
ak en
à¶»à¶¶ à¶Ń
uw ana
ĠFor um
att le
Ġmat rix
awans a
ê ³
ì Ī
à¶¸ à¶¶
Ġà¶± à¶§à¶´
Ġà¶º à¶ľ
à¶° à¶»à¶ļ
à·Ĵà¶Ĥ ..
Ġà¶ħà¶º à·Ħ
Ġà¶§ à¶ł
ĠS ar
st ein
ic o
Ġà¶ħà·Ħ à¶ľà¶Ń
à·Ļà·Ĭ ..
à·Ģà¶ļà¶§ à·Ģà¶Ń
ĠR om
Ġm ark
ĠV PN
Ġ11 6
ut t
Ġ13 00
Ġre fer
à·Ĭ' '
ick s
197 5
Ġà® ¤
Ġro ot
ĠStud io
Ġear ly
acka ge
æ ĺ
à¶º à¶µ
à¶» à¶¶à¶»
à¶» à¶ļà¶»à¶ľ
à¶½ à¶´à¶º
Ġà¶¯ à·ĥà·Ģ
Ġà¶ĳ à¶¶à¶¯
Ġà¶ļà¶» à¶ł
Ġà¶¢ à¶ºà¶¯
à¶ł à¶»à¶«à¶º
Ġà·Ģà¶± à¶ł
Ġà¶±à¶¸ à¶ľ
à·ĥà¶± à¶ºà¶±
à¶Ľ à¶»à¶º
Ġà¶ħà¶½ à·Ģà¶Ń
à¶ºà·Ģ à·ģà¶º
Ġs elf
à¶Ŀ à¶«
ĠB er
Ġà¶« à¶ºà¶ľ
oc ation
à¶´à·Ħ à¶«
ith er
Ġà¶ħà¶±à·Ģ à¶»à¶Ń
Ġà¶īà·Ģà·ĥ à¶½
Ġun ivers
ãĤ ĭ
Com p
Ġà¶¸à¶Łà·Ħ à¶»à·Ģ
Ġstud ents
Ġchar acter
å¤ §
ĠPlan et
ĠHad akari
E A
S QL
j an
p ly
t ain
à·Ģ à¶¶à¶½à¶°
à¶» à¶§à¶º
Ġà¶¸ à¶¡
Ġà¶¯ à¶¸à¶Ń
Ġà·Ħ à¶ºà¶º
Ġà¶Ĵ à¶¸à¶Ń
à¶±à·Ģ à¶ļà¶Ń
à¶· à¶ºà·Ģ
à¶«à¶º à·Ģ
à¶»à¶ļ à·Ģà¶»
à¶±à¶ļ à¶Ń
Ġb i
Ġ| }
à¶Ńà¶±à¶º à¶º
Ġin ternet
et a
Ġl ank
Ġà¶¢à¶º à·ģ
ĠĠĠĠĠĠĠĠ ĠĠĠĠ
à·ģà·Ģ à¶ºà¶ļà¶§
à¶®à¶ļà¶Ń à¶±à¶º
ĠâĢĮ à·Ļ
Ġà¶¸à¶½à¶ļ à¶©
", "
Ġcol or
ĠDis c
ĠAcc ess
Ġmod el
ĠPart y
Ġà¶ħà¶½à¶ļ à¶½
ĠRob ert
ĠWid ely
Ġinn ings
H A
k ey
Ġà¶¶ à¶Ńà¶ļ
à·Ĥ à¶¸à¶º
Ġà¶ħà¶» à¶§
à·ĥà¶» à·Ħà¶¸
at to
à¶¨ à·Ģà¶½
Ġà¶ħà·Ħ à¶º
à¶¶à¶¯ à·Ģà¶¯
Ġt urn
Ġà·ĥà¶¯à·Ħ à¶¸
Ġà¶Ńà¶»à¶ľ à·Ģà¶½à¶§
Ġl ens
ation ship
ĠO rig
Ġ11 7
ak k
Ġre ach
ab y
ĠCh annel
ĠRe al
ob itel
197 3
Ð¾Ð ´
ï»¿ ï»¿
Tr ans
struct ion
P r
a o
i ences
u v
w in
¸ ı
Ð ¶
Ġ Ċ
à·Ķ ),
à·Ļ -
à¶¯ à¶±à¶¸
Ġà¶ļ à¶§à¶¸
à·ľ -
Ġà¶ĳ à¶½à¶ļ
à·Ģà¶± à¶±
Ġà¶· à·Ģà¶±
à¶ħ à¶Łà¶½
à·ĥà¶º à¶¯
Ġp ath
Ġt imes
Ġà¶ĳà¶Ń à¶±à¶Ń
ĠL im
Ġà¶¶à·ĥ à¶ºà¶§
ad o
Ġm aterial
ew ork
Ġl ocal
Ġ12 4
ang er
Ġà¶ħà¶« à¶´à¶±à¶Ń
Ð¾ ÑĢ
Ġà¶īà¶»à¶« à¶¸à¶§
ix ed
Ð» Ð°
ever al
b od
é Ģ
ì Ļķ
à·Ģ à·ħà¶§
à¶º à¶¤
à·ĥ à·Ģà·ĥ
à¶ļ à¶®à¶±
Ġà·ĥ o
à¶« à·ĥà¶½
à·ĸ "
Ġà¶ħà¶´ à¶Ńà¶º
à¶· à·Ħ
à¶ħ à·ĥà¶½
Ġà¶ħà¶© à¶´à¶±
Ġà¶ħà·ĥ à·Ħà¶±à¶ļ
Ġs um
Ġc rit
Ġf ont
ther uwana
Ġme et
oph obia
Ġche ck
pert ies
ĠResp onse
ðŁĳįðŁĳį ðŁĳįðŁĳį
clus ive
! )
% ,
F l
f ect
y al
à ´
à·ĥ à·Ħà¶ļ
Ġà¶¸ à¶¯à¶±
Ġà¶ĩ à¶«à·Ħ
à·ı. //
Ġà·Ģà¶± à¶´
Ġà¶Ĵà¶ļ à¶¸à¶º
on a
Ġs ize
om y
ĠT ext
ĠH ead
ch ange
à·ģà¶ºà¶§ à¶Ń
Ġto o
Ġ16 5
Ġà¶ĳà¶Ńà¶ļ à¶±
ĠJ ust
Ġà¶Ńà¶½ à¶½
Ġà·ĥà¶»à¶½ à¶¸
ell er
ĠAr ab
Ġch aminda
ĠAd s
Ġcomp any
port s
Ġar ound
ĠUS A
co in
à¶ºà·ĥà¶± à¶ºà¶±
back ground
Î¿ Ï
êµ °
etri eved
N D
N ational
b all
Ġ à·Ĥà¶º
à·Ĭ à·Ĵ
à·ĥ à·ħ
à¶ļ à·Ģà¶º
à¶¯ à¶±à·Ģà¶½à¶§
à¶´ à¶§à¶±
à¶° à¶¸à¶Ń
à¶¢ à¶ļà¶ºà¶ļ
à¶ºà¶± à¶¯
Ġà¶´à¶» à¶¯à·Ģà¶±
Ġà¶´à·ĥ à¶½
ĠS et
Ġ3 20
Ġc ustom
à¶¶à¶½ à·Ħà¶Ń
Ġf b
Ġf amily
ĠL and
am ing
à¶ļà·ħ à¶¯
ĠH or
ot es
Ġà¶´à·Ģà¶» à¶½
ell ow
ĠWeb site
Ġà¶±à¶Ł à¶¸
Ġab ove
ĠFor ce
ĠFl ash
ĠKing dom
W orld
d à¶Ń
é ĩ
Ġ à·Ĥà¶±
Ġà¶ħ à¶«à¶ļ
Ġà¶Ń à¶±à·Ģ
Ġà¶ľ à·ħà¶´
Ġà¶» à¶ºà¶±
à·Ģà¶ļ à¶±
in ema
Ġà¶īà¶¯ à¶´
ĠS al
à¶ī à¶º
à¶¸à¶¯ à¶Ń
Ġà¶īà¶© à·Ħ
à¶´à¶±à¶º à¶Ń
Ġw ant
ĠH P
19 45
Ġà¶ľà¶«à¶±à¶ļ à¶ľ
Ġbe g
Ġ27 0
ack s
ust ry
à¶ľà·Ħ à·Ģà¶Ń
196 7
Ð¾Ð »
Ġà¶»à¶¸ à¶«à¶º
itt ee
vent ion
ird s
awe era
Ġvict ory
. ?
T o
k er
x ford
£ ¼
â Ŀ
à·Ĵ !!!
à¶» à¶ŀ
à·ĵ à·Ļ
à¶ľ à¶µà¶½à¶º
Ġà¶¶ à·Ĥ
Ġà¶¶ à¶«à¶ļ
Ġà¶ļà¶» à¶´à¶½
à¶ºà¶± à·Ģà¶º
Ġà¶ļà¶½ à¶«
à¶±à¶ļ à¶ľ
à¶¯à¶± à¶ºà¶ļà¶§
Ġà¶ķ à·Ģà¶»à¶º
à¶»à·Ħ à¶Ń
à¶»à·Ħ à¶ļà¶º
à¶½à·Ģ à¶Ĩà¶»à¶ł
ĠP eople
Ġà¶ħà¶ľ à¶ļ
ĠG mail
as p
as ure
ĠD ig
Ġm p
à¶µ à¶½à¶Ń
Ġà¶ĩà¶³ à¶ľà¶±
à¶ļà¶© à¶ºà¶±
Ġ15 5
Ġre lease
if f
Ġà¶¯à·ģà¶ļ à·Ģà¶½
ãģ ¯
cl ass
//// ////
har aya
1 20
G em
ï ¸ı
à¶¸ à¶ļà¶»à¶±
à¶¸ à¶łà¶»
à·ĥ à·Ģà¶§
à¶§ à¶¶à¶½
Ġà¶± à¶»à¶ļà¶§
Ġà¶Ń à¶¯à·Ģ
à¶© à¶ºà¶º
Ġà¶ĩ à¶§à¶¸
à¶ħ à·Ħà¶±
Ġà¶ĭà¶´ à¶¶
à¶Ľ à¶ºà¶±
ĠC ount
à¶¯à·Ħà·ĥ à¶Ń
à·Ķ. "
Ġp res
ĠL AN
ĠR adio
ĠF ace
un ction
à¶Ĭ à¶Ĭ
Ġto day
Ġ12 7
Ġà¶µ à·ĥ
à·ĥà·ĥ à¶´
** *
iz er
orm al
Ġag o
196 5
overn ance
Ġcopy right
Ġpop ular
1 10
B ook
I s
d o
i w
Ï Ħ
à¶± à¶ľà¶½
Ġà·ĥ à¶¯à¶»
âĢį âĢįà·ĬâĢį
Ġà·ĥà¶¸ à¶ºà¶º
à¶ł à¶ºà¶ļà¶»
à¶»à¶ļ à·Ģ
Ġ( ,
Ġà¶ļà¶½ à¶½
à¶ħ à¶¸à¶Ńà¶ļ
à¶Ńà¶ļ à¶«
Ġà·ħ à¶ľà¶¯
à¶ī à¶´
Ġà¶ħà¶¯à·Ħà·ĥ à¶Ń
Ġà¶ļà¶© à¶ī
Ġs ettings
à¶ĭ à¶´à¶»
à¶´à¶±à¶º à¶º
Ġà¶ĳà·ħ à¶¶
id ence
us ara
Ġl ater
Ġà¶¶à¶© à¶īà¶»
Ġà·Ħà¶¬ à¶Ń
Ġà¶ħà·Ģà¶ļ à¶½
lo y
Ġà¶ħà·Ģà¶± à¶©
ĠCon nect
ĠTw enty
adu ate
Ġec onom
, ...
O H
Z Z
a ign
d b
o ka
ç İ
à¶» à¶½à¶ºà¶ļ
à¶Ń à¶®
à¶ļ à¶ļà¶»à¶±
Ġà·Ģ à¶»à¶«
Ġà·ĥ à·Ģà¶»
Ġà¶ľ à·ĥà¶Ń
à·ļ. âĢĻ
Ġà¶±à¶¸ à¶ºà¶ļ
Ġà¶ĭà¶´ à¶½
or ry
ĠS ound
ĠS ource
Ġà¶ļà¶© à¶ºà¶§
à¶ļà¶»à¶«à¶º à¶Ń
ĠM iss
Ġà¶ħà¶ľ à·Ħ
Ġf ood
ĠB it
19 50
ĠW in
à·ĥà¶³ à¶»
à¶°à¶ºà¶ļ à¶¯
ĠSt andard
riv ers
ĠâĢĭ âĢĭ
Ġwrit ing
ĠRath n
? ....
S up
h ost
v est
ç Ķ
Ġ à·´
Ġ ÙĪ
à·Ļ '
à·Ħ à·Ģà¶±
à¶¶ à¶±à¶¸
Ġà¶ĩ à¶«à¶ºà¶ļ
à·ĸ ;
Ġà¶Ĩ à¶Ńà¶»à¶º
à¶Ńà¶º à·Ģ
à¶Ńà¶± à¶±
Ġ19 03
Ġà·Ģà¶§ à¶ļà¶»à¶ľ
Ġà¶±à·Ģ à·Ģ
Ġà¶ħà¶· à¶ºà¶Ń
à¶´à¶» à¶ºà¶ļà¶§
Ġt alk
ad y
Ġà¶´à¶§ à·Ģà¶½
à·Ĭ.. "
ot or
Ġ12 1
ĠU ser
Ġst ates
Ġpro ble
ĠAn n
ĠAn t
out u
Ġà® ª
udd ha
ĠSL T
Ġwrit ten
Ġsim ilar
Ġadmin Posted
W E
ä ¹
æ °
ì £¼
à·Ķ à·ĳ
à·Ķ à¶ĥ
Ġà¶ľ à·Ģà¶»
Ġà¶ħà¶´ à·Ħà¶»à¶«à¶º
à¶ļà¶» à¶±à¶ºà¶ļ
à¶ĳ à¶¢à¶±
à¶¶à¶³ à·Ģà¶¸
ĠG erman
am u
ĠD ictionary
Ġm ajor
Ġl ab
ĠThe ory
Ġ500 00
Ġj ournal
ĠEx plor
à·ĥà¶»à¶« à¶ļ
ĠGun asekara
Ġprof ile
Ġfeat ures
Ġwes i
j e
à·Ħ à¶«à¶ºà¶ļ
Ġà·ĥ à·ĥà¶¸
à¶´ à¶»à¶´
à¶« à¶Ńà¶ļ
à¶¶ à·ĥà¶ļ
à·ħ à·Ħà¶»
Ġà¶» à¶½
à¶® à¶´
à¶ļà¶» à¶±à¶ºà¶§
Ġà·Ģà¶½ à¶±
Ġà¶¸à¶ľ à¶°
à·Ħà¶» à¶±à¶º
à¶ī à·Ħ
ĠM ia
ĠM BC
Ġf ind
Ġf oot
ĠG irl
Ġà¶¶à¶½à¶º à¶º
Ġm emory
ĠB R
ĠN ik
à·ģà¶ļ à·Ģà¶½
ĠW estern
Ġ18 70
Ġl and
à·Ģà·Ħ à¶±à¶º
à¶ľà¶ºà¶§ à¶Ń
Ġà¶±à¶ľà¶» à¶¶à¶¯
Ġà¶Ķà¶Ń à¶±à¶§
ĠAr my
ãģ Į
row s
uct ure
ener gy
N G
à¶Ń à¶ľà¶±
à¶¸ à·ĥà¶º
à¶¸ à¶¶à¶«
à·ĥ à¶«
à¶´ à¶ļà¶¸
à¶´ à¶»à¶±
à¶¶ à¶ºà¶§
à·ģ à·Ģà¶±
Ġà¶½ à¶´à¶º
à¶Ĥ âĢį
à¶Ńà¶» à¶ºà¶º
à¶ļà¶» à¶ļ
Ġà¶¶à¶½ à·Ħà¶±
or i
en ry
Ġ19 06
Ġc ertain
ĠT it
Ġw indow
ĠL eg
ĠG alaxy
Ġ200 00
ĠR h
Ġà¶ĩà¶¸ à·ĥà¶±
Ġà·Ģà·Ħ à¶±à·Ģ
ĠK ol
Ġ16 1
à·ĥà·Ģ à·ģ
Ġà¶¯à·ĥ à¶¯à·Ħà·ĥ
à¶ķ à¶ľ
Ġcom b
lic ations
anc y
ict or
Ġartic les
ĠDis k
Ġact iv
li ament
ĠAt t
ĠEar th
P ar
Î »
å Ľ
à¶¯ à¶¸à¶Ń
Ġà¶¶ à¶ļà¶§
Ġà¶ļà¶» à¶±à¶º
à¶ł à·ģ
à¶Ńà¶º à·ħ
Ġà¶¸à¶± à·Ħà¶»
Ġà¶ļà¶»à¶½ à¶¯
ĠC irc
Ġà¶ħà·Ħ à¶ļà¶§
ĠM un
à¶ĭ à¶¯à¶º
ĠT el
ĠT em
Ġm m
à¶Ńà¶±à¶º à¶Ń
18 15
ĠEn vironment
Ġex press
Ðµ Ñģ
ric es
inn er
Ġrel ig
Ġmod ern
Ar t
ĠMod el
ĠOrgan ization
C ar
S T
k en
à·ħ à·Ģà¶»à¶§
à¶© à·ĥà¶§
Ġà¶ļà¶» à¶ĩà¶Ń
Ġà¶¢à¶± à¶¢
à¶ħ à¶§à¶¸
à¶ħ à¶ºà·Ģ
à¶¢à¶± à¶´à¶¯
at ely
à¶´à¶ļ à¶ºà¶ļ
à¶»à¶´ à¶¯à¶º
ĠA riy
ĠM ult
à¶ĭ à¶¯à·Ģ
à¶ļà·ħ à¶¸à¶±
ad es
ĠB C
à¶µ à·Ģà¶±
Ġ9 000
ĠE mp
à·Ħà¶ļ à¶ļà¶¸
Ġà¶¢à¶±à·Ģ à·Ħà¶»
ard s
com e
à·ıâĢĿ .
ĠX t
Ġare a
Ġdis e
ĠArt s
............ .....
ĠAustral ian
ĠID M
ĠSpe ed
B y
N O
P ad
c ul
f ic
s cribe
Ġ ident
à·Ĭ !!!
à¶´ à¶ļà¶§
Ġà·Ħ à·ĥà¶½
Ġà¶ľ à¶´
à·ģ à¶±à·Ģà¶½à¶¯
Ġà¶º à·ĥà¶±
Ġà¶ĭ à¶»à¶±
Ġà¶ļà·ħ à¶´
Ġà¶¸à¶§ à·Ģà¶Ń
or age
es ter
ĠS inhalese
ĠS unday
Ġà·ĥà¶¯ à·Ħà¶§
à¶»à¶½ à¶¸
Ġw ent
Ġ15 000
Ġà·Ģà·Ħ à·ħ
Ġà·Ģà¶¯ à·Ħ
à¶µà¶½ à¶ºà¶±
à¶ħà¶¸ à¶»à·ĥ
Ø§ ÙĨ
Ġhe alth
ĠØ ´
ĠTe le
ĠInt el
æĹ ¥
ĠXt Gem
B r
D e
H ar
i en
u il
y b
à·Ģ à¶«à¶ºà¶ļ
à·ĥ à¶ºà¶¸
à¶½ à¶±à¶§
à¶¯ à·Ģà¶»
à¶´ à¶½à·ĥ
à¶¸à¶ļ à¶Ń
Ġà¶Ńà¶» à·Ħà¶º
ĠS ol
à¶´à·ĥ à¶Ń
Ġà¶īà·Ħ à·Ģà·Ħ
Ġs il
Ġc over
is a
Ġp al
Ġt echnology
ou l
ĠL K
Ġd en
à¶»à¶´à¶§ à·Ģà¶½à¶§
Ġà¶¸à¶Ł à·Ħà¶»
à·ħà¶³ à¶´à·ħ
à¶Ńà·Ģà¶Ń à¶ļ
ĠĠĠĠĠĠĠĠ ĠĠĠ
ĠĠĠĠĠĠĠĠ ĠĠĠĠĠ
ver ter
ree k
we et
Ġar ch
ru it
duc ed
Ġperform ance
m it
r oss
à·ĥ à·ĥà¶»
à·ļ ),
Ġà¶´ à¶«à¶ļ
Ġà¶ľ à·ħà·Ģ
à¶Ńà¶» à¶Ł
Ġà·ĥà·Ħ à¶¢à¶º
à¶»à¶¸ à¶»
Ġà¶ĭà¶¯ à¶ºà¶ļ
à¶Ńà¶ļ à¶±
ĠS elect
it i
Ġà·Ħà¶³ à¶º
Ġa ir
Ġa uthor
ĠT ur
Ġf ac
ĠB reaking
ĠI f
os m
à·ģà¶ºà¶ļ à¶¯
Ġl arge
ur ther
Ġà¶ĭà¶« à·Ģà¶§
ĠSt art
à¶¢à¶ºà¶§ à¶Ń
à·Ģà·ħ à¶ľ
ra z
Ġà¶ħà¶´à¶±à¶ºà¶± à¶ļà¶»
ĠComm ission
ke ep
ĠDes ktop
achel or
" >
A Y
D D
M L
g ar
y outu
Î ¼
æ Ŀ
à¶» à¶±à¶ºà¶§
à¶¸ à¶¸à¶±à¶¸
à¶¶ à¶ļà¶»à¶±
à¶ºà¶§ à¶±
Ġà¶ħà¶´ à¶½à¶º
Ġà·ĥà·Ħ à¶ºà¶¯
à¶· à¶§
à·Ĵà¶Ĥ ...
Ġà·Ģà¶½ à¶´à¶±
à¶ĳ à¶»à¶§
à¶»à¶« à¶ľ
Ġà¶ķ à¶±à·Ģ
à·Ĵ, âĢĿ
à¶¯à·Ħà·ĥ à¶º
ĠA st
Ġf ace
Ġf air
Ġb uild
ĠD aily
ĠR ock
os ition
ĠN ir
Ġ15 05
Ġà·Ħà¶¬ à¶º
Ġà·Ħà¶¬ à·Ģà¶½
Ġà·Ģà¶º à·ĥà¶Ń
à¶ķ à¶ļà¶§
Ġv ideos
à·Ĭ.... .....
Ġ.... .....
ĠPh il
ĠHD Rip
Ġind ividual
PP O
---------------- ----------------
Ġà¶¶à¶§à¶± à¶½
: #
F L
h el
t ime
å °
à¶½ à·Ģà¶»à¶«
Ġà¶ļ à·Ħà·Ģ
Ġà¶± à·ĥà¶»
à·ĸ ..
Ġà¶Ĩ à¶©
à¶±à¶º à·ħ
à¶ł à¶½à¶±
Ġà¶· à·Ģà¶ºà¶±
à·Ħà¶½ à¶¯
Ġà¶Ĩà¶« à¶¸à¶©
Ġà¶ħà¶· à·Ģ
ĠA uto
ĠM useum
ĠP op
ĠR oad
ad h
ol f
id ed
Ġà¶Ľ à¶¢
Ġà¶ĭà·ħ à¶½
Ġà¶¸à·ħ à¶´à·Ħ
ill ed
'' '
Ġcl aim
197 6
Ġpart y
ĠUp load
epend ent
ĠBut ton
ecut ive
* .
O ct
S ch
S ub
T O
T ags
i et
s w
u zz
à·Ĵ //
à¶» à·Ģà·ĥ
à¶» à¶¬
à¶´ à¶ľà¶±
Ġà¶± à¶½à¶½
à·Ĵ. âĢľ
à¶¢ à¶ºà¶§à¶¸
à¶³ à¶ļà¶§
à·Ģà¶Ń à¶¸
à¶® à¶·
à¶»à¶¸ à¶ºà¶¸
Ġà¶¢à¶± à¶°
Ġà¶ħà¶º à·ĥ
Ġà¶Ńà¶» à·Ħà·Ģ
Ġà¶Ĭ à¶¶
à¶¨ à¶±
Ġth ird
à¶½à¶§ à¶¯
Ġc ann
ĠM el
ĠT im
Ġà¶ħà¶ľ à¶½à¶ļ
and ra
Ġb ats
Ġà¶Ķà¶¶à¶§ à¶¯
Ġà¶¸à·ĥ à¶ļà¶¸
os ed
à¶µ à¶½à¶ºà¶§
Ġà¶´à¶§ à¶½à¶ºà¶ļ
Ġ15 7
Ġà·Ģà·Ħ à¶´
ist ics
Ġà¶¶à¶»à¶´à¶Ń à¶½à¶º
Ġà¶ļà·Ģà¶» à·Ħ
Ġst op
-- -
à·ıâĢĻ ,
Ġ07 1
ĠSer vices
yn am
tr ans
ĠVi haraya
Ġav ailable
E M
S m
à·Ķ __
à¶¸ à¶´à¶¯
à¶½ à¶ļà¶»à¶±
Ġà·Ģ à¶¯à·Ģ
Ġà¶´ à¶§à·ĥ
Ġà¶ħ à¶§à¶½
Ġà¶ĩ à¶´à¶ºà¶§
à¶Ńà¶» à¶Łà¶º
à¶ħ à¶ł
Ġà¶§ à¶¢
... ]
Ġà¶ħà¶¸ à¶±à¶º
Ġà¶ķ à¶ļà¶¸
Ġà¶Ĵà¶ļ à¶±à¶¸
à¶»à·ĥ à¶§
à¶»à·Ħ à¶»à¶ļ
à¶ĩ à¶ºà·Ģ
Ġà¶ľà¶¸ à¶¸
Ġà¶±à¶ľ à¶»à¶ºà¶±
ĠM other
Ġp c
Ġp ri
Ġa p
ĠL ock
Ġ8 50
ir es
à¶§à¶ļ à¶ºà¶§
ĠE gypt
ag a
à¶»à¶ľ à·ĥ
Ġl ive
Ġà¶¢à¶½ à·ĥà¶¸
ap ala
à·ĥà¶»à¶º à¶Ń
Ġà¶īà·Ģà·ĥ à¶ľ
ãģ ¦
Ġà¶ĭà¶ºà¶± à¶ļ
ber t
197 4
Ġà¶¯à·ģ à¶½à¶ļ
Ð» Ð¸
Ġà¶ļà¶¹ à¶ºà¶ļ
urr ency
P oint
V en
h er
r upt
â Ī
à¶± à¶Łà¶ļ
à¶¯ à¶°
à¶´ à¶®à¶ºà¶ļ
à¶© à¶¶à·ĥ
à¶° à¶±à·Ģà¶½à¶§
Ġà¶ļà¶» à¶½à¶±
à·Ĵ. .......
Ġà¶ī à¶»à¶´
Ġà·ĥà¶¸ à¶ļà¶º
Ġà¶ł à¶½à¶±à¶ºà¶ļ
Ġà¶¸à¶Ń à¶ļà¶Ń
Ġà¶ħà¶» à¶´
à¶¶à¶» à¶ºà¶§
Ġà¶±à·Ģ à¶ºà¶ļà¶§
re c
om s
Ġh aving
ĠE ver
à·Ģà·Ħà¶± à¶ļ
Ġ15 2
âĢ¦. âĢĿ
if i
ĠSh ar
Ġà·ĥà¶¸à¶» à¶±à·Ģ
Ġcomp let
ĠØ ¨
ĠIs lam
app y
Ġreg ister
ĠStud ies
ĠBook s
ĠDem ocr
S he
å ¾
è ¡
à¶± à·Ħà·ĥ
à¶» da
à·Ļ à·Ķ
Ġà¶Ń à¶½à¶´
à·ħ à¶¯à¶»
à·Ĥà¶º à¶·
à¶Ķ à¶©
à¶¯à¶½ à¶ľ
à¶¥ à¶´
à¶Ńà·Ģ à·ģà¶º
ed it
Ġc at
ĠT ut
ĠF eder
Ġ[ [
Ġ13 7
ĠIn s
Ġà¶ħà·ĥà¶»à¶« à¶ºà¶±
ann er
ric ulture
à¶»à·Ħà¶» à¶§
tr l
ient ific
Ġà·Ħà¶¶ à¶»à¶«
ĠArch ae
Ġrequ est
ĠRA W
A K
A c
m ission
æ Ń
à¶± à¶ł
à¶Ń à¶ºà¶½
à¶ļ à¶´à¶Ń
Ġà¶¸ à¶©à¶¸
à¶© à¶¸à·ħ
à¶ºà¶½ à¶±à¶¸
Ġà¶ł à¶§
Ġà¶»à¶¢ à¶¸
Ġà¶»à¶¢ à¶¯à¶»
à¶»à¶´ à¶¯
ĠM er
Ġo thers
à¶¸à·ĥ à¶ļà¶§
am in
ĠD et
ag am
Ġà¶´à¶« à¶ľ
ut ter
ak oon
ist a
à·ı.... !
Ġst ar
ok e
oun ter
ish ed
à¶Ńà¶ľ à¶»à·ĥ
Ġch ang
Ġà¶ħà¶»à¶ľà¶½ à¶ºà¶ļà¶§
03 9
Ġad s
cl ick
anth i
esh ana
Ġ189 6
ĠODI s
ĠCent ral
Ã³ n
ĠEurope an
g es
k n
p m
Ġ ****
à¶§ à¶ļà¶»à¶±
Ġà·Ģ à¶´à¶»
Ġà¶ļ à·Ħà¶±
à·ĵ ),
Ġà·Ħ à¶½à¶½
Ġà¶¶ à·ħà¶°
à·Ģà¶Ń à¶ľ
Ġà¶¶à¶½ à¶ļà¶»à¶¸
Ġà¶´à¶» à¶ºà¶±
à¶ħ à¶»à¶ľ
Ġà¶īà¶¯ à·Ħ
or o
Ġà¶ļà¶§ à·Ģà·Ħ
à¶ĩ à¶¹
ĠA L
Ġa way
Ġf em
Ġn ever
à¶ºà¶ºà¶§ à¶Ń
Ġr ank
Ġim m
196 9
Ġinclud e
Ġconsider ed
ĠGeorg e
w id
á »
à·ĬâĢį à·Ļ
Ġà¶º à¶¸à¶ļà¶§
Ġà¶ī à¶Ńà¶»à¶ļ
Ġà·ĥà·Ħ à¶ºà¶ļà¶º
à¶¸à¶± à¶ºà¶±
Ġà¶· à¶±
à·ĺ ,
Ġà¶ļà¶Ń à¶ļ
à¶¸à¶« à¶ºà¶±
Ġà¶Ĵà¶ļ à¶ļà¶ºà¶±
à¶ºà·Ģ à¶ľà¶±
à¶°à¶º à¶¯
Ġ19 08
Ġà¶±à·Ģ à·Ģà¶±
ĠA udio
à¶°à¶±à¶º à¶º
om i
ĠP ath
Ġà¶ĭà¶© à·Ħ
ĠN ar
Ġà¶Ī à·ĥ
à·Ĵ.. "
à·ħà¶¯ à¶´à¶½
........ .......
Ġ17 00
av es
Ġà¶ħà¶« à·ĥà¶ļà¶§
end s
Ġ28 0
ĠÐ ¼
Ġex pl
land s
ĠApp lication
196 2
Ġï ģ
air s
ĠðŁĺ Ľ
Wh en
Ġà¶¸à¶¬ à¶½
Ġchar ge
IF A
yr ics
ĠRoy al
Ġmanag ement
ĠWick ram
ĠNam ib
. :
F S
h ouse
i os
y t
Â «
â Ĥ¬
Ġ ê
à·ı *
à¶º à¶°à¶¸
à¶½ à¶¸à¶Ń
à¶¶ à¶ºà¶ļà¶§
à·ħ à·Ħà¶ļà¶§
Ġà¶ļà·ħ à¶½
ĠS P
Ġc ost
Ġp ur
Ġà¶īà·Ģà¶Ń à¶½à¶±
ĠD evelop
Ġà·ĥà¶§ à¶±à¶ļà¶§
ac ters
ĠK a
à¶©à¶½ à·Ģà¶½
..... "
Ġà¶ħà¶« à¶§
ĠUn c
Ġim p
eng er
rib ution
Ġà¶¯à¶©à¶º à¶¸à¶§
Ġpartic ular
L at
N e
P ress
T H
b ro
d iv
s elf
Ñ Ī
Ġ í
à·Ħ à¶¸à¶¯
Ġà¶ħ à¶«à¶Ń
Ġà¶¯ à¶ľ
à¶« à·Ģà¶±
à¶« à¶±à¶ļ
à¶« à¶§à¶Ń
Ġà¶ĩ à¶ŀ
Ġà·ĥà·Ħ à¶łà¶»
an el
à¶ľà¶½ à¶ºà¶§
ar am
ĠS ony
Ġth ought
à¶½à¶±à¶º à¶¯
Ġà¶´à·Ģà·ĥ à¶¯
ĠP oint
à¶»à¶¢ à¶ºà¶§
Ġà¶ħà¶ľ à¶ºà¶ļà¶§
Ġb and
ĠG all
ĠR ights
ĠN alin
Ġà¶Ķà·ĥ à·Ģà¶¸
Ġà¶ļà¶´ à¶¸
Ġà¶»à¶® à·Ģà¶½à¶§
à¶ħà¶¸ à¶Ńà¶»
12 5
olog ist
Ġà¶¯à¶Ł à¶½à¶±à·Ģ
196 1
Ġem p
ĠFB I
istor ical
omet imes
M I
M e
m ed
ç ľ
ì ĺ
à·Ĵ _
à¶» à·Ħà¶±à¶ºà¶ļ
à¶§ à¶¸à¶±
à¶© à¶ļà¶»à¶´
à¶ľà¶Ń à·Ģà¶±
Ġà¶¶à¶½ à·Ģà¶±
à¶½à¶± à¶ļ
à¶±à¶ļ à¶§à¶¸
Ġà¶ħà¶¸ à¶¯
à·ĥà¶± à¶¯
ic er
ĠL ee
as ma
ĠD ream
ĠN or
ĠF ood
ĠF iles
Ġ18 50
ay ak
ag o
ĠU lt
Ġk g
Ġà¶¢à¶±à¶´à¶¯ à¶ºà¶ļ
Ġà¶ħà¶¬ à¶½
ĠUn der
Ġà¶ļà¶Ńà¶» à¶ľà¶¸à¶§
196 6
St ory
ĠBl u
Ġà¶ħà¶Ńà·Ģà¶» à¶ºà¶§
Wh at
idd le
i ant
j u
m od
n am
t w
Ã ¨
Ñ İ
à¶» à¶ľà¶»
Ġà¶ļ à¶¶à¶»à¶º
Ġà¶¸ à¶½à¶§
Ġà¶¸ à¶¢à¶»
Ġà¶± à¶§à¶¸
à·ģ à¶ļà¶»à¶±
à¶¢ à¶½à¶±à¶º
à·Ģà¶± à¶¢
à·Ģà¶» à·ĥà¶±
Ġà¶´à¶» à¶«à¶º
Ġà¶ħà¶¯ à¶»
à¶¹ à¶³
Ġ19 09
à¶ī à·Ģà¶Ń
Ġà·ĥà¶¸à¶Ł à¶Ń
à¶Ńà¶½ à¶ľ
Ġc enter
ĠM ass
ĠT er
Ġf eel
à·Ģà¶»à¶« à·Ģà¶½à¶§
ĠK ur
Ġà¶ĳà¶±à·Ģ à¶§
Ġà¶Ĵà¶ļà¶§ à¶¸
Ġà·ĥà¶ļ à·ĥà¶¸
Ġk ing
Ġtr ading
ond a
Ġsc ored
ĠEx ternal
cl op
Ġdo ctor
Ġind ic
ĠLe ague
ĠMed ical
Ġdet erm
Ġinc re
roph y
ĠAcadem y
L E
c ell
m ore
Î µ
Į Ģ
Ġà¶¯ à¶´
Ġà¶Ń à¶¢
à·ħ à¶±à¶º
à¶° à¶±à·Ģà¶½
Ġà¶ĳà¶ļ à¶ľà·Ģ
Ġà¶ł à¶´
à¶ºà¶¸ à¶¸
Ġà¶´à·ħ à¶½à¶ļ
th ur
à¶©à¶ļ à¶¸à¶ļ
à¶Ķ à·ħ
à¶Ķ à¶¶à¶½
à¶Ĩ à¶´à·ĥ
Ġs everal
Ġc rypt
ĠM ode
ĠP ublish
ĠP uwath
Ġm oney
Ġm icro
ĠN okia
à·ģà¶±à¶º à¶Ń
Ġ18 60
Ġà·Ĥ à¶¸
à·ħà¶¯ à·ĥ
Ġ? ???
Ġ13 3
ess ion
Ġà¶¢à¶±à¶¸à¶Ń à¶ºà¶ļ
Th ese
ix er
ett i
Ġed ucation
tr act
Ġà¶¸à·Ħà¶»à·Ħ à¶Ń
iter ature
Ġval ue
Ġlet ters
ĠMax x
S S
Ã ±
Ù ĥ
ĉ ĠĠ
Ġà¶Ń à¶ľ
Ġà¶ĳ à¶½à¶º
Ġà¶Ĵ à¶¢
Ġà¶¶à¶½ à¶ľà¶±
à¶ħ à·Ģà¶Ń
à¶¹ à·Ģ
Ġà¶´à¶Ń à¶±à¶º
Ġ19 13
ĠS QL
Ġà·Ģà¶§ à¶½à¶±
Ġc ame
ĠM oney
Ġà¶īà¶© à¶Ń
Ġt otal
ĠL ord
Ġà¶ľà¶½ à¶±à·Ģ
Ġà¶ĭà¶© à¶º
ĠN ight
Ġà·ĥà¶§ à¶ļà¶´à¶§
19 40
ĠW as
ir un
à·Ĭ... !
un k
Ġ20 50
Ġà·Ħà¶§ à¶¯
à¶©à¶½à¶º à¶Ń
Ġv oice
Ġà¶Ķà¶´ à·Ģà¶Ń
ab h
TE R
Ð¾Ð ³
???? ????
Ġ189 4
Ġcomm and
af e
à·ĥà¶Ł à¶¶
Ġdeg rees
Ġimport ant
A cc
A mer
b at
c ode
f it
k h
} }
Ġ ang
à¶¸ à·Ģà¶ľ
à¶§ à¶ľà¶½
Ġà·Ģ à·Ģà¶½
Ġà¶´ à¶Ńà¶º
.. )
à¶»à¶¸ à¶ºà¶¯
Ġà¶§ à¶±
à¶½à¶ļ à·ħ
or es
Ġ19 2
à¶Ķ à¶Ńà¶±
à¶ī à¶´à¶¯
ĠC at
Ġs at
Ġs ymbol
Ġc amera
à¶Ŀ à¶»à¶º
Ġa ge
Ġt ouch
à·Ħà¶§ à¶¯
ĠL CD
ĠD atabase
Ġm ass
ĠN ow
Ġà¶´à¶« à·ĥ
Ġà¶ľà·Ħ à¶ļà¶§
ĠK ap
Ġà·Ģà¶º à·ĥà¶º
ateg or
Ġv ar
à¶ļà¶ºà¶§ à¶Ń
à¶ľà¶« à¶±à¶ºà¶ļ
à·Ħà¶»à¶« à¶ºà¶±
à¶¶à·Ħ à¶ļà¶§
Ġ26 0
iss a
amb ridge
vers e
3 80
D C
E B
N ov
S ome
á Ĭ
é Ľ
à·Ĵ ''
à·Ħ à¶¢
Ġà·Ģ à·ħà¶¯
à¶« à¶ľà¶¸
Ġà¶Ń à¶¯à¶§
Ġà¶ĳ à¶¶à¶±
à·ħ à·Ģà¶Ń
Ġà¶ļà¶» à¶¶
à¶¸à¶º à·ħ
Ġà¶¶à¶½ à¶ļà¶»à¶±
à¶¯à¶» à¶½
à·Ĥà¶« à¶Ń
st ant
ed ora
ĠM en
à¶¯à¶±à¶º à¶º
Ġà¶ľà¶½ à¶´à¶±
à·Ĥà¶ļ à·Ģà¶»à¶ºà¶ļ
ĠD er
ĠR ight
ri er
Ġh owever
ĠâĢ¦ âĢ¦
enc ies
Ġex ist
Ð¸ ÑĤ
Ġ189 7
ä¸ Ń
ĠVis ual
ĠDh arm
( )
H C
d en
d ates
Ã ŀ
Ë Ĳ
å ·
à·Ĭ [
Ġà¶¸ à·ĥà¶§
Ġà¶ľ à¶±à¶ºà¶§
Ġà¶¶ à¶»à¶´
Ġà¶½ à¶´à¶§
à¶Ńà¶» à·Ħ
Ġà¶¶à·Ģ à·Ģà¶Ń
à¶¸à¶Ń à¶ļà¶º
Ġ( ;
à¶Ł à¶±à¶º
Ġà¶´à¶» à·ĥà¶Ń
Ġà·Ģà¶» à¶±
Ġà¶ħà¶© à¶±à·Ģ
à¶ºà¶ļà¶§ à¶¯
ĠS ettings
à¶»à¶ºà¶ļ à¶§à¶º
Ġp ublished
à·Ģà¶»à¶«à¶º à¶Ń
ĠL i
Ġm illion
Ġà¶ĭà¶© à·Ģ
os eph
ir g
id ae
Ġ18 65
Ġà¶±à¶© à¶»
à¶¸à·Ħ à·ħ
Ġ12 9
Ġg raph
Ġ13 97
à·ĬâĢĿ ,
Ġà¶¶à¶¶ à¶½à¶±
Ġte ach
ĠFr ank
ĠRep ort
cept ion
ĠIT N
ĠWij es
oor iya
Ġlos ing
ĠMaxx A
D NA
Ù Ĳ
ì ŀ
à·Ħ à¶ºà¶¯
à¶½ à¶łà¶±
à¶© à·Ģà·ĥà¶±
Ġà¶¢ à¶½à¶ľ
à¶±à¶º à¶ľà¶»
Ġà¶Ĵ à¶¸à¶ļ
Ġà¶ļà·ħ à¶½à¶º
à¶¸à¶Ń à¶ļà¶¯
à¶»à·Ģ à·ģ
à¶»à·Ģ à¶±à¶º
à¶ľà¶± à¶ľ
Ġà·Ħà¶» à·ĥà¶»
Ġà·Ģà¶© à·Ģ
à·ĥà¶ļ à¶¯
ĠC ur
Ġth ough
Ġt ree
Ġw eek
Ġf ail
ĠL et
ĠL ibrary
ĠG n
à·ģà¶ļ à¶®
Ġà¶Į à·Ĥ
Ġà¶±à¶ľà¶» à·Ģà¶½à¶§
Ġà¶»à¶« à·ģ
ist ration
Ġv ers
à·ĥà¶½à¶ļ à¶¸
à¶ľà¶¸à¶± à¶§
ãģ Ļ
ram ework
ĠAd obe
mer c
à¶ºà¶»à¶Ń à¶±
Ġed itor
ĠEngine ering
A F
C ategories
E G
O F
p o
s rilanka
y ear
å į
à·Ķ âĢĮ
à·Ļ ......
à¶ľ à¶«à¶ºà¶§
Ġà¶¯ à¶»à·Ģ
Ġà¶¶ à¶§à¶ľ
à·Ĵ. âĢį
à¶±à¶º à·Ģ
Ġà¶ĭ à·ģ
à¶Ł à¶§
à¶ħ à·Ħà¶½
à¶¯à¶± à¶±
à¶ļà¶ļ à¶§à¶Ń
Ġ19 01
à¶¯à¶½ à¶ºà¶ļ
à¶»à¶½ à¶ľ
is es
Ġf ew
ĠD J
Ġd ocument
ĠF ox
à·Ģà¶»à¶« à·Ģà¶½
Ġand roid
Ġl arg
Ġ13 9
Ġ25 6
Ġà¶¯à·ĥ à¶½à¶ļ
Ġà¶Ńà¶½ à¶ºà¶±
Ġfor mer
ĠSt reet
à¶´à¶ºà¶§ à¶Ń
à¶ºà¶· à¶§
Ġ01 12
Ġà¶ħà¶»à¶ľà¶½ à·Ģà¶½
ĠPl us
à¶¸à·Ħà¶» à¶ľà¶¸
ĠTest s
con f
Ġsup er
ĠSup port
Ø¨ Ùĩ
drop cap
% -
R T
R etrieved
X L
h ter
u an
à·Ķ *
à·ļ ........
Ġà¶¶ à·Ģà¶±à¶¸
à¶© à¶´à¶½
Ġà¶ī à¶Ńà¶»
Ġà¶¸à·Ħ à¶ł
Ġà¶´à¶» à¶Ńà¶»
à·Ĭ. ,
à¶ĳ à·Ģà¶ļ
Ġà¶ĭà¶´ à·ĥà¶»
à¶¢à¶± à¶¶à¶½à¶º
à·Ĥà¶«à¶º à¶¯
à¶»à¶½ à¶Ń
Ġs on
Ġà¶»à·ĥ à¶¥à¶Ń
Ġw inning
Ġd iv
ĠN ote
ĠF ort
Ġ18 85
ag n
Ġ15 8
à¶»à¶´à¶§à¶º à¶Ń
ist ance
à¶©à¶´ à·Ģà¶Ń
à¶¸à¶ºà¶§ à¶Ń
ver age
ug u
ash ion
ĠAm ar
Ġpart ner
pos ed
pr ise
Ġatt ack
Ġest ablish
/ *
? âĢľ
D ec
D ownload
E P
l ink
u h
à¶Ń à·Ħà¶±à¶¸
à¶¸ à·ĥà¶½
à¶§ à·ĥà¶¸
à¶¯ à¶§à¶º
à·Ĳ .....
à·ħ à·ĥà¶±
à·ħ à¶§à¶¸
à·Ģà¶ļ à¶ł
Ġà¶ħà¶Ń à¶º
an anda
à·Ĩ à¶»à¶±
in y
à¶¯à¶» à¶§à¶Ń
à¶Ľ à¶±à·Ģà¶½à¶§
à¶ĩ à·Ģà¶±
Ġà·Ħà¶³ à¶´
à¶§à¶½ à¶ºà¶ļà¶§
ĠG ard
ĠB oot
Ġà·ĥà¶» à¶¹
ĠH a
ĠH om
Ġ18 17
ĠE qu
ow ers
ĠO PPO
Ġà·ĥà¶¯à·Ħà¶± à¶ļ
Ġà¶ħà·Ħà·ĥ à¶ļ
Ġe th
Ġas k
à·ı! âĢĿ
Ð¾ Ð½
Ġà® ®
Ġz z
Ġro ck
att ing
ĠCent re
ìĿ ´
Ġknow ledge
ĠWhats App
D eshana
T Y
Ø ¬
à·Ĵ à¶ĥ
à¶ľ à¶¤
à¶Ĥ ÂŃ
Ġà¶¢ à¶¶
à·ļ. âĢĻâĢĻ
à·Ģà¶§ à¶ļ
à¶ħ à¶»à¶±
an ish
Ġà¶ķ à¶¶
à¶Ńà¶ļ à·Ģà¶Ń
Ġà¶ļà¶§ à¶ľ
Ġs ir
Ġà·Ģà·ĥ à¶»à¶º
ĠT or
ĠT re
am an
ĠD ar
à·Ģà¶ºà¶§ à¶¯
Ġà·ĥà¶» à·Ģà¶±à¶¸
ĠH and
19 58
Ġà·ĥà¶½ à¶»
Ġà·Ĥ à·Ģà¶»
um ara
us ion
Ġà¶ħà¶Ł à·Ģà¶º
ep ad
à·ıâĢį .
Ġà¶ĭà¶´à·ĥ à¶·
à·ļâĢ¦ ..
ĠAd vent
Ġà¶´à¶»à¶¯ à·Ģà¶¸
ĠFr ench
pos ition
Ġse ason
utom atic
edd ing
bod usara
R es
U I
à·Ĵ à·ı
Ġà¶¸ à¶½à·Ģ
à¶´ à·ĥà¶ļ
à¶´ à¶±à¶ºà¶ļà¶§
Ġà¶¶ à·Ģà¶½à¶Ń
Ġà¶ļà¶» à¶½à¶ļ
Ġà¶ļà¶» à¶ľà¶¸
à¶»à¶º à¶½
à¶»à¶ļ à¶ºà¶§
er awansa
Ġà¶© à¶½
Ġà¶ļà¶« à¶ļ
à¶ºà·ĥ à¶±à¶ºà¶§
à¶ļà¶»à¶« à·Ģà¶½à¶§
Ġm aking
ĠB ul
ĠB ill
Ġà¶Ī à·Ĥ
à¶½à¶ºà¶§ à¶º
à¶ķ à·ĥà¶º
ind u
Ð° ÑĤ
Ġà¶ļà¶¸à¶§ à·Ħà¶±
Ġpart ition
Ġà¶ħà¶§à¶¸ à·ĥ
ĠChar les
à¶Ĭà¶½à¶Ł à¶§
Ġspeak ers
M on
c ons
p ath
É ª
á ĭ
à¶¸ à¶łà¶ļ
à¶´ à¶¬
Ġà¶ĳ à¶»à¶¸
à¶³ à·Ģà¶±à·Ģ
à·Ģà¶Ń à¶¯
Ġà¶ħà¶Ń à¶®
Ġà¶ħà·ĥ à·ħà¶§
or al
Ġ19 16
à¶Ĵ à¶¸à¶§
Ġà¶´à¶± à¶½
ĠA I
ĠM obitel
Ġp ush
ion ship
Ġt ri
Ġà¶īà·Ħà·ħ à¶§à¶¸
ĠD own
ĠR a
ĠN AS
Ġà¶ľà·ĥ à¶ļà¶§
à·ļ.. "
ph a
Ġpl atform
Ġtr ack
Ġà¶Ńà¶« à¶¸à¶½
Ġà¶Ńà·Ħ à·ħ
ĠSp ecial
196 8
Ġà·ĥà¶ļà¶½ à·Ģ
Ġrel ationship
Ġass oci
ĠPe ace
Ġdom ain
Ġposs ible
âĺ Ĳ
Ġà¶ļà¶©à¶ī à¶¸à¶ļ
D o
H ow
b urg
f in
h ib
m ical
Ã ¦
á ŀ
é ģ
à¶Ń à¶¥à¶ºà¶ļ
à¶ļ à¶¸à¶±
Ġà·Ģ à¶¯à¶ºà¶§
Ġà¶¸ à¶»à·Ħ
Ġà¶ĳ à¶±à·ĥ
à¶© à¶ºà¶¸
à¶° à¶¸à¶±
Ġà¶¢ à¶ºà¶»
à¶® à¶±à¶ºà¶ļ
à·Ĩ à¶§
à·Ĩ à¶ºà¶»
Ġà·Ģà¶© à·Ģà¶±
.... ?
en z
ĠS U
ĠS on
Ġà¶ħà¶¯à·Ħà·ĥ à¶ļà¶§
Ġà·Ģà·Ħà¶± à¶ºà¶ļ
ĠP olitical
à¶¸à·ĥ à¶±à·Ģ
Ġb attery
ĠB ur
el t
Ġh or
ĠE le
Ġn eg
ig er
Ġg od
ec ess
Ġà¶±à·Ģà¶ļ à·Ģà¶¯à¶º
ud i
ĠTh r
ãģ §
ĠAl ert
revi ew
thumb nail
Ġà¶Ńà·Ħ à·Ģà¶»
Ġev er
Ph ot
att a
ĠIP L
Ġphot os
Ġkey board
Ġprof essional
ĠIm ages
Ġmess age
1 18
F ree
T echà¶ļà¶Ń
k ar
æ ķ
à·ĥ à¶´à¶±
à¶§ à¶ŀ
à·ģ à¶ļà¶½
à¶¢ à¶¸à·Ħ
Ġà¶¢ à·Ģà·ĥà¶¸
Ġà·Ģà¶± à¶ħà¶½
Ġà¶ļà¶½ à¶½à¶º
à¶½à¶ļ à·Ģà¶»
Ġà¶ħà¶° à¶º
à¶»à¶´ à¶®à¶º
is ation
Ġf ocus
ĠL o
am s
Ġà¶Ŀ à¶±à¶º
ĠN ations
el ine
ac ity
ĠF a
ĠW all
ay out
Ġ20 5
Ġl ittle
ct ions
Ġà¶»à¶® à¶ľ
à¶ħà¶¯ à¶§
ut ions
à¶Ńà¶±à·Ģ à¶½à¶§
Ġà¶¶à¶¶ à·ħà¶±
à¯ ĩ
Ġcont inu
ĠDe ep
ĠEd it
ĠLe ave
ple ment
ĠCN N
ĠRich ard
opp ing
, .
F r
G u
à¶± à¶½à¶ºà¶ļ
à·ı âĢĮ
à¶» à·Ĥà¶»
Ġà¶ĩ à·ĥà¶½
à¶¢ à¶»à¶º
à¶¢ à·ĥà¶·
à¶ºà¶§ à¶±à¶¸
Ġà¶ħà¶± à¶·
à¶ħ à¶»à¶ļ
à¶ħ à¶ºà¶¯
Ġ2 15
Ġà¶»à¶§ à¶ļà¶¯
... )
an ic
à¶ī à·Ģà·ĥà¶±
ic ism
ĠM il
à¶¯à¶±à¶º à¶Ń
ĠG al
Ġm achine
Ġd ie
ac ing
Ġ18 86
un der
Ġ12 000
Ġà·Ģà·Ħ à¶»à¶ļ
ĠO ver
em pt
Ġà¶¯à·Ħà·ĥ à¶ºà¶ļ
Ġ14 8
à¶ľà¶«à¶ļ à·Ģà¶½
Ġbe at
Ġch ange
ace ae
te gr
Ġim ages
ific ations
ĠComm ittee
stit ution
Ġsome thing
Ġpoint s
Ġà¶ļà·Ģà¶¸ à¶¯
; :
P al
T e
b i
à «
Ġ à·ĵ
à·Ķ ).
Ġà·ĥ à¶½à¶±
à¶´ à·Ħà¶§
à·ľ ....
Ġà¶Ń à¶ļà¶±
Ġà¶ĭ à¶ºà¶±à·Ģ
à·Ģà¶§ à¶ºà¶±
Ġà¶ľà¶± à¶±à¶ļà¶§
Ġà¶ĭà¶´ à¶´
Ġ" "
Ġà¶ĳà¶½ à¶¶
à¶ī à¶½à¶ļ
ĠC a
Ġà¶±à·Ģ à¶ľà¶¸
Ġà·Ħà¶³ à¶ľà¶¸à¶ľ
Ġf e
à¶ļà·ĥ à¶±à¶º
ĠF estival
Ġ18 67
Ġn ames
ĠK en
Ġg ive
Ġà¶ĩà¶ºà¶§ à¶Ń
à¶µà¶½ à·Ģà¶½
ĠAn ti
ĠAn cient
ull a
Ġà·ĥà¶»à¶« à¶ļ
ire less
Ġ:) )
Ġed ition
Ġwork s
Ġbec ome
Ġà¶ļà·ħà¶¹ à¶ļ
ĠQual ity
ĠDiss anayake
B uy
C he
P akistan
c ious
à¶» à¶©à¶ļà¶º
à·ĥ à¶ŀ
à¶ļ à·Ģà¶»à¶«à¶ºà¶ļ
à·Ļ à·ĺ
à·Ħ à¶Ńà¶»à·Ģ
Ġà¶ħ à¶Ľ
Ġà¶ħ à·ĥà¶»à¶±
à¶´ à¶±à·Ģ
à¶° à¶»à¶±
à¶¢ à·Ħ
à¶Ńà¶» à¶¢
à·Ģà¶» à¶ļà¶§
à·Ģà¶º à¶»
Ġà¶¶à¶½ à¶ºà¶½à¶Ń
à·Ĭ. âĢĻ
à¶ħ à¶´à¶±à¶ºà¶±
à·Ĩ à¶»à¶½
à¶Ķ à¶Ń
ĠS o
à¶»à¶° à¶±
à¶Ŀ à¶«à¶ļà¶º
ĠT ech
and id
ad get
Ġof fer
ĠF rom
ĠF riend
ir it
un es
Ġà·ħà¶¸à¶º à·Ģ
Ġl ed
Ġl ower
à·ļ.. !
à¶»à·Ģà¶½ à¶´
Ġ13 1
Ġ13 6
ĠU r
à¶±à·Ģà¶Ń à¶¸
Ġà¶¸à·ħ à¶ľà¶¸
ill ing
Ġun it
In t
Ġres pect
Ġï »¿
ĠAm azon
Ġgr ound
ÙĨ Ø¨Ùĩ
Ġco ach
Ġfeat ure
Cont inue
du ino
Ġgirl s
ategor ized
? âĢĻâĢĻ
S ee
[ /
p apers
s ec
è ¿
à¶» à¶±à¶ļ
à·Ķ âĢ¦.
à·ĥ à¶®
à·ĥ à·Ħà·ĥ
Ġà¶´ à¶ºà¶ļ
Ġà¶¸ à·Ģà¶½
Ġà¶ħ à¶ºà¶±à¶¸
à¶« à¶ľà¶±
à¶Ĥ .....
Ġà¶ĩ à¶½à¶ļ
Ġà¶Ĩ à·Ģà¶±à¶¸
à¶±à·Ģ à¶ļà¶º
à¶±à·Ģ à¶§à¶¯
à·Ģà¶» à¶ĳà¶½
Ġà¶ħà¶± à¶½
Ġà¶¸à·Ħ à¶¢
à¶»à¶ļ à¶ľ
à·Ĭ, âĢĿ
Ġà¶ħà¶½ à·Ħà¶ļ
à·ĥà¶ļ à¶½
à·ĥà¶ļ à·Ģà¶»
or ing
à¶ļà¶½ à·Ģ
à¶Ĵ à¶±
à¶Ĵ à¶©
à¶ºà¶ļà¶§ à·Ģà¶Ń
à¶ļà¶ºà¶± à¶§
ĠM achine
ĠT HE
Ġw oman
Ġb ig
Ġd eb
ol y
Ġà¶ĩà¶» à¶ľà¶±
ĠW imal
Ġà¶ļà¶»à¶ľà¶Ń à·Ħ
Ġà¶ĭà¶¹ à¶§à¶Ń
Ġn ear
à¶°à¶ļ à·Ģà¶½
à·Ĥà¶ºà¶ļ à¶¸
Ġà¶±à¶» à¶¶à¶±
Ġ14 6
av er
à·Ħà¶¬ à·Ģà¶¸
ph ab
ey a
ĠEn d
Ġcon c
Ġch at
ãģ ¾
In ternet
Ġal ways
Ġ* /
ĠTr ading
Ġà¶¸à¶³ à¶ļà¶§
ict ures
reat ive
Ġbet ter
ĠGu ard
ĠFeat ure
Ġprogram ming
Ġchar acters
yd ro
Bl ack
ĠEp isode
ĠHost ing
ĠInst agram
ĠExplor er
wid th
A V
A b
C L
L K
P vt
Q W
S e
v an
Ġ icon
à· ³
Ġà¶ Ł
à¶± à¶¹
à·Ķ _
Ġà·Ģ à·ħà¶§
Ġà¶ħ à¶¶à¶½
Ġà¶¯ à¶ľà¶½
Ġà·Ħ à¶§à¶±
Ġà¶ī à¶¸à¶ļ
Ġà¶¢ à¶ºà¶½
à¶±à·Ģ à·Ħ
Ġà·Ģà¶± à¶ºà¶ļ
Ġà¶ħà¶Ń à¶ĩà¶»à¶½
à¶ºà¶Ń à¶ºà¶ļ
à·ĵ. ,
à¶»à·ĥ à¶ļà¶º
Ġà¶° à¶»à¶«
Ġà·ħ à¶¯
ĠC ivil
à¶¸à¶¯ à·ĥ
ĠP ack
Ġà·Ģà·ĥ à¶·
ĠD in
ĠB ig
Ġà¶īà¶³ à¶½à¶Ń
Ġd igital
em ents
Ġ16 2
Ġà¶¶à¶»à¶´à¶Ń à·ħà¶¸
à·Ĵ" ,
Ġà¶´à¶© à¶Ń
Ġà¶¢à¶±à¶ľ à·Ħà¶«
ĠPro duct
Ð¾ ÑĤ
Ġqu est
Ġà¶Ĩà·Ģà¶» à¶±à¶º
ĠPri me
à¥ Ģ
ham ma
âĸ ¬
aut y
ìĿ ¸
Ġexper ience
Eng lish
And roid
osp ital
ellig ence
( "
H istory
P er
S ec
Ñ Ħ
à·Ĵ à·Ĵ.
à¶± à¶¢
à·Ģ thumb
à¶Ń à¶½à·Ģ
à¶¸ à·ģà¶ļ
Ġà¶± à¶½à¶ºà¶ļ
à¶© à¶ºà¶Ń
à¶© à¶»à¶ºà¶§
Ġà¶ļà¶» à¶«à¶ºà¶§
à¶´à¶Ń à¶Ń
à¶½à¶ļ à¶ºà¶§
à¶ºà¶ľ à¶«à¶±à¶ļ
ĠA B
ĠA T
le ep
Ġp e
ĠP o
à¶ºà·Ģà¶» à¶§
à·ı.. -
Ġb reak
am i
os ph
ĠF eed
un n
ĠE th
à¶¸à·Ħ à¶¢à¶±à¶Ń
ĠO ld
Ġà¶¯à·Ħ à¶ºà¶º
im age
ĠV ictor
à¶ħà¶¸ à¶»à¶¯
iz ing
à·ĴâĢ¦ âĢĿ
Ġà¶ħà·Ģà¶ºà·Ģ à¶ºà¶±
Ġdes ktop
ĠRate Gossip
Ġchild ren
m es
z an
å º
Ġ q
Ġ ÑĤ
à¶Ń à¶ļà¶»à¶«à¶ºà¶ļ
à·Ħ à·Ģà¶Ń
Ġà¶¸ à·Ģà¶±à·Ģ
à¶¶ à·Ģà¶½
Ġà¶ļà¶» à·Ħà¶¸
à¶® à¶»à¶ºà¶±
à·ĬâĢĮ âĢĿ
à¶±à¶¸ à¶¯
à¶ºà¶¸ à¶ºà¶§
er gy
Ġ- >
Ġà¶»à¶¢ à¶ľà·Ħ
Ġà¶´à·ħ à¶±
Ġ19 02
ĠS em
ĠC ID
ĠA S
à¶¸à¶½ à¶ºà¶§
ĠP osted
ĠT O
Ġà¶ľà¶½ à¶¶
à¶Ńà¶§ à¶¯
ol ence
ac le
ĠK andy
Ġ16 4
ap ath
à® ¨
à¶§à¶ľ à¶±à¶º
à·ĬâĢ¦ âĢĿ
Ġà¶ĳà¶ļà¶ļà¶§ à·Ģà¶Ń
ĠÐ Ł
ĠUn icode
ĠQ ue
Ġam ong
ĠFr anc
arath ne
Ġreg ard
arn ing
ĠMin ister
Ġpartic ip
ĠDev ice
Ġà¶¸à·Ħà¶ľà¶¸ à·ĥ
Des cription
Ġpat tern
ìł ķ
ðŁĺĤ ðŁĺĤ
ilit ary
G e
J an
W ith
f ort
Ú ©
à¶ľ à·Ħà¶§
Ġà¶Ń à¶½à·Ģ
Ġà¶ĩ à·ħà¶ļ
à¶¢ à·Ģà¶»
Ġà¶Ĩ à·Ģà¶º
Ġà¶ĩà¶Ń à¶±
Ġà¶ĭ à¶½à¶¸
à·Ģà¶§ à¶±à¶ºà¶ļ
Ġ( -
à·Ĵà¶Ĥ à·Ļ
Ġà·Ģà¶½ à·Ħ
à¶ħ à¶ºà¶±
Ġà¶ħà¶» à¶½à¶ľ
Ġà¶Ńà¶» à¶´
Ġà¶´à·ħ à¶ļà¶½
à·Ĥà¶« à¶¯
Ġ" .
à¶´à¶ļ à¶ºà¶±
ĠC apt
Ġà¶ļà¶§ à¶§à¶¸
Ġc oll
ĠM emory
Ġp aste
Ġp rivate
Ġà·Ģà·ĥ à·Ģ
Ġà¶ĳà¶Ń à¶±à¶º
à¶ĭ à¶º
à¶ĭ à·ħ
ĠH all
ri age
ol ic
Ġà¶Ĩà·ĥ à·Ģà¶±à¶º
ĠW al
ĠW alk
Ġà·ĥà¶§à·Ħà¶± à¶ļà¶§
à·Ĥà¶± à¶ºà¶±
em e
Ġà¶¯à·Ħ à·Ħà¶Ń
Ġà¶ĭà¶» à¶ľà¶º
ut ing
Ġg old
Ġà¶±à¶» à¶´à¶Ń
Ġfor e
Ġà¶´à·Ħà¶½ à¶¸
à·ı.... "
à¶ħà·Ģ à¶°
Ġâ Ī
Ġcomp lete
ser ver
ãĢ Ģ
adi um
Ġcomm unity
Ġà¶ħà¶ľà¶½ à·Ģà¶Ń
Ġstud ent
Ġright s
à·ģà·Ģà¶ºà¶§ à¶¸
Ġgo ing
ĠChand r
Ġfr ont
Ġbel i
Âµ a
ĠBM W
à¶ºq à·Ħà¶º
Col ombo
Ġcann ot
irun ews
M r
f irst
p ose
r ate
Â ħ
Ë Į
à¶º à¶ľà¶º
à¶Ń à¶ľà¶Ń
à¶ļ à¶³à·Ģ
Ġà¶ļ à·Ģà¶½
à¶« à¶¸à¶ļ
Ġà¶ĩ à¶±à¶ľ
Ġà¶ī à¶¢
à¶· à·Ģà¶ºà¶§
à¶Ł à¶¯
Ġà¶ħà¶¯ à¶±à¶¸
Ġà¶ķ à¶¸à¶±
à·ı, ,,
or ph
at r
en ge
ĠC ourt
Ġà¶±à·Ģ à¶ľ
ĠA ge
Ġc ourse
ĠM A
ĠP eter
à¶«à¶ºà¶ļ à¶§à¶Ń
ĠT our
à·Ļà·Ĭ ...
Ġb ad
ĠG ener
ĠD ipl
ĠB O
ĠI mp
à¶łà¶» à¶§à¶¸
à¶»à¶«à¶ºà¶ļ à¶¯
ro t
ĠW rit
à¶¤ à·Ģ
ĠO ther
Ġà¶µ à¶½à¶ºà¶±
Ġà¶¶à¶»à¶´à¶Ń à¶½à¶ļà¶¸
Ġr isk
Ġà¶ĳà¶¶ à·ĥ
art s
if ier
Ġà¶Ńà¶ļ à·Ħà¶±
end ar
ph ant
à¶ª à¶Ń
Ġà¶īà¶»à¶« à¶¸à¶ļà¶§
Ġà¶´à¶½à¶ļ à·ħ
form er
à¶Į à¶§
gh an
rid e
âĢĮà·Ļ âĢĮ
oth ing
ĠSe ason
ĠCan ada
Ġpract ice
Ġmean ing
Ġïģ ¶
" ...
: (
l as
y an
Ġà¶¸ à·Ģà¶¯
Ġà¶¶ à¶¶à¶½
à¶© à¶ļà¶»à¶±à·Ģ
à¶° à¶±à¶ļ
à·Ģà¶» à·ĥ
Ġà¶¢à¶± à¶ļà·Ģ
Ġà¶ľà¶Ń à¶§
Ġà¶ķ à¶´à¶´
Ġà¶ħà·ĥ à¶¯
à·Ħà¶» à¶¹
ĠS oft
Ġà¶ľà¶¸à¶± à¶Ń
à·Ķ. )
Ġc ity
ĠM o
Ġp revious
ĠD eb
ĠI ll
Ġà¶¸à¶Ł à¶¯
ch e
ul f
Ġ16 3
Ġg ot
âĢĮ à·Ŀ
Ġà¶±à¶¸à¶ļ à¶ľ
ĠX XX
ĠSh a
Ġà¶ĭà¶ºà¶± à¶§
Ġà¶ľà¶¸à¶§ à¶¸
ann ing
Ġser vices
ĠCont act
ĠPr incip
Ġà¶»à¶Ńà¶± à·ĥ
Ġsub ject
ott om
ĠProf ile
Ġà·ĥà¶³à¶ļà¶© à¶´à·Ħà¶«
Ġwhit ening
1 15
3 20
J ohn
N B
R ep
[ [
ë ĮĢ
à·Ķ à·ĸ
à¶§ à¶§à¶Ń
à¶§ à¶±à¶ºà¶ļ
Ġà¶¯ à·ĥà¶¯
à¶ºà¶± à¶´à¶Ń
Ġ( âĢĺ
à·Ģà·ĥ à¶§à¶¸
à¶ħ à·Ģà¶±
Ġà¶§ à¶ļà¶»
Ġà¶§ à¶ļà¶»à¶±
à¶½à¶ļ à·Ģà¶»à¶º
Ġà¶¸à¶Ń à¶ºà¶ļà¶§
Ġà¶ļà¶Ń à¶¸
à·Ħà¶½ à¶¶
an es
à·Ĩ à¶½à¶º
Ġà¶ķ à¶ļà¶Ń
à¶±à·ĥ à¶º
Ġà¶ħà·ĥ à·Ħà¶±
ĠS I
à¶°à¶± à¶´à¶Ń
à¶Ĩ à¶§
Ġs n
Ġc lo
ĠM ain
ĠP rom
ĠG R
ĠR s
ad s
Ġm iss
Ġà¶ĳà¶´ à¶¸à¶«à¶º
Ġd a
Ġd u
Ġd og
os it
ĠF reedom
ag ed
à¶¸à·Ħ à¶´
à¶¸à·Ħ à¶¶
à¶±à¶ºà¶± à¶º
Ġn amed
ut y
Ġ14 4
Ġ14 9
Ġà¶»à¶Ł à¶¸
Ġk eep
ĠSh ort
ãĥ ³
ĠBl ock
Ġdes cri
gr ade
Ġsec urity
ìĿ ĺ
ĠProf essional
ĠÐ¿ ÑĢ
ĠEconom ic
tain ment
ĠDig est
ĠNamib ia
A p
G H
M ahinda
R ed
l ar
n n
y ll
Ã ¥
à ²
æ Ī
à¶± à¶«
à·Ļ `
à¶½ à¶ļà¶»à¶«à¶º
Ġà·Ģ à¶§à¶±
à¶´ à¶ļà¶»à¶±
à·ľ "
à¶¶ à¶»à¶±
Ġà¶¶ à·ħà¶´
à¶© à¶¸à¶º
à·ĸ ÂŃ
Ġà·ģ à·Ģ
à¶ħ à¶»à·Ģ
à¶ħ à·Ħà¶¸
à¶ħ à¶ľà·Ģ
ar p
à¶Ķ à¶¸
à¶Ĵ à·ĥ
à¶¯à¶½ à¶¯
ĠâĢĺ âĢĻ
à¶ī à¶Ł
Ġà¶ļà¶»à¶±à·Ģ à¶º
à·ħà¶¹ à¶ľ
Ġà¶±à¶ľ à¶±à·Ģ
Ġt v
Ġà¶»à·ĥ à¶¶à¶»
ĠL G
ĠG T
à¶ļà·ĥ à·Ħ
ĠD am
ĠH as
ĠN O
ro duction
ip le
Ġà¶ľà·ĥ à¶±à·Ģ
ag ing
Ġl ock
Ġ15 3
Ġà¶Ĩà¶¯à¶»à¶º à¶º
Ġg row
Ġ... "
ok u
ast ic
ĠUn it
Ð° Ð½
ens ive
âĢ¦âĢ¦ âĢ¦
we erawansa
à¶Ńà¶· à¶¯
Ġpr incip
pr int
Ġext ension
imal weerawansa
Ġdet ail
Ġep isode
merc ial
âĸ¬ âĸ¬
J P
M ay
d own
g g
p df
w imalweerawansa
· º
Â §
æ ī
Ġ ..........
à¶Ń à¶´à¶±
à¶ľ à¶ł
à¶´ à¶ļà¶½
Ġà¶± à¶»à·ĥ
Ġà¶ľ à¶§
Ġà¶ľ à¶¸à¶Ń
à¶¶ à·ħà¶ļ
à¶¶ à¶¹à¶»
Ġà¶ĩ à¶±à¶ļ
Ġà¶ĩ à¶½à¶§
Ġà¶ī à·ħ
à¶Ńà¶» à¶«
à¶Ńà¶» à¶´à¶§
à¶ļà¶» à·Ģà¶½
à·Ĭ, "
Ġà¶¸à¶ľ à¶ļà¶§
Ġà¶¸à¶Ń à¶Ń
à¶ļà¶§ à¶½
Ġà·Ħà¶» à¶ºà¶±
or row
ĠC ore
à¶»à¶´ à¶½
Ġc am
Ġà¶¡ à¶Ń
à¶¶à¶½ à¶ľ
Ġa ction
Ġt en
Ġt arget
Ġà¶»à·ĥ à¶ºà¶±
Ġà·Ģà·ĥ à¶¸à¶§
à¶ĭ à¶´à·ĥ
Ġà¶ħà¶ľ à¶»
ĠR o
ĠI r
ĠN VQ
ĠF un
ĠF air
19 20
Ġ18 83
Ġto ge
Ġà¶±à¶» à¶¹à¶½
à·ĥà·Ģ à·Ģà¶½à¶§
Ġr ange
Ġà¶¯à¶© à¶¸à·ĥ
ord s
à¶¸à¶´ à¶¯à¶º
ign ed
à·ļ" ,
enc er
à¶½à¶Ł à¶§
Ġ300 00
Ġcomp lex
à¶Ī à¶±
ĠDe lete
Ġterm s
Ġinv est
oz illa
aria ble
åľ °
emat ics
Ġtoge ther
1 30
T L
v is
Â ²
à·ı _
à·Ħ à·Ĩ
à·Ħ à¶»à·ĥ
Ġà·ĥ à¶ļà¶ł
Ġà·Ħ à¶¶à¶ļ
Ġà¶ľ à¶ł
à·ħ à¶«à¶º
Ġà¶º à¶§à¶¸
à·Ĵ. ........
Ġà¶Ķ à¶ºà¶º
à¶Ńà¶» à·Ģà¶»à¶º
à·ĥà¶º à·Ģ
Ġà¶´à¶¸à¶« à·Ģ
Ġ3 40
ĠP R
ĠT able
Ġà¶¸à¶» à¶ľ
ĠI M
el i
19 49
ĠW edi
ir is
Ġà¶ĩà¶½ à¶´
Ġ16 6
Ġ[ ...]
Ġ14 7
Ġ17 7
à·ģà¶±à¶ºà¶ļ à¶¯
ly mp
inh a
Ġà¶īà¶»à¶« à¶¸à¶©
Ġi Pad
Ġ400 00
à¶¸à·Ħà¶» à¶¢
Ġà® ħ
orn ing
Ġà¶¹ à·Ħ
ĠBuddh ism
Ġlet ter
ugg est
OSS IP
D B
N E
Ġ à·Ķ
à¶± à¶ľà¶Ńà¶º
à¶¸ à·Ĩ
à·Ħ à¶·
Ġà¶ħ à¶§à¶º
à¶© à¶ºà¶½
à¶ł à¶ľ
Ġà·Ģà¶± à¶łà¶»
Ġà·ĥà¶³ à¶½
à¶ħ à¶ºà¶»
à·Ĩ à¶©
à¶Ńà¶ļ à·Ģ
Ġc ut
Ġc lear
Ġc aus
Ġp in
ĠP lease
ĠP sych
Ġf il
Ġb oot
Ġb irth
Ġà¶´à¶½ à¶ºà¶½
ĠD ist
Ġm aster
Ġd est
ĠH em
à·Ĵ.. -
19 30
Ġ18 5
Ġ18 89
Ġl ik
Ġr ain
Ġv on
Ġà·ĥà¶¶ à¶Ń
ĠCh am
Ġ! âĢĿ
Ġà¶į à¶¯
ust rial
ĠTh omas
ĠComm unic
IV E
ĠTe levision
pert y
ĠArch itect
aly t
ĠLat in
Ġsmart phone
ĠRav aya
Ġà¶ħà¶ºà·Ħ à¶´à¶Ńà¶ļ
C A
N et
S K
g or
j oy
r t
r at
t age
u i
w ith
Ù Ĥ
å ¯
Ġ Âł
Ġ energy
à·Ķ ......
à¶ļ à·ĥà¶½
à·ļ ]
à·ļ !!
à¶½ à·ĥà¶§
Ġà·Ģ à·Ħà¶»à¶±
Ġà¶´ à¶¯à¶»
à¶´ à·ħà¶Ń
Ġà·Ħ à¶½à¶ļ
Ġà¶Ń à¶»à¶ļ
Ġà¶ĳ à¶½à¶±
à¶© à¶¤
à¶ºà¶ļ à·Ģà¶±
à¶° à·Ģà¶¯
à·Ĥ à¶»à·Ģà¶½
Ġà¶ĳà¶ļ à¶¸à¶Ń
à¶ł à¶ĭà¶´
à·Ģà¶ļ à·ħ
Ġà¶ļà¶½ à¶±à¶º
à¶»à·Ģ à¶ľà¶±
Ġà¶ħà¶© à¶ļà¶§à¶Ń
Ġà·Ģà·ĥà¶» à·Ģà¶½à¶¯
à¶ī à·Ĥ
à¶Ŀ à¶Ń
Ġa ut
Ġa uto
Ġt aken
Ġw ife
Ġf eed
Ġà¶īà·Ģà¶Ń à¶½
il ak
Ġd one
et r
19 59
19 53
à¶½à¶ľ à·ĥ
à¶Ńà¶ºà¶§ à¶º
ig ation
ut es
ex ual
à¶´à·ħ à¶ľ
ce ed
ĠĠĠĠĠĠĠĠ ĠĠĠĠĠĠ
Ġà·Ģà¶łà¶±à¶º à¶º
à·ıâĢ¦ âĢ¦
ell s
Ġcon vert
à·ļ" .
23 4
Ġsh oot
ond er
res h
anc ial
Ġplay ing
Ġme ans
ĠAss istant
ĠTw o
Ġmat rices
Ġdisc uss
ĠIsland s
Ġvari ous
ĠMus lim
ĠUnc ategorized
Amer ican
A ustral
B I
K E
a q
s à¶»
å ¼
Ġ é
à·Ĭ ...........
à·Ĵ âĢļ
à¶± à¶Ńà¶»
à¶º à¶´à¶½
à·ĥ à·Ħà¶½
à¶¯ à¶¸à¶½
à·ģ à·Ħ
Ġà¶º à¶§à¶º
Ġà¶ĩ à¶ľà¶½
Ġà¶ĩ à·ħà¶§
Ġà¶¢ à¶ºà¶´
Ġà¶ļà·ħ à¶¸
à¶Ł à¶»
Ġà¶· à¶ľà·Ģ
à¶ļà¶§ à¶ļ
Ġà¶ķ à¶¸à¶½
Ġà¶ĭà¶´ à¶·
Ġà¶ħà·ĥ à¶±à·Ģ
Ġà¶ļà¶§à¶º à¶Ń
à¶Ķ à·Ĩ
Ġ3 70
à¶ĩ à¶¯à·Ħ
ĠA h
à¶»à¶½ à¶½
ĠM ary
Ġp ut
ĠL ast
ĠL ong
ĠB a
Ġh osted
ĠF older
Ġà¶ļà¶® à¶±à¶ºà¶ļ
à·ļ... !
à¶°à¶ļ à¶¸à¶ļ
Ġà¶Ľ à¶½
ia b
Ġà¶Ĩà¶¯à¶»à¶º à¶Ń
ĠU se
Ġà·Ħà·ĥ à¶½à¶ļ
à® £
ab ly
ant ic
Ġà¶¢à¶±à¶ľ à·Ħà¶±à¶ºà¶§
Ġex pect
ï¿½ ...
ĠCl oud
196 3
Ġsm s
Ġfl ash
ĠChe mistry
l ike
o à¶ľ
t ype
Ã £
å Į
à·ı //
à·ı ..........
à¶º à¶´à·ĥ
à¶º à¶¶à¶«
à¶Ń à¶¶à·Ģ
à¶ľ à¶«à¶ºà¶ļ
à¶© à¶ļà¶»à¶½
à·ģ à¶«à¶ºà¶±
Ġà·ĥà¶¸ à¶łà¶Ń
à¶ł à¶½à·Ģ
Ġà¶ħà¶± à¶Ńà¶»
Ġà¶ħà¶Ńà¶» à¶¸à¶±
Ġà¶ł à¶»à¶´
Ġà¶»à¶§ à¶¯
Ġà¶īà¶¯ à¶»
Ġà¶´à¶¸à¶« à¶¸
à¶»à·Ħ à¶³
à¶ĩ à·ĥà¶§
Ġ4 80
ĠM oon
ing he
ĠP ixel
à¶Ŀ à¶½
Ġa udio
ĠL ear
ĠD ocument
ĠI BM
el er
Ġà¶Ńà¶»à¶ľ à¶ºà¶±
19 55
ap pen
à¶´à·ħ à·Ģà¶½à¶§
à·ĥà¶¯ à·Ħ
Ġ14 1
ak i
ce an
av en
ĠĠĠĠĠĠĠĠ ĠĠĠĠĠĠĠ
ain a
ain er
Ġe ither
à¶¯à·Ħ à·Ģà¶½
Ġch annel
à¶´à·ĥà¶§ à·Ħà¶±
ĠRev olution
IC E
ĠUS D
:: ::
ĠTrans l
Ġfilm s
ĠSur vey
ĠEnter tainment
book s
Ġà·Ģà·ĥà¶Ł à¶ºà¶§
ĠDep artment
ĠÐ½ Ð°
G M
m at
p re
Å į
Ġ Å
Ġ ip
Ġ ess
à·Ģ à¶¥à¶º
à·Ģ à¶³à¶§
à¶ļ à·Ģà¶½à¶Ń
à¶½ à¶ºà¶±à¶º
à¶§ à·Ħà¶±
à¶¯ à¶ľà¶½
à·Ĳ âĢ¦.
à¶ľ à·ĥà¶ļ
Ġà¶Ń à¶¸à¶Ń
à·Ŀ ......
Ġà¶» à¶´
à¶· à¶±à¶º
à¶Ľ à¶±à¶ºà¶±
à·Ĥà¶º à·Ģ
Ġà¶° à¶¢à¶ºà¶ļ
à·ĥà¶½ à¶ºà¶§
ĠS us
Ġà¶´à·Ħ à¶¯à¶±
ĠC E
ĠC are
ĠC ustom
Ġà¶¯à·Ģà·ĥ à¶Ń
Ġs ociety
Ġs ometimes
ĠM I
Ġp rim
ĠP ers
ĠT erm
ĠB ad
à·Ģà¶ºà¶± à¶§
à¶Ĭ à¶ºà¶§
Ġà¶Ĩà¶¯à¶» à¶±
Ġn umbers
ĠK at
Ġ16 7
à¶ķ à¶±à¶¸
ab il
ath unga
à·ĬâĢ¦ âĢ¦
Ġà¶Ĩà¶ļà¶» à¶ºà¶§
Ġe ka
Ġk ar
Ġà¶¯à¶« à¶ľ
ust ain
Ðµ Ð´
II T
ĠApp s
ĠSer ial
Ġà¶īà¶ľà¶± à¶ľà¶±
Ġac cept
ÂłÂłÂłÂł ÂłÂłÂłÂł
epend ence
B i
D R
H TML
L a
S er
U L
] âĢĿ
c ar
g oo
r ound
à·ı âĢĺâĢĺ
à¶º à¶¥
à¶» à¶½à¶ļ
à¶¸ à¶»à¶¯
à¶¸ à¶»à¶«à¶ºà¶§
à·ĥ à¶¶à¶Ń
à¶¯ à¶¢à¶±à¶ļà¶º
Ġà¶´ à·Ģà¶§
à·ĬâĢį .
à·ľ âĢĻ
Ġà¶¶ à¶»à¶Ń
à¶° à¶¢
Ġà¶» à·Ĩ
à·Ģà¶± à¶ľà¶½
Ġà¶Ķ à¶ºà¶½
à·Ģà¶½ à·ĥ
Ġà¶±à¶¸ à¶¸
à¶Ł à¶Ń
Ġà¶ħà¶º à¶©
à¶ħ à¶ºà·Ħà¶´à¶Ń
Ġà¶§ à·ĥ
à¶§à¶º à¶¸à¶ļ
à·ĥà¶» à¶½à·Ģ
Ġà¶ĭà¶´ à¶´à¶Ń
à¶Ľ à¶´
Ġà¶»à¶¢ à¶ļà·ħ
à·Ĥà¶« à¶ļ
Ġth ings
à¶Ĩ à¶Ńà¶»
à¶Ĩ à¶Ĩ
Ġs us
ion e
Ġt reat
Ġm ath
Ġ' ''
Ġd ouble
ĠN eg
Ġh old
Ġ18 73
à·ħà¶Ń à¶¯
à¶©à·ĥà¶§à·Ħà¶± à¶ļà¶¯
Ġà¶īà¶» à¶±à¶¸
à·ģà¶ºà¶§ à¶º
ĠO il
ĠK ul
Ġ14 2
Ġr ound
18 0
à¶«à¶ºà¶§ à¶Ń
Ġà¶¯à¶Ł à¶´à¶±
à·ĻâĢį à·ı
Ø§ Ø±
Ġhe art
ert y
ĠSc ript
ÂłÂł Âł
ĠPhot ography
Ġï ĥ
Ġà¶ļà¶¹ à¶º
Ġdef in
Ġrel ated
ĠGr and
ĠSystem s
Ġstr ong
ĠWe er
ĠAsh es
ĠKore a
arun aya
Ġdise ase
D on
E lect
I ON
L ED
S am
m o
n ew
p aper
u z
æ µ
à·Ģ à¶¢à¶º
à·ĵ âĢ¦.
Ġà¶¸ à¶¯à¶»
Ġà·Ħ à¶©à¶±
Ġà¶ľ à¶½à¶º
à·ģ à¶¶à¶±
à¶Ĥ !
à·ĸ /
Ġà¶Ĩ à¶±à¶º
Ġà¶ĳà¶ļ à¶ľà¶º
Ġà·ĥà¶¸ à¶»à¶¯
Ġà¶ĭ à¶»à·ĥ
à¶±à·Ģ à¶½à¶Ń
à·Ģà¶» à¶ºà¶ļà¶§
Ġà¶ļà¶»à¶± à¶Ń
à·Ģà¶½ à¶§à¶¸
à¶· à¶»à¶«à¶º
à¶¯à¶» à·Ģà¶½
à¶ºà¶Ń à·Ģ
à¶Ľ à¶«à¶ºà¶ļ
à¶»à·ĥ à¶Ń
Ġà·ħ à¶Ń
Ġà¶ľà¶¸à¶± à¶ļà¶¯
Ġà¶´à¶± à·Ħà¶§
à¶¶à¶½ à¶´à¶Ń
ing u
Ġt ech
à¶ºà·Ģà¶» à·Ģà¶½
ĠT v
ĠL icense
ĠB ody
Ġd atabase
ri a
ĠE PF
Ġà¶ĳà¶ºà¶§ à¶¯
Ġ15 9
Ġn ight
Ġà¶¢à¶½à¶º à¶º
ĠV I
à·Ļà¶Ĥ .
ĠJ oseph
Ġst ep
à·ıâĢĿ ,
à¶Ĭà¶§ à¶´à·ĥ
Ġà¶¶à¶»à¶´à¶Ńà·ħ à¶ļà¶¸
ĠEx per
pos ure
ĠAb out
ĠPay pal
Ġmemb ers
Ġfore ign
ghan istan
I X
M in
M ac
c an
j ust
Ġà¶ ª
à·Ģ à¶ŀ
à·ı à¶ĥ
à·Ķ âĢĻâĢĻ
à·Ħ à¶ļà·Ģ
à¶½ à¶¯à¶»
Ġà·ĥ à¶ºà¶ļ
à¶ľ à·ħ
Ġà¶¶ à¶§à¶¯
Ġà¶ĳ à·Ģà¶º
à¶© à¶ľà¶»
Ġà¶Ķ à¶ľ
Ġà¶ĭ à¶©à¶ļ
à¶¸à¶º à¶ľ
Ġà¶¢à¶± à¶¶à¶½
à¶ħ à¶¬
à¶½à¶ļ à¶§à¶¸
à¶ºà¶º à·Ģ
Ġà¶Ĭ à¶´
st on
à¶½à·Ģ à·ģà¶º
Ġp ers
Ġp ages
Ġf ish
ĠL ou
as ino
ĠB ell
Ġà¶Ŀ à¶«à¶Ń
ri an
ĠF IFA
ĠF edora
Ġà¶ºà¶§ à¶¯
à·ģà¶ļ à¶ºà¶§
Ġ18 64
à¶»à¶® à¶ºà¶ļ
à¶®à¶ļ à¶Ńà¶±
Ġl ic
ĠO F
Ġn ations
Ġ17 6
ĠJ un
ak s
ath i
Ġà¶»à¶Ł à¶¯à¶ļ
ah an
ly ing
Ġà¶»à¶ł à¶±à¶ºà¶§
ĠAn imation
ĠTh ere
Ġal though
Ġtr uth
ock et
Ġthumb nail
Ġà¶´à¶½à¶ļ à¶»à¶¸
ĠPl atform
Ġdis k
Ġà® ļ
Ġà¶Ĭà·ħ à¶¸à¶ļ
ĠGu ide
Ġmed ical
Ġà¶ļà¶¶à¶» à¶ľ
Ġpress ure
ĠChamp ionship
requ ency
ĠOrig inal
) âĢĿ
F M
J PG
O D
b les
m ond
o a
s ol
u ce
Ã º
Ù Ģ
Ġ ×
Ġ àª
à·ı ...........
à·Ķ âĢľ
Ġà¶ľ à¶½à¶§
à·ħ à¶¶à¶³
Ġà¶» à¶¶à¶±
à·Ĥ à¶»à¶ºà¶ļ
à¶¸à¶Ń à¶§
Ġà·Ģà¶½ à¶ļà¶±
à¶ħ à·Ģà¶§
Ġà¶¸à¶¸ à·Ģà¶Ń
Ġà¶Ńà¶» à·Ħà¶§
à·ĵ. [
Ġ3 30
ĠC am
Ġà·Ħà¶¯ à¶ľ
ÂŃ ÂŃ
Ġs ites
Ġ5 12
is ena
Ġp ublish
Ġp aper
ĠP i
à·Ģà¶»à¶«à¶º à¶º
Ġà¶ľà¶½ à¶´à¶½
ĠD as
à¶¢à¶±à¶º à¶º
Ġm enu
ĠH ans
Ġh irunews
ĠF ield
ro te
ot us
ch em
à¶Ĭ à¶½à¶ľà¶§
ĠO l
Ġà¶»à¶« à¶¶
Ġà¶īà·Ģà¶» à¶±
à·ıâĢį âĢį
Ġà¶ħà¶¹ à¶ľà¶¸
Ġan alysis
ĠTh arunaya
Ġà·ĥà¶Ńà¶» à¶¯
ãģ ª
ug s
à·Ħà¶Ńà¶» à·Ģà¶±
ankan ews
ĠAg riculture
ĠMed icine
ÂłĠÂłĠ ÂłĠÂłĠ
ĠGam age
ĠVid yal
à¶ħà¶±à·Ģ à·ģ
G P
W ik
] )
b ay
u ge
x i
Ġ ç
à·Ĭ à·ı
à·Ĭ //
à·Ģ à¶³à¶º
à¶» à¶±à¶Ń
à·ļ ??
à¶§ à¶ļà¶±
Ġà¶´ à¶¨
Ġà·ĥ à¶´à¶»
Ġà¶¸ à·ĥà¶±
Ġà¶ħ à¶ŀ
Ġà¶º à¶¯à¶¸
Ġà¶ĩ à¶«à¶º
Ġà¶Ĩ à·ĥà¶ļ
.. ,
à·Ģà¶Ń à·Ģ
à·Ģà¶Ń à¶ºà¶§
Ġà·ĥà·Ħ à·Ģ
à¶· à¶ļà¶Ń
Ġà·Ģà¶½ à¶ľà¶¸
in ated
in cess
er em
th es
Ġà¶° à¶±à¶ºà¶§
Ġà¶ķà¶± à¶Ńà¶»à¶¸
à¶Ńà¶ļ à¶Ń
Ġà¶ĳà¶± à·Ģà¶±à¶¸
al an
Ġ3 80
Ġs ep
Ġà·Ħà¶³ à¶±
ĠM all
ĠM irror
à¶ºà·Ģà·ĥ à¶º
om es
Ġa chi
Ġà¶Ĩà·Ģ à¶©à¶±
ĠR et
Ġà¶¸à¶» à¶±à¶º
ri ef
ĠN S
ĠN and
ol ly
à·Ĵ.. [
ĠW el
à·ħà¶³ à¶ľà¶±
ĠE C
ag g
Ġ15 6
iv a
ur b
à¶Ķà¶¶ à¶§à¶Ń
Ġà¶¸à¶»à¶« à·Ģ
Ġ17 2
ev a
ov ere
12 8
ĠÐ ·
Ġun its
à·Ģà¶³ à·Ģà¶Ń
Ġal ong
act ive
Ġtr avel
pl ic
à·ĻâĢį à·Ļ
uct ion
IC H
ĠSec ond
Ġdef eat
uri ya
Ġsl ow
Ġrequ ired
ĠDel hi
Off ice
ĠVidyal aya
b um
l an
p ass
y o
â Ļ
à·Ģ à¶¶à¶»
à¶¸ à¶±à¶ºà¶§
à¶½ à¶³à¶ľ
à¶¯ à¶ļà¶»à¶±
à¶« à¶Ńà¶¸
Ġà¶ľ à¶½à¶±à¶º
Ġà¶½ à·Ģà¶±
à¶Ĥ '
Ġà¶ĩ à¶´à¶ļ
à·Ĥ à¶ļà·Ģ
à·Ģà¶± à¶´à¶½
à¶ºà¶§ à¶ľ
à·Ģà¶º à·ĥà¶§
Ġ( ),
à·Ĵ, ,
Ġ19 04
Ġà¶´à¶¯ à·Ģà¶½
ĠS O
Ġà¶ľà¶« à¶¯
à¶ĩ à¶¶
ĠA fter
ĠP et
Ġt aking
ĠR os
ĠB on
à¶½à¶¯ à¶´
Ġh ari
ur ance
à¶ľà¶¸à¶º à¶º
ĠK ings
Ġ.. "
Ġà¶Ńà·Ħà¶± à¶¸à¶ļà¶§
Ġr ather
if orn
up p
qu est
Ġy oung
Ġà¶¢à¶±à¶ľ à·Ħà¶«à¶ºà¶ļ
ĠÐ ļ
ĠTh er
Ġcon cept
Ġtr ue
26 4
olog ies
ĠEd ition
Ġse en
Ġact ive
ĠReg ister
Ġbel ow
ĠCr ack
## ##
á¹ Ń
ĠRel ig
ĠAsian parent
ĠNAS A
overe ign
D VD
E l
G eneral
N ET
V ideos
f riend
n ame
p c
Î ·
à·Ĵ Âģ
à¶º à¶¶à·Ģ
à·ĥ à¶Ńà¶±
à¶¯ à·Ģà¶»à¶º
Ġà¶ļ à·Ģà¶½à¶¸
à¶ľ à·Ħà¶»
Ġà¶½ à¶´à¶ºà¶ļ
à¶° à¶«à¶º
à·ĸ âĢĿ
Ġà¶Ĩ à¶¬
à¶® à¶¯à¶ļ
Ġà¶´à·ĥ à¶Ł
Ġà¶§ à¶¯
Ġà¶ķ à¶±à¶Ń
Ġà¶Ĭ à¶Ńà¶½à¶º
à·Ĵ, "
Ġs i
Ġs en
Ġc ele
Ġà¶±à¶ľ à¶»à·Ģ
Ġp orn
ĠT R
à¶ļà·ĥ à·ħ
ĠD ark
ĠR iver
Ġm al
Ġd aily
ĠH it
ĠH ub
ĠF ore
Ġà¶ºà¶±à·Ģ à¶º
à¶¯à·Ģ à¶´
à¶»à¶ł à¶±à¶º
ĠW indow
ag i
ag ala
Ġl ength
Ġà¶Į à¶«
ut ta
Ġ13 4
10 3
Ġà¶ĸà·Ĥ à¶°à·Ģ
à¶ħà·Ģ à¶¶
Ðµ Ð¼
Ġwho le
Ġback up
Ġspec ific
Ġtyp es
çİ ĭ
J ul
P a
P art
a à¶±à¶º
m ost
é Ļ
Ġ ËĿ
à¶± à¶¯à¶»
à¶º à·ĥà¶§
Ġà¶± à¶ľà¶º
Ġà¶ī à¶»à¶±
Ġà¶Ĵ à·Ģà¶§à¶Ń
à¶Ńà¶» à¶ºà¶Ń
à·Ģà¶» à¶ºà¶º
à¶ĳ à¶ºà¶Ń
à¶ºà¶Ń à¶ļ
en iya
à·ĥà¶½ à¶¸à¶§
Ġ, ,,
ĠC M
ĠA ff
ĠM i
Ġp ackage
Ġa ff
Ġt im
Ġb ank
ĠG SP
as i
ĠD al
Ġm us
ĠB uddha
Ġà¶ĩà¶¯ à¶¶
ĠF re
à¶¸à¶ľ à¶ļ
Ġà¶Ī à¶½
19 31
19 57
ĠW ood
Ġ18 82
à¶ļà¶© à¶¯
Ġà¶´à¶« à·Ħ
Ġà¶Į à¶ľ
Ġà¶ĩà¶Ł à¶¸
à·ĥà·Ħ à¶ºà¶±
av iya
oc c
Ġà¶ĵ à·ģ
Ġà¶¸à¶»à¶«à¶º à¶º
Ġà·Ģà·ħ à¶ļà¶±
ast ers
à·Ĭ! "
Ġpl ant
Ġch arg
Ð¾ Ñģ
iy e
pl es
ult y
ern ame
Ġ189 8
Ġĉ Ġ
Ġac id
Ġhigh er
Ġà¶¸à·Ħà¶»à¶¢ à¶Ń
ĠProgram ming
Ġà¶ĭà¶¸à¶ľ à¶ļ
+ )
. ]
N C
S E
S l
V ol
Y A
b in
f ont
æ ´
æ Ķ
ë ¬
í Ľ
Ġ row
Ġ ...........
à·Ĭ +
à¶± à¶»à¶ºà¶±
à·ĥ à¶©
à·ĵ âĢĺ
à·ĵ .....
Ġà¶¶ à¶ľà·Ģà¶±
Ġà¶ĳ à·Ģà¶¸
à¶° à¶ļà¶Ń
Ġà¶Ĩ à¶¸à¶»
Ġà¶ĭ à¶ļà¶§à¶½
à¶±à·Ģ à¶©
à¶ł à¶¸à¶ļ
à·Ģà¶» à¶¢
à¶»à¶¸ à¶«à¶ļ
à¶«à¶º à¶¸
Ġà·ģ à¶½à¶±
Ġà¶¢à¶± à·ĥà¶±
Ġà¶ħà¶¯ à¶±
Ġà·Ģà¶» à¶§à¶º
Ġà¶īà¶¯ à·Ģ
à¶¨ à¶ļà¶¸
Ġà¶´à·Ħ à¶ļà¶»
Ġà¶īà·ĥ à¶¶
Ġà¶ļà¶© à¶ºà¶ļà¶§
ed ic
Ġà¶īà·Ħ à¶Ńà¶ļ
re ct
Ġp H
Ġo il
Ġà¶»à·ĥ à¶³
à¶»à·Ģà¶» à¶ºà¶±
ip e
ĠV an
à¶½à¶´ à¶§
ĠK n
ap y
ap ura
10 9
à¶±à·ĥà¶ļ à¶§à¶Ń
Ġà¶ĭà¶½ à¶´à¶±
ĠSt at
à¶©à¶´ à¶ºà¶§
à·ģà·Ģà¶½ à¶Ń
à¶§à¶ľ à·Ħà¶½
ud a
Ġà¶´à·Ģà¶» à¶¸
à·Ļ.. "
à·ı! "
ĠÐ ł
Ġà¶ĭà¶¸ à¶Ł
Ġcl oud
Ð¸ Ð½
Ġà¶ĭà¶¶ à¶½à¶§
ĠBr and
Ġcap s
Ġà¶ĭà¶¶à¶½ à¶ľ
ĠBro adcast
æľ ¬
Ġresp ons
uil t
2 20
A h
B BC
M od
O P
d s
k o
v ing
è Ģ
Ġ à·Ĳ
à¶± à¶±à¶§
à¶º à¶¶à¶½
à¶» à·ħà¶ļ
à·ĵ ).
à¶ľ à¶ľà¶±
à·ħ à¶»
Ġà¶Ĩ à¶ľà¶¸à¶º
Ġà·ĥà¶¸ à·Ħà¶±
à·Ĭ. âĢĻâĢĻ
Ġ2 18
à¶ĳ à¶Ńà¶±à¶¯
Ġà¶¯à¶» à¶½
Ġà¶Ĭ à¶ºà¶ļ
Ġà¶° à·Ģ
à¶±à¶ºà¶ļ à¶º
Ġà¶ĭà¶¯ à¶´
ar ing
Ġà¶Ĩà¶« à¶©
Ġ3 25
Ġà¶ļà¶© à·Ģà¶½à¶§
it iya
Ġc ook
Ġp lease
à¶Ŀ à¶§à¶ļà¶º
ou ter
Ġà¶ľà¶½ à·Ģà¶±à·Ģ
ĠB achelor
ĠF ast
Ġà¶Ĩà·ĥ à¶±à·Ģà¶½
ĠW ash
Ġ18 87
Ġà¶ħà¶¸à¶Ń à¶º
Ġà¶Ĩà¶ºà¶Ńà¶±à¶º à¶Ń
Ġà·Ħà¶Ńà¶» à·Ħà¶¸
Ġr adio
Ġfor um
à¶ľà¶« à¶±à¶ºà¶§
Ġ! ,
ord ers
à·ĴâĢĿ ,
ĠAn th
ĠAn ur
à·Ĵ! "
à·ĥà¶»à·Ħ à¶§à¶Ń
24 0
In ter
Ġà¶ħà·Ģà¶± à¶Ńà·Ģ
ug h
Ġà¶Ńà¶« à¶¶
Ġph ysics
ĠEx am
ert ific
Ġim pro
38 4
Ġz oom
ĠØ ª
|| &
ĠMy SQL
ĠSm ith
Ġwrit er
ĠKal aya
Ġfriend s
ĠGall ery
" (
C PU
L TTE
S o
S oft
S outh
b ur
f ree
i ro
s el
à °
Ġà¶ Ĥ
à¶± à¶±à¶ºà¶ļ
à·Ģ à·ģà¶ļ
à·ı ................
à¶º à¶Ńà¶±à¶ºà¶ļ
à¶» d
à¶¸ à¶´à¶Ń
à·ĥ à·Ģà¶»
à¶½ à·Ħà¶§
à¶§ à¶¶à¶»
Ġà¶ħ à¶ļà·Ģ
Ġà¶± à¶½à¶º
Ġà¶± à·ħà¶º
Ġà¶ĳ à¶Ńà¶»
à·ħ à¶³à·Ģ
Ġà¶½ à¶»
Ġà¶½ oà¶ļ
Ġà¶ĩ à¶¯à¶ļ
Ġà¶» à·Ħà¶¸
à¶¢ à¶¸à¶±
à¶ł à¶«
Ġà¶´à¶» à¶¯à¶±
à·Ĭ. //
à¶¹ à¶ļà¶»
Ġà¶´à¶Ń à¶´
à¶ľà¶¸ à¶«
âĢĿ âĢĻ
ĠS qu
ĠS ug
ĠC V
à¶¶à¶» à¶´à¶Ńà¶½
Ġthe me
ĠG OSSIP
as ia
ĠD en
il ly
ĠI l
ĠF e
19 51
Ġ18 76
Ġ15 1
ĠO xford
!! !!!
ig en
Ġà·Ħà¶¬ à¶´à¶§
av ior
up right
à·Ĭ' ,
à¶§à¶´à¶Ń à¶§
ĠAr thur
Ġà·ĥà¶Ńà¶» à·Ģà¶»à¶¸
Ġâ ĸ
Ġus ers
Ġ45 00
ĠâĢĮ âĢĮ
artic le
oy a
Ġpr ice
af ety
Ġac adem
Ð² Ð°
æĸ ĩ
ĠDo ctor
Ġà·ĥà·Ħà¶łà¶» à¶ºà¶±
f ile
s up
Â ª
Ï ĥ
é ĥ
à·ĥ à·Ģà¶½à¶¯
à¶ļ à¶±à¶ºà¶ļ
à¶ļ à¶Ńà¶¸
à¶ļ à¶ļà¶»à¶«
à·ļ [
à¶½ à¶±à¶¸
à¶´ à¶½à¶±
Ġà¶ļà¶» à·Ħ
à·Ĥ à·Ģà¶½à¶¯
Ġà¶¢ à¶ļà¶»
Ġà·ĥà¶¸ à¶»à¶«
à·ı. âĢĺ
Ġà¶ļà¶»à¶± à¶¸
à·Ģà¶½ à¶½
Ġà¶¢à¶± à·Ħ
Ġà¶´à¶Ń à·ħ
à¶±à¶ļ à¶§à¶Ń
Ġà¶´à·ħ à¶Ł
Ġà¶Ĩà¶¯ à¶ºà¶¸
ic ian
Ġà¶¯à·Ģà·ĥ à¶ļà¶¸
it is
Ġs a
à¶¶à¶½ à·Ģà¶Ń
ĠM ount
à·Ļ. )
Ġf av
Ġf ather
ĠL iyan
ĠB ang
ĠH awk
ac news
ĠF U
ĠF all
ĠF ixer
et ooth
ir athna
Ġ18 99
Ġ18 84
ip er
ĠO ur
ĠV oice
ĠU V
ĠJ ac
Ġà¶µ à¶º
Ġà¶¯à·ĥ à·Ģà¶±
Ġà¶¶à¶»à¶´à¶Ń à·ħà¶º
à¶¯à¶»à¶º à¶ľ
ant asy
end ra
à·ĶâĢį à·Ļ
Ġun iversity
Ġle ast
âĨ Ĳ
PA C
Cl ass
Ġà¶ľà¶¢ à¶¸à¶±
ĠGam ini
idd en
dd dd
uf act
ĠHy per
Ġreach ed
A v
P ost
h o
h inia
i Ã³n
m ag
è ®
à·Ĭ =
à¶± à¶Ĵà¶¸à¶§
à·Ģ à·Ħà¶»
à¶º à¶»à¶«
à¶¸ à¶½à¶±
à¶ļ à¶¡
à¶½ à¶Ńà¶±
à¶½ à¶ļà¶»à¶«
Ġà¶ļ à·ĥà¶±
Ġà¶¸ à¶½à¶¸
Ġà¶Ń à¶»à¶«
Ġà¶» à¶±à·Ģ
Ġà¶Ĩ à·Ģà¶ļ
Ġà¶Ĩ à¶łà¶»
Ġà¶¢ à¶½à¶ļ
à·Ģà¶» à¶±à¶ºà¶§
à¶· à·Ģà¶ºà¶±
Ġ2 12
à¶ĳ à·ħà·Ģ
Ġà¶ķ à·Ĥ
Ġà¶»à¶¢ à¶ºà¶º
à¶»à·ĥ à¶¯
Ġà·Ģà¶© à¶¯
à·Ĥà¶« à·ģ
ĠS ym
ĠC oll
ĠC amera
Ġà¶ļà·Ģ à¶ł
à¶½à·Ģ à¶ľ
Ġo s
ĠT rophy
à·Ļà·Ĭ ....
Ġf uture
as uma
ĠR est
ĠR oot
Ġd ate
Ġà¶´à¶§ à¶ºà¶§
Ġh alf
ĠF act
à·Ĭ.. ?
Ġ18 61
ĠE ss
ch o
à¶Ĭ à·Ģ
im um
Ġà¶ĭà¶´à¶Ń à¶§
ab les
Ġà¶½à¶Ł à¶º
aw ala
Ġà¶»à¶¢à¶ºà¶§ à¶Ń
Ġà¶ĸà·Ĥà¶° à·Ģà¶½
Ġà·ĥà¶»à¶« à¶´
vi ews
Ġpl asma
Ġâ ĺ
Ġà¶ļà¶¶ à¶½à¶ļ
anc ies
ĠDe ath
Ġtw itter
ĠPhotos Hiru
Ġmat ter
Ġà¶ĭà¶·à¶º à¶¢
ĠMad h
Ġmonth s
clop edia
3 000
p in
w ell
ĉ ĠĠĠ
à¶½ à·Ħà¶ļà¶§
à¶§ à¶ļà¶»
à¶¯ à¶¶à¶»
à¶ľ à¶¶à¶©
à¶´ à¶±à¶¸
à·ľ à·Ļ
Ġà¶ľ à¶³à¶º
Ġà¶¶ à¶¸à¶±
à¶Ĥ âĢ¦
à¶° à¶§
à·Ģà¶» à¶±à¶ºà¶ļ
à¶® à¶ºà¶Ń
à¶ħ à¶¸à¶±
à¶ĳ à¶Ńà¶»à¶¸
th al
Ġà¶ħà¶½ à¶ºà¶ļ
Ġà¶ħà·ĥ à·Ħà¶±à¶ºà¶§
à¶°à¶± à·Ģà¶Ń
ed a
Ġà¶±à·Ģ à¶ºà¶§
ĠA R
Ġs oft
Ġs even
ĠM C
à¶¡ à¶±à¶ºà¶ļ
à¶»à¶¢ à·Ģà¶»
ĠG a
Ġm ap
Ġm ax
ĠB oy
ĠB uild
ĠI F
ĠH on
ĠH is
19 00
Ġl ate
âĢĭ )
ĠK han
à¶ľà¶«à¶ļ à¶ºà¶ļà¶§
Ġà¶¯à·ĥ à¶ļà¶º
Ġr oulette
Ġà¶ļà¶»à·Ģ à¶´
Ġst ore
Ġà¶Ĩà¶ļà¶» à¶ºà¶ļ
ĠCom edy
à·ıâĢį à·Ļ
ail er
ĠAr duino
Ðµ Ð½Ð¸
Ġapp oint
Ð½ Ð¾
à¶ħà·Ħ à·Ģà¶½
???? ??
ĠCon ference
Ġform s
Un iversity
au hinia
ĠAct iv
Ġrequ ire
Ġstart ed
Ġgener ally
Ġwid th
kn own
A E
M X
b eat
c ore
i as
m b
r in
Ã Ĩ
à¶± à¶ĳà¶±
Ġà¶ľ à¶»à¶±
à¶¶ à¶±à¶º
à¶¶ à¶ł
Ġà¶Ĩ à·Ħà¶»
à¶ł à¶»à¶ļà¶½
à·Ģà¶½ à¶»
Ġà¶±à¶¸ à¶½
à¶Ł à¶«
Ġà¶· à¶½
Ġà¶»à¶§ à¶ļà¶§à¶¸
à¶ĳ à¶¶à¶³
Ġà¶»à¶¢ à¶ºà¶¯
à¶»à·ĥ à¶ļà¶ºà¶ļ
Ġà¶ħà·ĥ à·Ģ
Ġà¶ħà·ĥ à·Ħà¶±à¶ºà¶ļ
Ġà¶ķà¶± à¶½
at re
à¶»à¶± à¶ºà¶±
Ġà¶´à¶¯ à¶ºà¶±
Ġ3 01
à¶¢à¶º à¶´
ĠA P
ĠA j
ĠA BC
ĠP iy
à¶§à·Ħ à¶¸
Ġa verage
ĠT alk
Ġd rop
ĠN Y
à¶µ à¶Ń
à¶´à¶½ à¶ľ
ĠF ollow
Ġà¶Ĩà¶ºà¶Ń à¶±à¶Ń
à¶¸à¶ľ à¶§
ro om
19 54
ĠW EB
à¶¤ à¶±
à¶¸à·Ħ à¶¢à¶±à¶º
à¶§à·Ģ à¶´
ĠV R
ĠV ac
Ġ14 3
Ġv an
Ġà¶ħà¶§ à·Ģà¶ļ
à¶§à¶ľ à·Ħ
Ġ27 5
ĠHiru Videos
ĠX box
Ġà¶ħà·ĥà¶¸ à¶¢
Ġsc ore
itt ed
Ġadd ed
ä¸ Ģ
erson al
ader ana
Ġsw itch
aug ht
Ġter rit
ĠAD SL
ĠCre ated
Ġ================ ================
, [
B uddh
S im
h r
Å ¡
ç Ľ
Ġ à·ĬâĢį
à¶º à¶ł
à¶ļ à¶ļà¶º
à·ļ //
Ġà·Ħ à¶´à¶½
Ġà¶º à¶¸à¶±
Ġà¶Ĩ à·ħ
.. !!
à¶ł à¶ļà¶ºà¶§
à¶½à¶ļ à¶Ń
à¶»à¶¯ à·Ħà·ĥà¶ļ
à¶»à¶« à·ĥ
Ġà¶¸à·Ħà¶Ń à¶ļ
à·ĥà¶» à¶ºà¶ļà¶§
Ġà¶© à¶ºà¶¸à¶±
à¶Ńà¶ļ à·ĥ
à¶Ķ à·Ĥ
à¶Ķ à¶»à¶½
it able
Ġs aw
Ġc ivil
ĠM ap
à¶´à¶¯ à¶±à¶¸
à¶°à¶±à¶º à¶§à¶Ń
ĠP icture
ou thern
ĠT atto
Ġw a
ĠL as
ĠG az
ĠD ub
ĠR oh
Ġm echan
Ġà¶ĭà¶© à¶»à¶§à¶§
Ġà¶Ŀ à¶±à·Ģ
Ġà¶Ńà¶± à·Ģà¶±
à¶»à¶® à¶¸à·Ģ
à¶ĳà¶ļ à¶´
ig ration
ĠK V
ĠK od
ap id
Ġà¶ħà¶³ à¶¶
Ġ17 3
ab a
oc uments
15 00
if ul
ph ot
se qu
ra it
ĠPh ysics
enc ed
Ġà·ĥà·ĥ à¶¯à¶±
Ġà·Ģà¶ºà¶¹ à¶¯
ĠWh o
ĠØ ¯
à·ļâĢį .
à¶¯à¶© à¶ºà¶¸
net ic
Ġbook s
Ġprocess or
ĠMod ern
Ġer ror
ïĢ ¼
adeep a
Ġcrypt oc
F X
O G
P re
b ody
f e
å ĵ
í Ļ
à·Ĭ ..........
Ġà·ĥ à¶§à·Ħ
à¶« à¶°
Ġà·Ħ à¶¸à¶ļ
Ġà¶ĩà¶Ń à¶ļ
à¶±à·Ģ à¶ºà¶ļ
Ġà·ĥà·Ħ à¶łà¶»à¶º
Ġà·ģ à¶´
à¶½à¶º à¶´
Ġà¶´à¶» à·ħ
Ġà¶Ķà·Ģ à¶¯à¶±
.... !
ar u
Ġà·ħ à¶¶
Ġà·ĥà¶¯ à¶¸
Ġc ulture
Ġp ast
Ġt raffic
Ġf ig
Ġà¶´à¶½ à·Ħ
ĠR oulette
Ġà¶ĳà¶´ à¶¸à¶±à¶ļ
Ġin flu
Ġh appen
ĠF ac
Ġà¶¯à¶¸ à¶´
Ġ18 32
Ġ20 21
Ġà¶¶à¶© à¶´
Ġn et
Ġn ature
ap ter
à¶ľà¶ºà¶§ à¶¸
Ġ17 96
Ġà¶ĭà¶ľ à·Ħà¶§à¶º
ĠÂ µ
ov a
Ġ23 5
ĠRe f
Ġde lete
ĠEn t
Ġà¶´à¶´ à¶©à¶¸
à¤ ¿
Ġà¶»à¶¯ à·ħà¶ºà¶±
ĠEd itor
Ġ189 1
ĠComm and
Ġdi ode
Sc reen
ĠSe a
ĠSir isena
ĠChrist ian
________ ________
ĠHind u
Ġà¶¯à·Ħà¶ħ à¶§à·Ģà¶±
Ã£ o
3 60
7 50
H igh
W ill
n ot
o T
p osh
w orld
z en
Ù Ĵ
ì Ľ
Ġ ri
à¶Ń à¶±à·Ģà¶½
à¶¸ à·Ģà¶¸
à·Ħ à¶ºà·Ģ
à¶§ à¶»à¶§à¶§
Ġà¶´ à¶®à¶ºà¶±
Ġà·ĥ à¶µà¶½à¶Ń
âĢ ³
Ġà¶¶ à¶ºà¶Ń
à·Ĥ à¶´à¶Ń
à·Ĥ à¶¨
Ġà¶ī à¶Ńà¶»à¶º
Ġà¶ĭ à¶½à·Ģ
à¶¸à¶§ à¶±
à¶´à¶Ń à·ħ
à¶ħ à¶Ńà¶»à¶¸
Ġà¶¸à¶Ń à¶¶
à·ĥà¶» à¶ľ
er ia
er ve
en na
al ism
ar ter
à·ĥà¶½ à¶ºà¶±
à¶´à¶ļ à·ħ
à¶½à¶±à¶º à¶§à¶Ń
Ġà¶ħà·Ħ à¶»à¶ļ
à¶Ĩ à·Ģà¶»
Ġp sych
Ġp onn
ĠP od
as ooriya
Ġm a
ĠB eng
ĠH ew
el es
à¶µ à¶¸
Ġh a
19 39
à¶Ĭ à·ħà¶ľà¶§
// "
Ġn a
Ġn ecess
Ġ? .
ak umara
ud o
Ġwh ose
14 5
end a
à¶´à¶¸ à¶«à¶º
Ðµ Ðº
à·Ļ? âĢĿ
Ph oto
St andard
word s
US E
à®ķ à®³
read y
Ġunder st
EN T
Ġrep ly
Ġcr ack
,,,, ,,,,
ĠShare Point
ĠOpt ion
ĠLat est
award hana
Ġes p
Ġà¶ħà¶§à¶´ à¶§
ĠÐ¾ Ð±
Open load
ĠBas ic
å¹ ´
Ġsens or
ĠJapan ese
ÙĢ ÙĢ
/ .
C OM
G reen
R NA
U M
å ±
à·Ĵ à·Ķ
à·ĬâĢį à·ĬâĢį
Ġà¶¯ à¶¸à¶¯
à¶© à¶¸à¶§
à¶© à·Ģà¶¸
à¶ºà¶ļ à·ħ
à·Ģà¶½ à¶ļà¶§
à¶ļà¶» à¶´à¶Ń
à·ļ. //
à¶· à¶»
à¶ħ à·Ĥ
Ġà¶ĭà¶´ à·ģ
Ġà¶Ńà¶¸ à¶ľ
à¶¢à¶± à¶»
à¶ºà·Ģ à¶±à¶º
à¶»à·Ħ à·Ģà·ĥ
à¶»à·Ħ à¶ºà¶ļà¶§
âĢĿ )
à¶ºà¶¯ à·ĥ
Ġà¶ºà¶¸ à¶´à¶½
Ġà¶ļà·Ģ à¶´
à¶Ĩ à¶Ńà¶½
Ġs and
ĠM as
à¶ľà¶ºà¶ļ à¶§à¶¸
Ġp ack
ĠP L
ĠT ri
Ġf und
Ġf ruit
Ġb at
ĠG PU
ĠG DP
ĠD NS
il er
à·Ģà¶ºà¶§ à¶º
Ġ18 71
Ġ18 81
à¶Ĭ à¶½à¶ľ
Ġà¶ľà·Ħ à¶´à¶±
à¶°à¶ļ à·Ģà¶½à¶§
ðŁĳ Ĺ
Ġà¶¯à·ĥ à¶¯à·Ħà·ĥà¶ļ
Ġà¶ħà¶ľà¶º à¶ºà¶ļ
ĠIn vest
Ġà·Ģà·Ħà¶½ à¶ºà¶ļ
Ġpro gress
à¶»à¶¸à¶ºà¶§ à¶º
ĠX ia
Ġj ud
Ġph ilosophy
Ġapp ly
33 3
ÑģÑĤ ÑĮ
ins on
Ġadd ition
ĠðŁĺ ī
Ġà¶īà¶ľà¶± à¶ľà¶Ń
ĠFr ance
à·Ģà¶Ł à¶±à¶ľ
Ġsign ific
Ġpos itive
onse ka
ĠCal iforn
ĠIV à·Ģà¶±
Ġ** *
ĠKore an
ê³ µ
à¶»da à·Ħ
B log
C al
R ec
Ä ĵ
à º
à¶± à¶Ĵà¶¸
à¶§ à·Ģà¶»à¶º
à¶¯ à¶ľà¶½à¶º
Ġà¶ļ à¶§à¶»
Ġà·ĥ à¶®
Ġà¶Ń à¶±à¶¸
à¶¶ à¶´à¶«
Ġà¶¶ à¶©à¶ļ
Ġà¶½ à¶©
à·ĸ à·ĸ
Ġà¶Ĩ à·ģà¶º
Ġà¶Ĩ à·Ĩ
à·Ģà¶½ à·Ģà¶½
Ġà¶ļà¶½ à·Ħà¶¸
Ġà¶· à¶ľ
à¶ħ à¶Ńà¶§
à¶§à¶Ń à¶Ń
à¶ĳ à¶ºà¶¯
Ġà¶ĳà¶ļà¶ļ à¶§à¶Ń
Ġà¶½à¶ļ à·Ĩ
at io
à·Ĳ. âĢĻ
ĠS arath
ĠS elf
à¶ī à¶ºà¶±
à·ĥà¶¸ à¶Ł
ĠA ut
Ġs al
Ġs ent
Ġà¶īà¶© à¶±
ĠT oy
ĠT ask
ĠL ank
ĠB ay
ĠH ero
ol i
ĠF uture
Ġà¶Ĩà¶ľà¶¸ à¶±à¶ºà¶Ń
19 17
Ġà¶ĩà¶½ à¶»
à¶¤ à¶¤
Ġà·Ĥ à·Ħ
Ġà·Ĥ à¶§à¶»
Ġl oad
Ġà¶´à¶« à·Ģ
og en
Ġà¶´à·Ħà¶» à¶±
à·Ģà¶« à¶ľ
Ġon ce
ĠSt yle
ov ed
11 3
11 7
Ġ22 1
à·Ĥà¶¥ à¶Ń
ress ion
Ġare as
ĠAl i
Ġcl ip
Ġà¶¯à·ģ à¶¸à¶ºà¶ļ
à¶»à¶ľà¶¸ à¶±à¶ºà¶§
Ġdis order
riv acy
ĠÃ ©
ani um
ĠAg ency
Ġà¶¯à¶©à¶º à¶¸à¶ļ
Ġcre ate
dr aw
ĠAdv anced
ĠGraph ics
phab et
gor ith
- ,
A ug
W ed
b our
l ife
l ied
r ors
v id
z h
Ù ı
â ľ
Ġà¶¸ à¶»à¶º
Ġà¶± à·ģ
à·ľ )
à¶¶ à¶Ńà¶º
Ġà¶ĩ à¶´à¶ºà¶ļ
à¶ºà¶± à¶ļà¶¸
Ġà¶¢ à¶ºà¶§
Ġà¶¢ à·Ħà¶¸
à·Ģà¶» à¶ºà¶Ń
à¶»à¶ļ à¶§à¶¸
Ġà¶ħà¶¯ à¶¸à¶º
à¶ħ à·ĥà¶Ń
à·ģà¶º à·Ģ
ĠâĢ º
00 1
à·Ģà¶¯ à¶ļ
Ġ19 1
Ġ. (
à¶°à¶± à¶½
ĠA PI
ĠM ozilla
ĠP rivate
Ġf ar
ĠL over
ĠR ip
à¶¢à¶±à¶º à¶Ń
Ġm ac
ĠB I
ĠH ai
Ġh on
ro ke
19 42
à·Ĭ.. âĢĿ
Ġà¶±à¶© à¶ºà¶ļ
Ġà·ĥà¶¸à¶Ń à¶ºà¶ļà¶§
Ġà¶Ĩà¶ł à¶»à¶«
Ġà¶´à¶« à¶ľà¶±
Ġà¶´à¶« à¶Ńà¶ļ
Ġà·Ħà¶¬ à¶ľ
Ġà¶µ à¶¸
Ġà¶ĳà¶ļà¶Ł à·Ģà¶±
ĠâĢĿ âĢĿâĢĿ
oc on
Ġà¶´à·Ģà¶» à¶±à·Ģ
Ġà·ĥà·Ħà¶± à·ģ
à·ĴâĢĻ ,
ĠY ahoo
ĠÐ ¡
Ġde al
à¯ Ģ
pl it
ee th
ĠZ one
Ġapp lications
Ø§ ÙĦ
res p
eg a
ĠHot el
Ġà¶¶à¶¹ à·ĥà¶»
ĠPr as
ĠPr ince
Ġ189 2
ĠMag azine
ĠComm on
ĠÎ Ķ
ĠOr der
pos itions
Ġdef e
ham m
âĸ ¶
Ġà¶Ńà¶¯à¶¶à¶¯ à¶ºà¶§
Ġfr ame
Ġmov ie
kk kk
æĸ °
roll er
Ġrece ived
ĠMart in
Ġbal ance
ĠHP V
ĠThr iller
íĽ Ħ
ðŁĳĹ ðŁĳĹ
) ...
= âĢĿ
H IV
O K
O b
d em
h ood
r ical
v o
v ar
à¶Ń à¶°
à¶¸ à¶±à·Ģ
à·ĥ à¶ºà¶§à¶Ń
Ġà¶ļ à¶±à·Ģà¶¯
Ġà·ĥ à·ĥà¶¯
Ġà¶ľ à¶¢à¶±
Ġà¶ĳ à¶´à¶º
à¶ºà¶ļ à¶ļ
Ġà¶ĩ à¶¢
à¶¢ à¶ļà¶»à¶«à¶º
Ġà¶ĩà¶Ń à¶ľ
à·Ģà¶ļ à¶½
à¶¸à¶Ń à¶½à·Ģ
Ġà¶´à¶Ń à¶½à¶ļ
à¶ļà¶§ à¶»
in stall
Ġà¶ķ à¶±à¶ļà¶¸à¶ļ
on ic
al se
à¶Ķ à¶ºà¶Ń
à¶ī à¶¹
ĠC ook
à¶¬ à¶ļ
Ġc ou
ĠM erc
à¶Ŀ à¶ľ
ĠG MO
ĠG overnance
am ous
Ġà¶´à¶§ à·Ģà¶¸
Ġà¶ĩà¶½ à¶¢
Ġ18 40
Ġà·Ģà·Ħ à¶ľà¶Ń
Ġà¶¶à¶© à·Ģà¶½
ĠK el
ĠK et
Ġ17 1
Ġà¶±à¶ľà¶» à¶ºà¶ļà¶§
à¶ķ à·Ģà¶»
Ġre view
à·ĥà·Ħ à¶·
18 18
Ġst ories
12 3
Ġà¶ļà¶»à¶¯à¶» à¶ºà¶§
ans k
Ġà¶ħà¶»à¶ľà¶½ à·Ģà¶½à¶§
Ġsh ell
Ġph r
Ġà·Ħà¶»à·Ģ à¶¸
Ġup on
Ġà·Ģà¶° à¶¶à¶±
ĠCol or
Ġqu ant
Ð¾Ð ¹
ĠSub scribe
Ġà¶Ĩà¶ľ à¶¸à¶Ń
ĠUp ali
ĠSur face
ĠAct ive
Ġinv ol
ĠForm at
Ġtool s
ðŁĳĮðŁĳĮðŁĳĮðŁĳĮðŁĳĮðŁĳĮðŁĳĮðŁĳĮðŁĳĮðŁĳĮðŁĳĮðŁĳĮðŁĳĮðŁĳĮðŁĳĮðŁĳĮðŁĳĮðŁĳĮðŁĳĮðŁĳĮðŁĳĮðŁĳĮðŁĳĮðŁĳĮðŁĳĮðŁĳĮðŁĳĮðŁĳĮðŁĳĮðŁĳĮðŁĳĮðŁĳĮðŁĳĮðŁĳĮðŁĳĮðŁĳĮðŁĳĮðŁĳĮðŁĳĮðŁĳĮðŁĳĮðŁĳĮðŁĳĮðŁĳĮðŁĳĮðŁĳĮðŁĳĮðŁĳĮðŁĳĮðŁĳĮðŁĳĮðŁĳĮðŁĳĮðŁĳĮðŁĳĮðŁĳĮðŁĳĮðŁĳĮðŁĳĮðŁĳĮðŁĳĮðŁĳĮðŁĳĮðŁĳĮ ðŁĳĮðŁĳĮðŁĳĮðŁĳĮðŁĳĮðŁĳĮðŁĳĮðŁĳĮðŁĳĮðŁĳĮðŁĳĮðŁĳĮðŁĳĮðŁĳĮðŁĳĮðŁĳĮðŁĳĮðŁĳĮðŁĳĮðŁĳĮðŁĳĮðŁĳĮðŁĳĮðŁĳĮðŁĳĮðŁĳĮðŁĳĮðŁĳĮðŁĳĮðŁĳĮðŁĳĮðŁĳĮðŁĳĮðŁĳĮðŁĳĮðŁĳĮðŁĳĮðŁĳĮðŁĳĮðŁĳĮðŁĳĮðŁĳĮðŁĳĮðŁĳĮðŁĳĮðŁĳĮðŁĳĮðŁĳĮðŁĳĮðŁĳĮðŁĳĮðŁĳĮðŁĳĮðŁĳĮðŁĳĮðŁĳĮðŁĳĮðŁĳĮðŁĳĮðŁĳĮðŁĳĮðŁĳĮðŁĳĮðŁĳĮ
ìĦ ±
ĠTut orial
2 10
5 000
B o
B ox
S w
b ury
c ase
f a
k t
r um
s à¶§
ï ·º
Ġ ã
à·Ĭ ?"
à¶º à¶ºà¶±à·Ģ
à¶¯ à¶¸à¶¯
Ġà¶ļ à¶µ
Ġà¶ļ à·ĥà¶ļà·ĥ
Ġà¶¸ à¶ľà¶Ń
Ġà¶Ń à·Ģà¶±
Ġà¶Ń à¶§à¶¸
Ġà¶ľ à¶½à¶¸
Ġà¶ļà·ħ à·Ħà¶ļ
Ġà¶ļà¶½ à¶ºà¶ļ
Ġà¶· à¶§à¶´
à¶±à¶§ à¶±à¶¸
Ġà·Ģà¶½ à¶´à¶½
à¶»à¶¯ à¶©
Ġà¶ķ à¶´à¶¯
Ġà¶Ńà¶¸ à¶»
Ġà¶ħà¶© à¶´
Ġà¶¸à¶± à¶¯
à¶»à¶§ à¶ļà¶§
at ives
à·Ĳ. )
ĠS W
ĠS ports
Ġà¶ļà¶»à¶¸ à¶½
ĠC R
ĠC trl
à¶ļà¶»à¶± à¶½à¶¯
Ġà¶ħà·Ħ à·ħ
Ġà¶ħà·Ħ à¶¸à¶¯
Ġs uggest
Ġc ore
Ġc ry
ĠM ont
ĠM enu
Ġp or
as un
Ġm ale
Ġm oon
à¶Ńà¶±à¶º à·Ģ
ri ya
ĠN ature
ĠF red
ĠF und
19 46
Ġà·Ĥ à¶§à¶½à¶º
Ġà·ĥà¶½à¶ļ à¶´
Ġn om
Ġà¶µ à·Ħ
Ġà¶µ à¶½à·Ģ
à¶µà¶½ à·Ģà¶½à¶§
Ġà¶¯à¶© à¶ºà¶ļà¶§
Ġfor ce
ec ially
11 1
ĠCh aminda
à·ĥà¶±à¶º à¶Ń
Ġe at
à·ħà¶³à¶´ à¶½à¶§
Ð° Ð»
Ġtr aining
ÑĢ Ñĥ
âĢ¦âĢ¦ âĢ¦.
à·Ħà¶½à¶ļ à¶¯
Ġup dates
ĠOn ly
Ġà¶Ŀà¶« à¶ļà¶¸
oom la
Ġcr oss
Ġperson al
ĠKey board
III à·Ģà¶±
ĠMarket ing
Ġeffect s
Ġhost ing
Ġaward ed
ĠTool s
Comp uter
B T
G S
L ondon
S R
w ater
Ã ¯
à¶± à¶ļà¶»à¶«à¶º
à¶Ń à·Ĩ
Ġà·Ģ à·ĥà¶Ń
à¶¯ à¶¢
à¶´ à¶»à¶¸à¶ļ
à¶« à¶ļà¶¸
Ġà·Ħ à¶©à¶§
à·ħ à¶´à¶Ńà¶ļ
Ġà¶Ĵ à¶§
Ġà¶ļà¶½ à·ĥ
an j
Ġà¶ķ à·Ģà¶º
à¶¶à¶³ à¶Ń
Ġà¶ħà·ĥ à¶¸à¶¸
ĠĠ ĉĉ
al ian
à¶¥ à·Ģà¶»à¶ºà¶ļ
Ġ3 75
ĠC ash
st ream
à¶ºà·ĥ à¶±à¶ļ
Ġc odes
ĠM ethod
ĠM inds
Ġp olitics
Ġa wards
ĠT ok
Ġb oy
ĠD ise
ĠR up
Ġin put
ĠE ffect
à¶»à·ħ à¶½
ul s
im ated
Ġà¶« à¶ºà·Ģà¶»
ĠV GA
od ing
Ġ17 8
== =
Ġà¶ħà·Ģà¶ļ à¶½à¶±à¶º
Ġst ick
if er
ana ka
ach i
ber ry
ens or
Ġà¶°à¶±à¶º à¶Ń
Ġà¶¯à¶Ł à¶º
ĠEx change
ĠMar sh
à¶Ŀà¶± à¶ļà¶º
ĠFr ont
à·Ģà¶łà¶± à¶ºà¶±
Ġvis it
Ġprogram s
âĢĽ âĢĽ
Ġatt empt
Ġà¶ĭà¶»à¶ľ à¶ºà¶±
Ġcur r
eh icle
Ġestablish ed
ustain able
B ut
C R
P DF
j j
l ka
y ing
y per
å ¥
à¶» à¶¥à¶ºà¶±
à¶» à¶Łà¶±
Ġà·Ģ o
à¶¯ à¶©à¶º
à¶¯ à¶Ĩà¶»à¶ł
à¶´ à¶³
Ġà¶± à¶³
Ġà·Ħ à¶Łà·Ģ
à¶© à¶·
Ġà¶Ĩ à¶´à¶Ń
Ġà¶Ĩ à¶»à·ĥ
Ġà¶ĳà¶ļ à·ĥà¶Ń
à¶ł à¶ł
à·Ģà¶½ à¶ºà¶±
à¶Ł à¶¸
Ġà·Ħà¶» à¶¶à¶»
Ġà¶¸à¶§ à·ĥ
Ġà·Ħà¶¸ à·ĥ
Ġà¶»à¶¢ à¶´à¶ļ
Ġà¶ĳà¶ļà¶ļ à·Ģà¶Ń
ar r
ĠC ulture
Ġà¶Ńà¶»à¶¸ à¶º
à¶½à·Ģ à¶ºà¶±
ĠA uthor
Ġs un
is er
Ġt orrent
ĠT amp
à·Ļà·Ĭ .....
Ġw rite
Ġà¶ĳà¶ļà¶§ à¶¯
ĠD har
ĠD rivers
il ot
ol k
ĠF ont
Ġà¶Ĩà·ĥ à·Ģ
ro c
ĠW ay
us ed
à¶¸à·Ħ à¶¯
à·ģà¶ºà¶§ à¶¸
ĠO R
ĠO lymp
Ġre le
Ġà¶ħà¶ľà¶º à¶º
Ġr en
est ic
Ġv ia
Ġv irtual
Ġst at
ain e
à·Ħà¶»à¶« à¶ļ
Ġe lement
13 7
ĠY oung
ear s
Ġà¶¯à¶« à¶ľà·ĥ
ens ions
Ġj ava
lic t
az ing
Ġà® ĩ
Ġte le
Ch rist
Ġà¶¢à¶ºà¶¸ à·Ħ
Ġind ex
Ġstud ies
ĠDirect or
Ad d
Ġelect ric
ĠSun il
eph en
Ġà¶ħà¶Ńà¶»à¶¸à¶Ł à¶¯
ĠChild ren
ĠLim ited
A ir
C or
E ar
[ âĢ¦]
d in
d ata
l ers
m ary
m edia
í ĺ
Ĺ ı
à¶¸ à¶°à¶»
Ġà·Ģ à¶§à¶»
Ġà·ĥ à¶ºà·Ģà¶±
Ġà¶¸ à·ħà¶¯
Ġà¶¸ à¶©à¶½
à·ĬâĢį ,
Ġà¶ľ à¶»à·Ħ
Ġà¶¶ à¶°
Ġà¶¶ à¶§à¶´
à¶© à¶¶à¶½
à·ģ à¶Ńà¶ºà¶§
à¶ºà¶ļ à¶»à·Ģà¶±
à¶¢ à¶ľà¶Ńà·Ģ
à¶±à¶º à¶ºà·ħ
Ġà·ĥà¶¸ à¶»à¶¢
à¶ļà¶» à¶ºà¶ļà¶§
à¶ľà¶Ń à¶ºà¶Ń
Ġà¶ļà¶½ à¶ĳà·ħ
Ġà¶§ à¶§
à¶¹ à¶ļ
en i
al am
Ġ. âĢĿ
Ġà¶ĳà¶½ à·Ģà·ħ
Ġà·ħ à¶ľà¶¸
ĠC ambridge
à¶±à¶± à¶±
Ġc ult
à¶¶à¶½ à¶¯
à¶¶à¶½ à¶¸à¶ļ
à¶¯à¶ļ à·ħ
Ġà¶¸à¶½ à¶¶à¶¯
ĠL ib
ĠL aptop
à·Ĥà¶ļ à¶ľ
ĠR OM
Ġm ind
ĠH T
ĠH al
ri ke
Ġà¶´à¶§ à¶ļà¶º
Ġà¶ĩà¶¯ à¶§
ĠF amily
ro g
Ġ: /
Ġà¶Ĩà¶ºà¶Ńà¶± à¶ľà¶Ń
ĠE k
Ġl icense
à·ļ.. âĢĿ
ĠO MP
em p
im edia
ĠV ij
Ġà¶¸à¶»à¶« à¶ºà¶ļà¶§
Ġà¶Ľ à¶º
ak h
Ġr ub
ĠIn n
à¶Ńà¶±à·Ģ à¶§
Ġà¶ħà·Ħà¶½ à¶Ń
aw ath
à¶ľà¶« à¶±à¶ļ
ĠCh ath
à·ıâĢĻ .
ast y
Ġà¶ħà·ĥà¶»à¶« à¶ļà¶¸
à·Ĥà¶¥ à·Ģà¶»
sh ana
Ġal t
ĠPh ilosophy
ann i
II à·Ģà¶±
ĠEd ge
Ġam m
Ġout side
itt ing
Ġstr ateg
ĠTrans port
ĠVim asuma
ĠAfric an
ounc ed
à·ĬâĢĭà·Ļ âĢĮ
des k
ĠAz ure
Sup er
SK U
à¶ĳà·ħà·Ģ à·ħ
. ''
/ ?
= '
F irst
G l
P age
f ly
Â ¥
è ĩ
í ķ
à¶± à¶Ńà¶º
à¶± à¶´à¶±
à¶Ń à¶ľà¶¸
à¶½ à¶¢à¶±
Ġà¶ļ à¶´à¶»
Ġà·ĥ à·Ģà·ĥà¶§
Ġà¶ħ à·Ģà¶»à¶§
à·Ŀ âĢ¦.
à¶±à¶º à·Ģà¶Ń
à¶ł à¶»à¶«
Ġ( $
à¶¯à¶± à¶ľ
à·ĥà¶» à¶±à·Ģ
à·ĥà¶» à¶±à¶¸
in us
Ġà¶īà¶¯ à¶ľà¶±
Ġà¶»à¶¢ à·Ħ
à¶©à¶ļ à·Ģ
à¶Ķ à¶ł
Ġà¶´à·Ħ à¶¯à¶½
ĠC F
ĠC ost
ĠA V
à¶Ĩ à¶±à¶ºà¶±
Ġc ases
Ġc lean
Ġ4 20
re ement
Ġà¶īà¶© à¶´
Ġw rote
Ġf urther
ĠL od
Ġà¶¶à¶½à¶´ à¶½
à¶ºà¶ºà¶± à¶ºà¶ļà¶§
ĠB ud
Ġà¶ĭà¶© à¶´
ĠH S
ĠN on
Ġà¶Ńà¶¶ à¶Ń
Ġin it
ĠF il
Ġà¶Ĩà·ģ à¶ļ
Ġà¶ļà¶® à¶ļà¶º
id ing
à¶Ńà¶ºà¶§ à¶¯
Ġl es
em ic
Ġà¶ļà¶³ à¶§
ĠV o
Ġà¶¸à¶»à¶« à¶ºà¶±
ap a
ess or
Ġà¶¸à¶© à¶ľ
ov ers
Ġ21 00
ish ing
Ġk ind
ĠAn anda
ĠÐ ±
ens es
ult s
Ġà¶ĩà·ħ à·Ħ
ĠAnd rew
ĠComm unity
ĠAm b
ourn ey
Ġdi odes
Ġgroup s
Ġ-- >
add y
TI ON
App le
ĠRajapak sha
Ġconnect ion
Ġsyn drome
å¸ Ĥ
Ġsuccess ful
åĽ ½
ĠAdvent ure
ĠQue en
Austral ia
ertific ate
ìĽ Ĳ
- .
M al
S k
r ich
å ĩ
Ġ il
à·ı à·Ķ
à·ı !!!!
à·ı ............
à¶Ń à¶¸à¶Ń
à¶Ń à¶ļà¶½
Ġà¶ļ à¶ºà¶§
à·ľ âĢĿ
à¶« à¶»à¶º
Ġà¶ľ à¶¸à¶«
Ġà¶ľ à·Ģà¶¸
Ġà¶¶ à¶ļà¶½
à¶© à·Ģà¶º
à¶© à¶ºà·ĥ
à¶° à¶»à¶«
Ġà¶ĩ à·Ĥ
Ġà¶» à¶¡
Ġà¶ī à¶»à¶½
à¶¢ à¶±à¶§
Ġà¶Ĩ à¶©à¶´
à¶ļà¶» à·Ģà¶º
à¶ľà¶Ń à¶·
à¶Ł à¶ºà¶§
à·Ģà·ĥ à¶Ń
Ġà¶ħà¶¯ à·Ģà¶Ń
à¶ħ à¶´à¶±
Ġ2 11
à¶ľà¶± à·Ħ
à¶ľà¶¸ à·Ģ
Ġà¶ķ à¶ľà¶±
Ġà·Ģà¶© à·Ģà¶©
ar es
à¶Ĵ à·Ħ
à¶Ĵ à¶ļà¶ļ
âĢĻ ;
à·ĳ. )
Ġà·Ģà¶§ à¶½à¶´
Ġà¶ħà·Ħ à¶´à¶±
Ġà¶ļà¶© à¶¸à¶«
à¶¸à¶¯ à·Ģ
ĠM ir
à¶ľà¶ºà¶ļ à¶¸
à¶´à¶¯ à·Ģà¶±à·Ģ
Ġà·Ģà·ĥ à·Ģà¶»
ĠT H
ĠT emplate
Ġf eder
ĠG erm
ĠR E
ĠR od
ĠR oll
Ġm otion
ĠI de
ĠN ad
ĠN ob
Ġà·Ĥ à¶§à¶½
Ġl iving
Ġà¶¯à·Ħ à¶¸à¶Ń
Ġà¶¢à¶½ à¶´
Ġà¶¢à¶½ à¶·
ĠK e
Ġà·Ģà¶¯ à¶¯
Ġà¶¥ à¶±à·ĥ
Ġà¶Ńà¶»à¶Ł à¶ºà¶ļà¶§
Ġà¶Ķà¶´ à¶¸à¶§
Ġfor ward
Ġà¶ĭà¶ľà¶Ń à¶ļ
ĠCh urch
Ġà·ĥà¶¸à·Ħ à¶»à¶¯
à·Ĭ.... "
16 0
Ġbe gan
ant a
Ġà¶¶à¶½à¶° à¶»à¶º
à¶»à·Ģà¶º à¶Ń
se e
ĠEn ergy
ĠTh at
à·ļâĢ¦ âĢĿ
Ġle v
Ġà¶´à¶¯à¶± à¶¸à¶º
form ance
ĠSc ot
Ġro ad
à¶¯à¶¹ à¶¯
str act
ĠÎ ±
Ġreg ion
ĠPar liament
ole c
Sp ecial
âĢ¦âĢ¦âĢ¦âĢ¦ âĢ¦âĢ¦âĢ¦âĢ¦
Ġprov ide
Ġorig in
ĠMS G
Ġresult s
á¹ ħ
ĠSong s
ĠCap ital
Ġwhe ther
Ġproble m
keep ing
% ;
A I
B R
C an
C ent
S un
m ann
u ka
Ġ ill
à·Ĵ âĢĭà·Ļ
à¶ļ à¶«à¶º
à¶¯ à¶Ł
à·ĵ _
Ġà¶¯ à¶ŀ
Ġà·Ħ à¶«à¶¸
Ġà¶Ń à¶¶à¶½
Ġà¶ĳ à¶¸à¶Ń
à¶® à·Ģà¶±
Ġà¶±à¶¸ à·Ģ
Ġà¶ºà¶± à¶ľà¶¸à¶±
à¶½à¶º à¶ľ
Ġ( ?)
Ġà¶¢à¶± à¶Ŀ
Ġà¶· à¶»
Ġà·ĥà¶³ à¶ľ
Ġà¶ħà¶¯ à·Ħà¶¸
Ġà¶ķ à·Ĥà¶°
à¶ºà¶Ń à¶Ń
Ġà¶¸à¶± à¶±
Ġà¶ħà·ĥ à·ħà¶¯
à¶¸à¶» à¶ľ
ĠS E
ĠS ome
ĠS ix
Ġà¶ĳà¶½ à¶¯
Ġà¶ļà¶© à¶ļà¶»à¶±
à¶ļà¶»à¶«à¶º à¶¯
Ġp df
ĠP un
ĠP LC
Ġt ax
Ġà¶¸à¶½ à¶´à·Ħ
à¶ĭ à·Ģ
Ġf ake
ĠL ittle
ĠG TA
ĠR uwan
il k
ĠB all
ĠH GH
ĠN RR
Ġà¶´à¶§ à¶ļà·Ģà¶½
ĠF it
Ġ18 7
Ġà¶Ĩà¶ºà¶Ńà¶± à¶¯
Ġà¶ļà¶»à¶ľà¶Ń à¶º
ch ain
à·ĥà¶³ à¶½
Ġ20 8
ĠK o
Ġ16 9
Ġre ason
Ġà¶ĭà¶ľ à·Ħà¶§
ĠSt ock
âĢĵ )
à¶ºà¶¸à¶± à¶§
Ġà¶¯à·ģà¶ļ à¶ºà¶§
Ġal ready
ĠZ h
Ġsp ort
ĠCl ark
ĠEx cel
Ø§ Ø
Ġà¶¯à·ģ à¶ļà¶ºà¶±
Ġx xx
Ġacc ording
Ġro t
Ġits elf
ĠDis play
ĠAf ghanistan
ĠRan il
ĠChe ck
ĠCr oss
Ind ia
Ġdevelop ed
PF A
award ana
âĢįâĢįâĢįâĢįâĢįâĢįâĢįâĢį âĢįâĢįâĢįâĢįâĢįâĢįâĢįâĢį
ĠWi Fi
Ġele ments
Ġlank acnews
ĠRathn ayake
ĠBR Rip
ĠAst ron
? //
M ed
N L
O per
R ob
g ala
o ose
¤ ï¸ı
ç ī
à¶º à¶¥à¶º
à·Ķ =
à¶¸ à¶¬
à¶¯ à¶ļà·Ģ
à¶« à¶¢
Ġà¶¶ à¶¸à¶»
Ġà¶ĳ à·Ĥ
à·Ŀ ;
Ġà¶ĩ à¶±à¶§
Ġà¶ĩ à¶ļà¶º
Ġà¶ĩ à¶¸à·ĥ
à·Ĵ. -
à¶¢ à¶±à·ĥ
Ġà¶¢ à¶½à¶±
Ġà¶ħà¶´ à·Ģà¶»
Ġà¶ļà¶»à¶± à¶ļà¶¸
à¶»à¶º à¶ºà·ħ
à¶»à¶ļ à·ħ
Ġà·ģ à¶´à¶®
Ġà¶±à¶¸ à·Ģà¶Ń
à¶¸à¶± à¶±
Ġà¶´à¶» à¶»
in er
er r
à·ĵ. âĢĿ
Ġà¶Ĵà¶ļ à¶ľ
Ġà¶ħà·ĥ à¶½à¶º
à·ıà¶Ĥ ,
it o
Ġà·Ģà·Ħà¶± à·ĥ
ĠM T
Ġf all
ĠL uc
as am
ĠB or
ĠB urn
à·ı... âĢĿ
ĠF an
ĠF oot
Ġà¶ºà·Ħ à¶ľ
Ġà¶ĩà¶½ à·Ħ
id el
Ġ18 66
ag u
à¶¸à·Ħ à¶ľ
ur t
ig a
od ies
ĠK now
Ġà¶ĩà¶ºà¶§ à¶¯
ĠJ ud
av as
Ġr a
Ġv s
ik h
à¶ºà·Ģà¶½ à¶Ń
Ġà¶ħà·Ħà¶½ à·Ģà¶Ń
Ġà¶§à¶º à¶»à¶º
Ġ22 4
Ġ23 3
Ġy et
Ġà¶¢à¶±à¶´à¶¯ à·Ģà¶½
à¶µà¶½à¶º à¶º
Ġde ad
Ġà¶ºà¶ļà¶© à¶º
ĠĠĠĠĠĠĠĠĠĠĠĠĠĠĠĠ Ġ
ĠĠĠĠĠĠĠĠĠĠĠĠĠĠĠĠ ĠĠ
Ġà¶¢à¶±à¶¸à¶Ń à¶ºà¶§
uk e
ĠÃ ł
Ġsu ff
Ġdif fic
TS D
Ġval ues
Ġgossip lanka
ĠCN C
ĠTechn ical
Ġà¶Ĩà¶±à¶¸ à¶©
ĠLiyan age
F orm
J ava
b es
f inal
k le
s en
Ã ª
Ġ ut
à·Ģ à·Ģà¶½à¶§
à¶º à¶¢à¶±à¶ļà¶º
à·ļ ''
à¶½ à·Ģà·ĥ
à¶§ à·Ĩ
à¶¯ à¶´à¶±
à¶´ à¶»à¶¯
Ġà¶± à¶§à¶º
Ġà¶± à·ħà¶Ł
Ġà¶Ń à·Ģà¶»à¶±
à¶© à¶½à¶±
à·Ģà¶» à·Ģà¶½
à·ĳ .......
à¶»à¶º à¶»
à·ĬâĢ ĵ
Ġà¶¶à¶½ à¶½à¶Ń
... âĢĿ
à¶ºà¶º à¶¸à¶º
Ġà¶Ĭ à¶¶à¶§
on c
à¶½à¶ºà¶ļ à¶¸
ĠA y
Ġs alt
Ġc able
ĠM yst
ĠT ip
Ġw ide
ĠL u
as m
Ġm em
ĠB ase
Ġh it
Ġ20 6
Ġl ot
Ġà¶±à¶ľà¶»à¶º à¶Ń
ur us
Ġn ation
Ġà¶Į à¶§à¶Ń
ap ore
Ġre ality
10 5
ĠSt op
Ġ24 00
à·Ħà¶ºà¶ļ à¶¯
ĠCh ange
ĠCh ief
Ġ! "
à¶»à¶¶ à¶½à¶ºà¶ļ
ĠRe ality
ian ce
à¶ľà¶© à¶¸à¶ļ
Ġà¶ļà¶»à¶« à¶¸
Ġcl ient
ĠInd ex
az a
Ġab le
Ġqu ick
ĠPr act
Ġ// /
ani el
IT M
Ġà¶»à·ĥà¶ļ à¶Ń
ä¸ Ĭ
ĠSk y
por ary
à·ĥà¶Ł à¶»
ĠBook mark
Ġint ro
aut iful
à·Ģà¶Ł à¶±à¶ļ
ĠGam ing
ĠClass ic
aug hter
Ġbow led
Ġwhit en
Ġenc rypt
Ġà¶¢à·Ħà¶¸ à¶±à¶º
ĠTamp ita
) ..
. ),
. ).
A f
D ay
I CC
K D
P O
R AM
U C
d irect
p akumara
s u
y g
è ģ
ì ĭ
à¶» à¶©à¶º
à·ĥ à¶¶à¶º
à¶¯ à¶¸à¶¸
à¶¯ à¶©à¶ºà¶ļ
Ġà¶ħ à¶ļà¶½à¶§
Ġà¶¯ à¶Ńà¶º
à¶« à¶ļà¶»à¶«à¶ºà¶§
Ġà¶Ń à¶±à¶º
Ġà¶ī à¶´à¶¯à·Ģ
à¶ºà¶± à¶½à¶¯
à¶ºà¶± à¶Ĩà¶»à¶ł
Ġà¶¢ à¶©à¶¸
Ġà¶ĭ à¶¸à¶º
à¶ł à¶±à¶ºà¶ļà¶§
à¶ļà¶» à·Ģà¶¸
Ġà¶¸à·Ħ à¶»à¶ľ
à¶· à¶µà¶½
Ġà¶ļà·ħ à¶½à¶ºà¶ļ
à·ĬâĢĮ à·Ļ
Ġà¶Ńà¶» à¶ļà¶»
Ġà¶ħà¶© à¶Ń
Ġà¶ħà·Ģà·ĥ à¶®
à¶Ńà¶¸ à¶ºà¶ļ
ar is
à¶¥ à¶±
Ġ3 10
Ġà¶ļà¶© à·Ģà¶»
ĠM ach
Ġp et
ĠP resent
à¶Ŀ à¶±à¶ºà¶±
ĠT own
à·ģà¶± à¶½
à¶¯à¶±à¶º à¶¯
ĠG NU
ĠR ot
Ġà¶ĳà¶´ à·Ģà¶Ń
Ġd am
à·ĥà¶³ à¶»à¶ļ
Ġ20 2
Ġ20 22
à¶©à¶½à¶º à¶¯
Ġà¶±à¶ľà¶»à¶º à¶¸
Ġà¶¯à·Ħ à·Ħà¶Ńà¶»
Ġà·Ģà¶¯ à¶±à¶§
Ġà¶īà·Ħà¶½ à¶§à¶¸
Ġà¶½à¶Ł à¶ļà¶¯
Ġà¶ħà¶Ł à·Ģà¶¸
11 2
16 8
Ġà·ĥà¶Ł à¶º
22 5
pt ion
Ġà¶ļà·Ħ à·Ģà¶±
Ġ29 0
Ġcon duct
sh ire
ther lands
Ġj oin
Ġph ysical
à¶Ńà¶¶ à¶¸
ĠSc ott
Ġà® µ
ĠSp encer
An g
ĠWh en
gr aduate
Ġpart s
Ġinclud ed
Ġint el
åı °
Ġpol icy
Ġpop ulation
åŃ Ĳ
Ġcond ition
Ġtem per
ãĥ¼ ãĥ
ĠDipl oma
Ġdescri bed
Ġacadem ic
ĠCaliforn ia
A g
E m
O ther
S ep
b t
b or
f ire
n O
o à·Ħà¶½
p art
Ã Ĭ
Ä į
Î º
á ĥ
ê ²
ë ¶
à¶± à¶ºà¶±à·Ģ
à·ĥ à·Ģà¶ºà¶±
à·ĥ à¶¸à¶ļà¶§
à¶ļ à¶«à¶ľ
à¶½ à¶¸à¶½
à¶§ à¶ł
Ġà·Ģ à¶°à¶ºà¶§
Ġà¶´ à¶±à·Ģà¶½
à¶´ à·Ģà¶º
Ġà¶± à·Ħà¶ºà¶§
à¶« à¶±à¶¸
à¶© à¶¸à¶½
Ġà¶ĩ à·ĥà¶Ń
à¶ºà¶§ à¶¸à¶º
à·ĳ ?
à·Ģà¶½ à·Ħ
Ġà¶ħà¶± à¶¯
Ġà¶· à·Ģà¶ºà¶§
Ġà¶´à·ĥ à·ĥ
Ġà¶ħà¶Ń à·Ģà¶»à¶ºà¶ļ
à·Ħà·ĥ à¶»
Ġà¶ľà¶Ń à¶ļà¶»à¶¸
à·ĥà¶± à¶½
à¶ľà¶¸ à¶«à¶º
à¶ºà¶Ń à¶±à¶ºà¶§
à¶Ľ à¶¯
à¶±à¶ºà¶ļ à¶§à¶¸
à¶»à¶«à¶º à¶¯
à¶ĩ à¶©à¶¸
ĠA w
à¶ħà¶´ à·Ħ
ĠM R
ĠM ill
om atic
à¶¸à¶½ à¶¢
ĠP ython
ĠL GB
ĠG ar
ĠG reek
ĠR og
il ing
ĠB rown
Ġà¶Ńà¶± à¶´à¶§
à¶ļà¶ºà¶ļ à¶¸
à¶Ńà¶ºà¶ļ à¶¸
19 36
Ġ18 30
ĠE st
à¶ºà¶» à·Ģà¶½
um ar
ĠO K
Ġà¶´à·Ħà·ħ à·Ģà¶±
Ġà¶« à¶ºà¶ļà¶»
ĠK rish
à·ĬâĢĻ .
Ġ17 4
ĠJ o
à·ĥà·Ħ à¶ľà¶Ńà·Ģ
10 2
à¶Ĵà¶ļ à¶±à¶¸
Ġst ation
à·ĬâĢĿ .
Ġ22 2
lo ok
Ġwh y
ell ite
à·ĴâĢ¦ âĢ¦
Ġht ml
uc lear
ĠZ oom
à¶½à¶³ à¶ľà¶Ń
ĠSc iences
Ġam ount
Ġro le
Ġent ertain
Ġà¶¢à¶±à·Ģà¶» à¶¸à¶§
Ġà¶ļà¶½à¶¶ à¶ľ
Ġà¶ļà¶©à¶ļ à¶»à¶¸
ĠSam an
Ġà¶ħà¶¯à·Ħ à¶±à·Ģ
Ġinclud es
ĠSl ide
ÙĬ Ø©
Ġcre ated
Ġmar riage
Ġant i
ĠWord Press
Ġlim ited
former ly
4 50
H uman
N on
R el
R eg
S at
S ocial
V is
W ar
b ian
c i
s pe
Î ¯
æ ³
à·Ĵ [
à¶º à·Ħà¶½
à¶§ à¶§à¶¸
Ġà¶ļ à¶ºà¶ļ
à¶« à¶§à¶º
Ġà·Ħ à¶»à¶¸
Ġà·Ħ à¶¶à¶»à¶½
Ġà¶½ à¶ľà¶º
à¶° à·Ģà¶ľ
Ġà¶ĩ à¶¶à¶»
à·Ģà¶± à¶ľ
Ġà¶Ķ à¶½à¶¸
à¶® à¶¯à·ĥ
Ġà¶¸à·Ħ à¶½à¶§
à¶»à¶ļ à¶³à·Ģ
à¶ļà¶º à·ģ
Ġà¶ľà¶± à¶±à¶º
Ġà·ĥà¶Ń à·ħ
Ġà¶Ĭ à¶ľà¶½
Ġà¶»à¶¢ à¶ļà¶»à¶±
01 1
à¶¨ à¶ºà¶ļà¶§
à¶»à·Ħ à¶ł
ĠS C
ĠS S
ĠC ort
ĠC over
ĠC rime
à¶ºà·ĥ à¶¯
à¶¬ à¶´
à¶ħà¶´ à·Ģà¶Ń
ĠM end
Ġp oor
Ġp resident
à¶Ŀ à¶§à¶ļà¶ºà¶ļ
Ġà¶¸à¶½ à¶Ń
Ġf ix
ĠL al
Ġb ase
ad band
Ġm i
Ġm er
ĠB ridge
Ġà¶ĭà¶© à¶Ń
Ġà¶ĭà¶© à¶ľà¶¸
Ġà¶Ŀ à¶±à¶ļ
ĠH B
el ess
Ġh ar
à¶»à¶ł à¶ļà¶ºà¶ļ
Ġ18 77
ĠE N
Ġ20 3
ĠJ oh
Ġre ference
Ġà¶ħà·ĥà¶½ à¶§à¶¸
Ġr om
Ġr ules
10 8
ab or
ok en
Ġà¶ħà·Ħà¶½ à¶¸
14 0
à·Ĵ.... "
ey ond
ĠAr m
ash a
we alth
................ ..
uk amu
anc ing
ĠCol lection
Ġev illage
ãĤ Į
ĠPr int
Ph il
Ġà·Ģà¶ºà·ĥà¶ļ à¶¯
let ion
ER TY
Ġbl ue
AR C
As s
ĠCar l
emb ly
ĠMov ing
Ġsign al
Ġï¿½ ï¿½
ĠSing h
ĠWord press
alle l
ÐºÐ° Ñı
Ġsay ing
Ġcamp aign
Ġproduct s
Ġsem i
Ġsit uation
ĠTem ple
ĠEver y
A TA
B ro
D ata
G C
I d
N a
R eal
S il
U K
b reak
e z
i M
m c
n ers
r un
Å Ł
Ġ __
Ġ Ñĥ
Ġ ............
à·Ĵ à·´
à¶± à¶±à¶ļ
à¶º à¶¸à¶§à¶Ń
à¶» à¶³
à¶Ń à¶ł
à·Ķ âĢįâĢį
à¶ļ à¶¨
à·ļ _
à¶§ à·Ģà¶½à¶§
à¶§ à¶ļà·ĥ
Ġà·Ģ à·Ħà¶ļ
Ġà¶¸ à¶»à¶Ń
Ġà¶¸ à¶½à·ĥ
à¶« à·Ħà¶½
à¶¶ à¶¹
Ġà¶ļà¶» à¶ļà·Ģà¶¸
Ġà¶» à·Ģà¶§à¶¸
à·Ĥ à¶¯à¶»
Ġà·ĥà¶¸ à¶»à¶º
Ġà¶Ĵ à¶¸à¶§à¶Ń
à·Ģà¶½ à¶ľà·ĥ
Ġà·ģ à¶º
Ġ2 200
Ġà¶»à¶¢ à¶ľà¶½
en th
à·Ģà¶¸ à¶±à¶º
es y
à¶´à·ĥ à¶ºà¶±
Ġà¶ĳà¶½ à·Ģà¶±à·Ģ
Ġ3 21
ĠC ath
ĠC able
à¶Ńà·Ģ à¶±à¶º
Ġà¶ļà¶© à·ĥ
ĠA A
Ġs overeign
ĠM AS
Ġo k
Ġt om
ĠT a
ad aderana
Ġm aint
ĠN av
à¶µ à¶»
ka tha
Ġà¶Ī à·Ħ
ir ana
ĠE R
he im
à¶®à¶ļ à¶Ńà¶±à¶ºà¶ļ
Ġ12 50
Ġà¶¶à¶© à¶½
ĠO ri
à·Ģà¶« à¶ºà¶±
Ġ30 4
à® Ļ
Ġà·Ģà¶ł à¶±à¶Ń
à·Ĵ? "
ey ed
à¯ Ĩ
Ġi i
à¶©à¶½à¶ºà¶§ à¶Ń
Ġpost ed
à·Ĵ' .
Ġà¶±à¶Ł à¶»à¶º
Ð¾Ð ±
ĠComm unication
Ġtour ed
Ġmanag er
ĠExt ension
Ġstandard s
ĠJust ice
à¶©à·ĥà¶§ à·Ħà¶±à¶º
Ġsignific ant
. !
1 19
? âĢ¦
? .....
D M
H is
p et
s ize
t t
Ã ¢
Î ¬
å ¿
è µ
ë ª
î Ģ
ĉ ĠĠĠĠ
Ġ à·
à¶ļ à¶´à¶¯
à·Ļ à·Ĳ
à¶½ à¶«à¶º
à¶½ à¶ľà¶½
Ġà¶¶ à¶¹à¶½
à¶© à¶ł
à¶© à¶ľà¶¸à¶ļ
à·Ĥ à¶ľà¶Ńà·Ģ
à·ĸ '
Ġà¶¢ à¶©à¶º
à¶»à¶¸ à¶ºà¶§à¶¸
à¶»à¶ļ à·Ģà¶½
à¶¹ à¶Ń
Ġà·Ħà¶» à¶¹à¶º
an ies
Ġà¶´à¶¸à¶« à¶Ń
Ġà¶ĳà¶ļà¶ļ à¶Ń
ĠS T
à¶¸à¶½ à¶¯
Ġa ffect
Ġw ed
ĠR oom
Ġm ount
ĠB attle
Ġà¶ĭà¶© à¶§à¶¸
ĠH onda
ri k
à·Ħà¶º à·Ģà¶±
ac ific
Ġà¶Ī à¶¸
Ġ18 02
ĠE ll
ag le
Ġl oc
ĠO cean
à¶ľà¶¸à¶º à¶Ń
ĠK im
à·ħà¶Ł à¶Ń
Ġ.. ?
Ġr ing
10 4
ĠIn f
ĠSt ories
Ġà¶ĭà¶´à¶ļà¶»à¶« à¶ºà¶§
Ġpro duced
ian a
à¶¯à·Ħ à¶¸à¶ļ
Ġpl ug
Ġcl ub
Ġsc ope
aj a
Th u
IS T
az e
ĠPr incess
Ã© s
IC T
Ġrec ent
Ġ189 3
AS T
ĠHD TV
Ġcol umn
Ø± Ø¯
Ġdef ault
EC T
For ex
ĠMin istry
Ã¼ r
ĠBM ICH
Ġvol tage
åľ ¨
ĠPan el
Ġà¶¯à·Ħà¶ħ à¶§à¶ļ
ĠMeg a
ĠAre a
ìĪ Ļ
ĠKol om
ĠEmp ire
ĠDemocr acy
Ġpush pakumara
Ġquest ion
ĠCommunic ating
Ġsen ior
B rit
S ir
W W
l est
m g
n on
n ic
p oint
Ġ eb
à·Ĭ ï»¿
à¶Ń à¶«à¶º
à¶Ń à¶ļà¶»à¶±
à¶Ń à¶±à¶ļà·Ģà¶Ń
à·Ķ âĢļ
à¶¸ à·Ģà¶ļ
à·ĥ à¶¤
à·Ĳ :
âĢį à·Ļà·Ĭ
à¶´ à¶ºà¶§à¶¸
Ġà¶± à¶ľà¶Ń
Ġà¶¶ à¶ºà¶§à¶¸
Ġà¶» à·Ħà¶½
Ġà¶Ĩ à¶ª
Ġà¶¢ à¶½à·ĥ
Ġà¶Ĵ à¶¸à¶§à¶º
à·Ģà¶ļ à¶»à¶±
à¶ļà¶» à¶±à¶ļ
Ġà¶¢à¶± à¶»à·ħ
in ct
in ity
in ations
Ġà¶Ńà¶» à¶½à¶ºà¶ļ
à¶Ľ à¶¢
à·Ĥà¶º à¶ºà¶§
th ota
Ġà¶© à·ĥ
al u
à¶Ķ à¶ºà¶ľ
à¶´à¶± à¶¥à¶º
ĠC u
ic ago
à¶½à·Ģ à¶ºà¶ļà¶§
ĠA K
à¶¶à¶½ à·ģà¶ļ
Ġp ick
Ġw all
Ġw ild
ĠL L
ĠL ev
and om
Ġb uy
ĠD ead
Ġà¶ĭà¶© à·Ħà¶§
ĠH enry
à¶ħà¶± à¶ľ
ĠN DT
el um
ĠF our
Ġà¶ħà¶ºà¶§ à¶¸
ro y
à·Ĵ.. ?
19 27
19 38
Ġ18 14
à·Ĭ... ?
Ġl ocation
Ġn atural
ĠK ath
Ġ17 50
ht m
Ġr ad
Ġà¶¶à¶³ à¶´à¶§
if orm
à·ļ? âĢĻ
à¶ħà¶» à¶ľà¶½à¶º
ant ed
Ġe asy
Ġpro p
ĠAn alysis
ĠAn alyt
ob i
Ġà¶ħà¶¹ à¶»à¶±
ĠÐ ³
Ġcon son
à·ĻâĢį à·Ĭ
Ġman ual
Ġ75 00
à¶ħà¶· à¶ºà¶ľ
ĠCont ent
Ġï Ĥ
olit an
Cl oud
Un ited
Ex ample
Ġla unch
ĠMov ement
ĠNe therlands
ĠChrist mas
Ġrepl aced
ĠWil son
ĠSyn drome
Ġlim it
Ġcompet ition
ĠSn ap
ĠPur ana
Ġmeet ing
Ġà¶ļà·Ħà·Ģ à¶«
) ||
. /
/ )
3 70
B E
M a
P ay
_ .
¹ Ģ
Ġ `
à¶» à¶©à¶ļà¶ºà¶±
à·Ķ à·Ĭ
à¶½ à·Ģà¶»à¶§
Ġà·Ģ à¶ºà¶¸
Ġà·ĥ à·ħà¶¹
Ġà·ĥ à¶ľà¶ºà¶ļ
à¶´ à·Ģà·ĥà¶±
à¶« à¶©
à¶« à¶ľà¶Ń
Ġà·Ħ à¶§à¶Ń
Ġà¶Ń à¶»à·Ģ
Ġà¶Ń à¶¯à¶º
Ġà¶ĳ à¶»à·Ħ
à¶° à¶½
à¶° à¶«
à¶° à¶ļà¶»à¶ľ
Ġà¶Ĵ à·Ģà¶½
Ġà¶ĭ à¶»à¶¸
à·Ģà¶» à¶¯à¶ļ
à·ļ. '
à¶ľà¶Ń à¶¸
Ġ( '
Ġà·Ģà¶ľ à¶§
Ġà¶Ķà¶¶ à¶§à¶º
Ġà¶ĭà¶´ à¶ºà¶±à·Ģ
on na
th ala
à¶¨ à¶ľ
Ġ3 16
à¶ī à·ģ
ĠC T
ĠC ry
ĠC ond
ĠC lean
Ġth ing
à¶ĩ à¶½à¶±
ĠA TM
Ġc redit
ĠM ail
is co
Ġp red
Ġp icture
ĠP aste
ĠT en
Ġw ear
Ġb ul
ĠN as
Ġh el
à·ħà¶ļ à¶«
19 33
ew ard
Ġà¶ħà¶¸à¶Ń à¶ļà¶¯
à·ħà¶³ à·ĥà¶½
à¶Ĭ à¶ľà¶½
Ġto wn
Ġà¶´à¶« à·Ģà¶±
Ġ17 89
Ġre comm
av an
Ġr ul
ĠÂ ©
10 7
Ġà¶½à¶Ł à¶§à¶¸
Ġà¶±à¶½ à·Ģà¶±
13 6
ĠÐ °
ĠÐ ľ
ĠPro perties
ox ide
à¶±à¶Ł à¶ľ
mer ce
Ġte levision
ron ics
Ġam ma
Ġcomm unication
Com m
à¶¯à·Ģà·ĥ à¶ļà¶§
Ġdef ined
ĠBr ah
ĠQu ant
Ġelect ion
Ġcent ral
Ġfollow ed
Ġgu ard
ĠInt elligence
Ġà¶ļà¶§à·Ģ à·Ħà¶»
æľ Ī
ĠSen ev
Ġmag ic
Ġfield s
Ġbeh ind
iph one
tw itter
Ġask ed
Ġneg ative
Ġïĥ ĺ
Ġcele br
ĠFore ign
ĠWash ington
Ġentertain ment
ĠKolom thota
% .
< <
D irect
F ire
L D
M bps
T ype
v ard
Ñ ĸ
æ Ļ
ë ¹
à¶Ń à·Ģà¶ļ
à¶¯ à·Ħà¶ļ
Ġà·ĥ à¶¶à¶»
à¶ľ à·Ħà¶¸
à¶¶ à¶ļà¶§
Ġà¶ĩ à¶ľà¶¸
Ġà¶ļà¶» à·Ģà¶§à¶ļ
à·Ĥ à·Ħ
Ġà¶ī à¶¶à¶±
Ġà¶Ķ à¶Ńà¶±à¶¯
à¶ł à¶¸à¶½
à·ı. ,
Ġà¶ħà·Ģ à¶¸à·Ģ
Ġà¶¸à·Ħ à¶Ńà¶º
à¶· à¶ļà¶½
à¶· à¶ºà¶¯
à¶»à¶ļ à¶ºà·ħ
Ġ( (
à·ĺ ÂŃ
à¶ľà¶± à¶ļà¶ºà¶ļ
à¶ľà¶º à·ħ
Ġà¶ķ à¶Ń
à¶¨ à¶ļà¶ºà¶ļ
à¶¥ à¶µ
st rap
ĠA jith
ĠM ud
Ġp aint
ĠP ot
Ġà¶¶à·Ħ à¶ļà¶§
ĠG adget
à¶ºà¶ºà¶± à¶§
ĠD a
ĠD og
Ġ6 40
ad ian
Ġm is
Ġm outh
ĠB at
ĠB et
ĠB ond
ĠH am
ri ka
Ġ7 77
ol ia
ĠF inal
19 12
Ġ18 2
Ġ18 20
Ġ18 57
Ġ20 4
à¶ĳà·ĥ à¶¸à¶º
Ġn ormal
Ġà¶¯à·Ħ à¶¸à¶º
ak un
Ġà¶Ńà¶½ à·Ģà¶½
11 4
17 5
iz ations
Ġà¶į à¶±
à¶¶à·ħ à¶½
ens ity
ound s
à¶ĭà¶¹ à¶Ń
à¶ħà·ĥ à¶»à¶«
Ġsc an
à¤ ¨
Ch ar
Ġ600 00
ĠØ ³
Ġcol lection
Ġrest art
Ġopen ing
ĠFl or
Ġà¶±à¶ºà¶± à¶Ń
ĠStud y
ĠCan on
Ġsim ple
lim ited
Bl ue
Ġà·Ħà¶»à¶¹ à¶ºà¶ļ
Ġocc ur
ĠRuss ian
Ġappro ach
ðŁĳįðŁĳįðŁĳįðŁĳį ðŁĳįðŁĳįðŁĳįðŁĳį
rupt ion
ĠBlu etooth
ĠIM F
$ $
% ),
- >
. âĢĺ
3 30
M ag
T op
d et
h igh
n s
o is
Å «
Ï Ģ
ç Ļ
è ¨
ë ı
à·Ģ à¶ľà¶Ń
à¶¸ à¶¡
à¶ļ à¶±à¶§
à¶ļ à¶¸à¶§à¶Ń
à·ļ ..........
à·Ħ à·Ģà¶»
à¶§ à¶µ
à¶§ à·Ģà¶±à·Ģ
Ġà¶ļ à·ĥà¶ļ
Ġà¶ľ à¶ľà¶§
à¶° à¶ļà¶¯
Ġà¶ĭ à¶»à¶º
Ġà¶ĭ à¶½à¶ļ
à¶® à¶ļà¶¯
à·Ģà¶½ à¶ļà¶¸à¶ļ
à¶ļà¶» à¶ļà¶¸
à¶¸à¶ļ à¶§à¶¸
à·Ĭ, ,,
à¶±à¶¸ à¶ľ
à¶ħ à¶·à¶º
à¶ºà¶¸ à·Ħ
à¶ĳ à¶¯à¶Ń
Ġà¶»à¶¢ à¶ľà·Ħà¶±
à¶Ķ à¶´à¶»
à¶Ńà¶½ à¶¯
à¶Ńà¶½ à·Ģà¶Ń
âĢ¦ )
ĠM and
ĠP E
ou st
ĠT ouch
ĠL ow
Ġb atting
ĠR ub
ĠI con
ĠH ill
ĠN ep
ĠN ish
ĠN atural
Ġà¶ļà¶»à¶´ à¶§
Ġ18 68
Ġ18 72
à¶Ĭ à¶½
à¶Ĭ à·ħ
Ġà¶ĭà¶¹ à¶º
Ġl yrics
Ġto wards
od i
ĠK m
Ġà·Ħà¶¬ à¶¯
ers à¶½
Ġà¶«à¶º à·Ģà¶½
à·ĥà·Ģ à·Ģà¶½
ak iri
op en
all enge
Ġst ream
à¶ºà·Ģà¶½ à¶¸
Ġà¶´à¶»à¶« à¶¸
Ġ24 5
Ġà¶ĵ à·Ħ
Ġà¶¸à¶ļ à¶¶
ĠÐ Ĵ
à·ļ.... !
à¶§à¶¸à¶ļ à¶º
Ġâ ŀ
Ġal tern
26 0
à¶ª à¶¯
à¶§à¶»à¶§ à¶ļà¶§
ash i
Ġ36 6
Ġà¶»à¶«à·Ģà¶ļ à¶ľ
Ġà¶»à¶Ńà¶± à¶´
Ð» Ñı
ĠWh y
uri es
de f
ES T
à·Ģà¶¥ à¶Ń
Ar ch
Ġì Ŀ
Ġprof it
ĠJohn son
Ġbo ys
ih al
ffic ient
Ġconf ig
ili ation
ĠGl ass
Ġengine ering
ĠÏ Ģ
istr ator
ÑĨ Ð¸
ĠDer ana
ĠScot land
. *
2 80
5 234
C ons
F ile
F iles
G T
H P
M et
N W
N ot
T unes
a à¶±à¶ºà¶ļ
n i
o à·Ħ
r ang
r ant
r ast
w alk
æ ²
à¶º à¶»à¶ºà¶±
à¶º à¶Łà¶ºà¶ļ
à¶» à¶¶à¶¯
à·ļ *
à¶§ à¶´à·ĥ
Ġà·Ģ à¶§à¶¸
Ġà¶´ à·Ĥ
Ġà·ĥ à·Ģà¶½
à¶ľ à¶ļà¶½
âĢį %
Ġà¶ĩ à¶ł
à·ĸ :
Ġà¶ī à¶½à¶ºà¶´
Ġà¶Ĩ à¶Ńà¶ļ
à¶³ à¶´à·ħ
.. (
Ġà¶ĭ à¶Ķ
Ġà¶ĭ à¶»à¶ºà¶ļ
à¶Ńà¶» à·Ģà¶¸
à¶ł à¶½à¶±à¶ºà¶±
à·Ģà¶» à¶½
à·ı. âĢĺâĢĺ
à¶® à¶»à·Ģà¶½
à¶»à¶¸ à¶łà¶±
Ġà¶¸à·Ħ à¶«à·Ģ
à¶¸à¶Ń à¶·
à·Ģà·ĥ à¶ļà¶¸
Ġà·ĥà¶³ à¶§
Ġà¶ħà¶º à¶Ńà¶±à¶º
à¶ħ à¶»à¶«
à¶±à¶ļ à·Ģ
Ġà¶ħà¶» à¶´à¶»
Ġà¶Ĭ à¶ļ
à·ĥà¶ļ à·Ģ
à¶ļà¶½ à¶ºà¶§
à¶¸à¶» à·Ģà¶½à¶§
âĢĻ (
ĠC ast
ĠC rit
ĠC rypt
ĠC reative
Ġà·Ħà¶¯ à¶§
à¶ºà¶¯ à¶¸à¶Ń
ĠA MD
ĠA ND
Ġc ause
Ġ5 40
re te
ĠM id
Ġà¶»à¶¢à¶º à·ħ
ĠP ast
à¶¯à¶ļ à¶¸à¶ļ
Ġà¶ļà¶»à¶ľ à·Ħà¶±
Ġà¶ĳà¶Ń à¶ļà¶½
à¶ĭ à¶¶à¶§
ĠT raffic
à·Ģà¶»à¶«à¶º à·Ģ
Ġf ramework
ĠL in
Ġà¶ľà¶½ à¶¯
ĠG et
ĠD u
ĠR oman
il s
ĠB lood
ĠN I
ĠN i
ĠN an
ĠN eed
ol t
ol as
à¶´à¶½ à·Ģà¶½à¶§
Ġin j
Ġà¶¸à·Ģ à¶´
19 10
à·Ĭ.. ,
Ġ9 50
à¶¤ à¶ļ
Ġà·Ĥ à¶§
ag oda
Ġà¶ĭà¶¹ à¶¸
à·ģà¶ºà¶§ à¶¯
Ġà·ĥà¶´ à¶ºà¶½
iv irus
Ġn othing
à¶»à·ħ à¶¸
Ġg ear
Ġg iving
ĠU PFA
ĠJ R
ĠJ on
ist ed
ist ers
à¶¯à¶»à¶º à¶º
ath an
ik i
Ġà¶±à·ħ à¶½à¶§
à¶´à¶ºà¶§ à¶º
ang oda
Ġà·Ģà·Ħà¶½ à¶§
Ġe k
Ġe ight
Ġà¶ħà¶ºà¶ļ à¶»à¶ľ
ĠAn ura
ail way
Ġde ep
ĠEn c
à·ļ.... .....
Ġch ain
ne g
Ġà¶´à¶±à·Ģ à¶¸
ðŁĺ į
ĠSp y
ĠPr adeep
à·ĬâĢĺ âĢĺ
word press
AM A
Ġind ustry
Ġpre m
ĠÎ ¼
por a
Ġend ed
XX X
cont ent
ĠLink ed
Pl us
ĠElect ronic
aff na
empl ates
Ġresp onse
aham aya
ĠArchae ological
à·Ħà¶»à¶¹ à¶ºà¶ļ
Ġlik ely
ĠÐ· Ð°
ĠDise ase
5234 384
' (
F O
O W
T ue
V R
a à·Ĥ
b b
e qu
i ents
r ill
Ð ¡
â ĨĴ
à·Ģ à·Ħà·ĥ
à¶» à¶¤
à¶¸ à¶ļà¶»à¶«à¶ºà¶±
à¶ļ à¶°
à¶½ à·ģ
Ġà·Ģ à¶°à¶ļà¶º
Ġà¶ļ à¶´à¶º
à¶´ à¶¯à¶±
Ġà¶± à¶ºà¶§
à·ħ à¶±à·Ģ
à¶© à¶´à·ħ
Ġà¶½ à¶Ńà·Ģ
Ġà¶½ à¶ľà¶§à¶¸
Ġà¶º à·ĥà¶§
Ġà¶ļà¶» à¶¸à¶Ń
Ġà¶ļà¶» à¶Ńà¶Ń
Ġà¶» à·Ģà¶±
Ġà¶ĳà¶ļ à·Ģà¶ľ
Ġà¶ħà¶´ à¶¸
Ġà¶¸à·Ħ à¶Ķà¶º
à¶»à¶ļ à·ģ
Ġà¶¢à¶± à¶ºà¶±
Ġ2 19
à¶ľà¶¸ à¶ºà¶±
in et
Ġà¶ķ à¶ľà¶±à¶º
Ġà¶ķ à¶¢à·ĥ
à·ĥà¶ļ à¶ºà¶ļ
à·ĥà¶ļ à¶¸à¶ļ
à¶¢à¶± à¶¸à¶Ń
à¶Ńà¶½ à¶ºà¶ļà¶§
ĠP u
à¶§à¶´ à¶§
Ġt ask
Ġà·Ģà·ĥ à¶½à¶º
à¶ĭ à¶¶à¶½
à¶ĭ à¶´à·Ģ
à·ģà¶± à·ģ
Ġb atuwangala
ĠG h
ĠG ram
Ġà¶¶à·ĥ à¶ºà¶ļà¶§
ĠB uy
ĠH ere
ĠN C
à¶µ à¶±
ĠF OR
ĠF onseka
ĠW ild
ch arge
à·ģà¶ºà¶ļ à¶§à¶¸
ul ate
Ġà¶¢à¶º à¶¶
Ġà¶« à¶ºà¶º
ĠV ig
ĠK ong
à·ħà¶Ł à¶¯
Ġà¶ĳà¶±à·Ģ à¶º
Ġà¶ľà¶«à¶±à¶ļ à¶¯
all ow
Ġv ac
à·ĥà¶»à¶º à¶¸
Ġst and
à¶ĭà¶¯ à¶ºà¶±
ĠNews papers
lo be
Ġ23 2
Ġà¶ħà·ĥà¶»à¶« à¶·
Ġan cient
à¶Ńà¶¸à¶± à¶ºà¶ļ
Ġcon v
ãģ ĭ
ĠPh ilosoph
Ġus es
Ġà¶ħà¶¸à¶± à¶ºà¶±
ight ing
Ġ& #
ie ce
à·ļâĢ¦ âĢ¦
Ñģ ÐºÐ¸
à¶¸à·Ħà¶± à¶§
ĠTr ack
ĠOff icer
ĠCl ash
Ø§ Ø¯
ool s
Ġout put
arg in
ru ce
Ġpre gn
Ġcol lect
Ġinter face
ä¸ į
Ġac ross
ĠBe auty
ĠRan jith
UN P
Ġdet ails
ours es
à¶»à¶Ł à¶´
ĠVol ume
ĠProcess or
Ġbas ic
ĠSubz lk
ĠGR UB
ĠLear ning
ocon ut
à¶ħà¶´à¶± à¶ºà¶±à¶º
2 30
H T
H er
T est
b ased
i ar
n es
r ick
w is
x im
á º
å ł
à·Ĭ ï¿½
à¶» à¶½à¶§
à¶¸ à¶©à¶½
Ġà¶ļ à¶±à¶ļà¶§
Ġà¶ļ à·Ģà¶§à¶º
à·Ĳ âĢĺ
Ġà¶´ à¶¥
Ġà¶¸ à·Ģà¶§à¶Ń
Ġà¶ħ à¶»à¶ļà¶º
à¶´ à¶±à·ĥ
Ġà¶Ķ à¶ļà¶¯
à¶ł à¶±à·Ģà¶½à¶§
à·ĳ âĢľ
à¶¸à¶ļ à¶§à¶Ń
Ġà¶ļà·ħ à¶±
Ġà¶ļà·ħ à·Ģà¶¸
à¶»à¶Ń à¶§
à¶ħ à¶ľà¶º
à¶ħ à¶§à¶ļ
à¶¹ à·Ģà·Ħà¶±
in ism
Ġà¶ķ à·Ĥà¶±
Ġà¶Ĵà¶ļ à·Ģà¶Ń
à¶ļà¶½ à¶ľ
Ġà¶Ĩà¶ļ à¶½à¶±
Ġà¶´à·Ħ à¶¯à·Ģ
à¶Ńà¶½ à¶´
Ġs eat
Ġs leep
re al
re ater
re me
Ġp anel
à¶Ŀ à¶§à¶±
Ġt re
ĠT ree
Ġb uddh
as ons
ad ow
ĠB irth
Ġd ipl
os ing
Ġh ol
Ġh ours
ĠW P
ĠW ell
ir al
Ġ18 79
ĠE X
us band
Ġà·Ģà¶»à¶¯ à·Ģà¶½
Ġn umer
à¶»à¶· à¶½à¶º
oss ible
ap or
Ġg reen
Ġr an
ĠSt an
ik es
Ġà¶±à·ħ à¶ºà¶ļ
if est
Ġà·Ģà·Ħà¶½ à·Ģà¶½
Ġ23 6
Ġ23 8
ant i
Ġà·ĥà¶Ł à¶½
Ġpro duction
à¶ºà¶ļà¶» à¶±à¶º
Ġà·Ļ âĤ¬
ĠÐ ĳ
Ġ= >
Ġà¶ĭà¶ļ à·ĥà¶§
Ġwas h
ach er
sh ot
Ġnot e
à·ļâĢĿ .
Ġph p
ĠEx p
à¤ ķ
Ġcont ract
Ġres ources
99 9
Ġà¶ľà¶¸à¶ļ à¶¸
Ġev ents
ÑģÑĤ Ð²
Ġà¶±à¶»à¶¹ à¶±à·Ģ
eal ous
à¶±à¶Ľ à¶ºà¶ļ
ĠHD R
à¶¢à¶±à¶´ à¶¯à¶º
ĠBe h
ĠCent ury
ĠElect ric
Ġconf irm
ĠVal ley
ĠKarun arathna
iqu es
Ġiss ues
Ġrelig ion
yb rid
ĠIslam ic
ĠWickram asinghe
bro adcast
C eylon
F I
G old
U T
f ather
i ers
p ite
p ret
r ong
t v
z er
{ &
æ ı
Ġ ÂłĠ
à¶Ń à·Ħà·Ģ
à·Ļ âĢĺ
Ġà¶´ à¶°
Ġà·ĥ à¶¡
à¶¶ à·Ģà¶¯
à¶¶ à¶¸à¶ºà¶ļ
Ġà¶½ à¶¯à¶»
à¶° à¶ļà¶»à¶ľà¶Ń
à·Ĥ à¶ļà¶»
Ġà¶ī à¶¹à¶½
à·Ģà¶Ń à¶»à¶«à¶º
à¶Ńà¶» à·ĥ
à¶ł à¶½à¶º
Ġà¶ħà¶´ à¶½à¶ºà¶ļ
à¶»à¶¸ à¶·
à¶»à¶ļ à¶©à¶§
à¶¸à¶Ń à¶ļà¶±
Ġà¶¢à¶± à¶½
Ġà¶ľà¶± à¶«
... ,
Ġà¶¸à¶ľ à¶°à¶º
Ġà¶ĳà¶¸ à¶½
à¶Ńà¶± à¶¸à¶º
Ġà¶Ĭ à¶Ń
Ġà¶ĭà¶¯ à·ħ
à¶Ńà¶ļ à¶¸à¶ļ
en ed
ar ala
ĠS ep
ĠS BS
à·ļ, "
ĠC B
Ġà¶ļà¶§ à¶¯
Ġ4 60
ĠM em
ĠM IN
ĠM emb
ĠM MR
à¶´à¶¯ à¶ļ
à¶Ŀ à¶§à¶±à¶º
Ġf reedom
ĠG M
à¶ºà¶ºà¶± à¶ºà¶º
ĠD ual
ĠD eg
ĠR en
à·Ģà¶ľ à¶§
ĠH at
Ġà¶Ńà¶± à¶´
à¶´à¶½ à¶ľà¶¸
Ġh om
Ġà¶Ī à¶ľ
Ġ18 1
ot ype
un i
ĠE vent
à¶Ĭ à¶©
um atic
Ġà¶ľà·Ħ à¶«à¶ºà¶ļ
ul ated
ul ations
Ġ17 76
à¶©à¶½ à¶ºà¶±
all a
Ġv ow
ost er
à¶¶à¶© à¶ľ
ĠSt ephen
Ġà¶ĭà¶´à¶ļà¶»à¶« à¶ºà¶±
à¶ļà¶»à¶«à¶ºà¶§ à¶Ń
12 2
ĠThe y
ĠThe me
ĠCh a
à·Ĭ.... !
Ġà·Ģà·ħ à¶½à¶±
Ġà·Ģà·ħ à¶´à¶½
ord in
à¶½à·Ģà¶º à¶Ń
ĠX I
pl ace
Ġà·ĥà·ħà¶ļ à¶±à·Ģ
ãĥ »
Ġ34 2
AN D
Ġar g
ĠSil ver
Ġen joy
à¶´à¶´ à·Ħà·ĥ
Ġrel at
à¥ ĩ
Ġext ract
ĠWij ay
On line
ĠSir asa
Ind ian
war es
Ġleg al
ìĻķ íĽĦ
ĠAds ense
etti arachchi
B ar
G en
L ab
P ort
P ass
T ime
c at
c ope
g al
g roup
u its
Ã ´
Ù ĳ
å ¨
Ġ ir
à·Ģ à¶ľà¶¸
à¶º à¶¶à·ĥ
à·ĥ à¶»à¶ļ
à·Ļ (
Ġà¶ľ à¶ºà¶Ń
Ġà¶¶ à¶¢à·Ģ
à¶¢ à·Ģà¶½à¶§
à·Ģà¶± à·Ģà¶¯
Ġà¶ĳà¶ļ à¶ļà¶º
Ġà¶ĭ à·Ģà¶§
à¶±à·Ģ à¶½à¶¸
à¶ł à¶¶
à¶® à¶»à¶ºà¶§
à·ļ. âĢį
à·Ģà¶§ à¶¸à¶º
Ġà¶¶à¶½ à¶»à·Ħ
à¶±à¶¸ à¶±à·Ģ
Ġà¶ħà¶Ń à¶§à¶Ń
à¶ħ à·Ģà¶»
à¶»à¶¯ à·ĥ
à¶ļà¶§ à·ĥ
Ġà¶»à¶¢ à·ĥ
à¶»à·ĥ à¶ºà¶±
à·ĥà¶ļ à¶§à¶º
à·ģà¶´ à¶½à¶±
es a
ĠS ab
Ġà¶´à·Ħ à¶ļà¶»à¶±
ĠC OM
à¶»à¶ºà¶ļ à¶§à¶¸
ĠA ud
ĠM otor
à¶´à¶¯ à·Ģà¶½
Ġà¶»à¶¢à¶º à¶ºà¶±
Ġp ic
Ġp air
ĠP OS
Ġt akes
ĠL ion
Ġà¶ľà¶½ à·Ģà¶º
Ġb ene
am y
as uriya
à¶ºà¶ºà¶± à·Ģà¶½
Ġm ight
ĠB ib
ĠI R
ĠN D
Ġh air
ĠF ish
ĠW he
Ġ18 74
à¶ļà¶© à¶§
à¶Ĭ à¶¸
à¶®à¶ļ à¶·
um in
Ġl as
Ġl ibrary
Ġà·Ħà¶Ńà¶» à·Ģà¶§
à·ĥà¶¯ à¶ľà¶±
Ġà¶Ńà¶»à¶Ł à¶ºà¶ļà¶¯
ab ima
Ġst orage
Ġà¶ĭà¶´à¶ļà¶»à¶« à·Ģà¶½à¶§
12 9
ant age
Ġ28 5
Ġà¶ļà·Ħ à¶³
ans ion
ĠX L
Ġà¶ħà¶´à¶±à¶ºà¶± à¶ºà¶±
Ġ35 000
ĠPh D
ĠAd aviya
à·ı..... !
ĠCl ose
Ġres olution
Ġà¶¸à¶³ à¶¶à·Ģ
à·Ĵ..... .....
ĠEd ward
ific ial
Ġed uc
ĠIP v
Ġà¶´à¶»à¶º à¶¸
ĠHe art
Pl ay
Ġmov ement
Ġmed icine
ĠVis it
leg raph
Ġschool s
ipp ing
Ġcal endar
Ġinst ead
ĠId ent
Ġnov el
unn el
resp ond
Ġlev els
D is
I m
K V
M ost
P ap
S ur
W ork
l s
l ol
r ence
s he
w ide
Ï Ĥ
å £
æ Ģ
ê ¸
Ġ iphone
à·Ĳ ?âĢĿ
Ġà¶¸ à¶®
à¶ľ à¶·
Ġà¶ħ à¶»à¶Ń
Ġà¶± à·Ħà·Ģ
Ġà¶ľ à·ĥà¶½
Ġà¶ľ à·Ħà¶Ń
à·ģ à¶¸à¶º
à¶° à¶±à¶Ń
à·Ĵ. ,
Ġà¶ī à¶¸à¶½
Ġà¶¢ à¶»à¶¸à¶»
à·Ģà¶Ń à¶ľà¶¸
Ġà¶Ĵ à¶±à¶¸
Ġà¶ĭ à¶°
Ġà¶ĭ à·Ħà¶±
à¶ł à¶ºà¶ļà¶§
à¶ºà¶½ à¶¸à¶º
Ġà¶¶à¶½ à¶Ŀà¶«à¶º
Ġà·ĥà¶³ à¶º
à¶ħ à¶Ľà¶«
à¶Ńà¶º à¶ºà·ħ
à¶»à¶¯ à·Ħà·ĥ
Ġà¶ħà¶» à·Ħà¶±
Ġ- (
Ġ" âĢį
à¶»à¶«à¶º à·Ģ
à·ļ, ,,
ĠC art
Ġà·Ģà¶§ à·Ģà¶½
ĠA IDS
à¶Ĩ à¶ľà¶±
Ġà·ĥà¶± à·Ħ
Ġs ays
ĠM ih
Ġa utomatic
ĠT ro
ĠT ay
Ġà¶ħà¶ľ à·ĥà·Ģ
and ed
à·ı.. )
Ġà¶ĳà¶ļà¶§ à·Ģà¶Ń
ĠD ong
ĠD ouble
ĠR ing
ĠI Q
Ġd ark
ĠH ong
Ġ7 37
ĠW ed
Ġ18 62
à¶±à·Ģà¶½ à¶§à¶Ń
Ġl aptop
Ġà·Ģà·Ħ à¶«
Ġà¶¯à·Ħ à¶±à·Ģà¶º
ĠK ot
ĠK amal
Ġ17 9
Ġre verse
Ġà¶Ńà¶½ à·Ģà¶Ń
à¶´à¶§ à¶½à¶º
Ġcom es
ĠAn ton
à·Ĵ! âĢĿ
org e
à·Ĭ: -
Ġtr end
Ġà¶Ĵà¶ļà¶ļ à·Ģà¶½
Ñģ ÐºÐ°Ñı
Ġle ader
Ø§ Ùħ
Ġà·ĥà·ħ à·ĥà¶±
à¤ ¤
Ġcont ains
ðŁĺ Ĺ
ãĥ ª
yn asty
à¶§à¶½à¶ºà¶ļ à¶¯
TA R
ays ia
Ġadd itional
Ġpre vent
Ġà¶ºà·Ħà¶¸ à¶ľà¶§
Ġsec ret
ï¼ ī
Ġdec l
ĠRan asinghe
ĠFilm s
erv ation
ĠNot es
Ġbow ling
Ġpp m
ĠDiss anayaka
Ġcell s
ĠUnivers e
Ġwhe el
ĠLak sh
ĠBit coin
çľ Į
éģ ĵ
Ġesp ecially
ansk rit
avas cript
ë¶ Ģ
akun thala
, âĢ¦
. ;
? âĢĺ
C ap
D ev
H F
e us
n est
v illage
w rit
æ ł
è ¦
é ĸ
ì Ĺ
à·Ĭ ................
à·Ĭ Â»
à·Ģ à¶łà¶±à¶ºà¶§
à¶» à¶´à·ĥ
à·ĥ à¶¥à¶ºà¶ļ
à·Ļ âĢĭà·Ļ
Ġà¶´ à¶ºà¶ľ
à·ĵ âĢĻâĢĻ
Ġà¶ħ à·Ģà¶±à¶¸
à¶« à¶ľà¶»
Ġà¶ľ à¶¢à¶»
Ġà¶¶ à¶»à¶¯
Ġà¶¶ à¶Ńà¶§
à·ħ à¶§à¶Ń
à¶© à·Ģà¶¯
à·ģ à·Ĥ
Ġà¶ĩ à¶½à¶º
Ġà¶ļà¶» à¶¯à¶¸
Ġà¶Ĩ à·Ĥ
Ġà¶Ķ à¶Ńà¶´
Ġà¶ĭ à¶¶à¶Ń
à¶¸à¶ļ à·Ģà¶»
Ġà¶ħà¶Ń à·Ģà·ģ
à¶±à¶ļ à¶ļà¶¸
Ġà¶¸à¶Ń à·Ģà¶½à¶§
à·ĥà¶» à·Ģà¶½
Ġà¶ķ à·Ģà¶ľ
Ġà¶Ĭ à·Ĥ
Ġà¶´à·ħ à¶½à¶§
Ġà¶ĳà¶± à¶ľà¶¸à¶±
al ent
à¶¨ à·Ģà¶½à¶§
ĠS TF
Ġ. ;
à·ļ, âĢĿ
Ġs ure
Ġà¶ĭà·ĥ à¶ļà¶§
Ġw alk
Ġf an
Ġf iction
Ġf amous
ĠL ayout
as ap
à¶¸à·ħ à¶ľ
ĠD an
Ġm id
Ġà¶¸à¶« à¶©à¶½à¶º
ĠB an
ĠB ob
ĠI mm
ĠI oT
Ġd ial
Ġd riv
ĠF A
ĠF T
19 18
Ġ18 29
à¶©à¶¸ à·Ģà¶±
ch at
Ġ20 7
Ġl ines
od ium
Ġ17 98
Ġà¶µ à¶½à¶ļà¶ºà¶ļ
Ġv ariable
Ġà·ĥà¶¶ à¶ļ
17 0
Ġà·Ģà·Ħà¶½ à¶ºà¶§
Ġ23 1
Ġ28 7
13 9
ĠÐ ¢
ĠTh ree
ĠTh ird
act ions
Ðµ Ð¹
à¶½à¶¹ à¶§
Ġle arn
Ġi Tunes
int osh
ha á¹ħ
Ġà¶ħà¶»à¶¹ à¶±à·Ģ
ese kara
ĠMan ual
An t
ett a
Ġà¶´à¶§à¶½ à·Ģà¶½
Ġà¶¸à¶»à¶¯ à¶±
Ġgr and
inc ial
ament al
Ġhigh est
AC E
TC A
rib ute
Ġhim self
æľ ī
ĠProv ince
ĠGraph ic
ribut ed
Ġiss ue
dis play
Ġbats man
Ġfil ter
ĠDist rict
sel ves
Ġcurr ency
jj haá¹ħ
+ ,
B est
C B
D ep
G ame
M G
O ver
S V
f unction
h h
m ahinda
ï ½
à·Ģ à¶¶à¶½
à·Ķ âĢĭà·Ļ
à¶¸ à·Ģà¶§
à¶¸ à¶¬à¶½
à·Ļ .......
à·Ħ à¶«à¶ºà¶§
à¶½ à·ħ
à¶½ à¶½à¶ļ
à¶½ à·Ħà¶Ń
Ġà·ĥ à¶¥
Ġà¶¸ à¶´
à¶ľ à·Ģà¶º
âĢį à·Ļà·ı
Ġà¶Ń à¶½à¶¸
à·ħ à¶¶à¶³à·Ģ
Ġà¶º à¶ľà¶¯
Ġà¶» à¶ľà¶±
Ġà¶» à¶Ŀ
à¶¢ à·Ģà¶±
à¶ºà¶± à¶Ń
à¶ºà¶± à·ĥ
à·ı. ''
Ġà¶· à¶¢à¶±à¶º
à¶½à¶ļ à¶§à¶º
à¶¹ à¶¯
à¶ľà¶¸ à·Ħ
Ġ- ----
à¶»à·ĥ à·ĥ
Ġà·Ģà¶© à¶º
ar as
ar ant
ar ily
Ġ" ,
ĠS H
ĠS ize
Ġà·Ĩ à¶ļ
à¶»à¶«à¶º à¶¸
ĠC ru
Ġà¶īà·Ħ à¶§à¶Ń
à¶ºà¶ľ à¶»
Ġ4 30
is ions
om ing
om ent
à¶¸à¶½ à¶½
Ġà¶īà¶© à·Ħà·ĥà¶»
Ġp ad
Ġp ark
Ġà¶¶à·Ħ à·ħ
ĠT an
ĠL I
and hi
Ġb order
ĠD OS
Ġm s
Ġm ic
Ġm ouse
ĠI OC
Ġd ual
ĠH o
Ġà¶´à¶§ à·Ģà¶±à·Ģ
Ġh um
19 43
ĠW ind
ĠW arn
ir ates
à¶½à¶ľ à¶«à¶±
Ġ18 4
Ġ18 75
Ġ18 88
Ġà¶ħà¶¸à¶Ń à¶±à·Ģ
à·ħà¶³ à¶±
ĠE ven
à·Ħà¶ļ à¶§à¶Ń
ag an
us er
Ġl at
Ġà¶¶à¶« à¶§
Ġà¶¢à¶½à¶º à¶Ń
Ġ... ?
Ġà¶¸à¶Ńà¶º à¶Ń
à¶ķ à¶º
à¶©à¶½ à·Ģà¶½à¶§
av it
av ah
ab eth
à·Ĥà¶ºà¶§ à¶º
ov ation
Ġ24 8
ep a
ĠâĢ¦ âĢĿ
16 00
Ġà¶ĩà¶§ à·Ģà¶½
à·ĳ... "
à¶Ľà¶« à¶ľà¶Ń
Ġà¶ħà¶¹ à¶»à¶½
ĠÐ Ķ
se ud
Ġch rome
Ġ07 77
Ð° Ðº
à¶½à¶· à¶Ń
à¶ĭà¶¹ à¶½à¶§
ann ed
ink ing
Ġsc ientific
IS O
ĠDe al
uth u
Ġà¶ļà¶½à¶¶ à¶½à·Ģ
press ion
ĠAb ey
ĠGr ound
Wh ite
ĠMov ies
Ġopt ions
ĠCamp aign
ĠHer ath
Ġsong s
ĠOper a
ĠHard ware
Ġcamp us
Ġide a
ynam ic
ĠExper ience
olly wood
ĠHawk ing
ĠBI OS
onc iliation
E p
F e
O ut
U s
d i
f act
l ov
o j
Ï Į
Ġ ÙĨ
Ļ ×
Ġà¶ £
à·Ģ à¶łà¶»à¶º
à¶º à·ĥà¶Ń
à¶§ à·Ħà¶½
Ġà·Ģ à¶ŀ
à·Ĳ âĢĻâĢĻ
Ġà¶´ à¶½à¶§
à¶´ à¶«à¶Ń
Ġà·Ħ à¶ºà¶¸
à·ħ à¶¸à¶ļ
Ġà¶º à¶§à¶½
Ġà¶ī à¶¸à¶¯
à¶ł à¶»à¶§
à¶»à¶¸ à¶Ĩà¶»à¶ł
à¶¸à¶± à¶»à¶Ńà¶±
à·Ĭ, ...
Ġà¶¶à¶½ à¶±à·Ģà¶¯
Ġà·ĥà¶³ à·Ģà¶Ń
... :)
à·ĥà¶» à·Ħà¶¯
an us
Ġà¶ķ à¶Ńà¶©
Ġà·ĥà¶Ń à¶Ń
à·ĵ. "
Ġà¶Ĭ à¶Ńà¶½à¶ºà¶ļ
on ial
on ents
Ġà¶© à¶ºà¶§
at ar
en ess
à·ĥà¶½ à¶ļà¶º
âĢĿ ]
ĠS aint
Ġà¶´à·Ħ à¶»à¶ļà¶§
ĠC A
ĠC inema
st al
ic ide
it age
Ġc op
Ġ5 30
ĠM O
ĠM ut
à¶¡ à¶ºà¶±
Ġp ara
Ġt ail
ĠT am
à·ı.. ,
Ġb orn
Ġb uilt
ĠG i
am aha
ĠD ie
ĠR u
à¶Ńà¶§ à·Ģà¶Ń
Ġà¶Ŀ à¶±à¶ºà¶§
ri e
ol is
à¶µ à¶¶
Ġh yp
ĠW eek
Ġ18 8
Ġ18 56
Ġ18 58
ĠO desk
ap se
Ġg ave
Ġ25 5
à¶©à¶½ à¶ºà¶ļà¶§
Ġà¶Ńà¶½ à·Ģà¶ļ
Ġà¶Ńà¶»à¶ľà¶º à¶º
Ġr ice
ĠIn fo
Ġà¶ļà¶»à·Ģ à¶ľà¶±
ud u
Ġà¶ħà¶±à·Ģ à¶»
Ġ23 00
Ġ27 6
à·Ģà·ħ à¶ļà¶§
Ġpro perties
'' ''
Ġun a
à¶ª à¶º
ĠInd ones
ĠInd ustry
Ġ; -)
à¶©à¶±à¶ľ à¶±à·Ģ
Ġup grade
Ġà® İ
ĠAnd re
Ġte a
à·ıâĢ¦. âĢĿ
OM E
ĠSL IIT
Ġà·Ħà¶Ł à·Ģà¶º
osh i
Ġen vironment
ĠTe a
ane ous
ĠJay ak
irt el
Ġstr ucture
Ã¡ n
ĠIm db
à·ĴâĢĮ âĢĮ
ĠElect ion
du ce
Ġtechn ical
Ġcond itions
RR P
âĢĶâĢĶâĢĶâĢĶ âĢĶâĢĶâĢĶâĢĶ
Ġallow ed
Ġunivers ities
éĩ ĳ
Ġproble ms
è¡ Į
tegr ated
ĠCapt ain
Ġsep ar
Ġappoint ed
Ġcryptoc urrency
) /
: ,
A U
D rive
F rom
H ot
U E
e ewa
h ome
p ng
s ites
v in
z ech
Ø ²
æ ĭ
ç «
ç ½
à¶» à¶Ľ
à¶¸ à¶ľà¶Ń
à·ĥ à¶ļà¶»à¶±
à·ĥ à¶¯à¶¸
à¶ļ à¶¬
à¶¯ à¶¸à¶ļà¶§
Ġà¶ļ à¶Łà·Ģ
à·Ĳ ;
Ġà¶´ à¶ļà¶º
à¶¶ à¶ļà¶¸
à¶Ĥ ......
à·ĸ ....
à·Ĵ. âĢĺâĢĺ
à¶³ à¶ļà¶¸
à¶³ à¶¯à¶»
Ġà·ĥà¶¸ à¶¯
Ġà¶ĭ à·Ģà·Ħ
à¶Ńà¶» à·Ģà¶Ń
à¶Ńà¶» à¶ºà¶¸
à¶® à·ģ
Ġà¶ħà¶± à¶Ł
Ġà·Ģà¶± à¶¶à·Ģ
Ġà¶ļà·ħ à¶ļà¶§
à·ĬâĢĮ '
Ġà¶¶à¶½ à¶´à¶»
à¶ļà¶º à¶ľ
à¶ļà¶º à¶ºà·ħ
à¶ħ à¶ľà¶½
à¶ľà¶½ à¶½
th an
à·Ħà¶» à¶¹à¶º
à¶ļà¶½ à¶»
à¶Ĵ à¶´
à·ĥà¶½ à¶°à¶¸
Ġà¶´à·Ħ à¶ļà·ħ
ĠC ourse
Ġth er
à¶½à¶§ à¶¸à¶Ń
Ġà¶ħà¶¯à·Ħà·ĥ à¶¸
Ġà¶ļà·Ģ à¶łà¶º
Ġc andid
ĠM ind
ĠM ission
ing ha
ĠP S
ĠP ush
Ġà·Ģà·ĥ à¶ļà¶§
Ġà¶ħà¶ľ à·Ģà¶±
à¶«à¶Ń à¶·
ĠL E
ĠL es
ĠL ake
à·ı.. ?
Ġà¶īà·Ħà·ħ à¶Ńà¶¸
à¶¸à·ħ à¶§
ĠD im
ĠD ays
ad or
Ġm g
Ġà¶ĭà¶© à¶»
Ġà·ĥà¶» à·ħà¶º
ĠI E
ĠI U
ĠI X
ĠI ME
Ġd iss
ĠH ung
ĠN avy
19 24
19 44
à¶ļà¶© à·Ģà¶Ń
Ġà¶ĩà¶± à¶ľà¶Ń
à¶Ĭ à¶»
Ġl ayer
Ġn b
Ġn or
Ġà¶´à·Ħà·ħ à·Ģà¶ļ
Ġà¶ľà·Ħ à¶±à·Ģà¶¯
à·ĥà¶ºà¶ļ à¶¯
im ages
Ġà¶ĩà¶ºà¶§ à¶¸
à¶»à¶ļà¶® à¶±à·Ģà¶½
Ġà¶ľà·Ħà¶± à¶ºà¶ļ
Ġà¶¸à¶±à·ĥ à¶Ń
Ġr ule
ĠSt orage
ok es
aw ra
Ġ27 3
ĠRe lease
à·Ĵ.... !
Ġan imation
Ġà·ĥà¶½à·ĥ à¶±à·Ģ
à·Ģà¶³ à¶Ń
à¶¯à¶»à¶Ń à¶¸
ĠĠĠĠĠĠĠĠĠĠĠĠĠĠĠĠ ĠĠĠ
ond i
à·ı..... "
à¶¯à¶ºà¶º à·ħ
à¶»à·Ģà¶¯ à¶±à¶ļ
irt y
Ġthere fore
Pro f
Ġback ground
Ġfun ctions
Ġword press
Ġmin utes
åħ ¬
istor ic
Eng land
Ġmethod s
Ġwid ely
ĠProv ider
å¹ ³
ĠJe an
ĠDom ain
Ġà·Ģà¶¯à¶ļ à·Ħ
ĠNik on
ĠNir osh
Ġbats men
Phot os
QW ERTY
Ġdefin ition
ĠXia omi
Ġdefe ated
ĠGerm any
asap uwath
$ %
D em
N VQ
g ets
l aw
p ublic
r ac
s ource
w k
w er
y ph
y les
Ä °
Å Ľ
Ñ ī
Ø Ń
å ĳ
ç ¥
ç §
é ľ
ì Ĥ¬
à·ı ?"
à¶» à¶¡
à¶¸ à¶»à¶¸
à¶¸ à·ĥà¶»
à·ĥ à·Ħà¶»
à¶ļ à¶¢à¶±à¶ļ
à¶§ à¶±à¶ºà¶§
Ġà·Ģ à¶°à¶ºà¶ļ
Ġà¶ļ à·Ģà¶ºà¶ļ
à·Ĳ à·Ĳ
à·ľ à·ı
Ġà¶¶ à¶¶à¶½à¶Ń
à·ħ à¶´à¶¯
à¶© à¶§à¶Ń
à¶© à·Ģà¶±à·Ģ
Ġà¶» à¶¯à¶»
à¶³ à¶´à¶½
Ġà¶¢ à¶½à¶°
Ġà¶Ķ à·Ĥ
Ġà¶ĭ à¶¶à·Ģ
à¶Ńà¶» à¶ºà¶¯
Ġà·ĥà·Ħ à¶ļà¶¸
Ġà¶ħà¶± à¶³
à·ļ. âĢľ
Ġà·ģ à·ĥ
Ġà¶· à·Ģà¶±à¶º
Ġà¶ĳà¶º à¶ľ
à¶½à¶ļ à·Ģ
à¶»à¶¯ à¶ºà¶ļ
à¶¹ à¶³à·Ģ
Ġà¶ĭà¶´ à¶ºà¶¸
Ġà¶ĭà¶´ à¶¯à¶±
Ġà¶´à·ħ à¶ļà¶»à¶±à·Ģ
à¶»à¶± à¶±
ar in
ar ana
à¶»à·Ħ à¶±à¶ºà¶§
Ġà¶Ĩà¶» à¶°à¶±
ĠS uj
Ġ3 22
Ġà¶¯à·Ģà·ĥ à¶§à¶¸
it an
à¶Ĩ à¶ľ
Ġs q
Ġs etting
Ġc up
Ġc ycle
Ġ5 43
à¶´à¶¯ à¶ºà¶ļ
Ġp olit
Ġà¶¸à¶½ à¶¯
à¶ĭ à¶´à·Ħ
à·Ħà¶§ à¶±à¶¸
ĠT ube
ĠT ax
Ġw edding
Ġf re
and i
ĠD ew
ĠD ance
ĠD DT
Ġ6 60
ĠH ir
Ġà¶Ķà·ĥ à·Ģà¶½
19 0
19 14
à¶½à¶ľ à¶¯
Ġ18 6
Ġ18 24
ĠE t
ay ana
à·ĥà¶³ à¶±à·Ģ
iv ation
Ġà·ĥà¶¸à¶± à·ħà¶º
im als
ĠV LC
à¶°à¶ļ à¶ºà¶§
Ġà¶Ĩà¶½ à·Ģà¶ļ
Ġà¶ħà¶¶ à¶ľ
Ġà¶Ńà¶»à¶Ł à·Ģà¶½
à·Ĭ" )
à¶ķ à¶§
Ġà¶Ńà¶»à¶ľà¶º à¶¯
à¶´à·Ħ à¶»à¶¯
ala ka
oun s
ly ph
ĠCh ris
qu ote
Ġ28 00
22 6
Ġà¶ħà¶¹ à¶ľà·ĥ
Ġ29 9
à¶ľà·Ħ à¶«à¶º
à¯ Ĥ
Ġun lock
à·ļ.... "
sh i
sh ow
ĠPh ys
Ġle ading
Ġà¶ĩà·ħ à·Ģà¶½
Ġà·ĥà·ħ à¶ļà¶¸
à¶ĩà·ĥ à·ħ
Ġcont inue
ĠÃ ¥
Ġz one
Ġsub jects
inn am
Sri Lanka
Ġsome one
uri ous
Ġmon itor
Al though
Ġche mical
unic ations
Ġvi olence
ÃŃ a
ĠInter face
Ġneed ed
nd i
Ġcommon ly
SD PA
Ġann ual
Ġann ounced
Ġcapital ized
ĠUnivers al
Oct ober
Ġemp loy
ĠUlt imate
Ġcontinu ed
ĠGaz ette
- (
B ay
C r
L ink
M ult
U A
g i
h at
h ard
i ang
s ur
t est
y ch
y ak
Ã «
æ Ľ
ê °
Ġ ÙĦ
à¶¸ à·ĥà¶Ń
à·Ħ à¶¯à¶±
Ġà¶ļ à·Ħà¶½
Ġà¶´ à¶½à¶ºà¶ļ
Ġà¶Ń à¶»à¶«à¶ºà¶§
à¶¶ à¶Ńà¶ļ
Ġà¶¶ à¶ºà¶¯
à·ħ à·Ģà¶º
à¶© à¶§à¶¸
à·Ŀ :
Ġà¶º à·ĥà¶´
à¶ºà¶ļ à¶»à¶¸
.. ??
Ġà¶ĳà¶ļ à¶§à¶±
Ġà¶Ķ à¶ºà¶ļ
Ġà¶Ķ à¶´à¶¯
à¶ł à¶»à¶±
à·ı. âĢį
Ġà¶ħà¶´ à¶»à¶§
Ġà·Ģà¶± à¶ļ
Ġà·Ģà¶± à·ĥà¶¸
Ġà¶¶à¶½ à¶¶à¶½
Ġà¶ł à¶´à¶½
à¶±à¶§ à¶±
à¶ºà¶¸ à¶½
Ġà¶ħà¶½ à¶ľà¶½
à¶ļà¶½ à·Ģà¶Ń
à¶»à¶§ à¶§à¶¸
ar io
Ġà¶Ńà¶Ń à¶Ń
à¶©à¶ļ à¶»à¶¸
à¶Ķ à¶ºà¶§
à¶Ĵ à¶ľ
es us
ĠS EO
ĠC ab
ĠC ool
Ġà·Ħà¶¯ à¶±à·Ģà¶¯
ic ians
Ġs old
Ġc ash
à¶°à¶±à¶º à¶¯
om ic
ĠP ak
à¶§à·ĥ à¶¯
Ġà¶ĳà¶Ń à¶ļà¶¸
ĠL ady
ad ig
ĠB aby
ĠB eyond
Ġà¶Ŀ à¶±à¶ļà¶¸à¶ļ
Ġin fo
Ġà¶ħà¶ºà¶§ à¶±à¶¸
19 05
19 23
19 37
ĠW an
ĠW HO
ew ay
un p
Ġl iter
Ġà¶´à¶»à¶¸ à·Ģ
Ġn ish
à·ĥà¶ºà¶ļ à¶¸
ðŁ Ļ
Ġà¶ħà¶»à¶ľ à¶½à¶ļ
od on
Ġ16 50
Ġ30 6
Ġr out
Ġr adi
Ġà¶±à·Ģà¶ļ à·Ģà¶¯
11 6
à¶»à¶ļà¶» à¶½
Ġ26 9
à¶ĳà¶¯ à·Ģà·ĥ
ob ox
Ġà¶ľà¶½à·Ģ à¶´
à·Ĭ! âĢĿ
ĠX X
Ġà¶ħà¶¬ à¶¸
ĠAl t
ern el
Ġph ones
ĠTr icks
Ġev idence
ĠPr ice
An kle
ung le
St r
me h
und red
à¶±à¶»à¶Ń à¶±
Ġà¶¹ à·Ģ
Ġphot ography
sc ape
ĠIC TA
pert ure
Ġstate ment
\\ \\
Ġtag ged
Ġlaw s
ĠExt ended
ĠSA ITM
à¶¸à·Ħà·ĥ à¶¸à¶ºà¶¸
Ġmult iple
ïĢ ł
ĠRuss ia
Ġmother board
ĠTit le
ĠDevelop er
Ġà¶Ńà¶¸à¶Ń à¶¸à¶±
ĠToy ota
ĠLod eri
ĠLGB T
ĠVig asapuwath
" ;
" ),
; "
K S
c le
j un
m ath
p ol
ä ¿
æ ¸
ç ¾
è ¯
Ġ ÂłĠÂłĠ
à¶± à¶°
à·Ģ à·Ģà¶½à¶¯
à·ı =
à¶º à·ĥà¶º
à¶» à¶ļà¶»à¶«
à¶½ à¶»à¶§
à¶§ à¶ļà¶½
Ġà¶ħ à¶Ŀ
Ġà¶ħ à¶ºà¶±à¶º
âĢį à·Ĵ
à¶´ à¶Ńà¶»à¶º
Ġà¶ľ à¶ºà¶±à·Ģ
à·ħ à·Ģà¶¸
à·ħ à·Ħà¶º
à¶ºà¶ļ à·Ģà¶»à¶ºà¶ļ
Ġà¶ĩ à¶´à¶Ń
Ġà¶ļà¶» à·ĥ
à·Ĥ à¶ļà¶§
à·Ĵ. âĢĺ
Ġà¶Ĩ à¶»à¶§
Ġà¶Ĩ à¶§à¶±
Ġà¶ĭ à¶ºà¶´
à¶±à·Ģ à¶¸à¶º
à·ĳ âĢ¦..
à¶® à¶¸à¶º
Ġà·Ģà¶± à¶ľà¶Ńà·Ģ
à¶· à¶¢à¶±à¶º
à¶¸à¶ļ à¶§à¶º
Ġà·ģ à·ģ
à¶¸à¶Ń à¶ļà¶»
Ġà¶· à¶ºà¶ļ
à·Ħà·ĥ à¶§
à¶ħ à¶ļà¶¸
Ġ2 17
Ġà¶»à¶§ à¶īà¶³
Ġà¶ħà¶¸ à¶»à¶¢
Ġà¶Ķà¶¶ à¶»
Ġà¶ķ à¶ĳà·ĥ
er ed
at al
Ġ" ...
à¶»à·Ħ à¶ļà¶»
ĠC ell
ĠA ch
ĠA CC
à¶Ĩ à¶ļà¶»
Ġs word
Ġ5 25
Ġ4 40
re ll
ĠM ouse
om eter
ĠP ier
ĠP aint
ĠT ra
Ġw or
Ġf a
Ġf inger
Ġb atch
as ion
à¶¸à·ħ à·Ģ
à¶¸à·ħ à¶º
ĠH ell
ĠH TC
ĠH appy
ĠN ag
à·Ĵ.. ,
Ġ18 47
ĠE mer
Ġ20 9
Ġà·ħà¶¸à¶º à¶Ń
ĠK ah
Ġà·Ģà¶łà¶± à¶ºà¶±
à¶ľà¶ºà¶§ à¶º
ĠJ im
Ġre ally
Ġà¶Ńà¶½ à¶±à·Ģ
Ġ30 7
10 6
Ġà¶ħà¶§ à·Ģà¶½
à·ĳ.. "
qu is
Ġe ff
Ġe arn
à¶»à¶¸à¶« à·Ģà¶½
Ġcon verter
ĠSh ah
ach ch
Ð° Ð½Ð¸
Ġj ack
à¶ª à¶¢
à·ļâĢĿ ,
ĠTr ad
ĠTr avel
Ġà¶Ĩà¶ľà¶¸à¶ļ à¶¸
Ġà® ¨
ãĤ Ĥ
ãĤ Ĭ
Ġme asure
à¶ºà¶° à¶»à¶º
Ġent ire
ãĢ į
Ġind ependent
Ġen ough
Ġkn ock
Ġtrans fer
Ġspe ech
Ġà¶ļà·Ħà¶§ à¶ļ
Ġà¶ļà·Ħà¶§ à¶ľà·ĥ
Ġphot ograph
Ġdec ision
Ġdep ot
for ex
Ġsur face
Ġ........ .....
ĠPol icy
Ġcor rect
Ġmag azine
Ġscript s
Ġred uc
Ġhard ware
Ġsam bo
ĠBroadcast ing
Buddh ist
ĠTatto os
Ġà·ĥà¶§à·Ħ à¶±à¶º
Ġdiffic ult
D ef
H el
K ey
M ah
M any
S al
h al
n t
p ot
v ol
¹ ì£¼
æ İ
Ġ lect
Ġ ero
à¶» à·Ģà·ĥà¶¸
à¶Ń à¶¶à¶»
à·ĥ à¶ļà¶»à¶«à¶º
Ġà·Ģ à·Ħà¶º
à·Ĳ -
Ġà·ĥ à¶ºà¶¯
âĢį ,
âĢį à·Ķ
à¶« à¶ľà·ĥ
Ġà¶¶ à·Ģà¶±
Ġà¶¶ à·Ģà¶»
à·Ŀ /
Ġà¶º à·Ģà¶Ń
Ġà¶ĩ à¶¶à¶º
à·ĸ âĢ¦
à¶¢ à¶ºà¶½
Ġà¶ĳà¶ļ à¶³
Ġà¶ĭ à·Ģà¶¸
Ġà¶ħà¶´ à¶¢à¶½à¶º
Ġà¶¶à¶½ à¶ľà¶½
Ġ( âĢį
Ġà¶· à¶«
à¶ĳ à¶±à¶º
Ġà¶¸à¶Ń à¶ľ
Ġà¶Ķà¶¶ à·Ģà¶±
à¶ļà¶§ à¶§
in ing
er on
Ġà¶Ĵà¶ļ à¶¢
à¶ºà·Ģ à¶ł
à¶¨ à¶»à¶ļ
es la
ĠS inhal
à¶ī à¶³à¶½
à·Ģà¶ºà¶ļ à¶§à¶º
ic i
ic us
ed an
ed es
ĠA U
Ġà¶±à¶ľ à¶´
ĠM is
ĠM ember
à¶¡ à¶Ńà¶¸
ĠT RC
Ġà¶ħà¶ľ à·ĥ
Ġw ish
ĠL ie
ĠL IVE
à¶¸à·ĥ à¶¯
and lest
ĠD utch
ĠR at
ad ha
ĠB irds
ĠI LO
Ġd rama
ĠH ettiarachchi
Ġà¶¶à¶» à¶§à¶¸
Ġh ospital
ĠF L
ĠF em
19 11
Ġ18 12
Ġ18 03
à¶Ĭ à¶ľ
à¶Ĭ à¶Ńà¶½à¶ºà¶ļ
ag er
Ġà¶¯à·Ħ à¶»à¶ļ
ul u
à¶ħà¶¯ à·Ħà¶±
ĠV el
ĠV iber
âĢĭ "
eb er
à¶¯à¶ºà¶§ à¶º
Ġg am
Ġg overnance
Ġà¶¸à¶Ńà¶º à¶¯
à® ´
Ġà¶īà·Ģà¶» à¶ļà¶»à¶±
ĠSt ation
ĠSt ick
à¶»à¶ļà¶» à¶ľà¶Ń
ant e
Ġà¶īà·Ģà·ĥ à¶ľà¶±
iz abeth
ĠY O
25 00
ph as
Ġun ited
Ġad oles
Ñģ Ðº
ond uct
Ġà·ĥà·ħ à¶ļà¶½
Ġman ufact
sp ace
bo ot
anth ak
ĠSp anish
Ġ65 00
AN G
ĠCon c
Ġem erg
ĠComm ons
Ġà¶ħà¶§à¶¸ à·Ħ
stit ut
ĠAb h
Ġblog ger
ĠDiv ision
xx x
ĠID E
for um
ibr aries
ĠEl le
AA AA
Ġlog in
Ġel se
à¶į à¶¢
ĠWork s
ĠCons ult
EE E
900 1
cy clopedia
ĠYear s
Ð½Ñĭ Ðµ
ĠMess age
ĠCount ry
ynam ics
ĠFeder al
ĠGard en
gorith m
ê² ½
broadcast beat
Ġsambo jjhaá¹ħ
B B
D igital
N ote
R oy
c r
d ev
g ht
k al
l ankanews
o ir
s ky
t ech
t ax
æ ĥ
ì ķ
à·ı à·ļ
à¶º à¶»à¶¸à¶º
à·Ħ à¶»à¶Ń
à¶§ à¶¢
Ġà¶ļ à·Ģà¶±à·Ģ
Ġà¶´ à¶łà¶º
à¶´ à·ĥà¶±
Ġà¶¯ à¶¶
Ġà¶¯ à·ĥà¶¸
à·ľ ?
Ġà¶¶ à¶¯à¶±
à¶© à·ħ
à¶© à¶ºà¶¯
à·Ŀ .......
à¶ºà¶ļ à¶ºà¶Ń
Ġà¶» à¶¸à¶±
Ġà¶ī à¶´à¶½
à¶±à¶º à¶°à¶»
Ġà·ĥà¶¸ à¶ºà¶¸
à·Ģà¶» à¶§à¶Ń
à¶¸à¶§ à·Ģ
Ġà¶ļà¶½ à¶½à¶ºà¶ļ
à¶±à¶§ à·Ģ
à·Ĵà¶Ĥ )
à¶§à¶º à¶»
Ġà¶ħà¶» à·ħ
in ent
à¶¸à¶« à¶§à¶¸
Ġà¶ĭà¶´ à¶°
à¶¯à¶» à¶´
Ġà¶´à¶¸à¶« à¶¸à¶º
Ġà¶ħà·ĥ à¶¸à¶»
à·ĥà¶ļ à¶¸à¶§
à¶ļà¶½ à¶¶à¶½
à¶©à¶ļ à¶±
it aka
ĠA KA
Ġs om
Ġs eed
Ġs olution
Ġà¶¡ à¶±à¶Ń
à¶ļà¶Ń à¶±à¶º
ĠM otion
ĠM Hz
à¶¡ à¶»
ĠP ent
à¶´à¶» à·Ģà¶½
Ġw al
Ġf ashion
ĠG eek
as pora
Ġm ini
ĠB od
ĠB eat
ĠB inary
âĢĺ ,
ĠN il
el come
à¶łà¶» à·Ģà¶Ń
Ġin sp
Ġà¶Ńà¶»à¶ľ à·Ģ
et c
19 15
19 22
ir ing
à¶ºà¶ºà¶ļ à¶¯
Ġ18 44
Ġ18 78
ip ment
ag en
ur er
Ġà¶ľà·Ħ à¶½à¶º
ĠV irg
Ġà¶Ľ à·Ĥ
ĠK am
ĠK night
Ġà¶Ĩà¶½ à·Ģà¶±
Ġ17 80
ist ical
Ġr oll
ab led
30 3
ĠSt eve
Ġ24 3
ain st
ĠâĢ¦ âĢ¦.
Ġ28 4
13 2
13 4
ell ed
à¶¯à·Ħ à¶±à·Ģ
à·Ĵ? âĢĿ
à·ı! âĢĻ
ical s
Ġà¶ľà¶½à·Ģ à¶ľ
ĠX S
Ġpl us
Ġpl aces
ong o
Ġsh opping
Ġex cept
ÑĤ Ð¸
ash board
Ġ33 8
Ġà¶»à¶¯ à·ħà¶º
Ð¾Ð º
ãĢ Į
ĉĉ ĉ
ĠLe on
Ġinter view
Ġdi ed
ĠÎ ²
Ġà¶ħà¶¯à·Ħ à¶ľà¶±
Ġreg ular
Ġwork ing
Ġmod els
Ġob jects
enn akoon
ĠPri ze
irc raft
Ġrem aining
pect ive
Ġbr ing
ĠRec ord
ĠChand ra
iver r
Ġsk in
Ġmov ies
ĠSing apore
Ġequ al
Ġequ ival
ĠÏ Ħ
ĠOper ation
ĠRas ik
Ġopp ort
gu ard
Ġà¶ħà·Ħà¶½à¶ļ à·Ģà¶Ń
Ø´ ÙĨØ¨Ùĩ
éĢ ļ
ĠSet up
Ġjournal ist
Ġchang es
ĠNar ayan
ìĺ ¹ì£¼
ãģ¾ ãģĻ
Ġ================================ ================
Ġrele ased
Ġwed abima
Brit ish
ĠTay lor
meh ndi
' m
G raph
P ol
W C
b ing
d ownload
d ated
p age
s à¶±
s à¶º
u in
w all
y am
Ï ī
Ñ į
è §
ì §
à·ĥ à¶ľà¶½
à¶ļ à¶´à¶±
à¶§ à¶¬
à¶¯ à·Ħà¶º
Ġà·ĥ à¶Ńà¶»à¶¸
Ġà·ĥ à¶Ńà¶»à·Ģ
Ġà·ĥ à¶«à·ĥ
à¶ľ à·Ħà¶±à¶º
Ġà¶± à·Ģà¶»
Ġà·Ħ à¶Ńà¶¸
à·ĸ Â®
à·Ĵ. ''
Ġà¶ī à¶»à¶Ń
à¶±à·Ģ à¶§à¶Ń
à¶¸à¶§ à·ĥ
Ġà·Ģà¶± à¶±à·Ģ
à¶»à¶º à·ĥ
à¶»à¶Ń à¶½à¶ºà¶§
Ġà¶ħà¶Ń à·Ģà¶»à¶ºà¶±
Ġà¶ľà¶Ń à¶¸à¶±
Ġà¶Ńà¶» à¶¸à¶§à¶º
Ġà¶ĭà¶´ à¶ł
or et
or ity
Ġà¶Ĩà¶ļ à¶±
à¶»à·ģ à¶±
à¶ī à¶ł
à¶ī à¶³à·Ħ
Ġs ap
Ġs ett
Ġc a
Ġc art
ĠP acific
à¶ĭ à¶±à¶Ń
à¶´à¶±à¶º à¶¯
Ġf lo
ĠD F
Ġ6 66
ĠR isk
ĠH um
ĠH MS
ĠN ic
ĠN ev
Ġà¶¸à¶Ł à¶ļà¶§
à¶¸à¶ºà¶ļ à¶¯
Ġà¶ĩà¶½ à·Ģà¶½
Ġ18 01
ot ed
un u
à¶©à¶½à¶º à¶º
Ġn it
Ġn ine
ĠV II
ĠV ista
à¶´à·ħ à¶½
Ġr aj
Ġv illage
Ġà¶Īà¶Ń à¶ļà¶§
Ġ100 000
aw asa
16 9
à¶Ńà¶ļà¶§ à¶¸
13 8
22 2
ĠTh ilak
Ġch amp
à·ı' ,
Ġnot es
Ġà¶¯à¶Ł à¶½
ĠTr aining
ha i
ys s
Ġà·Ģà¶° à¶ļà¶ºà¶±
ĠSp ring
ĠQ R
ĠComp lete
rop olitan
ĠArt icle
ĠIs s
Ġà¶¹ à¶¶
Ġind ependence
Ġ{ \
Ġcons ult
Ã¡ s
sc reen
ÙĪ Ø±
Ex clusive
ĠSm all
TS C
Ġspec ies
Sp ace
Ġlong er
ocr acy
fr ont
amal adasa
ĠJournal ism
ĠFin ance
ĠFin ancial
**************** ****************
ä¼ ļ
Ġbuild ing
ãģ¦ ãģĦ
Ġfem ale
Lat est
ugu ese
erem ony
Screen Sh
ĠPras ad
avah ini
Ġnish anthak
Ġnishanthak amaladasa
B ack
D uring
E ast
F in
G lobal
M ad
N T
N etwork
S ing
S oftware
W P
a à¶©
b ot
b ank
f rom
j ula
s un
w an
w ala
z o
å Ł
é Ŀ
ï ģ
Ġ ult
à¶± à¶»à·Ģ
à¶± à¶ļà¶»à¶±
à·ĥ à¶¶à¶±
à·ĥ à¶¯à¶ºà¶ļ
à·Ļ à·ĵ
à·Ħ à¶©à¶Ń
Ġà¶´ à¶¹à¶ľ
Ġà·ĥ à¶´à¶½
à¶ľ à¶ļà¶§
à¶ľ à·Ħà¶Ń
à¶´ à¶½à¶¯
Ġà¶ľ à¶Ķà·Ĥ
à·ģ à¶°
à·ģ à¶Ńà¶ºà¶ļà¶§
à¶° à¶ļà¶»à¶«à¶º
Ġà¶ļà¶» à·Ħà¶±
à¶³ à¶½à¶±
Ġà·ĥà¶¸ à¶»à¶´
à·ĳ âĢį
Ġà¶ļà·ħ à·Ħà¶¸
à¶»à¶ļ à¶¸à¶ļà¶§
à¶¸à¶± à¶´
à·ĬâĢĮ Âģ
Ġà¶ħà¶º à¶³
Ġà¶ľà¶Ń à¶ļà¶»à¶´
à¶ĳ à¶ļà¶º
Ġà¶¸à¶Ń à·ĥ
Ġà·ĥà¶Ń à¶´à·Ħà¶ļ
à·Ģà¶¸ à¶©
Ġà¶¯à¶± à·Ħ
ĠS ang
ĠS EC
ĠS IM
à¶´à·ĥ à¶¯
Ġà·Ģà¶½à¶§ à·Ģà¶Ń
ĠC op
Ġà·Ħà¶¯ à¶¶
st ate
it arian
Ġs ym
Ġs oon
Ġc ast
Ġc ream
ĠM iddle
Ġp ros
Ġp uzz
à¶«à¶ºà¶ļ à¶¯
à¶ĭ à¶ľà¶±
à·Ģà¶»à¶«à¶º à¶¯
ĠL NG
ĠL yrics
à·Ĥà¶ļ à¶¸à¶ļ
Ġà¶ĳà¶ļà¶§ à¶¸à¶º
Ġb inary
as inha
ĠD inu
Ġm ix
âĢľ .
ĠH an
ĠN T
à¶´à¶½ à¶ºà¶±
Ġin str
à¶»à¶´à¶§ à¶ļà¶»
ĠF ar
à¶±à¶ľ à¶¸à¶±
ro d
Ġ18 45
Ġ18 69
Ġà¶±à¶© à¶ºà¶§
ay ce
ch a
ch ar
um i
iv ery
Ġà·Ģà·Ħ à¶¶
à·ļ.. )
ĠO N
Ġà¶Į à¶º
ul ly
ĠV ish
Ġà¶¸à¶»à¶« à·Ģà¶½à¶§
ig ama
ap k
Ġà¶Ńà¶¯ à¶§à¶¸
à¶ķ à¶ļà¶±
Ġ30 3
Ġà·Ħà·ĥ à·ħ
av irus
ub a
à¶´à¶§ à¶ºà¶§
Ġà¶¢à·Ģ à·Ħà¶»
Ġà¶¶à¶½à·Ģà¶Ń à¶ļ
ov o
Ġà·Ģà¶łà¶±à¶º à¶Ń
12 1
aw ay
ĠâĢ¦ âĢ¦âĢ¦
Ġpro perty
13 3
22 3
Ġà¶ħà¶¬ à¶´
ãģ £
23 6
out s
ĠAl uth
ne th
ĠTr ust
ĠEx tract
Ġà¶±à¶ľà¶»à¶ºà¶ļ à¶¸
uk k
Ġà¶ħà·Ģà¶ºà·Ģ à·Ģà¶½
Ġà·ĥà¶§à¶±à¶ļ à¶¯
ãĥ ĥ
à·ĥà¶ºà¶º à·ħ
Ġper cent
tr ue
Ġoff ers
ĠPer iod
à¸ £
Ġwe ight
AT ION
Ġfeat ured
struct ions
ĠÐ¿ Ð¾
Ġear th
Ġmarket ing
Ġà¶¸à·ħà¶ļ à¶³à¶±
ĠBi ology
Ġà¶»à¶¯à¶½ à¶ºà¶±
Ġcal cul
ĠCre ate
Ġsqu ad
Ġtrad itional
Ġlook ing
Ġà¶ļà¶½à¶¹ à¶ļ
Î¿Ï Ĥ
ĠØ´ ÙĨØ¨Ùĩ
Ġprim ary
ĠNS BM
Ġponn aya
olec ular
ĠNep al
Ġâŀ ¤
ĠRasik ology
. âĢĺâĢĺ
L o
U P
Y C
b ig
f ilm
p at
å İ
æ Ħ
ç »
Ġ rid
à·Ģ à·Ģà¶»
à·ı à·ĬâĢį
à¶º à¶´à¶¯
à¶Ń à·Ģà¶½à¶¯
à¶¸ à¶»à¶§
à·ĥ à·Ģà¶¸
à¶ļ à¶ļà¶»à¶«à¶ºà¶§
à·Ħ à¶°
à·Ħ à¶ºà¶¸
à·Ħ à¶§à¶±
à·Ħ à¶ļà¶ļ
à·Ĳ âĢįâĢį
Ġà¶´ à·Ģà¶»à¶º
Ġà¶± à¶ł
à·ľ '
à¶« à¶ĩ
Ġà·Ħ à¶§à¶º
Ġà·Ħ à¶¶à¶º
à¶¶ à¶§à¶Ń
à¶¶ à·Ħà¶»
à¶¶ à¶§à¶¯
à¶° à·Ħà¶¸
à¶¢ à¶©
à·Ģà¶± à¶½à¶¯
Ġà¶ĭ à¶»à¶«à·Ģ
à¶ł à¶ºà¶Ń
Ġà¶ħà¶´ à¶¶
à¶® à¶ºà¶¸
à¶»à¶¸ à¶©à¶½
à¶»à¶¸ à¶¢à¶ºà¶±
Ġà¶ļà·ħ à¶¹à¶±
à¶ľà¶Ń à¶ºà¶ļà¶§
à¶Ł à¶ºà¶ļà¶§
à·Ĵà¶Ĥ -
Ġà¶ħà¶¯ à¶½
à¶ħ à¶¢à¶±
Ġà¶¸à¶Ń à¶½
à·Ĩ à·Ģ
à¶»à·ĥ à·Ģà¶Ń
à¶»à¶§ à·Ģ
at te
à¶Ĵ à¶§
Ġà¶´à¶¯ à·Ģà¶¸
ĠS port
ĠS SL
ĠS ustainable
Ġà¶ĳà¶½ à¶½
ĠC EO
Ġth r
Ġth us
st one
à¶»à¶ºà¶§ à¶¸à¶º
Ġs in
Ġc atch
à¶ħà¶´ à·Ģ
à¶ħà¶´ à¶¯
ĠM ash
ĠM TV
ĠM ajor
Ġp i
ĠP ap
ĠP ie
ĠP ictures
à¶´à¶» à¶ºà¶±
Ġt or
à¶»à¶¢ à¶ºà¶ļ
Ġà¶ħà¶ľ à¶§à¶¸
ĠL RRP
ĠG alle
Ġm o
ĠB us
ĠB omb
ĠH istorical
ĠH SDPA
à¶µ à·Ħ
Ġh usband
19 26
Ġ18 39
ĠE P
Ġà¶ľà·ĥ à¶¯
ag ement
à¶±à·Ħ à·Ģà¶§
Ġl iterature
ĠO d
Ġà·ħà¶Ł à¶Ń
em an
ĠV ision
Ġg overn
Ġà¶ĭà¶ľ à·ĥà¶§
15 7
ik k
12 4
ang i
ĠThe atre
Ġ21 6
Ġk e
Ġà¶¶à¶½à¶° à¶»à¶ºà¶±
à·Ĵ! )
Ġà¶ļà·Ħ à¶±à·Ģà¶§
Ġà¶Ĩà¶±à¶ºà¶± à¶ºà¶§
à¯ Ĭ
Ġà¶ħà¶¬ à¶ľ
ĠUn lock
ong s
Ġsh ot
per or
per ial
27 0
Ġnot epad
ĠInd o
Ġà¶¯à¶Ł à¶½à¶½
Ġup per
Ġcont est
rou ght
ãĤ ī
ĠPr ab
ĠÃ º
Ġdo or
ĠMag ic
Ġbook mark
ĠWij eya
Ġdep end
Ġdist ance
erv ed
à¶ºà¶¹ à¶½à¶±
Ġpol ice
enu ine
CS C
Ġfact or
Ġoper ation
ĠEar ly
dr agon
ĠPublic ations
Ġinst ance
ĠMath ematics
Ġbeh avior
ãģĹ ãģŁ
ĠSiri ward
Ġur l
ĠFeder ation
Ġê ¹Ģ
Ġsymbol s
Wik ipedia
ĠVac ancies
ĠïĤ §
oust ic
Ġero zan
andlest ick
" ).
& #
C T
F R
F ilm
L S
S a
] ;
a à¶Ń
b rid
g ers
m ad
q l
r ated
t alk
w t
w ise
á ¸
æ ¬
ç Ń
è ´
à¶± à¶½à¶Ń
à·ı ï¿½
à¶º à·ĥà¶ļ
à¶» à¶½à·Ģ
à¶» à¶¶à·Ģ
à¶¸ à¶Ńà¶»à¶¸
à·ĥ à¶°
à·ĥ à¶§à¶»
à¶ļ à·Ģà¶§
à·Ļ à·³
à·Ħ à¶©à¶º
Ġà¶ļ à¶¸à¶»
Ġà¶ļ à¶¸à¶§à¶Ń
à·ĵ âĢĮ
Ġà¶¸ à¶±à¶º
à¶´ à¶¸à¶ļ
Ġà¶¯ à·ĥà¶º
Ġà¶± à¶½à·Ģ
Ġà·Ħ à¶¸à¶§
à¶¶ à¶´à¶Ń
à·ħ à¶´à¶Ńà¶§
Ġà¶¢ à¶¢
Ġà·ĥà¶¸ à¶¶
Ġà¶Ĵ à¶Ńà¶ļ
Ġà¶Ĵ à·Ģà¶±à·Ģ
à·ĳ -
Ġà¶ħà¶± à¶ļ
Ġà¶¸à·Ħ à¶§
à¶¸à¶ļ à¶ºà¶±
Ġà¶ħà¶Ń à¶¯à¶»
Ġà¶ħà¶Ń à¶ľà·ĥ
à¶»à¶¯ à¶±
Ġà¶¸à¶ľ à¶ĩà¶»
Ġà¶ħà¶» à¶¶
à·Ħà¶» à¶´à¶ºà¶ļ
at ur
al so
ar ama
à¶Ĵ à¶¶
Ġà¶ļà¶¸ à¶¯
Ġà¶īà·Ħ à¶ľ
ĠA ri
Ġp le
Ġp ron
ĠP orn
Ġo p
Ġo x
à¶Ŀ à¶»à¶ºà¶ļ
Ġt rip
à¶½à¶Ń à¶¯
Ġw ood
ĠL oss
ĠL ens
Ġb ud
Ġm akes
il aka
ĠH ash
Ġin tern
19 01
id o
Ġà¶ħà¶¸à¶Ń à¶ļà¶¸
à·Ĭ... )
ĠE s
à¶ľà¶» à·Ģà¶½
à·ĥà¶³ à·Ħà¶±
à¶»à¶® à·Ģ
Ġà·ħà¶Ł à¶´
Ġ? )
ĠV IP
ĠK BS
20 30
ĠJ DS
à¶ķ à¶½à¶±
av ed
Ġà¶¸à¶Ńà¶ļà¶º à¶º
à·ĳ.. -
ov en
ov ing
if th
12 7
Ġ22 6
ĠCh icago
Ġ21 4
Ġà¶ļà¶»à¶¯à¶» à·Ģà¶½à¶§
Ġ23 9
14 7
end o
à·ĳ, ,
à·ĥà¶ļà¶§ à¶¸
Ġà¶ļà·Ħ à¶±à·Ģ
ĠÐ Ĳ
ĠSh ell
Ġal phabet
ĠAl wis
ĠPro xy
ug oda
Ġex c
Ġex ternal
Ðµ Ð²
à¶½à¶¹ à·Ģà¶±
Ġà¶ħà·Ħà¶¸ à¶ŀ
Ġsp orts
oll ar
======== ====
ĠIS P
igh ter
ĠCon verter
à¶ºà·ĥà¶± à¶ºà¶ļà¶§
Ġsub s
Ġrest rict
à¶»à·ĥà¶» à¶´
Ġsup ply
Ġprot ocol
Ġset up
ify ing
ĠPay Pal
Ġà¶¸à·ħà¶ļ à¶³
Ġoper ating
Ġdraw n
++++++++ ++++++++
Tw o
æĺ ¯
ĠArchae ology
agam age
ĠNor thern
Ġgraph ic
srilanka elle
Ġà¶¸à¶»à·Ħ à¶¬
cious ness
ĠGener ation
Ġà·ĥà¶´à¶» à¶ľà¶¸
Will iam
Ġphr ase
åĩ º
ĠCort ana
ĠLinked In
Ġsambojjhaá¹ħ ga
5 50
C V
C ash
G I
G o
I reland
J ust
O DI
W HO
c al
l ank
l ier
l ines
m ult
n ational
z i
Â ¨
à·Ĵ âĢĭ
à¶º à¶ŀ
à¶º à·Ģà¶½à¶¯
à·Ļ :
à·ļ !!!
à·Ħ à·Ģà·ĥà¶§
à¶¯ à¶±à¶§
Ġà¶ļ à·ĥà¶º
Ġà¶¸ à·Ĥ
Ġà¶¸ à¶±à·Ģ
Ġà¶¸ à¶½à¶±
à¶ľ à·Ģà¶»
à¶ľ à¶¸à¶§à¶Ń
à¶« à¶½à¶Ń
à¶¶ à¶´à¶±
à·ħ à·ĥà¶ļ
à·ħ à¶ºà¶ļà¶§
à¶© à·Ħà¶»
Ġà¶» à¶¯à·Ģà¶±
à·Ĥ à¶ºà¶§à¶¸
à¶³ à·ĥà¶½à¶ļ
Ġà·ĥà¶¸ à¶¢à¶º
à¶ł à¶ļà¶¸
à¶® à¶ºà¶¯
Ġà¶¸à·Ħ à¶º
à¶¸à¶ļ à·Ģà¶Ń
à¶¸à¶± à¶ľ
Ġà¶´à¶» à¶ºà¶ļ
Ġà¶· à·Ģà¶ºà¶ļà¶¯
à·Ĭ. '
à¶ļà¶º à·Ģ
Ġà¶ħà¶º à¶ľà¶¸
à¶ľà¶¸ à¶½
in ical
in stein
à¶§à¶¸ à¶¯
Ġà¶° à¶¢à¶ºà¶±
Ġà¶´à¶¯ à¶ºà¶º
ĠS amp
ĠS olar
à¶¥ à¶±à¶º
à¶½à¶§ à·Ģà¶Ń
Ġà¶´à¶± à¶Ńà¶º
Ġà¶ļà¶© à¶ļà¶»
Ġà¶¶à¶½à¶± à·Ģà¶±
à¶Ĩ à¶ľà¶¸à¶ļ
Ġs ale
Ġ5 20
ĠM atch
Ġà¶īà¶© à·Ħà¶»
ing a
ĠP res
Ġt ub
à¶ºà·Ģà¶» à¶ľ
ĠT ips
Ġf m
ĠL ah
Ġb ed
Ġb re
ĠD X
Ġm ut
Ġm ill
Ġm ilitary
Ġà¶ľà¶«à¶± à¶ºà¶±
il ed
il ities
ĠB A
ĠB ab
ĠB ern
ĠB eg
ĠH utch
à¶ħà¶± à¶»
à¶łà¶» à¶±à¶¸
Ġin form
ac red
et ry
et ary
Ġà¶ºà¶§ à¶ļà¶»
Ġà¶ĩà¶» à¶ľà¶Ń
ĠW ireless
Ġ18 16
ĠE D
ĠE ye
Ġà·ĥà¶ļà·ĥ à¶±à¶º
Ġà¶´à¶»à¶¸ à¶Ń
Ġà·Ģà·Ħ à·ħà¶º
Ġà·ħà¶Ł à¶ļà¶¯
à¶¯à¶§ à¶¯
à¶ľà¶¸à¶º à¶¯
ĠK r
ers e
Ġà¶Ĩà¶½ à·Ģà¶§
Ġ17 70
ĠJ O
ĠJ oe
ab it
18 00
Ġà¶±à¶Ńà¶» à¶ļà¶»
15 5
15 6
Ġ24 9
Ġcom pl
Ġe as
14 4
Ġ27 00
ĠAn ne
à·Ĥà¶¥ à·Ģà¶»à¶º
Ġex posure
ÑĤ Ð°
Ðµ Ñħ
ÑĢ Ð¸
Ġà·ĥà·Ģà¶± à¶§
Ġà¶»à¶§à·Ģà¶½à¶§ à¶¯
ĠEx clusive
Ø§ ÛĮ
oll a
à¤ ®
ĠAs us
eng ers
ĠEd iting
St ar
Ã© e
rid ay
Ð» Ñĥ
Ch in
Ġoff ic
Ġà·Ħà¶Ł à·Ģà¶¸
Ġà¶ħà¶§à¶¸ à¶ľà¶½
Sh are
ĠSk ills
ES CO
ĠPar is
Ġrem ote
yd ney
PH P
cast ing
å¤ ©
ĠEm b
Ġprov ides
Â´Â´ .
Ġline ar
ĠEconom ics
Ġfin ished
ĠKh al
Ġcurrent ly
ĠJe ff
ĠProt ocol
æĹ¥ æľ¬
ĠUlt ra
Ð¾Ð³ Ð¾
Acc ording
ìŀ ¥
ĠDin esh
Ġtreat ment
ĠAnth ony
Ġnecess ary
ĠCommon wealth
B usiness
C am
D el
F eb
H I
I EC
L og
M M
M ich
S ystem
f m
k ins
p ur
p awra
v et
è Ĥ
Ġ à·ĳ
Ġ ÑĢÐ°
à¶Ń à¶ļà¶»à¶«à¶ºà¶§
à¶¸ à¶ľà¶±
à¶ļ à¶¶à·Ģ
à·ļ ï¿½
à·ļ ...........
à·Ħ à¶ŀ
à¶½ à·Ħà¶»
à¶¯ à¶ºà¶ļà¶º
à·Ĳ ......
à¶´ à¶§à·ĥ
Ġà¶¯ à·Ģà¶§à¶±
Ġà¶Ń à¶Ńà¶±à¶±
à¶¶ à¶±à·Ģ
à¶¶ à¶ľà¶±
à·ģ à¶±à¶Ń
Ġà¶ļà¶» à·Ģà¶Ń
à¶³ à¶§à¶Ń
Ġà¶¢ à¶ľà¶±
Ġà¶ĭ à¶¸à¶»
à¶±à·Ģ à·ģ
à¶Ńà¶» à¶ļà¶»à¶«à¶º
à·ĳ ÂŃ
Ġà¶¸à·Ħ à·Ģà¶Ń
Ġà¶ļà·ħ à¶ºà¶ļ
à¶¸à¶º à·Ģ
Ġà·Ģà¶½ à¶±à¶¸
Ġà¶ħà¶¯ à·Ħà¶Ń
Ġà¶ľà¶± à¶«à¶ļ
à¶ħ à·Ģà¶ºà·Ģ
Ġà¶§ à¶¶
Ġà¶´à¶Ń à¶Ń
à¶ºà¶¸ à¶´
à¶§à¶º à¶Ń
à¶ºà¶º à¶ºà·ħ
à¶¯à¶± à¶½
in clud
er ick
ĠS R
ĠS anskrit
Ġ. )
Ġ3 12
st anding
Ġà¶ļà·Ģ à¶ºà¶±
Ġs oci
Ġs ection
ĠM ot
le e
is l
à¶¸à¶½ à¶°à¶¸
Ġp an
à¶§à·Ħ à·ħ
Ġt emplate
ĠL en
ĠL otus
Ġb a
Ġb ag
Ġb ur
ĠG ang
ĠD OF
Ġm el
Ġà¶¸à¶» à¶±à¶ºà¶§
ĠH NB
ĠN umbers
Ġh ole
à¶»à¶«à¶ºà¶ļ à¶»
ro st
19 21
Ġ18 19
Ġ18 21
ot ton
ĠE U
à¶¸à·Ħ à¶ľà¶¸
ct ional
Ġn orm
à¶»à¶´à¶§à¶º à¶¯
ĠV M
ĠV lad
ĠV inc
à¶ľà¶ºà¶§ à¶¯
à¶¯à¶»à¶º à¶Ń
à·ĥà·Ħ à¶¢
Ġà¶īà·Ģà¶» à¶¯
Ġv ag
18 5
ith uw
à¶©à¶±à¶º à¶º
ep ler
qu es
Ġe yes
Ġ26 5
à·ıâĢ¦ âĢ¦.
Ġ27 4
ib b
Ġpl aced
Ġsh ows
26 5
iy o
28 9
à·ļâĢĻ ,
Ġapp le
ĠPl ug
à¤ ¦
à¤ ²
eg et
TE C
Ġà¶»à¶¯ à¶½à¶º
Ġim plement
ett y
Ġdo i
ĠPort able
IC TA
IN E
ĠØ ±
arm ing
ï¼ Ī
uck y
Ġass ign
Ġthem selves
Ġaccount s
ĠKum ari
ĠMac intosh
Ġsch ed
ÂłÂłÂłÂł ÂłÂłÂł
Ġav oid
ĠOb ject
à¶ºq à¶§
ĠHind i
ĠTechn ologies
Ġlo op
ĠDemocr atic
ìŀ Ĳ
ĠCur rent
ĠFort une
Ġconc ern
apath pawra
Ġsus p
sol ute
vid ia
ĠGMO A
Ġamm ata
Ġinit ial
ëª ħ
$ #
A IDS
C y
E urope
G reat
H ard
M aster
P od
S USE
W est
i enced
j in
y ahoo
{ {
Ù ¾
Ġ Ä
à·Ķ ''
à·ĥ à¶Łà·Ģ
à¶¯ à¶½à¶±
à·Ĳ ).
à·ĵ ......
à¶ľ à¶§à¶Ń
à·ħ à·Ħà¶¸
à¶ºà¶ļ à¶»à¶«à¶ºà¶ļ
Ġà¶ĩ à·Ģà·ĥ
Ġà¶ĩ à¶ºà¶¸
Ġà·ĥà¶¸ à¶ļà¶ºà¶§
à·ı. Ëľ
Ġà¶´à¶» à·Ħ
Ġà¶¢à¶± à¶¯
à¶±à¶¸ à¶½
à·Ĵà¶Ĥ "
Ġà¶ħà¶¯ à·Ģà¶±à·Ģ
à¶ħ à·Ģà·ĥà¶»
Ġà¶»à¶§ à·Ģà¶§
... !!
à¶ĳ à¶ļà·ħ
à¶»à¶« à¶¸
Ġà¶¸à¶Ń à·Ģà¶½
in ant
in ental
Ġà¶ķ à¶¢
Ġà¶ħà¶© à·Ģà¶±
à¶Ķ à·ĥà¶´
es ha
à·ĥà¶½ à¶§à¶Ń
ĠC ad
ĠC odes
Ġth ous
Ġà¶¯à·Ģà·ĥ à¶§à¶Ń
it ude
ĠA pr
Ġs end
ĠM D
ĠM ic
ĠM echan
Ġp a
Ġp ython
ĠP as
Ġa uth
Ġà¶¸à¶½ à¶ºà¶§
à¶´à¶±à¶º à¶§à¶Ń
à·ģà¶± à¶¯
Ġf oll
ĠL ess
Ġb ridge
ĠG ay
à¶ļà·ħ à·Ģ
ĠB ure
ĠB reak
ĠI ron
Ġd im
Ġd iab
ĠH aw
ĠN ick
ĠF OSS
Ġà¶Ĩà·ĥ à¶¯
ro v
ro ck
19 19
ĠW oman
Ġ18 59
Ġ18 63
ot ional
à·ĥà¶³ à¶¸
à·Ģà·Ħà¶± à¶§
à¶ĳà·ĥ à¶¯à¶¶
Ġà¶´à¶« à¶¯
im ir
ĠV III
Ġà¶¸à¶»à¶« à·Ģà¶½
Ġg lobal
à¶ľà¶¸à¶±à¶º à¶º
à¶ľà¶«à¶ļ à¶ľà¶Ń
ak ash
à·ĥà·Ħ à¶ľà¶Ńà¶º
Ġà¶´à·Ħà¶½ à·Ģà¶ļ
ĠSt adium
à·ģà·Ģà¶½ à¶º
Ġst ay
Ġ22 3
ine a
à·Ĭ' .
à¶»à¶¸à¶«à¶º à¶Ń
ect ors
Ġ23 4
ish a
ian o
Ġà·Ħà¶½ à¶±à·Ģ
Ġà¶ħà¶¸à¶Ńà¶» à·Ģà¶º
ra ight
Ġà·ĥà¶Ńà¶» à·ĥ
ach ed
sh op
Ġsp read
ĠVideo Hiru
à¶©à·Ģà¶½ à¶§à¶Ń
Ġev olution
An onymous
Ġar my
ograph ical
oph er
Ġform ed
Ġpre par
ĠDis able
//// /
Ġfl u
ĠRaj a
à¶©à¶±à¶Ł à¶¸
Un der
Ġche mistry
pect s
ĠRec overy
ĠPol ice
àª ¾
Ġcor respond
Ġá Ī
ĠBrit ain
Ġtag s
Ġrecogn ition
ĠStr ateg
aria bles
ĠLaw rence
Ġvol ume
Ġorgan ization
clus ion
Ġball s
Ġgl ass
Ġhack er
drop apk
Ġqual ified
ĠPriy antha
bar ic
ĠJack son
ï»¿ï»¿ ï»¿ï»¿
ĠLAN KA
Ġarch itect
Sm art
ĠWas antha
ĠSha akunthala
ĠKet apathpawra
ĠClark e
Ġtemper ature
ĠAnalyt ics
' )
: \
A k
A ccess
F B
J e
L A
R em
c n
c ard
f all
g ery
h as
j ee
m ap
m atch
r ar
Î ´
Õ ¡
ä ¾
å ½
ë ĭ
ì ĥ
ì ļ
Ġ ÑĢ
Ġ river
į ķ
à·Ĵ =
à·ĥ à¶´à¶º
à·ĥ à¶ºà¶§à¶¸
à¶ļ à·Ĩ
à·Ħ à·Ģà¶½à¶§
à¶½ à·Ħà¶½
à¶½ à¶¶à¶Ń
à¶¯ à¶¸à¶§à¶º
à¶ľ à¶ļà¶¸
Ġà¶¯ à¶¸à·ĥ
Ġà¶¯ à¶½à¶¯
Ġà¶± à¶ºà¶ļ
Ġà·Ħ à¶©à¶Ń
Ġà¶¶ à¶¬
à¶Ĥ âĢįâĢį
Ġà¶ĩ à¶¸à¶§
Ġà¶ĩ à¶½à¶¸
à·Ĵ. !
à¶ºà¶± à¶ºà¶º
Ġà¶Ĩ à¶½à¶ļ
à¶³ à¶±à¶¸
Ġà¶Ķ à¶´à¶º
Ġà¶Ķ à¶´à¶±
à¶ł à¶±à·Ģ
à¶ł à¶»à·Ģ
à¶ł à¶»à¶ºà¶ļ
à¶´à¶Ń à¶¯
à·Ħà·ĥ à¶º
à¶ħ à¶§à·Ģ
... '
à·Ħà¶½ à·Ģ
à¶Ńà¶± à·Ģà¶±à¶¸
an ing
Ġà¶ķ à¶ļà·Ģ
on ent
on ia
à·ĥà¶ļ à¶§à¶Ń
ĠS B
ĠS y
ĠS SD
ĠC ase
ĠC zech
st ar
Ġà¶¯à·Ģà·ĥ à¶ļà¶¯
âĢ¦ !
Ġs ides
Ġc y
Ġp ictures
ĠP G
Ġa f
Ġt rial
ĠT ub
à·ı.. !!
Ġb irds
ĠG ate
ĠR out
Ġm ention
ĠB in
ĠN ation
à·ı... ,
ka k
à·Ĵ.. !!
19 4
ĠW ales
Ġà¶ĩà¶½ à¶©
Ġ18 31
Ġà¶ĩà¶± à¶ľà¶±
ĠE co
ĠE bay
ay o
à¶Ĭ à·ħà¶ľ
Ġl ose
Ġà¶¶à¶© à¶Ń
em porary
Ġà¶« à¶ºà¶Ń
ĠV ip
ĠK DE
Ġg ard
ĠJ in
Ġà¶Ńà¶»à¶ľà¶º à¶Ń
à¶ļà¶ºà¶§ à¶¯
Ġfor es
Ġà¶¸à¶Ńà¶ļà¶º à¶Ń
à·ı.... âĢĿ
ĠâĢ¦ âĢ¦..
Ġà·Ģà·ħ à·ĥ
à¶¯à·Ħ à¶¸à¶Ń
ĠTh an
ĠSh oot
23 1
Ġ35 5
Ġtr av
29 0
à¶Ĩà¶º à¶Ńà¶±à¶ºà¶ļ
à·ĲâĢį à·Ļ
à¶§à¶»à¶§ à·Ģà¶½à¶§
à·ĥà¶»à¶ºà¶ļ à¶¯
Ġle ave
ock ing
Ġà¶·à¶§ à¶ºà¶ļ
Ġcont ribut
48 6
ãĤ ¹
à·ĴâĢ¦. âĢĿ
Ġà¶´à¶§à¶½ à·Ģà¶±
Ch ina
AS H
ĠPer formance
ER S
Ġdi aspora
PA A
stit ute
ĠBe ach
Ġdif ference
ĠBro d
ĠBro adband
xx xx
Ġà·ĥà·ĥà¶³ à¶¸
Ġ........ ......
Ġterm inal
Ġpartic les
Ġsk ills
RE E
æĸ ¹
ĠOpt im
ĠBi ography
ĠEv illage
ĠAv ast
Ġaccess ed
ĠCorpor ate
ĠSud oku
iqu id
Ġpay ment
Ġide as
osc ope
ÐµÐ» ÑĮ
ĠCy ber
~~ ~~
Ġmaterial s
Ġeconom y
cell ent
ĠKen ya
Ġbeli eve
Ġgrow th
âĸ¬âĸ¬ âĸ¬âĸ¬
ĠRot ten
Ġeb ay
ScreenSh ots
, (
6 50
A ct
A pr
C P
D ialog
F ollow
P ower
R h
T ext
U r
d ed
i at
l u
l ay
m aster
r h
s ri
s ocial
t or
t ra
u um
z ip
Ã Ł
Ú ¯
á Ł
â ķ
å ĭ
Ġ iv
à·Ĵ âĢĵ
à·Ķ à·Ĳ
à¶¸ à¶¸à¶±
à¶¸ à¶©à¶ļ
à¶¸ à¶¸à¶¯
à¶¸ à¶³à·Ģ
à·ĥ à¶Ńà¶¸
à·Ħ à·ħà¶º
à¶§ à¶ºà¶ļà¶§
Ġà·Ģ à¶¶
à¶¯ à¶±à¶Ń
Ġà¶ļ à·Ħà¶Ń
Ġà¶ļ à¶Ńà¶»à¶ļ
à·ĵ ?
à¶ľ à¶»à¶ºà¶±
Ġà¶ħ à¶¶à¶»
Ġà¶¯ à¶±à¶§
à¶© à¶¶à¶§
Ġà¶½ à¶ļà¶½
Ġà¶½ à¶¸à¶ºà¶§
Ġà¶» à¶¸à¶½
à·Ĥ à¶¸à¶½
à·Ģà¶± à¶»
à¶® à¶ļà¶»à¶«à¶º
à¶ļà¶» à¶¯à¶»
Ġà¶¸à·Ħ à¶±à·Ģ
à·Ĭ, âĢĭ
à¶ľà¶Ń à¶ºà¶º
à·Ģà·ĥ à¶ļà¶º
Ġà¶ħà¶º à¶¸à¶º
à¶¹ à¶±à·Ģ
à¶Ńà¶± à¶ľ
à·ĥà¶» à¶ł
an iya
à·Ĥà¶« à¶ºà¶§à¶Ń
at ne
à¶©à¶ļ à¶¸à¶§
à¶¨ à¶¶
à¶¨ à¶±à¶º
Ġà¶´à¶¯ à¶´
à¶»à·Ħ à¶ºà¶º
à¶´à·ĥ à¶Ł
Ġà¶ĳà¶½ à¶¸
ĠC ON
à¶¬ à¶º
à·ħà¶¹ à·Ģà¶º
ĠA irtel
à¶Ĩ à¶©à¶¸
Ġs ad
Ġs ense
Ġc inema
Ġ4 10
à¶¶à¶½ à¶½
ĠM Y
ĠM u
ĠM IT
is al
à¶½à¶° à¶»à¶ºà¶ļ
Ġp ure
à¶§à·Ħ à¶ļ
Ġt ube
Ġf it
Ġf ixed
Ġb ound
ĠG er
ĠG andhi
ĠB ag
ĠB ruce
Ġà¶īà¶³ à¶´à¶±
Ġd an
à¶Ńà¶ºà¶ļ à¶¯
à¶»à¶´à¶§ à¶ºà¶±
ĠF ord
Ġà¶ħà¶ºà¶§ à·Ģà¶Ń
19 25
19 28
à¶¸à¶ºà¶ļ à¶ľ
ir esh
id ers
id ney
Ġ18 25
à·ĥà¶³ à¶º
ow der
ĠO C
ur rent
em i
Ġà¶»à¶® à¶ºà¶¯
ĠV in
à¶ºà¶ºà¶§ à¶¯
à¶§à·ĥà¶ļ à¶ľ
à·Ĥà¶ºà¶ļ à¶¯
Ġà·Ħà¶º à·Ħà¶¸
Ġà·Ħà¶¬ à¶±à¶ľ
ia ble
Ġà·Ħà¶Ńà¶» à¶ļà¶¯
à¶ľà¶¸à¶±à¶º à¶Ń
20 8
ĠJ a
Ġà¶Ĩà¶Ń à¶ľ
Ġà¶ĳà¶ļà¶Ł à¶¯
18 6
Ġà¶ħà¶« à¶¶
aw ed
17 7
à¶ļà¶ļà¶§ à·Ģà¶Ń
à¶»à¶¸à¶«à¶º à·Ģ
Ġcom fort
Ġà¶ļà¶»à¶¯à¶» à¶ºà¶ļà¶§
ant o
ff ee
Ġk ill
Ġpro per
Ġpro duc
ust er
ĠTh or
ĠX ML
Ġà¶ħà¶´à¶±à¶ºà¶± à¶ºà¶§
ĠSh r
ĠSh op
Ġâ Ŀ
Ġal most
ĠAl bert
Ġus age
Ġus ername
à¶½à¶Ł à¶¯
Ð¸ Ð»
à·Ĵ' ,
à¯į .
à¶Į à¶Į
Ġme as
100 00
Ġ58 5
ĠØ ¹
Ġcol lege
ĠOr acle
Wh ile
ĠPC B
Ġstr uct
Ġkey word
Ġany thing
Ġà·Ģà·Ħà¶» à¶§
ĠCS R
à·Ģà·ħà¶ļ à¶ľ
ĠEl izabeth
ĠMa ith
ĠRoy ale
ĠEnter prise
athil ake
ato es
Ġblock chain
à¶ºà¶Ł à¶ºà¶§
Ġtrad ition
Ð½Ñĭ Ð¹
à¶½à·Ħà¶ļ à¶§à¶Ń
Ġpot ential
Î¿Ï ħ
ĠHor ror
Ġeconom ic
Ġchang ed
ĠGn an
conf ig
Buy Buy
Ġà¶¯à¶ľà¶½ à¶±à·Ģ
Ġsn ake
ĠCham ber
ë¬ ¸
Ġã ħ
awath tha
ĠIME I
E th
H K
I E
K K
L inux
P ublic
b us
c all
k r
m aker
o es
r ance
s ing
w orth
¡ °
Å Ĥ
á Į
å ī
æ Ĭ
ì Ĩ
à·Ģ à·Ħà¶ļ
à·Ģ à¶¢à¶ļà¶º
à¶» à·ħà¶Ń
à¶¸ à·Ħà¶ļ
à¶ļ à¶ŀ
à·ļ ................
à¶½ à·Ģà¶»à¶«à¶ºà¶§
Ġà·Ģ à¶¯à¶±à¶º
à¶¯ à·Ģà¶½à¶¯
Ġà·ĥ à¶«
Ġà·ĥ à¶ºà·Ģ
à¶¶ à¶°
à¶¶ à¶ľà¶Ń
Ġà¶¶ à¶§à¶ļ
à·ħ à¶ºà¶Ń
à¶© à·Ģà¶½à¶¯
à·ģ à¶·à¶ļ
Ġà¶¢ à¶½à¶Ń
Ġà¶ļà¶»à¶± à¶§
à¶® à¶ºà¶ļà¶§
à¶ļà¶» à¶ł
Ġà¶¸à·Ħ à¶ĩà¶¸
à¶«à¶º à·Ħà¶´à¶Ń
Ġà¶ļà·ħ à·ĥ
à·ĬâĢĮ ...
à¶ľà¶Ń à¶ºà¶§à¶Ń
à·Ģà·ĥ à¶ļà¶¯
Ġà·ĥà¶³ à·ħ
à¶ħ à·Ģà¶½
Ġà¶´à¶Ń à¶ļà¶§
à¶§à¶º à¶º
Ġà¶Ķà¶¶ à¶¸à¶º
Ġà¶ĭà¶´ à¶¸à·Ħ
Ġà¶ħà¶© à¶½
Ġà¶Ĵà¶ļ à¶§à¶º
Ġà¶´à·ħ à¶¯à¶±
th is
à·Ħà¶» à·Ħ
at in
à·ıà¶Ĥ ÂŃ
à¶¨ à¶ºà¶º
ĠS F
à·ĳ. âĢĻ
Ġà·ĥà¶¯ à·Ģà¶Ń
Ġ3 200
à¶½à¶ºà¶ļ à¶º
Ġà·Ģà¶Ń à¶ľ
à¶»à¶ºà¶ļ à¶§à¶Ń
à·ĥà¶¸ à¶ºà¶§
Ġà¶´à¶± à·Ħà¶º
Ġà¶ħà·Ħ à¶±à·Ģà¶½
à¶Ńà¶½ à¶¸à¶§
Ġs an
Ġs orry
om er
à¶¯à¶ļ à¶¯
Ġa st
Ġt old
à·Ļà·Ĭ ......
à¶ľà¶½à¶º à¶ľ
Ġf lood
ĠL DL
ĠL iterature
ĠG reg
ĠD or
ĠD aw
ĠR eb
ĠR ange
Ġm ist
ac ement
Ġ10 50
Ġà¶Ĩà·ĥ à·Ģà¶±
ro pp
Ġà¶ºà¶§ à·Ģà¶±
à·Ĵ.. )
19 2
19 32
19 41
Ġ9 55
Ġ9 99
Ġ20 23
us ha
Ġl ack
Ġn ut
ul ator
im ents
ĠK on
ĠK it
ut en
Ġg aming
Ġà¶ħà¶³ à·Ħà·ĥ
ev es
ĠSt one
ec ause
ang ana
Ġe gg
ĠRe quest
Ġpro jects
Ġà¶ħà¶¹ à¶Ńà¶½
Ġà¶ħà·Ģà¶Ń à¶½
ph ones
à·Ħà¶»à¶«à¶º à¶º
Ġde letion
ra el
Ġtr ain
29 9
ĠRead er
à¶ĭà¶¹ à¶½à¶ľ
Ġph on
Ġcomp uting
Ġ33 5
Th at
Ġà¶½à¶¸à¶º à·Ģ
à·Ĭ? âĢĿ
ivers al
Ġcont ain
IS L
ĠSp ec
Ġag ent
ãĤ ¤
Ġà¶±à¶»à¶¹ à¶´
Ġà¶ļà¶©à¶ļ à·ħ
ER N
Ġà¶¹ à¶º
Ġà·ĥà¶»à¶¯ à¶¸à¶§
äº Ĩ
ĠIt alian
Ġcar ry
Ġbr and
Ġcr ash
EL TS
à·ĴâĢĻâĢĻ .
Ġgu ide
Ġsim ply
ĠDi aries
inter est
ivid ed
Con f
ĠVal ue
Ġmet al
Ġpay pal
ĠHy brid
PR S
Ġtransl ation
Ġadv antage
ĠRom ance
ĠDet ails
Ġpur pose
Ġvers ions
anes ha
ĠLou is
ĠRelig ion
iM age
ë¹ Ī
! ,
- %
1 200
B L
C rit
D own
D OS
I à·Ģà¶±
M icro
O f
O ur
U TC
b ut
c us
g if
j SA
k an
p ower
Ã ¸
Ġ ens
Ġ riv
à·Ĭ !!!!
à·ı à·Ĳ
à¶º à¶ľà¶Ńà·Ģ
à·ĥ à·Ģà¶½à¶¸
à¶ļ à¶±à¶ºà¶§
à·Ļ ).
à·Ļ âĢĮ
à·Ļ ï¿½
à·Ħ à¶ł
à¶½ à·Ģà¶¯
à¶½ à¶¶à·ĥ
Ġà¶´ à¶±à¶¸
Ġà·ĥ à·Ĥ
âĢ º
Ġà¶ħ à¶µà¶Ń
à¶´ à·Ģà·ĥ
à¶´ à¶±à¶ļ
Ġà¶¶ à¶ºà¶ľ
à¶© à¶±à¶¸
à¶© à¶»à¶ºà¶±
à¶Ĥ à¶Ĥ
à¶Ĥ âĢľ
Ġà¶º à¶»
Ġà¶ĩ à¶¯à¶º
Ġà¶ĩ à¶±à¶ºà¶ļ
à·Ĵ. ..........
Ġà¶Ĩ à·Ħà¶¸
à¶³ à¶§à¶º
Ġà¶¢ à¶»à¶¸
Ġà·ĥà¶¸ à¶ļà¶½
à¶Ńà¶» à¶¸à¶§
à¶Ńà¶» à¶ºà¶ľ
à¶ł à¶½à¶ļ
Ġà¶ļà¶»à¶± à·Ģà¶Ń
à¶»à¶¸ à¶´
à¶¸à¶º à¶¢à¶±à¶ļà¶º
à¶ľà¶Ń à·Ģà¶ļ
Ġà¶· à¶»à¶Ń
Ġà¶ł à¶»à¶ļ
à·Ĵà¶Ĥ âĢĻ
Ġà·Ģà¶½ à¶ļà¶§
Ġà¶ħà¶¯ à·Ģ
ĠâĢ İ
Ġà¶¸à¶Ń à¶±
à·Ħà¶½ à¶§à¶Ń
à·ĥà¶» à·ħ
à·ĥà¶» à¶ºà¶§à¶Ń
al al
ar age
à·Ģà¶¸ à¶¯
à¶»à·Ħ à¶¯
à¶»à·Ħ à¶ºà¶Ń
ĠS ie
Ġà¶ļà¶»à¶½ à·Ģà¶Ń
Ġà·ĥà¶¯ à¶ļà¶©
à¶ī à¶©à¶ļ
Ġth erm
ed e
à·ħà¶¹ à¶Ń
Ġc ounter
ĠM Sc
Ġà¶īà¶© à¶¸à¶ļà¶§
Ġp un
Ġp apers
ĠP oll
ĠP ackage
Ġà¶ļà¶»à¶ľ à·Ħà¶ľ
ĠT ry
Ġw ins
Ġb ull
ĠD IG
ĠD ynasty
Ġà¶ĳà·ħ à·Ģà¶±à·Ģ
à¶»à·Ģà¶» à¶ºà¶§
ĠB B
ĠB ing
ĠI ra
os er
ĠH E
Ġin side
Ġh our
Ġh istorical
ĠF ramework
ĠF antasy
à¶´à·Ģ à·Ħ
à¶ºà¶ºà¶ļ à¶§à¶Ń
Ġ18 49
Ġà¶ĩà¶± à¶½à¶º
à·ĥà¶§à·Ħà¶± à¶ļ
he m
Ġà¶Ĩà¶ºà¶Ńà¶±à¶º à¶¯
Ġà¶ĭà¶¹ à¶½à¶Ń
à¶Ķà¶¶ à·Ģ
à¶»à·ħ à¶ºà¶§
à¶»à¶· à¶½à¶¸
Ġà¶ľà·Ħ à¶¸à¶»
ĠK eer
Ġà·Ħà¶Ńà¶» à¶Ń
Ġg etting
Ġà¶¥ à¶±à¶º
Ġ14 000
Ġà·ĥà·Ģ à¶´
Ġre action
op ter
Ġà¶¸à¶© à¶´
Ġr ise
ub untu
Ġv edan
ĠÂ ±
18 7
Ġst aff
Ġ24 7
à¶©à¶±à¶º à¶Ń
Ġ22 7
Ġe lev
Ġ26 1
Ġ26 4
Ġk illed
14 6
à¶»à·Ħà·ĥ à¶±à¶ºà¶ļ
13 1
ail ed
iz es
pt y
à·ĥà¶ļà¶§ à·Ģà¶Ń
vi i
Ġch ance
à¶¶à·ħ à¶±
Ġex pert
29 5
Ġad opt
à¶°à¶ļà¶º à¶º
Ġà¶ĩà¶»à¶½ à·Ģà¶±
Ġph ys
Ġsp ect
ĠEx pl
ĠPl ant
TE D
Ġà® ¸
Ġ34 1
An ti
An cient
Ġà¶ļà¶§à·Ħà¶¬ à·Ģà¶½
rop ri
udd y
ĠHD MI
Ġrun ning
à¶£ à¶Ń
ĠGun athilaka
ĠMal aysia
Sc ience
Ġdec ided
ĠDec k
Pro gram
Ġ900 1
iam ond
ĠSw itch
rim inal
FC ID
arch y
à¦ ¾
êµ Ń
ĠHack er
bl ack
ĠLab or
ĠAdmin istration
à¶Ŀà¶§ à¶ļà¶ºà¶±
Ġrefer red
ĠArab ic
Ġcomplet ed
house keeping
Lat in
ĠPublish ing
ĠSU V
QW jSA
Min istry
ĠBon us
Ġintro duced
ĠJayak ody
éľ ĩ
Ġequival ent
iresh ark
Ġvedan Äģ
) &
D awasa
G od
G ood
H R
H ouse
O rig
O xford
V irtual
a à·Ĥà¶º
f are
h en
j o
l ow
m ay
w i
w ick
Î ³
Î Ń
× Ļ×
ç Ķ¨
é ¡
à·Ĭ ............
Ġà·Ģ à¶»à¶Ń
Ġà·Ģ à·ģà¶ºà¶±
à¶¯ à¶ºà¶½
à¶¯ à·Ħà¶§
Ġà¶ļ à·Ģà¶ļ
Ġà¶ļ à¶¯à¶±
Ġà·ĥ à¶¹
Ġà¶¸ à¶ºà¶ļ
Ġà¶ĳ à¶¶à·Ģ
à¶© à¶¸à¶ºà¶ļ
Ġà¶½ à·Ģà¶ļ
à·Ĵ. *
à·Ĵ. ................
à¶³ à¶¯à¶¸
Ġà¶¢ à¶½à¶¸
.. ?"
Ġà·ĥà¶¸ à·Ģà¶ºà·ĥ
à¶Ńà¶» à¶ľà¶¸
à¶ł à·Ħ
à·Ģà¶½ à¶ļà¶ľ
Ġà¶¸à·Ħ à¶ļà¶±
à¶½à¶º à·ħ
à·Ģà¶§ à¶ºà¶ļ
à·Ģà¶§ à¶±à¶¸
Ġà¶¶à¶½ à¶ºà¶ļà¶§
à·Ģà·ĥ à¶¯
Ġà¶ħà¶Ń à¶ľà·Ħà¶±
à·ĺ .
à¶ħ à¶¸à¶Ń
à¶»à¶¯ à¶Ń
Ġà¶ļà¶Ń à¶ľ
Ġà¶īà¶¯ à¶½à¶Ń
er al
Ġ- :
à·Ģà¶»à¶º à¶ľ
à¶ľà¶½ à¶´
on line
th s
Ġà¶ħà¶½ à·ĥà¶ļà¶¸
at en
al ink
à¶»à·Ħ à¶ļà¶ºà¶ļ
ĠS outhern
à¶¥ à¶¯
ĠC ow
ĠC ultural
à·ĥà¶¸ à¶¯
st ell
Ġà¶ļà¶© à¶ł
à¶ĩ à¶ľà¶º
à¶Ĩ à¶¢à¶±
Ġc ool
Ġ4 25
à¶¶à¶½ à¶´à¶±
à¶ħà¶´ à·Ħà·ĥ
à¶ľà¶ºà¶ļ à¶§à¶Ń
Ġp ul
Ġp riv
Ġp review
ĠP in
à¶½à¶¸ à¶®à¶º
à¶¯à¶ļ à¶§à¶Ń
Ġà¶ļà¶»à¶ľ à·ĥ
à¶Ŀ à¶ºà¶ļ
à¶Ŀ à·Ģà¶±
Ġt ill
ĠT i
ĠT urn
à¶©à¶± à¶ľà¶´
ĠL NW
ĠG SM
ĠâĢĵ -
am ine
ĠD I
ĠD ol
ĠD ate
ĠD est
ĠR O
ĠR ound
Ġm ach
ĠB ah
ĠB ass
ĠB rief
ĠB auhinia
Ġd ig
Ġd ialog
ol o
Ġh ydro
à·ģà¶±à¶º à·Ģ
Ġà¶Ī à¶»
à·ģà¶ļ à·Ģà¶»à¶ºà¶ļ
19 07
19 06
19 34
à¶¸à·Ħ à¶ľà¶±
Ġl ay
iv o
ĠO k
à·ħà¶¯ à¶ľ
em on
ĠK ad
ĠK enn
ut i
ap itiya
eb ra
Ġ.. !
Ġ25 1
Ġ25 2
Ġ25 9
Ġà¶Ńà¶¯ à¶ļà¶»
ak ers
Ġà¶Ńà¶½ à¶ľà¶½
Ġà¶Ńà¶½ à¶´à¶ºà¶ļ
Ġà¶ħà¶ľà¶º à¶Ń
ev al
à·ĥà¶»à¶º à¶º
à¶ļà¶ºà¶§ à¶º
à·Ĥà¶ºà¶§ à¶¯
à¶´à·Ħ à¶Ńà¶»à¶§
ov erty
Ġ24 2
Ġà¶Ńà¶§ à¶¸à¶±
à¶§à¶ľ à·Ħà¶±
17 3
Ġà·ĥà¶¸à·Ħ à¶»à¶ļà¶§
Ġcom mercial
à·ĬâĢ¦ "
16 7
Ġe in
Ġk iy
Ġ27 8
à·Ģà·ħ à·Ģà¶½
ĠAn onymous
à¶»à¶¸à¶« à·Ģà¶½à¶§
Ġà¶Ĩà¶ºà¶Ńà¶±à¶ºà¶ļ à¶¸
à¶Ńà·Ħ à¶©
à·ĴâĢ¦ âĢ¦.
ĠEn cyclopedia
Ġà¶ľà¶½à·Ģ à¶ľà¶±
Ġun ique
ĠAr row
Ġà¶ħà¶¬ à¶¶
Ġâ ī
23 5
à¶ª à¶°à¶¯
Ġà¶¢à¶±à¶ļ à¶®
ĠTr ain
ĠCl imate
Ġx p
à¶ĭà¶´ à¶ļà¶»à¶«
uk i
Ġ48 6
Ġà¶ļà¶§à·Ħà¶¬ à¶§
IC S
oph il
els on
US A
Ġdi oxide
Ġà¶ºà·Ħà¶¸ à¶ľ
ĠBr ad
pro t
ON E
Ġbec omes
ĠSk in
ĠCar ter
Ġà¶±à·Ħà¶» à¶ºà¶ļ
Ġrem oved
ĠAir port
ĠInter view
ĠChand ras
å¤ ª
Ġbel t
Ġsk ype
Ð¿ Ñĥ
Ġfour th
Ã¶ r
onom ous
Ġà¶¸à·ħà¶ļ à¶©
Ġsexual ity
Ġselect ion
ĠEv olution
ĠKarun athilaka
Ġtyp ically
Ġcirc uit
Ġpresent ed
Tw itter
arat ne
æĺ İ
Ġindividual s
hib ition
Ġgold en
ĠAuthor ity
ĠKnow ledge
Ġà¶±à·ħà¶Ł à¶±
ĠMyst ery
ealous y
ĠMIN I
ĠBure au
, &
/ âĢĭ
8 50
C a
D avid
L i
L ike
P eople
S yn
U ser
V III
Z imbabwe
b revi
c or
f i
f red
m n
m itted
o en
p resent
ç ´
ç Ĳ
é «
Ġ Ùģ
à·Ĵ à·Ĳ
à¶± à¶ľà¶¸à¶ľ
à¶º à¶¶à¶Ń
à¶Ń à·Ģà¶ºà¶ļ
à·Ķ ]
à¶¸ à¶®
à¶¸ à¶ºà¶§à¶¸
à·ĥ à¶»à¶«à¶ºà¶§
à·Ļ ),
à¶½ à¶¸à¶¯
Ġà·Ģ à·Ģà¶´
Ġà¶ļ à¶´à¶¯
Ġà¶ļ à¶±à·Ģà¶§
Ġà¶´ à¶ºà¶±
à¶ľ à¶¢à¶±
à¶ľ à¶ļà¶»à¶«à¶º
Ġà¶¯ à·ĥà¶»
Ġà¶¯ à¶±à·Ģà¶º
Ġà¶± à¶Ńà¶»à¶ļ
Ġà¶± à·Ģà¶ºà¶º
Ġà¶Ń à¶±à¶ļ
à¶¶ à¶»à¶ļà¶¸
Ġà¶ĳ à¶ºà¶½
à·ħ à¶ļà¶º
Ġà¶º à¶´à·ĥ
Ġà¶ĩ à¶§à¶ļ
Ġà¶ĩ à·ħà·Ģ
Ġà¶» à¶©
Ġà¶» à¶°
à·Ĥ à¶»à¶ºà¶±
Ġà¶Ĩ à¶»à¶º
à·Ģà¶± à·Ģà¶»
Ġà¶ħà¶± à¶½à·ĥ
à¶ļà¶§ à¶±
Ġà¶¸à·Ħà¶Ń à¶§
à¶ºà¶º à¶ºà¶±
Ġà¶ħà¶» à¶ºà¶ļ
Ġà¶ħà¶» à¶¶à¶±
à¶¶à¶± à¶°à¶º
à¶§à¶¸ à¶©
Ġà¶»à¶¢ à·Ħà¶§
on i
on avirus
à·Ĳ. âĢĻâĢĻ
ĠS ydney
à¶°à¶± à¶¯
ĠC AD
ĠC ayce
à¶»à¶´ à¶¯à¶ºà¶ļ
ed u
à¶ĩ à¶Ńà¶¸
Ġà¶Ĭà¶§ à¶¯
Ġc c
ĠM H
ĠM ake
Ġp atch
ĠP P
Ġà¶»à·ĥ à¶ºà¶Ń
ĠT ower
Ġw ind
à·ı.. (
ĠG I
ĠG ri
ĠG ot
Ġà¶īà·Ħà·ħ à¶ľ
am ma
ĠD rop
il ation
ĠB os
Ġd aughter
ĠN ig
à·ı... )
à·ı... //
à¶µ à¶º
19 29
19 35
ĠW WE
ĠW olf
id ents
à·Ĭ.. )
Ġ18 3
Ġ18 37
Ġà·ĥà¶½ à·ĥà¶½
à¶¤ à·ĥ
à·Ĵ... ?
um m
Ġà¶´à¶« à·Ħà¶ļà¶§
Ġ? ,
ĠK ir
Ġà¶ĭà¶« à¶§
ut sch
Ġà·Ħà¶¬ à¶´à¶§à¶º
ia h
Ġg as
Ġg ives
Ġg ender
20 25
Ġ17 90
Ġà¶»à¶« à·Ģà¶±
ðŁĳ ĩ
Ġà¶Ńà¶¯ à¶ļà¶»à¶ľ
ak ed
Ġr atio
ĠÂ ¼
à·ĥà¶»à¶º à¶¯
oc a
15 4
Ġst ress
ov es
Ġ24 4
Ġà¶¸à¶»à¶«à¶º à·ħ
Ġà¶Ńà¶»à¶¸à¶§ à·Ģà¶Ń
..... ?
ĠCh ang
Ġà·Ģà¶ł à¶±à¶ºà¶ļà¶§
16 1
16 3
Ġà¶īà·Ģà·ĥ à¶¸
14 9
ry an
à·Ļ.. ?
iz oph
ĠY as
25 6
à·ĥà¶ļà¶§ à¶¯
Ġ29 5
à¯ ĭ
ĠTh ennakoon
Ġà¶ºà¶ļà¶© à¶ºà¶ļ
Ġcon serv
Ġat tract
Ġsh ape
26 6
Ġà¶ĭà¶¸ à¶Łà¶ļ
à·ļâĢ¦ ?
Ġà¶Ĩà¶· à·ĥ
Ġi ii
ĠAd am
ĠTr av
iss ions
Ġà·ĥà·ħ à¶ļà¶º
ĠSc an
uk ul
ĠSp irit
ĠMar ie
rop ical
ĠArt ist
//// //
Ġcons ecutive
ĠPar ad
ĠTrans posh
ĠIt aly
ogn ition
ĠLink s
Ġthrough out
rip ala
isch e
ĠOper ating
Ġocc up
emat ical
NU MX
åĨ Ĩ
ìĪ ľ
je ewa
ĠProduct s
ĠTable t
ĠPsych ology
Ġexpect ed
Ġrow span
Ġfav or
ê³µ ì£¼
! .
) âĢİ
3 13
B ur
B ig
D il
D iv
E conom
R ev
S F
S u
b ase
c d
c apt
f ix
f its
g ama
g ency
h ara
k ur
s à·ĥ
s im
w indows
z y
¢ ħ
Ð ŀ
æ ±
è ª
à·ı âĢĭ
à¶» à·Ģà¶§
à¶» à¶´à¶º
à¶» à¶Ŀ
à·ĥ à¶½à¶±
à·Ļ âĢľ
à·Ħ à¶¯à¶½
Ġà¶´ à¶¶à¶½
à·ĵ âĢľ
Ġà¶± à¶ľà¶½
Ġà¶± à¶§à·Ģ
Ġà·Ħ à¶ºà¶Ń
à¶¶ à¶ºà·Ģ
Ġà¶¶ à¶´
Ġà¶¶ à¶ļà¶±
à·ģ à¶½à¶º
à·ģ à¶ļà·ħ
Ġà¶º à¶¸à¶»
à¶° à·Ģà¶§
Ġà¶ī à·Ģà¶±
Ġà¶ī à¶±à¶§
à¶¢ à¶ºà¶ļà¶º
à¶ºà¶± à¶ļà¶±
Ġà¶ĳà¶ļ à·Ģà¶»à¶ļ
Ġà¶Ĵ à¶¶à·Ģ
à¶Ńà¶» à¶ľà¶Ń
à·ĳ âĢĺ
à¶® à¶ļà¶ºà¶±
à¶»à¶¸ à¶ºà¶§à¶Ń
à¶»à¶º à·Ģà¶Ń
à¶»à¶ļ à¶§à¶Ń
Ġà¶¢à¶± à·ĥà·Ģ
Ġà·ĥà¶³ à¶±
Ġà¶ħà¶Ń à¶ĩà¶»
à¶½à¶ļ à¶§à¶Ń
Ġà¶´à¶Ń à¶¶
à¶ĳ à¶ļà¶±
Ġà·Ħà¶» à¶«à¶º
Ġà·Ħà¶» à·Ģà¶±à·Ģ
à·Ĩ à¶½à¶ºà¶ļ
Ġà¶ĭà¶´ à¶±à¶Ń
Ġà¶īà¶¯ à¶ľà¶Ń
à·ĵ. (
Ġà¶´à·ħ à¶§
Ġà¶ĭà¶± à¶¯
Ġà¶ĭà¶± à¶±à·Ģ
à·Ħà¶» à¶ºà¶§
Ġà¶Ķà¶º à·Ģ
à¶Ńà¶ļ à¶´
à¶¨ à¶ļà¶Ń
à¶»à·Ħ à¶ļà¶ºà¶±
ĠS ET
Ġà¶ľà¶¸à¶± à¶¯
Ġà·Ģà¶½à¶§ à¶±à¶¸
ic ht
Ġà¶ħà¶· à¶ºà¶±
ĠA utom
Ġc od
Ġ5 80
Ġ5 500
re h
ĠM W
ĠM aps
Ġp ixel
ĠP erson
ĠP aper
ĠP RO
Ġo w
à¶¯à¶ļ à¶»à¶¸
Ġa w
Ġà¶¸à¶½ à¶´
à¶ºà·Ģà¶» à¶ļà¶§
ĠT yp
à·ģà¶± à¶´à¶Ń
ĠL P
ĠL ad
ĠL yn
ĠL iber
Ġà¶ĳà¶» à¶¶à¶¯
Ġb an
Ġb on
ĠG O
ĠD river
Ġ6 10
ĠR à¶¢
ĠR ain
ĠR osh
ad os
Ġm otor
Ġm ahamaya
Ġm argin
ĠB rig
ĠI FC
Ġd ocuments
ĠH ay
à·ı... !!!
ĠF X
à¶¸à¶ľ à¶»
id ata
à·Ĭ.. !!
ĠE V
à¶Ĭ à¶ļ
um es
ĠO P
em atic
Ġà¶¯à·Ħ à·Ģà¶±
à¶¢à¶ļ à·Ģà¶»à¶ºà¶ļ
ĠV B
Ġà¶¸à¶»à¶« à¶ļà¶»
ut ral
Ġà·Ħà¶¬ à¶ļà·Ģ
Ġg ram
Ġg mail
Ġ17 99
à¶»à·Ħà¶«à¶º à¶º
Ġr outer
Ġv e
Ġà¶´à·Ħà¶½ à·Ģà¶±
ec onom
Ġ24 1
ity a
Ġà¶ħà·Ħà·ĥ à¶Ń
ep age
Ġ22 9
Ġcom ing
16 4
Ġà¶īà·Ģà·ĥ à¶±à·Ģ
ack er
à¶»à·Ģà¶º à¶¯
à·Ģà·ħ à¶ľà¶¸
à¶½à¶ºà¶± à¶½
ph ere
ass igned
Ġcon struction
Ġâ ĩ
Ġsh aring
ĠPro duction
enc il
à¶ª à¶µ
ark s
ual ity
ĠZ ero
ock s
Ġsc ale
Ġcomp lement
Ġ36 4
uw e
Ġà¶¸à¶½à¶º à¶ľ
IS S
Ġdis able
ãĥ ©
ãĥ Ī
ĠPr abh
ĠMar ia
ĠComp uting
ÑģÑĤ Ð¸
ĠOne Plus
AM P
à·ĥà¶¸à¶± à·ħ
AR T
Ġà¶ħà¶±à¶´ à¶±à¶Ń
Ġ!! !!!
IT Y
Ġcol our
ĠDis order
à¸ ²
à¶®à¶ļà¶® à¶±à¶ºà¶§
Ġse qu
Ġact ually
ĠQu est
ĠQu ick
EL L
for ce
Ġà¶ļà¶§à·Ģ à·Ħà¶ļ
Ġear lier
Ġer rors
Ġcomputer s
Ġread y
Ġdevelop ing
Ġka tha
Ġexper iment
ĠVal ent
ĠEconom y
Ġà¶ĳà¶¬ à¶»
ĠProv incial
Ġjob s
awans ha
Ġexpress ion
ĠTele comm
raz il
Ġà¶ķà¶±à·Ģ à¶§à¶Ń
Ġimm edi
Ġlarg est
Ġdeb ut
ĠâĪ ļ
Ġstrateg y
Ġà¶ľà·Ģà¶¸ à·ĥ
ĠPract ice
ìĭ ł
walk er
Ġlat est
Õ¡ Õ
Ġfores kin
) ]
4 000
4 80
E ver
F T
G N
S en
T amil
b ul
h l
h and
l ove
n c
o i
p ing
s or
w ear
Â ½
Ä Ľ
â Ĺı
è ĥ
ë ¦
Ġ om
à·Ģ à¶ľà¶½
à·Ģ à¶´à¶»
à¶º à¶´à¶»
à·Ķ .......
à·ĥ à¶±à¶ļà¶¸
à¶ļ à¶¶à¶»
à·ļ âĢĺâĢĺ
à·Ħ à¶½à¶±
à¶½ à·Ĥ
à¶§ à·ħà¶Ł
Ġà·Ģ à¶°à¶¯
Ġà·ĥ à¶¶à¶º
âĢ ²
à¶ľ à¶±à¶¸
à¶´ à¶§à¶ļ
[...]
