{"<s>":0,"<pad>":1,"</s>":2,"<unk>":3,"<mask>":4,"!":5,"\"":6,"#":7,"$":8,"%":9,"&":10,"'":11,"(":12,")":13,"*":14,"+":15,",":16,"-":17,".":18,"/":19,"0":20,"1":21,"2":22,"3":23,"4":24,"5":25,"6":26,"7":27,"8":28,"9":29,":":30,";":31,"<":32,"=":33,">":34,"?":35,"@":36,"A":37,"B":38,"C":39,"D":40,"E":41,"F":42,"G":43,"H":44,"I":45,"J":46,"K":47,"L":48,"M":49,"N":50,"O":51,"P":52,"Q":53,"R":54,"S":55,"T":56,"U":57,"V":58,"W":59,"X":60,"Y":61,"Z":62,"[":63,"\\":64,"]":65,"^":66,"_":67,"`":68,"a":69,"b":70,"c":71,"d":72,"e":73,"f":74,"g":75,"h":76,"i":77,"j":78,"k":79,"l":80,"m":81,"n":82,"o":83,"p":84,"q":85,"r":86,"s":87,"t":88,"u":89,"v":90,"w":91,"x":92,"y":93,"z":94,"{":95,"|":96,"}":97,"~":98,"¡":99,"¢":100,"£":101,"¤":102,"¥":103,"¦":104,"§":105,"¨":106,"©":107,"ª":108,"«":109,"¬":110,"®":111,"¯":112,"°":113,"±":114,"²":115,"³":116,"´":117,"µ":118,"¶":119,"·":120,"¸":121,"¹":122,"º":123,"»":124,"¼":125,"½":126,"¾":127,"¿":128,"À":129,"Á":130,"Â":131,"Ã":132,"Ä":133,"Å":134,"Æ":135,"Ç":136,"È":137,"É":138,"Ê":139,"Ë":140,"Ì":141,"Í":142,"Î":143,"Ï":144,"Ð":145,"Ñ":146,"Ò":147,"Ó":148,"Ô":149,"Õ":150,"Ö":151,"×":152,"Ø":153,"Ù":154,"Ú":155,"Û":156,"Ü":157,"Ý":158,"Þ":159,"ß":160,"à":161,"á":162,"â":163,"ã":164,"ä":165,"å":166,"æ":167,"ç":168,"è":169,"é":170,"ê":171,"ë":172,"ì":173,"í":174,"î":175,"ï":176,"ð":177,"ñ":178,"ò":179,"ó":180,"ô":181,"õ":182,"ö":183,"÷":184,"ø":185,"ù":186,"ú":187,"û":188,"ü":189,"ý":190,"þ":191,"ÿ":192,"Ā":193,"ā":194,"Ă":195,"ă":196,"Ą":197,"ą":198,"Ć":199,"ć":200,"Ĉ":201,"ĉ":202,"Ċ":203,"ċ":204,"Č":205,"č":206,"Ď":207,"ď":208,"Đ":209,"đ":210,"Ē":211,"ē":212,"Ĕ":213,"ĕ":214,"Ė":215,"ė":216,"Ę":217,"ę":218,"Ě":219,"ě":220,"Ĝ":221,"ĝ":222,"Ğ":223,"ğ":224,"Ġ":225,"ġ":226,"Ģ":227,"ģ":228,"Ĥ":229,"ĥ":230,"Ħ":231,"ħ":232,"Ĩ":233,"ĩ":234,"Ī":235,"ī":236,"Ĭ":237,"ĭ":238,"Į":239,"į":240,"İ":241,"ı":242,"Ĳ":243,"ĳ":244,"Ĵ":245,"ĵ":246,"Ķ":247,"ķ":248,"ĸ":249,"Ĺ":250,"ĺ":251,"Ļ":252,"ļ":253,"Ľ":254,"ľ":255,"Ŀ":256,"ŀ":257,"Ł":258,"ł":259,"Ń":260,"à¶":261,"à·":262,"Ġà¶":263,"à·Ĭ":264,"à·Ĵ":265,"à¶±":266,"à·Ģ":267,"à·ı":268,"à¶º":269,"à¶»":270,"à¶Ń":271,"à·Ķ":272,"à¶¸":273,"à·ĥ":274,"à¶ļ":275,"à·Ļ":276,"à·ļ":277,"à·Ħ":278,"à¶½":279,"à¶§":280,"Ġà·Ģ":281,"à¶¯":282,"Ġà¶ļ":283,"à·Ĳ":284,"Ġà¶´":285,"Ġà·ĥ":286,"âĢ":287,"à·ĵ":288,"Ġà¶¸":289,"à¶ľ":290,"Ġà¶ħ":291,"âĢį":292,"à¶´":293,"à·ĬâĢį":294,"Ġà¶¯":295,"Ġà¶±":296,"à·ľ":297,"à¶«":298,"Ġà·Ħ":299,"Ġà¶Ń":300,"Ġà¶ľ":301,"à¶¶":302,"Ġà¶¶":303,"Ġà¶ĳ":304,"à·ħ":305,"à¶©":306,"à·ģ":307,"Ġà¶½":308,"à·Ŀ":309,"à¶Ĥ":310,"Ġà¶º":311,"à¶ºà¶ļ":312,"à¶°":313,"Ġà¶ĩ":314,"Ġà¶ļà¶»":315,"Ġà¶»":316,"à·Ĥ":317,"à·ĸ":318,"à·Ĵ.":319,"Ġà¶ī":320,"à¶¢":321,"à¶ºà¶±":322,"Ġà¶Ĩ":323,"à¶³":324,"Ġà¶¢":325,"..":326,"à¶±à¶º":327,"Ġà¶ĩà¶Ń":328,"à·Ģà¶±":329,"Ġà¶ĳà¶ļ":330,"Ġà¶Ķ":331,"à·Ģà¶Ń":332,"Ġà·ĥà¶¸":333,"Ġà¶Ĵ":334,"Ġà¶ĭ":335,"à¶±à·Ģ":336,"à¶Ńà¶»":337,"à¶ºà¶§":338,"à¶ł":339,"à·Ģà¶»":340,"à·ı.":341,"à¶¸à¶§":342,"Ġà¶ħà¶´":343,"à·ĳ":344,"Ġà¶ļà¶»à¶±":345,"à¶®":346,"à·Ģà¶ļ":347,"Ġà·ĥà·Ħ":348,"à·Ģà¶½":349,"Ġà¶ħà¶±":350,"Ġà¶ħà·Ģ":351,"à¶»à¶¸":352,"à¶ļà¶»":353,"à·ļ.":354,"Ġà·Ģà¶±":355,"à¶´à¶Ń":356,"Ġà¶¶à·Ģ":357,"Ġà¶¸à·Ħ":358,"à¶·":359,"à¶»à¶º":360,"à¶«à¶º":361,"à¶¸à¶ļ":362,"à¶ºà¶½":363,"Ġà¶ļà·ħ":364,"à¶»à¶ļ":365,"à¶¸à¶º":366,"Ġà·ģ":367,"Ġà¶±à¶¸":368,"à¶¸à¶±":369,"Ġà¶ºà¶±":370,"à¶½à¶º":371,"à·ĬâĢ":372,"à·Ģà¶º":373,"à·Ĭ,":374,"à·ĬâĢĮ":375,"à¶¸à¶Ń":376,"à·Ģà¶§":377,"Ġ1":378,"à·Ħà¶±":379,"à¶ľà¶Ń":380,"Ġà¶¶à¶½":381,"Ġà¶ħà¶Ńà¶»":382,"Ġ(":383,"à¶Ł":384,"Ġà¶ļà¶½":385,"Ġà¶´à¶»":386,"à·Ģà·ĥ":387,"Ġà¶¢à¶±":388,"à¶»à¶Ń":389,"Ġà¶·":390,"à·Ĭ.":391,"Ġà¶ł":392,"à¶±à¶§":393,"âĢįà·ĬâĢį":394,"Ġà·ĥà¶³":395,"Ġà¶´à·ĥ":396,"à¶±à¶¸":397,"Ġà¶ħà¶Ń":398,"à·Ĵà¶Ĥ":399,"à·ĺ":400,"à¶ļà¶º":401,"Ġà¶Ķà·Ħ":402,"Ġà¶ħà¶º":403,"Ġà¶ĳà·Ħ":404,"Ġà¶īà¶±":405,"Ġà·Ģà¶½":406,"Ġà¶½à¶¶":407,"Ġà¶ħà¶¯":408,"à·Ħà·ĥ":409,"Ġà¶ľà¶±":410,"à¶ħ":411,"Ġà¶ĳà¶º":412,"Ġ2":413,"Ġà¶ľà¶Ń":414,"Ġà·Ģà¶ľ":415,"à·ģà¶º":416,"Ġà¶§":417,"à¶½à¶ļ":418,"à¶Ńà¶º":419,"à¶½à¶±":420,"à¶»à·Ģ":421,"à¶ľà¶±":422,"à¶»à¶¯":423,"ĠâĢ":424,"à¶¹":425,"Ġà¶»à¶§":426,"Ġà·ĥà¶³à·Ħ":427,"...":428,"Ġà¶´à¶Ń":429,"à¶±à¶ļ":430,"Ġà¶ħà¶¸":431,"Ġà¶īà¶Ń":432,"à·ĥà¶±":433,"à¶ºà¶¸":434,"à¶ľà¶¸":435,"Ġà¶¸à¶ľ":436,"à¶±à¶Ń":437,"à¶§à¶Ń":438,"à¶ļà¶¸":439,"Ġà¶¯à¶ļ":440,"à¶ľà¶º":441,"à¶ĳ":442,"à¶§à¶º":443,"à¶»à¶«":444,"Ġà¶¸à¶Ń":445,"Ġà¶¸à¶¸":446,"Ġà·Ģà¶»":447,"Ġà¶ĳà¶¸":448,"Ġà¶Ķà¶¶":449,"à¶ļà¶§":450,"Ġà¶ļà¶Ń":451,"Ġà¶Ķà·Ģ":452,"Ġà¶¸à·Ħà¶Ń":453,"à·Ħà¶½":454,"Ġà·Ħà¶»":455,"à¶Ńà¶±":456,"Ġà¶ħà¶°":457,"à¶ºà¶º":458,"à¶¯à¶±":459,"Ġà¶ħà¶»":460,"00":461,"à·ĥà¶»":462,"Ġà¶¸à¶§":463,"an":464,"à·Ĩ":465,"in":466,"à¶¸à¶«":467,"Ġà¶Ńà¶»":468,"à¶¶à¶±":469,"Ġà¶ķ":470,"Ġà¶ĭà¶´":471,"Ġà¶īà¶¯":472,"er":473,"à¶±à·ĥ":474,"Ġà·ĥà¶Ń":475,"à¶¶à¶³":476,"Ġ-":477,"à¶§à¶¸":478,"à¶¯à¶»":479,"Ġà¶Ńà¶¸":480,"à¶ºà¶Ń":481,"à·Ģà¶»à¶º":482,"Ġà·Ħà¶¸":483,"à¶¯à¶º":484,"Ġà¶¯à¶»":485,"à·ĥà¶º":486,"Ġà¶ħà¶©":487,"Ġà¶´à¶¸à¶«":488,"à¶ľà¶½":489,"à·ŀ":490,"à·ĵ.":491,"à¶Ľ":492,"Ġà¶½à¶¯":493,"Ġà¶ħà·Ģà·ĥ":494,"Ġà¶Ĭ":495,"Ġà¶»à¶¢":496,"à·Ĥà¶º":497,"Ġà¶Ĵà¶ļ":498,"à¶»à·ĥ":499,"Ġà¶´à·ħ":500,"Ġà¶¸à¶±":501,"Ġà¶ĳà¶ļà¶ļ":502,"on":503,"th":504,"à·Ľ":505,"Ġà¶ħà¶½":506,"Ġà¶°":507,"Ġà·Ģà¶©":508,"Ġà¶ħà·ĥ":509,"Ġà¶ĭà¶±":510,"à·Ĥà¶«":511,"à·ı,":512,"ĠĠ":513,"Ġà¶ĭà¶Ń":514,"à¶±à¶ºà¶ļ":515,"Ġà¶ļà¶§à¶º":516,"à·ĥà¶ļ":517,"or":518,"Ġà¶´à·Ģà¶Ń":519,"Ġà¶Ńà¶¸à¶º":520,"Ġà¶ķà¶±":521,"à·Ħà¶»":522,"à¶ļà¶½":523,"Ġà¶©":524,"Ġà¶½à¶ļ":525,"à¶»à¶§":526,"....":527,"à¶¢à¶±":528,"Ġà¶ĭà¶¯":529,"Ġà¶Ķà¶º":530,"à·ģà¶´":531,"at":532,"à¶§à¶±":533,"à¶»à¶±":534,"à¶ºà·Ģ":535,"à¶ļà¶ļ":536,"01":537,"à¶°à¶º":538,"à¶Ńà¶ļ":539,"à·Ģà¶¯":540,"à·Ĵ,":541,"Ġà¶ĳà¶±":542,"à¶Ńà¶¸":543,"à¶´à¶º":544,"en":545,"Ġà¶Ńà¶¸à¶±":546,"al":547,"ar":548,"Ġà¶Ńà¶Ń":549,"à¶©à¶ļ":550,"Ġ19":551,"à¶Ķ":552,"à¶¸à¶»":553,"Ġà¶ħà·Ģà·ģ":554,"à·ıà¶Ĥ":555,"à¶¨":556,"à·Ģà¶¸":557,"à¶Ĵ":558,"es":559,"Ġà¶´à¶¯":560,"à·Ĳ.":561,"à¶ºà¶ļà¶§":562,"Ġà·ĥà¶¸à¶ľ":563,"Ġà¶¢à¶±à¶Ń":564,"Ġ\"":565,"Ġà¶´à¶ļ":566,"à¶»à·Ħ":567,"Ġà·Ģà·ģà¶º":568,"Ġà¶¯à¶±":569,"à¶¯à¶½":570,"à·ĥà¶½":571,"Ġà¶¶à·Ģà¶§":572,"Ġà¶Ĩà¶«":573,"à¶´à¶ļ":574,"Ġà¶Ĩà¶»":575,"âĢĿ":576,"Ġà¶Ĩà¶ļ":577,"ĠS":578,"à¶»à·ģ":579,"Ġà¶Ĩà¶¯":580,"à¶´à¶±":581,"Ġà·Ĩ":582,"Ġà·Ģà·ĥà¶»":583,"à¶»à¶«à¶º":584,"Ġà¶ļà¶»à¶¸":585,"Ġà¶´à·Ħ":586,"Ġà¶ĩà¶º":587,"âĢĻ":588,"à·Ģà¶½à¶§":589,"à¶»à¶°":590,"Ġà¶´à·Ģ":591,"Ġà¶Ĵà·Ģ":592,"Ġ.":593,"à¶§à¶»":594,"ĠâĢĺ":595,"à¶±à¶ºà¶§":596,"Ġà¶ĳà·ĥ":597,"Ġ,":598,"à¶´à·ĥ":599,"Ġà¶ļà¶»à¶½":600,"à¶¥":601,"Ġà¶ĳà¶½":602,"à¶°à¶±":603,"à·ĳ.":604,"Ġà·ħ":605,"à·ļ,":606,"Ġà¶ľà¶¸à¶±":607,"Ġà·ĥà¶¯":608,"Ġ3":609,"Ġà¶Ńà·Ģà¶Ń":610,"à·ĥà¶Ń":611,"Ġà¶ľà¶«":612,"à¶½à¶ºà¶ļ":613,"à¶ī":614,"Ġà·Ģà¶½à¶§":615,"Ġà·Ģà¶Ń":616,"ĠC":617,"Ġà¶Ĩà¶º":618,"à¶¢à¶º":619,"Ġà¶ļà¶¸":620,"Ġà·Ħà¶¯":621,"à¶»à¶ºà¶ļ":622,"à¶»à¶´":623,"Ġà·Ģà¶§":624,"à·ĥà¶¸":625,"Ġà¶ļà¶«":626,"Ġà¶īà¶½":627,"à·Ģà¶ºà¶ļ":628,"Ġ201":629,"Ġth":630,"Ġà¶¶à·Ģà¶Ń":631,"à¶Ńà·Ģ":632,"Ġà¶ļà¶§":633,"à¶½à¶§":634,"à¶ºà¶¯":635,"Ġà¶´à¶±":636,"à¶¯à·Ħà·ĥ":637,"Ġà¶ºà¶¸":638,"st":639,"ic":640,"à·ĥà¶§":641,"à·Ķ.":642,"Ġà·ĥà¶·":643,"Ġà¶ħà¶¯à·Ħà·ĥ":644,"à¶ļà¶»à¶±":645,"à¶¶à¶»":646,"à¶½à¶±à¶º":647,"Ġà¶ħà·Ħ":648,"Ġà¶ļà·Ģ":649,"Ġà¶Ńà¶»à¶¸":650,"à¶´à¶ºà¶ļ":651,"à¶ºà·ĥ":652,"Ġà¶¶à·Ģà¶º":653,"Ġà¶ĳà·Ģ":654,"Ġà¶¯à·Ģà·ĥ":655,"ÂŃ":656,"Ġà¶ļà¶»à¶±à·Ģ":657,"à·Ĥà¶«à¶º":658,"à¶±à¶±":659,"Ġà¶īà·ĥ":660,"Ġà¶ļà¶©":661,"Ġà¶¶à¶½à¶±":662,"Ġà·ĥà¶³à·Ħà¶±":663,"ed":664,"ĠâĢľ":665,"Ġà¶±à·Ģ":666,"Ġà¶´à¶¸à¶«à¶ļ":667,"Ġà¶ħà¶·":668,"it":669,"à¶½à·Ģ":670,"à¶¬":671,"Ġà¶Ĩà¶»à¶ļ":672,"à¶ļà¶ºà¶±":673,"Ġà·Ģà·Ħà¶±":674,"Ġà·ĥà¶¸à¶Ł":675,"Ġà¶Ńà·Ģ":676,"à·ħà¶¹":677,"à¶¸à¶¯":678,"Ġà¶īà·Ħ":679,"à¶ĩ":680,"à¶Ńà¶½":681,"à¶ºà¶ľ":682,"ĠA":683,"âĢ¦":684,"à¶ļà·Ģ":685,"à¶»à¶ºà¶§":686,"à¶ļà¶»à¶«":687,"Ġà¶Ĭà¶§":688,"Ġà¶´à·Ģà·ĥ":689,"à¶Ĩ":690,"Ġà·ĥà¶±":691,"à¶»à¶½":692,"Ġs":693,"Ġc":694,"Ġà¶ļà¶±":695,"Ġà¶ľà¶¸":696,"Ġ5":697,"Ġà¶ºà¶§à¶Ń":698,"Ġà¶ħà¶´à¶§":699,"à¶°à¶Ń":700,"à¶ļà¶»à¶«à¶º":701,"à¶½à·ĥ":702,"Ġà¶¡":703,"Ġà¶±à¶ľ":704,"Ġà¶ĳà¶ļà¶Ń":705,"à¶ļà¶Ń":706,"Ġ4":707,"Ġà¶ĩà·ĥ":708,"Ġà·Ħà¶³":709,"à¶¶à¶½":710,"à¶¶à¶¯":711,"à¶ħà¶´":712,"re":713,"ĠM":714,"Ġà¶ħà¶ļ":715,"à¶¢à¶´à¶ļ":716,"le":717,"is":718,"à¶ľà¶ºà¶ļ":719,"à¶ºà¶±à·Ģ":720,"à¶ºà·Ģà·ĥ":721,"à¶´à¶¯":722,"à¶°à¶±à¶º":723,"om":724,"à¶¸à¶½":725,"à¶¡":726,"Ġthe":727,"Ġà¶īà¶©":728,"ing":729,"Ġà¶»à¶¢à¶º":730,"Ġà¶ļà¶»à¶º":731,"à¶½à¶°":732,"Ġp":733,"ĠP":734,"à·Ļ.":735,"Ġo":736,"à¶«à¶ºà¶ļ":737,"à¶§à·Ħ":738,"à·Ķ,":739,"à¶½à¶¸":740,"à¶¯à¶ļ":741,"Ġà¶Ĩà¶»à¶¸":742,"à¶´à¶»":743,"Ġà¶ļà¶»à¶ľ":744,"ion":745,"à·Ķà¶Ĥ":746,"Ġà¶½à¶¶à¶±":747,"à¶§à¶´":748,"à¶Ŀ":749,"Ġa":750,"Ġt":751,"Ġà¶¸à¶½":752,"à¶¯à¶ľà¶Ń":753,"Ġà¶Ĵà¶Ń":754,"Ġà¶Ĩà·Ģ":755,"à¶ºà·Ģà¶»":756,"à¶§à·ĥ":757,"à¶¶à¶³à·Ģ":758,"Ġà¶»à·ĥ":759,"à¶§à¶½":760,"Ġà·Ģà·ĥ":761,"Ġà¶ĳà¶Ń":762,"à¶½à¶Ń":763,"Ġà¶¶à·Ħ":764,"à¶ĭ":765,"à·Ĳà¶Ĥ":766,"Ġà¶ĳà¶¯":767,"à·Ħà¶§":768,"ou":769,"Ġà¶»à¶±":770,"ĠT":771,"à¶»à¶¢":772,"à¶Ńà¶»à¶º":773,"à·Ģà¶»à¶«à¶º":774,"à¶łà¶±":775,"à¶´à¶±à¶º":776,"Ġà·ĥà¶¸à·Ħà¶»":777,"Ġà¶ĭà·ĥ":778,"à¶«à¶ļ":779,"Ġà¶ħà¶ľ":780,"à·Ļà·Ĭ":781,"à¶©à¶±":782,"à¶ļà¶¯":783,"à·ģà¶±":784,"à¶ľà¶½à¶º":785,"ĠâĢį":786,"Ġw":787,"Ġf":788,"à¶¯à¶±à¶º":789,"à¶«à¶Ń":790,"Ġà¶ĩà·Ģ":791,"ĠL":792,"Ġà¶´à¶§à¶±":793,"Ġà¶ĳà¶»":794,"Ġà¶´à·ħà¶¸":795,"à¶¸à·ĥ":796,"and":797,"Ġà¶īà·Ģà¶Ń":798,"Ġà¶ľà¶½":799,"Ġà¶ħà·Ģà·ĥà¶±":800,"à·Ĥà¶ļ":801,"à¶ļà¶±":802,"Ġà·ĥà¶¯à·Ħ":803,"à·ı..":804,"Ġà¶ĳà¶ļà¶§":805,"Ġà¶¸à¶°":806,"Ġb":807,"ĠG":808,"Ġà¶¶à¶½à¶´":809,"Ġà¶´à¶½":810,"Ġà¶īà·Ħà·ħ":811,"ĠâĢĵ":812,"Ġà¶Ķà¶¶à¶§":813,"am":814,"à·Ħà¶¸":815,"Ġ200":816,"à¶ļà·ĥ":817,"à¶¸à¶¸":818,"as":819,"Ġà¶ħà·Ģà¶°":820,"à¶Ńà¶Ń":821,"à¶¸à·ħ":822,"à·Ģà¶ļà¶§":823,"à¶»à¶¸à¶º":824,"à¶ºà¶ºà¶±":825,"ĠD":826,"Ġà¶¶à·ĥ":827,"Ġà¶´à·Ħà·ĥ":828,"Ġà¶¶à¶½à¶º":829,"Ġ6":830,"ĠR":831,"à¶±à¶¯":832,"à¶¢à¶±à¶º":833,"à¶ļà·ħ":834,"ad":835,"Ġm":836,"Ġà¶ľà¶«à¶±":837,"Ġof":838,"à·Ħà¶Ń":839,"à¶Ńà¶»à¶¸":840,"Ġà¶ĩà¶¸":841,"Ġà¶»à¶§à·Ģà¶½":842,"Ġà·Ħà¶»à·Ħ":843,"il":844,"Ġ'":845,"à·Ģà¶ºà¶§":846,"Ġà¶¸à¶«":847,"à¶Ńà¶§":848,"Ġà¶ĳà·ħ":849,"à¶»à·Ģà¶»":850,"à·Ģà¶ľ":851,"ĠB":852,"Ġà¶ļà¶»à¶ľà¶±":853,"Ġà¶¸à¶»":854,"à¶½à¶¯":855,"Ġà¶ĭà¶©":856,"Ġ|":857,"ent":858,"Ġà¶ĳà¶´":859,"Ġà·ĥà¶»":860,"à¶Ńà¶±à¶º":861,"âĢľ":862,"Ġà¶ĩà¶¸à¶Ń":863,"Ġà¶Ŀ":864,"à¶ļà¶ł":865,"ĠI":866,"Ġ0":867,"à¶ºà¶ļà¶º":868,"Ġà·ģà¶ļ":869,"Ġà¶¸à¶Ńà¶ļ":870,"à¶³à·Ģ":871,"âĢĺ":872,"Ġà¶īà¶³":873,"Ġd":874,"Ġà¶¸à·ĥ":875,"os":876,"ĠH":877,"Ġà¶¶à¶§à·Ħ":878,"ri":879,"Ġà¶ħà¶»à¶¸":880,"Ġà¶Ĩà·Ħ":881,"Ġà¶ħà¶±à¶Ń":882,"à¶ħà¶±":883,"Ġ7":884,"ĠN":885,"Ġà¶ĳà¶ļà¶¸":886,"à·Ħà¶º":887,"Ġà¶Ńà¶±":888,"ĠĠĠĠ":889,"à·ı...":890,"Ġà¶Ńà¶¶":891,"ol":892,"el":893,"Ġà¶°à¶»":894,"à¶µ":895,"à·ĵ,":896,"à¶ļà¶ºà¶ļ":897,"Ġà¶¶à¶¯":898,"à¶łà¶»":899,"à¶´à¶½":900,"Ġà¶´à¶§":901,"Ġin":902,"Ġà¶»à¶Ń":903,"Ġà¶łà¶»":904,"Ġà¶īà¶ļ":905,"Ġà¶ĩà¶¯":906,"Ġà¶Ńà¶»à¶ľ":907,"à¶Ńà¶ºà¶ļ":908,"Ġà·ĥà¶§":909,"ac":910,"Ġà¶ħà¶ºà¶Ń":911,"Ġ8":912,"Ġà¶¶à¶»":913,"à¶ĳà·Ħ":914,"Ġà¶ħà¶ľà¶¸":915,"à¶»à¶´à¶§":916,"Ġh":917,"Ġà¶¡à¶±":918,"ĠF":919,"Ġà¶ºà¶±à·Ģ":920,"à·ģà¶±à¶º":921,"à¶»à¶«à¶ºà¶ļ":922,"à·ħà¶ļ":923,"Ġà¶īà¶ľ":924,"Ġà¶łà¶±":925,"Ġ10":926,"Ġà¶ºà·Ħ":927,"Ġà¶Ĩà·ĥ":928,"à¶¯à·Ģ":929,"Ġà¶Ķà·ĥ":930,"Ġà¶¯à¶¸":931,"à¶»à¶§à¶Ń":932,"Ġà¶Ĩà·ģ":933,"Ġà¶Ĩà¶ľà¶¸":934,"à¶¯à¶ºà¶ļ":935,"Ġà¶Ĩà¶ºà¶Ń":936,"à¶¸à¶ľ":937,"et":938,"à·Ģà¶»à¶«":939,"ka":940,"Ġà¶ħà¶ºà¶§":941,"Ġà¶ĩà¶³":942,"000":943,"Ġà¶Ī":944,"Ġà¶Ķà¶ļ":945,"Ġà¶¸à¶Ł":946,"à¶±à¶ľ":947,"ro":948,"à¶´à·Ģ":949,"à¶¸à·Ģ":950,"Ġà¶¢à¶±à¶´":951,"Ġà¶ºà¶§":952,"à¶®à¶º":953,"à¶±à¶½":954,"à¶»à¶ºà¶±":955,"Ġà·ĥà·Ħà¶·":956,"Ġà¶ħà¶©à·Ģ":957,"à¶«à¶±":958,"Ġà¶¸à·Ģ":959,"à¶»à¶ł":960,"à·Ĵ..":961,"Ġà¶ļà¶®":962,"Ġà¶ĩà¶»":963,"à¶ºà·Ģà¶±":964,"à·ģà¶ļ":965,"Ġ:":966,"19":967,"à¶°à·Ģ":968,"à¶ºà·ħ":969,"Ġà¶ĭà¶´à¶¯":970,"à¶¸à¶ºà¶ļ":971,"ĠW":972,"ir":973,"à¶½à¶ľ":974,"à·Ģà¶ºà¶±":975,"à¶ºà¶ºà¶ļ":976,"Ġà¶ĩà¶½":977,"Ġà·ĥà¶§à·Ħà¶±":978,"Ġà¶ļà¶»à¶´":979,"id":980,"à¶ĳà¶¸":981,"à¶Ńà¶»à¶ļ":982,"à·Ĭ..":983,"Ġ18":984,"à¶ļà¶©":985,"à¶ºà¶ļà¶Ń":986,"Ġà¶Ĩà¶ºà¶Ńà¶±":987,"Ġà¶Ĩà·ĥà¶±":988,"ew":989,"Ġà¶±à¶©":990,"Ġà·ĥà¶½":991,"Ġà¶ĩà¶±":992,"Ġà¶ħà¶¸à¶Ń":993,"Ġà¶¶à¶±":994,"ip":995,"à¶§à¶ļ":996,"à¶±à·Ģà¶½":997,"Ġà¶ĩà·Ħ":998,"à·ĥà¶§à·Ħà¶±":999,"Ġ9":1000,"à·Ĭ...":1001,"à·Ĥà¶±":1002,"à¶Ńà¶»à·Ģ":1003,"ot":1004,"Ġà¶ºà¶º":1005,"Ġà¶ļà¶´":1006,"un":1007,"à·ħà¶³":1008,"Ġà·Ģà¶ľà¶ļ":1009,"à¶¤":1010,"à¶½à¶»":1011,"Ġà¶ħà¶´à¶»":1012,"Ġà¶ļà¶»à¶ľà¶Ń":1013,"à¶±à¶»":1014,"ĠE":1015,"Ġà¶ĩà¶¸à¶»":1016,"à·Ħà¶ļ":1017,"à¶ºà¶»":1018,"ay":1019,"à¶©à¶¸":1020,"ch":1021,"à¶·à¶º":1022,"Ġand":1023,"Ġà¶ĳà¶ºà¶§":1024,"Ġà·Ĥ":1025,"à¶ľà¶»":1026,"à¶Ĭ":1027,"à·ģà¶ºà¶ļ":1028,"à·Ĭ)":1029,"Ġà¶¶à¶º":1030,"à¶ºà¶´":1031,"à·ħà¶Ń":1032,"à·ĥà¶³":1033,"Ġà¶ľà·ĥ":1034,"à¶°à¶ºà¶ļ":1035,"ate":1036,"ag":1037,"à¶»à¶®":1038,"Ġà·ĥà¶ļà·ĥ":1039,"à·Ĵ...":1040,"à¶©à·ĥà¶§à·Ħà¶±":1041,"//":1042,"Ġ20":1043,"Ġà·Ħà¶§":1044,"Ġà¶ĩà¶ľ":1045,"Ġà¶īà¶»":1046,"à¶ħà¶©":1047,"Ġà·Ģà¶±à·Ģ":1048,"à¶½à¶ºà¶§":1049,"Ġà·ĥà¶¸à¶Ń":1050,"Ġà·ħà¶¸à¶º":1051,"Ġà¶īà¶§":1052,"Ġà·ĥà¶½à¶ļ":1053,"Ġà·ĥà¶§à¶±":1054,"he":1055,"à·Ģà·Ħà¶±":1056,"à¶®à¶ļ":1057,"à¶±à·Ħ":1058,"um":1059,"à¶»à¶ľ":1060,"us":1061,"à¶¸à·Ħ":1062,"à¶ºà·Ģà¶»à¶º":1063,"à¶©à¶½à¶º":1064,"à¶Ńà¶ºà¶§":1065,"Ġà¶Ĩà¶ºà¶Ńà¶±à¶º":1066,"Ġà¶ĭà¶¹":1067,"Ġà¶Ĩà¶ł":1068,"Ġl":1069,"anka":1070,"à¶±à¶ºà¶±":1071,"à·Ģà·Ģ":1072,"à·ģà¶ºà¶§":1073,"Ġà¶»à¶§à¶ļ":1074,"Ġà¶´à¶¯à¶±à¶¸":1075,"à¶¯à¶¸":1076,"Ġ)":1077,"Ġto":1078,"ation":1079,"à¶ĳà·ĥ":1080,"Ġà¶´à¶«":1081,"à¶łà¶±à¶º":1082,"Ġà·ĥà¶´":1083,"Ġà¶ĳà¶±à¶¸":1084,"Ġ15":1085,"à¶©à¶º":1086,"Ġà¶Ĩà¶¯à¶»":1087,"201":1088,"iv":1089,"Ġà¶´à¶»à¶¸":1090,"Ġ12":1091,"à¶Ńà¶§à¶¸":1092,"Ġà·Ģà·Ħ":1093,"à¶¸à¶§à¶Ń":1094,"ct":1095,"à·Ģà¶·":1096,"Ġà¶±à¶ľà¶»à¶º":1097,"Ġà¶¶à¶©":1098,"à·ļ..":1099,"Ġà·Ħà¶¯à¶±":1100,"Ġà¶Ĩà¶´":1101,"Ġà¶ľà¶»":1102,"ow":1103,"Ġà¶Ĩà¶°":1104,"Ġà¶Ķà¶±":1105,"ĠO":1106,"ory":1107,"ur":1108,"Ġà¶´à·Ħà¶Ń":1109,"à·Ļà·ı":1110,"à¶Ķà¶¶":1111,"Ġà·Ģà¶»à¶¯":1112,"Ġà¶¶à·Ģà¶¯":1113,"Ġn":1114,"Ġà¶¢à¶ºà¶ľ":1115,"Ġà¶ħà·Ģà¶¶":1116,"à¶Ķà·Ħ":1117,"Ġà·ħà¶Ł":1118,"Ġà¶Ńà·Ģà¶¯":1119,"Ġà¶ĭà¶¯à·Ģ":1120,"Ġà¶¶à¶«":1121,"Ġà¶ĭà·ĥà·ĥ":1122,"Ġà·Ģà¶ºà·ĥ":1123,"à·ħà¶¯":1124,"Ġà¶Į":1125,"à¶»à¶ļà¶§":1126,"à¶ºà·Ħ":1127,"Ġà¶±à·Ģà¶Ń":1128,"à¶»à·ħ":1129,"Ġà¶Ńà·Ģà¶¸à¶Ń":1130,"Ġà¶¯à¶Ń":1131,"Ġà¶ħà¶¸à¶Ńà¶»à·Ģ":1132,"em":1133,"à¶īà¶Ń":1134,"Ġà¶¯à·Ħ":1135,"à¶ĳà¶ļ":1136,"Ġà¶¢à¶½":1137,"à¶§à·Ģ":1138,"Âł":1139,"à¶»à¶¸à·ĥ":1140,"Ġà¶»à¶®":1141,"Ġà¶Ĭà¶º":1142,"à¶±à·Ģà¶¯":1143,"à¶¸à¶ļà¶§":1144,"Ġà·ĥà·Ħà¶º":1145,"à¶»à¶·":1146,"Ġà¶´à·Ħà·ħ":1147,"Ġà·ĥà¶¸à¶±":1148,"à·Ħà·Ģ":1149,"Ġà¶ľà·Ħ":1150,"ul":1151,"à¶ħà¶¯":1152,"à¶¢à¶ļ":1153,"à·ĥà¶ºà¶ļ":1154,"à¶Ķà¶º":1155,"im":1156,"Ġà¶¢à¶½à¶º":1157,"à·ļ...":1158,"Ġà¶¸à¶¯":1159,"Ġà¶ļà¶³":1160,"à¶īà¶±":1161,"!!":1162,"Ġ?":1163,"Ġà¶ħà¶´à¶ľ":1164,"Ġà¶¯à·Ģà·ĥà¶ļ":1165,"ter":1166,"ðŁ":1167,"Ġà·ĥà¶¸à¶º":1168,"Ġà¶¢à¶º":1169,"à¶»à¶´à¶§à¶º":1170,"Ġà¶«":1171,"à¶¯à¶§":1172,"ĠV":1173,"Ġà¶¸à¶»à¶«":1174,"ig":1175,"à¶°à¶ļ":1176,"à¶ľà¶¸à¶º":1177,"âĢĭ":1178,"),":1179,"Ġà¶ĭà¶»":1180,"Ġà¶»à¶§à¶§":1181,"à¶ºà¶ºà¶§":1182,"à¶ĳà¶º":1183,"à¶§à·ĥà¶ļ":1184,"à·Ĥà¶ºà¶ļ":1185,"à¶¶à·Ģ":1186,"à·ĴâĢįà·ĬâĢį":1187,"og":1188,"Ġà·ģà¶»":1189,"Ġà¶ħà¶¸à¶Ńà¶ļ":1190,"Ġà¶½à·ĥ":1191,"Ġà¶¸à·Ħà¶±":1192,").":1193,"Ġà¶¢à¶±à¶º":1194,"à¶½à¶´":1195,"Ġà¶ħà¶»à¶ľ":1196,"ews":1197,"Ġà¶Ľ":1198,"Ġ/":1199,"od":1200,"Ġ11":1201,"Ġà¶ºà·ħ":1202,"Ġà·Ħà¶º":1203,"ĠK":1204,"Ġà¶ĭà¶«":1205,"Ġ16":1206,"ut":1207,"à¶»à¶®à¶¸":1208,"Ġà¶¢à¶±à·Ģ":1209,"à¶»à¶ľà¶Ń":1210,"Ġà¶´à¶¸":1211,"Ġà¶ĭà¶´à¶ļ":1212,"à¶ŀ":1213,"à¶Ķà·Ģ":1214,"Ġ198":1215,"Ġà·ĥà¶º":1216,"à¶¥à¶º":1217,"oss":1218,"Ġà¶´à¶±à¶Ń":1219,"ap":1220,"Ġà¶īà·Ħà¶Ń":1221,"Ġà·Ħà¶¬":1222,"eb":1223,"à¶¯à¶ºà¶§":1224,"Ġà¶´à·Ģà·ĥà¶º":1225,"ers":1226,"Ġà¶ĳà¶Ńà¶ļ":1227,"à·Ģà¶±à·Ģ":1228,"à·ĬâĢĻ":1229,"à¶±à¶ļà¶§":1230,"à·ħà¶Ł":1231,"Ġà¶ºà·Ħà¶´à¶Ń":1232,"ia":1233,"à¶ļà¶¸à¶ļ":1234,"Ġ199":1235,"Ġà·ħà¶¸":1236,"Ġà¶Ĩà¶¯à¶»à¶º":1237,"Ġà·Ģà¶º":1238,"à¶»à¶ļà¶¸":1239,"à¶Ńà¶»à¶ºà¶ļ":1240,"à¶³à¶¸":1241,"Ġà¶´à·Ģà·ĥà¶±":1242,"à¶»à·Ģà¶½":1243,"à¶§à¶¯":1244,"Ġ[":1245,"Ġà¶īà¶©à¶¸":1246,"Ġà·Ħà¶Ńà¶»":1247,"Ġà·Ģà¶¯":1248,"Ġà¶°à¶±":1249,"Ġà¶ºà¶Ń":1250,"à·Ģà·Ħ":1251,"Ġg":1252,"Ġà¶Ĩà¶½":1253,"Ġà¶´à·Ħà¶»":1254,"Ġà·Ģà¶łà¶±":1255,"à·ľà¶Ĥ":1256,"à¶ºà¶¯à¶¸":1257,"Ġà¶ĳà¶±à·Ģ":1258,"ex":1259,"à¶´à·ħ":1260,"Ġà¶ħà¶Ńà¶§":1261,"Ġà·ĥà¶¸à·ĥ":1262,"à¶Ńà¶ºà¶±":1263,"Ġà¶ħà¶¶":1264,"à¶ĩà¶Ń":1265,"........":1266,"Ġà¶»à¶ļ":1267,"à¶ľà¶½à¶ºà¶±":1268,"Ġà¶ĩà¶Ł":1269,"à·ĥà¶¯":1270,"Ġà¶±à¶»":1271,"Ġà¶¯à·Ħà·ĥ":1272,"à¶§à·ħ":1273,"à¶ľà¶Ńà¶º":1274,"Ġà¶ħà¶»à¶±":1275,"Ġ..":1276,"Ġà¶ħà·Ģà¶¯":1277,"Ġà¶¥":1278,"Ġà¶ļà·ħà·Ħ":1279,"Ġà¶«à¶º":1280,"à¶»à¶¸à¶ºà¶ļ":1281,"Ġà¶Ķà¶¶à¶ľ":1282,"Ġà·Ħà¶Ń":1283,"Ġ...":1284,"Ġà¶ħà·Ģà¶¸":1285,"à·Ĭ-":1286,"Ġà¶ĩà¶ºà¶§":1287,"Ġ13":1288,"à¶ľà¶¸à¶±à¶º":1289,"Ġà¶ħà¶³":1290,"à¶ľà¶ºà¶§":1291,"à·Ĥà¶Ń":1292,"à·Ĥà¶«à¶ºà¶ļ":1293,"Ġ14":1294,"20":1295,"Ġ17":1296,"Ġà¶Ńà·Ħà·Ģ":1297,"à·Ģà¶«":1298,"Ġà¶Ńà¶»à¶Ł":1299,"Ġà¶±à¶ľà¶»":1300,"Ġà¶ĭà¶´à¶±":1301,"à·Ĭ\"":1302,"Ġà¶Ĩà¶±":1303,"Ġà¶»à¶«":1304,"Ġ25":1305,"Ġà¶»à·Ħà·ĥ":1306,"ĠU":1307,"Ġà¶¶à·Ģà¶ļ":1308,"Ġà¶ħà¶´à·Ħà·ĥ":1309,"Ġà¶ļà·Ģà¶¯":1310,"à¶Ńà·Ģà¶Ń":1311,"à·Ļà¶Ĥ":1312,"ĠJ":1313,"à·Ģà¶½à¶¯":1314,"Ġà¶Ĩà¶Ń":1315,"ossip":1316,"à¶ľà¶«à¶ļ":1317,"Ġà¶Ńà·Ħà¶±":1318,"Ġà¶īà·Ħà¶½":1319,"ðŁĳ":1320,"Ġà¶Ńà¶¯":1321,"à·ı)":1322,"à·ĥà·Ģ":1323,"à·Ħà¶±à¶º":1324,"à¶¢à·Ģ":1325,"Ġà·ĥà·Ģ":1326,"à¶ºà¶¸à¶ļ":1327,"Ġà¶µ":1328,"à¶»à¶ļà¶®":1329,"Ġà¶Ĵà¶ļà¶§":1330,"Ġà¶ºà¶ļ":1331,"Ġà¶ľà·Ħà¶±":1332,"ak":1333,"à·Ĥà¶ļà¶º":1334,"Ġà¶¯à·ĥ":1335,"Ġà¶¸à¶Ńà¶º":1336,"à¶ķ":1337,"à¶¥à¶ºà¶±":1338,"Ġre":1339,"Ġà¶ĳà¶ļà¶Ł":1340,"op":1341,"Ġà¶ħà·Ħà¶±":1342,"Ġ197":1343,"Ġà¶ľà¶«à¶±à¶ļ":1344,"Ġà¶Ńà¶±à¶Ń":1345,"Ġà¶¸à¶±à·ĥ":1346,"à¶©à¶½":1347,"ateg":1348,"Ġà¶ħà¶ºà¶ľ":1349,"à¶ºà¶ļà¶ºà¶±":1350,"Ġon":1351,"à¶ºà¶§à¶¸":1352,"Ġà¶Ńà¶½":1353,"ist":1354,"Ġà¶¶à¶»à¶´à¶Ń":1355,"ĠâĢĿ":1356,"à¶µà¶½":1357,"ĠLanka":1358,"ce":1359,"à¶ľà¶§à¶¸":1360,"Ġà¶ĳà¶¢":1361,"ðŁĳĮ":1362,"Ġ30":1363,"ðŁĳĮðŁĳĮ":1364,"ess":1365,"Ġà¶ĭà¶±à¶Ń":1366,"Ġà¶¸à¶©":1367,"à¶»à·Ħà¶«à¶º":1368,"Ġà·Ħà·ĥ":1369,"à·Ģà¶Ńà¶Ń":1370,"Ġà¶¯à·Ħà¶¸":1371,"Ġà¶¸à¶º":1372,"Ġà¶ºà¶¸à¶ļ":1373,"à¶±à¶ľà¶Ń":1374,"à¶©à¶»":1375,"Ġà¶Ńà¶»à¶ľà¶º":1376,"Ġà¶ħà·ĥà¶½":1377,"à¶¸à¶§à¶º":1378,"Ġà¶ĩà¶»à¶¹":1379,"ht":1380,"à¶ľà¶½à¶±":1381,"Ġà¶ļà¶»à¶Ń":1382,"Ġà·Ģà¶½à¶¯":1383,"Ġà¶ļà·ĥ":1384,"à¶¯à¶»à¶º":1385,"à¶³à¶º":1386,"Ġ2015":1387,"ĠGossip":1388,"Ġà¶¯à¶¬":1389,"à·ĥà·Ħ":1390,"==":1391,"à·ħà¶§":1392,"Ġà¶Ńà·Ħà¶±à¶¸":1393,"à·ģà¶ļà¶º":1394,"à¶»à¶¯à¶»":1395,"av":1396,"Ġà¶ĭà¶ľ":1397,"ategory":1398,"Ġà¶ħà¶ľà¶º":1399,"Ġr":1400,"Ġà·ĥà¶¯à·Ħà¶±":1401,"all":1402,"Ġà¶¯à¶©":1403,"Ġà¶¢à¶±à¶´à¶Ń":1404,"Ġà¶¸à·Ħà¶¢à¶±":1405,"à®":1406,"à¶±à¶ľà¶±":1407,"est":1408,"Ġà¶īà·Ģà¶»":1409,"Ġà·Ģà¶»à¶ļ":1410,"Ġà¶īà¶³à¶½":1411,"à¶¯à¶½à¶ļ":1412,"Ġà¶¯à¶»à¶±":1413,"Ġà¶ĭà¶´à¶Ń":1414,"ub":1415,"Ġà¶»à·Ģ":1416,"Ġv":1417,"Ġà¶ĭà·ħ":1418,"Ġà¶ħà·ħ":1419,"Ġà¶Ķà¶½":1420,"Ġà¶ļà¶ļ":1421,"ĠĠĠĠĠĠĠĠ":1422,"Ġà¶ĳà¶¶":1423,"Ġà¶Ķà¶´":1424,"à¶»à·Ħà¶º":1425,"à¶±à·Ģà¶±":1426,"Ġà¶¯à¶¸à¶±":1427,"ĠÂ":1428,"Ġà¶īà¶½à¶ļ":1429,"à·Ģà¶¸à¶±":1430,"10":1431,"à¶´à¶§":1432,"ĠIn":1433,"Ġà¶Īà¶Ń":1434,"ev":1435,"ab":1436,"à¶´à¶«à¶º":1437,"Ġà¶ļà·ħà¶¸à¶±":1438,"à·ĥà¶»à¶º":1439,"Ġ100":1440,"Ġà·ĥà·Ħà¶Ń":1441,"Ġà¶½à¶¶à¶º":1442,"30":1443,"à·Ĵ)":1444,"Ġ2018":1445,"Ġà¶ĳà¶ļà¶º":1446,"Ġà¶½à¶±":1447,"à¶ļà¶ºà¶§":1448,"ath":1449,"18":1450,"Ġà¶¢à¶»":1451,"à·Ĥà¶ºà¶§":1452,"Ġà¶ļà¶»à·Ģ":1453,"à¶¶à¶º":1454,"à¶ºà¶½à¶º":1455,"à¶½à¶ļà¶º":1456,"Ġfor":1457,"Ġà¶±à¶Ńà¶»":1458,"à¶ħà¶¸":1459,"Ġà¶¢à·Ģ":1460,"Ġà¶¸à¶Ńà¶ļà¶º":1461,"à¶«à¶¯":1462,"Ġà¶´à·Ħà¶½":1463,"à¶±à·ĥà¶ļ":1464,"ost":1465,"à¶¶à¶©":1466,"Ġà¶ĳà¶Ńà¶±":1467,"oc":1468,"à¶´à·Ħ":1469,"à¶ľà·ĥ":1470,"Ġà·ĥà¶ļ":1471,"Ġà¶ºà·Ħà¶´":1472,"à¶ļà¶»à¶º":1473,"Ġà¶ħà¶§":1474,"ment":1475,"à·Ĥà·Ģ":1476,"à¶ħà¶Ń":1477,"ith":1478,"Ġà¶ħà·Ģà¶ļ":1479,"Ġà¶´à¶¸à¶«à¶º":1480,"Ġà¶Ĭà¶±":1481,"à¶ľà¶§":1482,"à¶¯à¶ľ":1483,"Ġà¶ħà·ĥà¶±":1484,"Ġà¶ļà¶½à¶ļ":1485,"à·ı....":1486,"Ġà¶ĭà¶½":1487,"15":1488,"Ġà¶»à¶Ł":1489,"ĠSt":1490,"ĠCategory":1491,"à¶Ĵà¶ļ":1492,"Ġà¶ĳà·Ģà¶±":1493,"Ġà¶¢à¶ºà·ĥ":1494,"ec":1495,"Ġà¶ħà¶±à¶±":1496,"à·ħà¶º":1497,"Ġà¶¶à¶½à·Ģà¶Ń":1498,"Ġà¶ºà¶®":1499,"à¶¢à¶ºà¶ļ":1500,"Ġà¶ĭà¶´à¶»":1501,"ore":1502,"à¶¶à¶§":1503,"à¶©à¶´":1504,"Ġà¶ķà¶ļ":1505,"ard":1506,"Ġà¶ħà·ģ":1507,"à·ģà·Ģà¶½":1508,"à·ĳ..":1509,"Ġà·ĥà¶¶":1510,"à·ĵâĢįà·ĬâĢį":1511,"Ġis":1512,"Ġà¶±à·Ģà¶ļ":1513,"Ġà¶Ńà¶»à¶¸à¶ļ":1514,"à¶³à¶§":1515,"200":1516,"ind":1517,"à¶±à·Ģà¶Ń":1518,"à¶»à¶¶à¶½":1519,"Ġà¶½à¶Ł":1520,"are":1521,"à¶ºà¶¸à¶º":1522,"ik":1523,"Ġà¶ĭà¶±à¶±":1524,"Ġà¶ļà·Ģà¶»":1525,"à¶ºà¶«":1526,"50":1527,"à¶±à¶´":1528,"Ġà·ĥà¶»à·ĥ":1529,"Ġà¶īà¶©à¶ļ":1530,"à¶¶à¶¯à·Ģ":1531,"ive":1532,"à·Ŀ,":1533,"Ġà¶¶à¶³":1534,"Ġà¶±à·ħ":1535,"âĢ¦.":1536,"Ġst":1537,"ĉĊ":1538,"??":1539,"Ġà¶Ĩà¶´à·ĥ":1540,"à·ĬâĢĿ":1541,"à¶«à·Ģà¶Ń":1542,"art":1543,"à·Ħà¶»à¶«à¶ºà¶ļ":1544,"Ġà¶¸à¶¸à¶Ń":1545,"à·ħà·Ģ":1546,"Ġ50":1547,"à·Ħà¶¯":1548,"ok":1549,"à·Ģà¶±à¶º":1550,"ov":1551,"à¶ºà·Ģà¶½":1552,"Ġà¶ľà·Ģ":1553,"Ġà¶ĩà¶ºà¶ľ":1554,"Ġà¶ħà¶Ł":1555,"à¶»à¶¸à·Ģ":1556,"à¶´à¶ºà¶§":1557,"Ġà·ĥà¶¢":1558,"à¶ĭà¶¯":1559,"Ġà¶ļà¶»à¶¯":1560,"Ġà¶ļà¶¸à¶ļ":1561,"à¶°à¶´":1562,"Ġà¶ºà·Ģà¶±":1563,"11":1564,"ah":1565,"à¶ļà¶»à¶¸":1566,"Ġà¶ĭà¶´à¶ļà¶»à¶«":1567,"à¶¸à¶ºà¶§":1568,"Ġà¶±à¶»à¶ļ":1569,"Ġà¶¶à¶Ń":1570,"Ġà·Ģà¶ļ":1571,"Ġà·Ħà¶±":1572,"âĢĭ.":1573,"ĸà·Ĥ":1574,"--":1575,"Ġà¶ĳà¶Ńà¶»à¶¸":1576,"Ġ196":1577,"à·ı\"":1578,"à¶ħà¶º":1579,"com":1580,"à¶Ĵà¶Ń":1581,"Ġà¶»à¶¢à¶Ń":1582,"ĠNews":1583,"à¶ļà¶»à¶«à¶ºà¶§":1584,"Ġà·ĥà¶»à¶½":1585,"Ġà¶ļà¶³à·Ģ":1586,"if":1587,"Ġà¶ħà¶Ńà¶»à¶Ń":1588,"Ġà¶´à¶»à¶«":1589,"Ġà·Ģà¶łà¶±à¶º":1590,"Ġà¶ĳà¶ł":1591,"Ġ24":1592,"age":1593,"12":1594,"up":1595,"Ġà¶ĵ":1596,"Ġà·Ħà¶¯à·Ģà¶Ń":1597,"à¶Łà·Ģ":1598,"Ġà·Ģà¶§à·Ħ":1599,"ide":1600,"à¶©à¶±à¶º":1601,"à¶Ńà¶±à·Ģ":1602,"ity":1603,"Ġà¶¸à·ħ":1604,"à·Ħà¶ºà¶ļ":1605,"Ġà¶¶à¶½à¶ºà¶§":1606,"à¶°à¶»":1607,"Ġà¶½à¶ľ":1608,"à¶§à·Ģà¶Ń":1609,"à¶Ĩà¶»":1610,"umb":1611,"à¶¶à·ĥ":1612,"Ġà¶¶à¶½à·Ģ":1613,"Ġà¶Ńà¶§":1614,"à·ħà¶´":1615,"à¶ľà¶ºà¶±":1616,"Ġà¶ĭà¶ľà¶Ń":1617,"Ġà·ģà¶¶":1618,"Ġà¶´à¶»à¶´":1619,"à·ĴÂŃ":1620,"Ġà¶¸à¶»à¶«à¶º":1621,"Ġà¶ĭà¶´à¶º":1622,"Ġà¶ĸà·Ĥ":1623,"à¶§à¶ľ":1624,"à·ĥà¶½à¶ļ":1625,"ang":1626,"à¶ļà¶»à¶ľ":1627,"ud":1628,"à¶±à¶ļà¶¸":1629,"à·Ģà¶»à¶ºà¶ļ":1630,"Ġà¶īà¶³à¶±":1631,"à¶¯à¶Ń":1632,"à¶¢à¶ºà¶§":1633,"Ġ2017":1634,"Ġà¶Ńà¶»à¶¸à¶§":1635,"à·ıÂŃ":1636,"âĢĮ":1637,"Ġà¶Ĭà·ħà¶Ł":1638,".....":1639,"ain":1640,"ies":1641,"ala":1642,"à·ļ?":1643,"Ġà¶´à·Ģà¶»":1644,"Ġà¶ļà¶¯":1645,"Ġà¶ħà·Ħà¶½":1646,"oun":1647,"à·ĴâĢį":1648,"à¶ľà¶´":1649,"Ġà¶ħà¶«":1650,"Ġà¶ħà·Ħà·ĥ":1651,"à·Ģà¶ļà¶º":1652,"Ġà·ĥà¶»à·ĥà·Ģ":1653,"à¶½à¶ļà¶ºà¶±":1654,"à¶Ľà¶±":1655,"Ġà·ĥà¶»à¶Ń":1656,"Ġà¶ħà¶¯à·Ħà·ĥà¶ļ":1657,"à¶Ķà¶±":1658,"Ġà·Ħà·Ģ":1659,"à¶«à¶ºà¶§":1660,"Ġà¶§à¶º":1661,"Ġà¶½à¶º":1662,"à¶«à¶ºà¶±":1663,"à¶©à¶ºà¶ļ":1664,"à¶±à·Ģà¶½à¶§":1665,"Ġà·Ģà¶»à¶¯à¶ļ":1666,"Ġà¶»à·Ħ":1667,"à¶¢à¶±à¶ºà¶ļ":1668,"Ġà¶¢à¶±à¶¸":1669,"Ġà¶ľà·Ħà¶½":1670,"Ġà·Ģà·ĥà¶±":1671,"à¶ħà·Ģ":1672,"à·Ģà¶»à¶ļ":1673,"ep":1674,"tp":1675,"Ġà¶ħà·Ģà¶§":1676,"Ġà¶¶à¶½à¶½":1677,"à¶¸à¶§à¶¯":1678,"Ġà¶¢à¶±à¶´à¶¯à¶º":1679,"à¶´à¶Ńà¶ļ":1680,"à·ģà¶±à¶ºà¶ļ":1681,"our":1682,"à¶ĩà¶º":1683,"Ġà·ĥà¶¶à¶³":1684,"Ġà¶¶à¶½à¶¸":1685,"Ġ22":1686,"à·Ģà¶ļà¶¯":1687,"Ġà¶ºà¶¯":1688,"à¶ºà¶±à¶º":1689,"Ġà¶´à¶º":1690,"à¶´à¶ºà¶ļà¶§":1691,"Ġà¶ĵà¶Ń":1692,"à¶ĳà¶±":1693,"Ġ2016":1694,"aw":1695,"à¶ľà¶«":1696,"Ġà¶¢à¶´":1697,"Ġà¶ĳà¶ļà¶½":1698,"ĠThe":1699,"à¶¢à¶»":1700,"://":1701,"à¶ħà¶»":1702,"à¶¯à·ĥ":1703,"17":1704,"Ġà¶ħà·Ģà·ĥà¶»":1705,"ly":1706,"à¶ļà¶´":1707,"à¶¢à¶°":1708,"ĠCh":1709,"à·ıâĢĻ":1710,"à¶¢à¶±à¶Ń":1711,"qu":1712,"à·Ħà¶¬":1713,"ine":1714,"à¶´à¶¯à·Ģ":1715,"à¶ľà¶±à¶º":1716,"à¶ļà¶ļà¶§":1717,"à¶»à¶ļà¶®à¶±":1718,"Ġà·ĥà¶¸à·Ħ":1719,"à·ĥà¶±à¶º":1720,"Ġà¶±à¶±":1721,"Ġà¶»à¶®à¶º":1722,"à¶¶à¶»à·Ģ":1723,"Ġà¶Ĩà¶´à·Ħ":1724,"à¶¨à¶º":1725,"à·Ĭ'":1726,"Ġà¶¸à¶§à¶Ń":1727,"ort":1728,"à¶»à¶¸à¶«à¶º":1729,"à¶©à·Ģ":1730,"Ġà·Ģà¶¸":1731,"The":1732,"Ġà¶»à¶¢à¶ºà¶§":1733,"Ġby":1734,"Ġà·ĥà¶¶à¶³à¶Ń":1735,"ont":1736,"Ġà·ĥà¶½à¶ļà¶±":1737,"à¶łà¶º":1738,"à¶½à¶±à¶ºà¶§":1739,"Ġcom":1740,"lo":1741,"Ġ21":1742,"à¶ľà¶¸à¶±":1743,"à¶ľà¶½à¶ºà¶ļ":1744,"Ġà·Ħà¶¯à¶½":1745,"à¶«à¶§":1746,"à¶½à¶½":1747,"Ġ!":1748,"à¶ļà¶ľ":1749,"à¶ļà¶ļà¶»":1750,"à·Ģà¶´":1751,"Ġà·Ģà·Ħà¶½":1752,"à·Ģà·ĥà¶§":1753,"Ġà¶¸à¶Ńà·Ģ":1754,"Ġà¶±à¶º":1755,"Ġà·ĥà¶´à¶ºà¶±":1756,"Ġà¶´à·ħà·Ģ":1757,"ĠâĢ¦":1758,"ill":1759,"Ġwh":1760,"à·ĥà·Ģà¶º":1761,"Ġà¶´à·Ħà¶ļ":1762,"à·Ħà¶½à¶º":1763,"ww":1764,"ect":1765,"à¶§à¶§":1766,"à¶»à¶ļà¶»":1767,"ick":1768,"Ġà·Ģà¶ł":1769,"ial":1770,"à¶°à¶ºà¶±":1771,"à·ĥà·ĥ":1772,"Ġà¶ļà¶»à¶¯à¶»":1773,"à·Ĭ....":1774,"à¶ħà¶½":1775,"ous":1776,"à·Ĥà¶ºà¶±":1777,"à·ĬâĢ¦":1778,"16":1779,"Ġà·ĥà·Ħà¶ľà¶Ń":1780,"Ġà¶Ńà¶¶à¶±":1781,"Ġà·Ģà·ħ":1782,"Ġà¶Ńà¶ļ":1783,"à·Ļ,":1784,"Ġà¶ħà¶±à·Ģ":1785,"Ġà¶ķà·ĥ":1786,"à¶½à¶ļà¶§":1787,"à¶ĭà¶Ń":1788,"Ġà¶¯à¶º":1789,"à·Ĵ\"":1790,"Ġà¶ļà¶»à·Ģà¶±":1791,"Ġà¶±à¶¸à¶ļ":1792,"Ġà¶ĳà·Ģà¶ļà¶§":1793,"Ġ23":1794,"ft":1795,"à·Ħà¶»à¶«":1796,"à¶¹à¶±":1797,"Ġà¶¶à¶½à¶ļ":1798,"Ġbe":1799,"Ġà¶ĩà¶§":1800,"ant":1801,"ish":1802,"ff":1803,"à¶µà¶½à¶ºà¶ļ":1804,"Ġà¶Ĩà¶ļà¶»":1805,"Ġe":1806,"Ġà¶¶à¶»à¶´à¶Ńà¶½":1807,"à·ıâĢĿ":1808,"Ġà¶ħà¶ºà¶ļ":1809,"à¶½à¶±à¶ºà¶ļ":1810,"Ġà¶ĳà¶ļà¶ļà¶§":1811,"à¶Ńà¶´":1812,"Ġà¶ĸà·Ĥà¶°":1813,"Ġà¶łà¶ļ":1814,"Ġ194":1815,"ook":1816,"à¶ºà¶§à¶Ń":1817,"à¶¶à·Ħ":1818,"Ġà¶±à¶½":1819,"Ġà¶ľà¶Ńà·Ģ":1820,"Ġà¶ĭà¶ľà¶±":1821,"ast":1822,"à·Ĥà¶ļà¶ºà¶±":1823,"Ġà¶łà¶¸":1824,"à¶©à¶ļà¶º":1825,"Ġà¶ħà¶Ńà¶»à¶¸":1826,"Ġ26":1827,"Ġà¶Ķà¶¶à¶Ń":1828,"Ġk":1829,"Ġà¶ľà¶Ł":1830,"Ġà·ĥà¶Ł":1831,"à¶¸à¶ºà¶±":1832,"Ġas":1833,"Ġà·ĥà·Ħà¶±":1834,"à¶±à¶§à¶Ń":1835,"pp":1836,"âĢĵ":1837,"ĠĠĠ":1838,"Ġà¶īà·Ģà·ĥ":1839,"Ġ40":1840,"14":1841,"Ġà·Ħà¶Ńà¶»à¶ļ":1842,"à¶ĳà¶½":1843,"à·ıâĢ¦":1844,"Ġ195":1845,"à¶¸à¶©":1846,"Ġà¶¸à¶ļ":1847,"à·ģà¶ºà¶±":1848,"à¶«à·ĥ":1849,"Ġà¶ĭà·Ģà¶¸à¶±":1850,"à·Ģà¶»à¶«à¶ºà¶ļ":1851,"Ġ2014":1852,"à·ĸ.":1853,"Ġy":1854,"Ġà¶¸à·Ħà¶½":1855,"ord":1856,"ĠCom":1857,"Ġà¶½à¶Ń":1858,"ry":1859,"à¶§à¶´à¶Ń":1860,"Ġà¶¶à¶½à¶°":1861,"Ġà¶¢à¶±à¶»":1862,"Ġà·Ģà·ĥà¶»à¶ļ":1863,"Ġà¶¯à·ģà¶ļà¶º":1864,"à¶»à¶¶":1865,"Ġà¶´à¶©":1866,"à¶Ńà¶¯":1867,"Ġà¶īà¶¸":1868,"Ġà¶īà·Ģ":1869,"Ġà¶ĭà·Ĥ":1870,"à¶¯à¶»à¶§":1871,"à¶»à·Ģà¶±":1872,"Ġà¶ħà¶ļà¶¸":1873,"à·ĴâĢĻ":1874,"Ġà¶¢à¶±à¶ľ":1875,"à¶»à·Ħà·ĥ":1876,"Ġà¶¢à¶ºà·Ģà¶»":1877,"Ġ27":1878,"à¶·à¶ļ":1879,"à¶Ĭà¶§":1880,"à¶¯à¶±à¶ºà¶ļ":1881,"à¶ľà¶¸à¶ļ":1882,"ack":1883,"Ġà¶»à¶ł":1884,"Ġwith":1885,"à¶ºà¶ºà¶±à¶º":1886,"à·ĴâĢĿ":1887,"Ġà¶ĳà¶¸à¶ľ":1888,"**":1889,"Ġà¶»à¶Łà¶´":1890,"ĠRe":1891,"Ġà¶·à¶º":1892,"ðŁĳĮðŁĳĮðŁĳĮðŁĳĮ":1893,"ite":1894,"à¶»à¶¹":1895,"à¶®à¶¸":1896,"à·ĥà¶¸à·Ħà¶»":1897,"à¶»à·Ģà¶º":1898,"Ġà¶Ķà·Ĩ":1899,"à·Ģà·ħ":1900,"à·ĳ...":1901,"Ġpro":1902,"à·Ŀ.":1903,"ĠAn":1904,"Ġà¶ħà¶¢":1905,"Ġà¶ĩà¶´":1906,"à¶»à¶¸à¶«":1907,"Ġà¶īà¶´à¶¯":1908,"end":1909,"à¶ħà¶°":1910,"à¶¶à¶Ń":1911,"à¶¸à¶ļà·Ģ":1912,"à¶ľà¶¸à¶§":1913,"à¶±à¶©":1914,"à·ģà·Ģ":1915,"Ġà¶´à·Ħà¶»à¶¯":1916,"Ġ28":1917,"ĠSri":1918,"Ġà¶ľà¶¶à¶©":1919,"Ġà¶¶à¶½à¶´à¶Ń":1920,"à¶Ńà¶ļà¶§":1921,"à·ıâĢį":1922,"Ġà¶ĳà¶»à¶§":1923,"à·Ĵ-":1924,"à¶½à¶ºà¶±":1925,"Ġà¶ºà¶½":1926,"ĠÂ»":1927,"one":1928,"Ġà¶´à·ģ":1929,"à·Ĵ!":1930,"Ġà¶»à¶łà¶±":1931,"Ġà¶Ĩà¶ºà¶Ńà¶±à¶ºà¶ļ":1932,"à¶Ńà·Ħ":1933,"à¶Ľà¶«":1934,"à¶¯à·Ħà¶±":1935,"à¶ľà¶ļ":1936,"Ġà¶Ĩà¶±à¶±":1937,"ome":1938,"iru":1939,"à·Ļ..":1940,"Ġà·Ģà¶»à¶§":1941,"Ġà·ĥà·Ģà·ĥ":1942,"à¶ļà¶»à¶½":1943,"Ġà¶´à¶¸à¶±":1944,"à·Ģà¶ļà¶ºà¶±":1945,"à·Ĥà¶¸":1946,"Ġà¶ĭà¶´à·ĥ":1947,"à·Ģà¶±à¶¸":1948,"Ġà¶ħà¶ľà¶±":1949,"à·ĸ,":1950,"à¶±à¶ºà¶ļà¶§":1951,"ian":1952,"à¶ĳà¶¯":1953,"13":1954,"Ġà¶ºà¶±à¶ļ":1955,"à¶»à¶ļà¶º":1956,"à¶ľà·Ģ":1957,"à¶©à¶¶":1958,"ail":1959,"à·ħà¶¸":1960,"Ġà¶¶à¶½à¶ºà¶ļ":1961,"Ġà¶ĳà·ħà¶¹":1962,"à¶«à·Ģ":1963,"'s":1964,"à¶®à¶ºà¶ļ":1965,"Ġà¶ħà·ĥà¶»à¶«":1966,"à·ĥà¶ºà¶§":1967,"à¶¯à¶»à·Ģ":1968,"iz":1969,"22":1970,"Ġà¶´à¶ł":1971,"à·ĳ,":1972,"à·ħà¶°":1973,"pt":1974,"ell":1975,"Ġà·Ģà·ħà¶ļ":1976,"Ġà¶¢à¶±à¶´à¶¯":1977,"ĠâĢĺâĢĺ":1978,"à¶ºà¶ļà¶»":1979,"à¶Ńà¶ľ":1980,"à·Ĥà¶«à¶ºà¶§":1981,"à¶Ńà¶ļà¶»":1982,"à¶¯à·Ħ":1983,"à¶»à¶ºà¶Ń":1984,"à·Ĳà·Ķ":1985,"ob":1986,"à¶½à·Ģà¶½":1987,"Ġà·Ļ":1988,"à·ļ)":1989,"à·ĴâĢ¦":1990,"ĠY":1991,"à¶¯à¶ºà¶±":1992,"à¶ºà¶½à¶Ń":1993,"ure":1994,"à·Ĵ?":1995,"à·Ģà¶§à¶Ń":1996,"Ġà¶ħà¶¹":1997,"à·Ģà¶ºà¶ļà¶§":1998,"Ġà¶Ńà·Ģà¶¸":1999,"à·Ħà¶½à¶ºà¶±":2000,"25":2001,"à¶ºà¶·":2002,"Ġà¶»à¶«à·Ģ":2003,"à·ĥà¶ļà¶§":2004,"âĢĻâĢĻ":2005,"''":2006,"à¶Ńà¶ļà¶º":2007,"Ġà¶į":2008,"Ġà¶ħà·Ģà¶Ń":2009,"Ġà¶īà¶¶":2010,"ph":2011,"à¶¹à¶½":2012,"à¶½à¶¶":2013,"Ġà·ĥà¶¸à¶ľà¶¸":2014,"ear":2015,"inh":2016,"Ġà¶ħà¶¯à¶§à¶Ń":2017,"ere":2018,"Ġà¶±à·Ģà¶ļà¶Ń":2019,"à¶ºà¶¸à¶§":2020,"à·Ģà¶§à¶¸":2021,"......":2022,"à¶©à¶§":2023,"à¶©à¶Ń":2024,"Ġà¶¶à¶½à¶Ńà¶½":2025,"Ġà¶Ĩà¶¶":2026,"Ġà¶ļà·Ħ":2027,"====":2028,"ass":2029,"âĢįâĢį":2030,"à¶Ĥ.":2031,"Ġà¶ħà¶»à¶ľà¶½à¶º":2032,"à¶Ńà·Ģà¶¯":2033,"Ġà¶Ķà¶Ń":2034,"org":2035,"à·Ļà·ıà·Ĭ":2036,"Ġà·Ģà¶ľà¶±":2037,"Ġà¶Ķà¶»":2038,"Ġà¶´à·Ħà¶±":2039,"à·ĥà¶·":2040,"à·ľ.":2041,"à·Ĵ....":2042,"à¶±à¶§à¶¸à¶Ń":2043,"Ġà¶¯à¶«":2044,"à¶ºà·Ĥ":2045,"ile":2046,"own":2047,"à·Ĥà¶½":2048,"Ġà¶ľà¶¸à¶±à¶ļ":2049,"Ġan":2050,"à·ı!":2051,"Ġà¶ļà¶º":2052,"ust":2053,"Ġht":2054,"ld":2055,"Ġà¶Ĩà¶±à¶ºà¶±":2056,"Ġà¶ĭà¶ł":2057,"à¶ºà·Ģà·ģ":2058,"Ġà¶ħà¶ºà·Ģ":2059,"à¶¶à¶½à¶º":2060,"à¶Łà¶ļ":2061,"Ġà¶¯à·ħ":2062,"à·ĶÂŃ":2063,"Ġà¶½à·Ģ":2064,"à¶°à¶±à¶ºà¶ļ":2065,"Ġà¶īà·Ģà¶»à¶º":2066,"à¶¯à·Ħà¶¸":2067,"à¶®à¶±":2068,"Ġà¶»à¶³à·Ģ":2069,"à¶·à·Ģ":2070,"Ġà¶ħà¶Ńà·Ħ":2071,"à¶¨à¶¸":2072,"Ġ2009":2073,"à¶ľà¶Ńà·Ģ":2074,"à¶»à¶¸à¶ºà¶§":2075,"Ġ29":2076,"âĢĺâĢĺ":2077,"Ġà¶ħà¶´à·Ħ":2078,"à¶³à¶ļ":2079,"ĠÐ":2080,"Ġà¶Ĵà¶ļà¶ļà¶º":2081,"Ġ=":2082,"à¶»à¶ľà¶±":2083,"Ġà¶´à¶½à·Ģ":2084,"Ġà¶¶à¶§":2085,"Ġà¶ĳà¶±à¶ļ":2086,"Ġà·Ħà¶½":2087,"à¶Ńà¶¸à¶±":2088,"à¶īà·ĥ":2089,"à·Ħà¶½à¶§":2090,"Ġhttp":2091,"Ġà¶Ĩà·Ģà¶»à¶«à¶º":2092,"à¶¸à¶´":2093,"ext":2094,"à¶«à·Ģà¶»":2095,"à¶ļà¶ľà¶Ń":2096,"Ġ2012":2097,"Ġ2013":2098,"à¶»à·ĥà¶±":2099,"à¶³à¶´":2100,"ey":2101,"à¶¢à¶±à¶ºà¶§":2102,"à·Ģà·ĥà¶ļ":2103,"à¶½à·Ģà¶º":2104,"à¶ºà¶¸à¶±":2105,"21":2106,"ical":2107,"Ġà¶ĭà¶ļ":2108,"à¶ĳà¶±à¶¸":2109,"à¶ĩà¶½":2110,"Ġà¶łà¶Ń":2111,"à·Ģà·ĥà¶»":2112,"à¶±à¶¸à¶ļ":2113,"Ġà¶ħà¶Ńà¶»à¶§":2114,"à·Ģà¶»à¶§":2115,"Ġà·Ģà¶»à¶º":2116,"ĠHiru":2117,"à·ĥà¶ľ":2118,"05":2119,"à·ĥà¶»à·Ħ":2120,"à·ļâĢįà·ĬâĢį":2121,"à¶±à¶´à¶Ń":2122,"Ġà¶ļà¶Ńà¶±":2123,"Ġà¶ħà¶¯à¶Ń":2124,"ice":2125,"se":2126,"à¶µà¶½à¶º":2127,"à¶»à¶§à¶§":2128,"à·Ħà¶»à¶«à¶º":2129,"rom":2130,"à·Ļ...":2131,"Ġà¶¶à¶»à¶´à¶Ńà·ħ":2132,"Ġ60":2133,"Ġà¶ļà·ħà¶Ń":2134,"à¶ľà·Ħ":2135,"Ġde":2136,"__":2137,"à¶ļà¶¸à¶§":2138,"ame":2139,"ue":2140,"Ġ2010":2141,"Ġà¶ľà¶±à¶±":2142,"à·Ĥà¶»":2143,"ary":2144,"ĠEn":2145,"Ġà¶ħà·Ģà¶½":2146,"Ġà¶¶à¶¶":2147,"à¶ļà¶»à¶Ń":2148,"Ġà¶ħà¶¸à¶Ńà¶»":2149,"Ġà¶ĩà¶©":2150,"ver":2151,"à·Ģà¶©":2152,"ull":2153,"à¶¸à¶»à¶º":2154,"à·ĶâĢį":2155,"à¯":2156,"à¶ľà¶©":2157,"Ġà¶ľà¶½à·Ģ":2158,"Ġà·ĥà¶Łà¶»":2159,"Ġà·Ħà¶»à¶ļ":2160,"Ġà¶»à¶®à¶ºà¶ļ":2161,"Ġà¶¯à·ħà¶¯":2162,"Ġà¶°à¶¸":2163,"ib":2164,"ĠTh":2165,"à¶»à¶ºà¶ļà¶§":2166,"Ġun":2167,"Ġà·ĥà¶»à¶«":2168,"à¶½à¶Ńà¶¸":2169,"ra":2170,"à·Ĭ!":2171,"à·ļ....":2172,"Ġà¶±à¶Ń":2173,"à¶´à¶¸à¶«":2174,"à¶¢à·ĥ":2175,"ans":2176,"oft":2177,"edia":2178,"à¶´à¶«":2179,"Ġà¶¯à·ģà¶ļ":2180,"tern":2181,"Ġà¶Ĩà¶ļà¶½":2182,"à¶§à¶¸à¶ļ":2183,"Ġà¶ļà¶»à¶«":2184,"à·Ĥà¶¥":2185,"à¶»à¶¥":2186,"Ġà¶´à¶¯à·Ģ":2187,"à¶«à¶ľ":2188,"ge":2189,"Ġà¶Ĵà¶ļà¶Ń":2190,"Ġà¶ºà¶ļà¶©":2191,"ĠAr":2192,"vi":2193,"Ġà·Ĩà¶º":2194,"Ġà¶Ķà¶§":2195,"ĠX":2196,"à·Ģà¶»à¶±":2197,"pe":2198,"lk":2199,"à·ĬâĢĮ.":2200,"Ġà¶ħà¶±à·Ģà·ģ":2201,"24":2202,"Ġà¶ħà¶´à¶±à¶ºà¶±":2203,"à¶ĳà·Ģ":2204,"à·Ģà¶»à¶«à¶ºà¶§":2205,"Ġà¶Ĵà¶¸":2206,"à¶»à¶łà¶«":2207,"à·ĥà¶´":2208,"07":2209,"inhala":2210,"à¶Łà¶±":2211,"à¶ļà¶»à¶ľà¶Ń":2212,"Ġà·ĥà¶½à·ĥ":2213,"à¶°à¶ºà¶§":2214,"Ġor":2215,"ana":2216,"à¶°à¶±à¶ºà¶§":2217,"Ġà·ĥà¶Ńà¶»":2218,"à·Ķ-":2219,"Ġà¶ħà¶ºà¶¯":2220,"ara":2221,"Ġà¶Ĵà¶¸à¶§":2222,"à¶³à¶§à¶¸":2223,"Ġcon":2224,"Ġpl":2225,"Ġthat":2226,"Ġwas":2227,"à¶ħà·Ģà·ĥ":2228,"Ġat":2229,"à·Ĭ(":2230,"à¶´à¶¸":2231,"ign":2232,"ress":2233,"à·Ħà¶±à¶ºà¶ļ":2234,"Ġ70":2235,"Ġà¶±à·ĥ":2236,"à¶ĳà¶Ń":2237,"Ġà¶¸à¶»à¶«à¶ºà¶§":2238,"Ġch":2239,"Ġà¶¸à·Ħà¶¢à¶±à¶Ń":2240,"ĠSh":2241,"à¶ľà·Ģà¶½":2242,"à¶Ľà¶º":2243,"ach":2244,"Ġà·Ģà¶łà¶±à¶ºà¶ļ":2245,"à·Ĵ:":2246,"ave":2247,"Ġ01":2248,"à¶©à¶ļà¶ºà¶±":2249,"Lanka":2250,"Ġà¶ħà¶¬":2251,"Ġà¶±à¶§":2252,"à¶»à¶«à¶ºà¶§":2253,"Ġà¶ħà¶»à¶ľà¶½":2254,".âĢĿ":2255,"Ġà¶°à¶±à·Ģ":2256,"ãģ":2257,"à·Ģà¶³":2258,"Ġà¶´à¶¬":2259,"ĠUn":2260,"à·ļ\"":2261,"Ġà¶ĳà¶©":2262,"ire":2263,"Ġ07":2264,"Ġ:)":2265,"sh":2266,"Ġà·Ħà·Ģà·ĥ":2267,"Ġà·Ģà¶±à¶¯":2268,"199":2269,"à¶»à¶´à¶§à¶ºà¶ļ":2270,"à¶łà¶½":2271,"Ġà¶¯à¶¹":2272,"old":2273,"][":2274,"Ġare":2275,"Ġà¶Ĩà¶Ńà¶½":2276,"Ġà¶ĭà¶ºà¶±":2277,"03":2278,"Ġà·Ģà¶¯à¶±":2279,"Ġà¶ħà¶ľà¶ºà¶ļ":2280,"Ġà¶¸à¶ł":2281,"load":2282,"à¶¶à·ħ":2283,"rig":2284,"à·Ĳ,":2285,"Ġâ":2286,"à¶§à¶½à¶º":2287,"Ġà·ģà¶Ń":2288,"Ġà¶¯à·Ħà·ĥà¶ļ":2289,"Ġ....":2290,"à·Ģà¶½à¶Ń":2291,"Ġit":2292,"ong":2293,"à¶´à¶ł":2294,"Ġà¶īà¶¯à¶½":2295,"ideo":2296,"à¶ľà·Ģà¶Ń":2297,"Ġà¶¶à¶½à¶±à·Ģ":2298,"23":2299,"06":2300,"à¶Ńà¶ļà¶¯":2301,"ther":2302,"à¶»à¶ļà¶®à¶±à¶º":2303,"cc":2304,"à·Ħà¶ºà¶±":2305,"Ġsh":2306,"In":2307,"Ġà¶ħà¶Ńà¶ļ":2308,"à¶¯à¶´":2309,"out":2310,"Ġà¶ĳà¶ļà¶Łà¶Ń":2311,"à¶ºà¶ļà¶ľ":2312,"Ġà·ĥà¶¸à¶»à·Ģ":2313,"à¶±à·Ģà¶º":2314,"ich":2315,"Ġà¶Ĭà¶¢":2316,"Ġà¶īà¶´":2317,"Ġà¶ħà¶¸à¶»à¶Ń":2318,"à¶Ńà¶¸à¶º":2319,"per":2320,"à¶¢à¶½":2321,"Ġà·Ħà¶¯à¶´":2322,"Ġà¶´à¶´":2323,"à¶ĭà¶±":2324,"Ġal":2325,"à¶®à¶ļà·Ģ":2326,"à¶ļà¶»à¶ľà¶±":2327,"Ġ35":2328,"Web":2329,"Ġà¶Ĵà¶ļà¶º":2330,"Ġà¶ħà·ĥà¶¸":2331,"ĠAl":2332,"ence":2333,"2018":2334,"à·Ĭ:":2335,"Ġ80":2336,"80":2337,"Ġ2011":2338,"Ġà·Ģà¶³":2339,"Ġà¶ħà·Ģà¶±":2340,"à¶±à·Ģà¶§":2341,"à¶Ĩà¶»à¶ł":2342,".\"":2343,"Ġà¶»à¶º":2344,"act":2345,"Ġà¶¸à¶Ńà¶ºà¶ļ":2346,"Ġ+":2347,"à·Ķ...":2348,"Ġ2000":2349,"Ġà¶ħà·ĥà¶Ń":2350,"Ġ31":2351,"à·ħà¶³à¶´":2352,"Ġà·Ģà¶½à¶ļ":2353,"ĠPh":2354,"Ġà¶´à¶¯à¶ļ":2355,"ree":2356,"!!!":2357,"ne":2358,"Ġus":2359,"à·ģà¶ľ":2360,"Ġà¶¢à¶´à¶±":2361,"Ġà·Ħà¶ļ":2362,"à¶´à·Ģà¶Ń":2363,"à¶Ĩà¶«":2364,"Ġ2008":2365,"Ġà·Ħà¶ºà¶ļ":2366,"à·Ģà¶Ńà¶ļ":2367,"Ġà¶īà¶¯à¶±":2368,"à·ģà·Ģà¶º":2369,"à¶Ńà¶±à¶ºà¶§":2370,"à¶»à¶łà¶½":2371,"à¶®à¶ļà¶Ń":2372,"à¶¯à¶»à¶Ń":2373,"Ġà¶ħà¶¸à¶±":2374,"Ġà¶ħà¶Ľà¶«":2375,"orm":2376,"à·ı-":2377,"à¶ļà·Ģà¶¸":2378,"Ð°":2379,"04":2380,"Ġà¶±à¶©à¶Ń":2381,"Ġà·Ģà¶ļà·Ģ":2382,"Ġ03":2383,"Ġà¶Ķà·ħ":2384,"à¶Ĵà·Ģ":2385,"Ġà·Ģà·Ģ":2386,"à·ĥà¶»à·Ħà¶§":2387,"Ġà¶¶à¶¸":2388,"Ġtr":2389,"Ġà·ĥà¶§à·Ħà¶±à¶ļ":2390,"ĠPro":2391,"à¶®à·Ģ":2392,"Ġ500":2393,"27":2394,"ork":2395,"ram":2396,"âĢ¦]":2397,"LankaWeb":2398,"ebook":2399,"26":2400,"à¶ľà¶«à¶ļà¶º":2401,"Ġ05":2402,"09":2403,"à¶·à¶ºà¶ļ":2404,"à¶Ńà¶±à¶ºà¶ļ":2405,"ber":2406,"à¶ºà¶ļà·Ģà¶»à¶º":2407,"à¶³à¶ľ":2408,"wik":2409,"08":2410,"ug":2411,"Ġ08":2412,"à¶»à¶§à¶¸":2413,"ational":2414,"Ġà¶¯à¶»à¶«":2415,"ens":2416,"Ġà·ĥà¶´à¶º":2417,"à·Ħà¶«":2418,"Ġà¶¯à·Ģà¶½":2419,"à¶´à·ħà¶¸":2420,"Ġà·ĥà¶¸à¶»":2421,"à·Ĩà¶»":2422,"enc":2423,"à¶łà¶ºà¶ļ":2424,"ight":2425,"Ð¾":2426,"ase":2427,"à¶īà·Ħà¶Ń":2428,"ĠĠĠĠĠĠĠĠĠĠĠĠĠĠĠĠ":2429,"iy":2430,"à¶ºà·Ģà¶Ń":2431,"Ġà¶ĭà¶¸":2432,"à¶¶à¶»à¶º":2433,"Ġà¶¯à·Ħà¶ºà¶ļ":2434,"28":2435,"Ġex":2436,"Ġcl":2437,"à·ĥà¶ºà¶±":2438,"à¶ºà·Ģà¶ļ":2439,"Ġà¶±à·Ģà¶Ńà¶¸":2440,".)":2441,"Ġà·ĥà¶¸à·Ħà¶»à¶ļ":2442,"à¶»à¶ļà¶ºà¶±":2443,"Ġj":2444,"à¶ª":2445,"Ġ&":2446,"à¶¯à¶ļà¶º":2447,"Ġà¶ļà¶Ńà¶»":2448,"Ġà·Ħà¶¯à¶±à·Ģ":2449,"oog":2450,"à¶¸à¶°":2451,"Ġà¶Ĵà¶ļà¶ļ":2452,"Ġà¶©à¶¶":2453,"Ġ2005":2454,"acebook":2455,"ÑĤ":2456,"ank":2457,"Ġà¶ĭà¶©à¶»à¶§":2458,"lect":2459,"ie":2460,"Ġà¶ĩà¶Ńà¶Ń":2461,"Ġà¶ħà·ĥà¶¸à¶Ń":2462,"Ġà¶¸à·Ħà·Ģ":2463,"Ġà¶·à¶ļ":2464,"à¶»à¶ºà¶º":2465,"pl":2466,"log":2467,"29":2468,"Ġ[âĢ¦]":2469,"à¶¯à¶¯":2470,"ult":2471,"à¶¸à·Ħà¶½":2472,"Ġà¶īà¶»à¶«":2473,"oogle":2474,"2015":2475,"Give":2476,"olog":2477,"à·ļâĢ¦":2478,"à¶Ĭà¶º":2479,"Ġà¶±à¶»à¶¹à¶±":2480,"à¶½à¶·":2481,"Ġà¶´à·Ģà·ĥà¶±à·Ģ":2482,"ark":2483,"à¶±à¶ºà¶º":2484,"ition":2485,"à·²":2486,"à¶»à·ĥà¶º":2487,"à¶¢à¶±à¶ļ":2488,"Ġà¶Ĩà¶¥":2489,"Ġà¶Ńà¶»à·Ħ":2490,"Ġà·ĥà·Ħà¶ļ":2491,"Ġà¶ĩà¶ľà¶º":2492,"Ġà¶¯à¶½":2493,"Ġ02":2494,"à¶Ĩà¶º":2495,"Ġà¶µà¶½à¶¯":2496,"à¶Ĥ,":2497,"à·ı.âĢĿ":2498,"Ġà¶ħà¶»à¶ļ":2499,"à¶ļà¶»à¶«à¶ºà¶ļ":2500,"Ġà¶Ĩà¶·":2501,"Ġà¶ļà¶½à¶¶à¶½":2502,"à¶Ńà¶½à¶±":2503,"Ġad":2504,"Ġà·Ģà·ĥà¶»à¶ļà¶§":2505,"à¶Ĩà·ģ":2506,"Ġà¶»à·ĥà·Ģà¶Ń":2507,"à¶½à¶°à¶»":2508,"à¶ĳà·ħ":2509,"ound":2510,"à¶¯à·Ģà¶±":2511,"à·ĲâĢį":2512,"02":2513,"à¶ľà¶«à¶º":2514,"Ġà¶Ĩà¶¸":2515,"Ġà¶Ĭà¶§à¶Ń":2516,"Ġà¶ļà¶«à¶ľ":2517,"Ġà¶ĩà¶¶":2518,"?\"":2519,"à·ĥà¶½à¶§":2520,"ace":2521,"ics":2522,"Ñģ":2523,"Ġà·ĥà¶¸à·Ħà¶»à·Ģ":2524,"à¶§à¶»à¶§":2525,"à·Ģà·ģ":2526,"à·Ħà¶ľ":2527,"60":2528,"----":2529,"Ðµ":2530,"Ġfrom":2531,"lish":2532,"à·Ģà¶ºà¶º":2533,"Ġà¶¢à¶±à¶ľà·Ħà¶±à¶º":2534,"ÑĢ":2535,"Ġà¶ĳà¶ºà¶º":2536,"ments":2537,"à¶»à¶±à¶º":2538,"ĠRead":2539,"à¶½à¶¹":2540,"à¶±à¶Ńà¶¸":2541,"Ġà¶ľà¶«à¶±à¶º":2542,"Ġà¶ĩà¶¯à·Ħ":2543,"Ġà¶ĭà¶¹à¶§":2544,"Ġà¶ľà·Ħà¶±à·Ģ":2545,"à¶ľà¶»à¶º":2546,"ond":2547,"Ġà¶ħà¶´à·Ģ":2548,"Ġ2007":2549,"à·Ģà¶»à¶¸":2550,"Ġà¶ĩà¶ºà·Ģ":2551,"à¶¯à·Ħà·ĥà¶ļ":2552,"à·ħà¶ľ":2553,"right":2554,"à¶ºà·Ģà¶»à¶ļ":2555,"Ġà¶Ĩà¶©à¶¸":2556,"à¶ĭà¶¹":2557,"à¶´à¶ºà¶±":2558,"à¶ĥ":2559,"ual":2560,"ee":2561,"à¶ĩà¶±":2562,"Ġà¶±à¶¯":2563,"à¶½à¶«":2564,"à¶±à¶§à¶º":2565,"à¶´à¶±à¶ºà¶§":2566,"uc":2567,"à·ĥà¶»à¶ºà¶ļ":2568,"à¶´à¶¯à·Ģà¶±":2569,"ĠStory":2570,"Ġà¶ľà¶¸à¶§":2571,"Ġà¶Ľà¶±":2572,"à¶¸à·Ħà¶±":2573,"à·ħà·Ģà¶»":2574,"à·Ĳ..":2575,"Ġ*":2576,"à¶¶à¶½à¶±":2577,"Ġà¶°à¶±à¶º":2578,"à·ı'":2579,"ownload":2580,"à·Ķ)":2581,"Ġà·Ģà¶»à¶´":2582,"ows":2583,"à¶¯à¶¸à¶§":2584,"à¶»à¶Ńà·Ģ":2585,"Ġà¶Ĩà¶¯à¶»à¶«":2586,"Ġà¶±à¶ľà¶»à¶ºà¶§":2587,"à¶ļà¶»à¶±à·Ģ":2588,"fer":2589,"Ġà¶¶à¶³à·Ģ":2590,"Ġà¶ķà·Ģ":2591,"âĢ¦âĢ¦":2592,"à·Ĵ.âĢĿ":2593,"Ġà¶»à¶¢à·Ģà¶»":2594,"à¶§à¶Ńà¶§":2595,"à¶»à¶¶à¶±":2596,"à¶»à¶¢à¶±":2597,"à·Ĥà¶´":2598,"Ġ04":2599,"Ġle":2600,"Ġà¶´à¶¯à¶±":2601,"à¶½à¶Ł":2602,"à¶©à¶»à¶½":2603,"à¶ºà·Ģà·Ħ":2604,"à¶½à¶ºà¶ļà¶§":2605,"aya":2606,"ech":2607,"à¶©à¶ľ":2608,"les":2609,"Ġà¶ĩà¶¹":2610,"à·Ĥà¶ľ":2611,"40":2612,"ating":2613,"atch":2614,"à·ħà¶±":2615,"à¶³à¶½":2616,"Ġà¶īà¶©à¶ļà¶©":2617,"Ġà¶¢à¶±à¶ļ":2618,"à¶ħà·ĥ":2619,"able":2620,"Ġnot":2621,"Ġà¶ħà·Ģà·Ħ":2622,"Ġ193":2623,"Ġà¶ļà¶´à¶±":2624,"à·ĥà¶±à¶§":2625,"Ġà·Ģà¶»à¶¸":2626,"197":2627,",,":2628,"ĠZ":2629,"à¶¶à¶ļ":2630,"à·Ĳ...":2631,"revi":2632,"à¶«à¶»à¶Ń":2633,"Ġà¶Įà·Ģ":2634,"à¶ĩà¶¸à¶»":2635,"à¶īà¶¯":2636,"à¶ºà¶§à¶º":2637,"Ġà¶Ĭà·ģ":2638,"à·ģà¶«à¶º":2639,"à·Ķ..":2640,"Ġ2006":2641,"ĠInd":2642,"à¶¶à¶»à¶½":2643,"Ġà¶¶à¶½à·Ħà¶Ń":2644,"Ġà¶ĭà¶©à¶§":2645,"à¶©à·ĥà¶§à·Ħà¶±à¶ļ":2646,"à¶´à¶±à¶ºà¶ļ":2647,"Ġ06":2648,"Ġà¶¢à¶±à¶¸à¶Ń":2649,"Ġà¶¢à¶ºà¶±":2650,"à¶½à¶ºà¶º":2651,"à·ı:":2652,"à·Ĥà¶¸à¶Ń":2653,"ount":2654,"à¶»à¶©":2655,"ance":2656,"Ġà¶µà¶½":2657,"Ð¸":2658,"à·Ģà¶½à¶¸":2659,"Ġi":2660,"Ġà¶ļà¶¶":2661,"Ġà¶ĩà·ħ":2662,"Ġà¶īà·ĥà·Ģ":2663,"Ġà¶īà·Ĥ":2664,"Ġà¶Ĩà¶±à¶ºà¶±à¶º":2665,"à¶¸à·Ħà¶Ń":2666,"à¶§à¶»à¶ºà¶ļ":2667,"à·ļâĢĿ":2668,"Ġà¶¯à¶Ł":2669,"Ġà¶ºà·Ģ":2670,"Ġà·Ģà¶§à¶´":2671,"à¶¸à¶½à¶º":2672,"Ġ90":2673,"à·Ļ?":2674,"thumb":2675,"Ġà¶Ńà¶»à¶Łà¶º":2676,"à¶§à¶»à¶º":2677,"à¶¢à¶ºà¶±":2678,"Ġà·ĥà·Ħà¶½":2679,"Ġà¶ļà¶Ńà¶»à¶ľà¶¸":2680,"Ġà·ĥà·Ģà¶±":2681,"ĠAd":2682,"à¶´à¶Ńà¶§":2683,"Ġ45":2684,"à·ħà·ĥ":2685,"Ġà¶Ĩà¶´à¶¯":2686,"ock":2687,"à¶ĩà¶¸":2688,"à¶¯à¶ºà¶ļà¶§":2689,"Ġà¶¸à·Ħà¶¢à¶±à¶º":2690,"ake":2691,"Ġà¶ĳà¶´à¶¸à¶«":2692,"198":2693,"ann":2694,"à·ħà¶½":2695,"à·Ĵ;":2696,"à¶ļà·Ģà¶½":2697,"ash":2698,"à¶©à¶½à¶ºà¶§":2699,"à·ģà¶«":2700,"à¶°à¶ļà¶º":2701,"Ġà¶ļà¶½à¶ļà¶§":2702,"Ġà¶©à¶ºà·ĥ":2703,"Ġà·ģà¶½":2704,"à¶»à·Ģà¶«à¶Ń":2705,"à·Ĥà¶±à¶º":2706,"Ġ300":2707,"Full":2708,"à¶§à¶ļà¶º":2709,"à¶°à¶ļà¶ºà¶ļ":2710,"ern":2711,"ode":2712,"à¶łà¶ļ":2713,"ĠSinhala":2714,"Ġà·ĥà¶¸à¶ļ":2715,"Ġà¶Ńà¶«":2716,"Ġà¶īà·Ħà·ħà¶¸":2717,"à¶±à·Ģà¶±à¶¸":2718,"Ġà¶įà¶¢":2719,"Ġà¶ħà·Ħà¶±à·Ģ":2720,"ðŁĳĮðŁĳĮðŁĳĮðŁĳĮðŁĳĮðŁĳĮðŁĳĮðŁĳĮ":2721,"Ġà¶ħà¶¸à¶»à·ĥ":2722,"Ġ;":2723,"Ġà¶´à¶½à¶¸":2724,"Ġà¶ĩà¶»à¶½":2725,"Ġà¶ĭà¶´à·Ħ":2726,"à¶½à¶±à·Ģ":2727,"à·Ģà¶ºà¶Ń":2728,"à·ĥà¶¸à¶ļ":2729,"Ġà¶ĭà¶¯à¶º":2730,"Ġthis":2731,"Ġà¶´à·ħà¶½":2732,"Ġà¶´à¶½à¶Ń":2733,"Ġà¶®":2734,"Ġthumb":2735,"Ġà¶ĩà¶´à¶½":2736,"à·Ĵà·Ĵ":2737,"à·ļâĢĻ":2738,"Ġà¶¯à·Ģ":2739,"à¶īà¶»":2740,"Ġà¶Ĵà·Ģà¶ľ":2741,"à·ħà¶¹à¶§":2742,"land":2743,"ox":2744,"à¶»à¶ļà¶Ńà¶±":2745,"Ġà¶Ķà·ĥà·Ģ":2746,"Ġph":2747,"ĠEng":2748,"à·ĥà¶½à¶Ń":2749,"Ġà¶ħà·Ģà·Ģ":2750,"ions":2751,"II":2752,"ï¿":2753,"px":2754,"Ġà¶°à¶±à¶´à¶Ń":2755,"Ġà¶´à¶»à¶¯":2756,"Ġà¶ħà¶ł":2757,"Ġapp":2758,"revious":2759,"Ġà¶ļà¶½à¶Ń":2760,"Ġà¶Ŀà¶±":2761,"à¶ļà¶§à¶¸":2762,"à¶ĳà¶Ńà¶ļ":2763,"Ġà¶¸à¶»à¶±":2764,"Ġà¶¶à·Ģà¶§à¶Ń":2765,"www":2766,"à·Ģà¶»à¶¯":2767,"Ġà¶´à·Ģà·ĥà¶¸":2768,"Ġà·ĥà¶´à¶Ń":2769,"à¶Ńà¶½à¶º":2770,"Ġpost":2771,"à·ı.....":2772,"à·ĻâĢį":2773,"Ġà·ĥà¶¸à¶»à¶±":2774,"à¶¸à¶ļà¶¯":2775,"Ġà·ĥà·ĥ":2776,"à¶ħà¶ļ":2777,"à¶½à¶±à¶¥à¶ºà¶±":2778,"Ġà¶Ĭà·ħà¶Łà¶§":2779,"NA":2780,"à¶¶à¶§à·Ħ":2781,"à¶ºà¶ļà¶ºà¶ļ":2782,"ated":2783,"Ġà¶´à¶½à¶ļ":2784,"Ġà¶ħà¶´à¶¯":2785,"int":2786,"Ġà¶¶à¶½à·ģà¶ļ":2787,"ï¿½":2788,"à·Ĵà·ĬâĢį":2789,"Ġà¶»à¶§à·Ģà¶½à¶§":2790,"ĠTr":2791,"ipedia":2792,"Ġà¶Ńà¶»à¶ľà¶ºà¶ļ":2793,"à¶¸à¶±à¶§":2794,"à·ģà¶±à¶ºà¶§":2795,"à¶¸à¶±à¶º":2796,"à¶ļà¶¸à¶º":2797,"ons":2798,"à¶¯à¶±à¶ºà¶§":2799,"à¶¢à¶±à·Ģà¶Ń":2800,"indows":2801,"Ġ2004":2802,"Ġà·ĥà¶¸à¶Łà¶¸":2803,"Ġà¶īà¶Ł":2804,"à¶³à·Ģà¶±":2805,"iss":2806,"à·ĥà·Ģà¶ºà¶ļ":2807,"Ġà¶ºà¶§à¶´à¶Ń":2808,"à·Ĭ;":2809,"à¶»à¶Ńà¶½":2810,"Ġà·Ħà¶»à·Ģ":2811,"orld":2812,"amp":2813,"te":2814,"Ġà¶©à¶º":2815,"à¶»à¶»":2816,"irst":2817,"yst":2818,"ism":2819,"à¶®à¶±à¶º":2820,"Ġà¶ħà·Ħà¶¸":2821,"Ġsp":2822,"ĠOff":2823,"à·Ĥà¶«à¶ºà¶±":2824,"45":2825,"ĠCl":2826,"ink":2827,"à¶½à¶³":2828,"lic":2829,"Ġsc":2830,"ĠEx":2831,"Ø§":2832,"Ġà·ħà¶Łà¶§":2833,"Ġà¶»à¶«à¶Ń":2834,"à¶ľà¶¯":2835,"Ġà¶ħà¶§à¶ļ":2836,"res":2837,"tit":2838,"Ġà¶¯à¶©à¶ºà¶¸":2839,"ĠWeb":2840,"à¶¶à¶ºà¶ļ":2841,"Ġà¶Ķà¶¶à·Ģ":2842,"Ġà¶±à¶ľà¶»à¶ºà¶ļ":2843,"à¶»à·Ħà¶½":2844,"Ġà¶Ńà·Ħ":2845,"à·Ĵ'":2846,"ations":2847,"Ġà¶ĭà¶´à¶ļà¶½":2848,"http":2849,"Ġà¶ħà¶Łà·Ħà¶»":2850,"à¶Ľà¶ļà¶º":2851,"à·Ħà¶ļà¶§":2852,"Ġser":2853,"Ġà¶¯à·Ģà·ĥà¶§":2854,"Ġà¶¢à¶ºà¶Ń":2855,"Ġà·Ģà¶±à¶¢":2856,"Ġà¶´à¶¸à¶±à¶ļ":2857,"Ġà·Ģà¶±à¶Ń":2858,"à·Ģà·ĥà¶±":2859,"rap":2860,"Ġà¶´à¶¯à¶±à¶¸à¶ļ":2861,"Ġà·ĥà·ħ":2862,"Ġà¶±à¶ľà¶±":2863,"Ġà¶Ĩà·ĥà¶º":2864,"Ġà¶ĭà¶¶":2865,"à¶Ŀà¶±à¶º":2866,"Ġà¶ļà¶»à¶¯à¶»à¶ºà¶ļ":2867,"à¶±à¶¸à¶º":2868,"à¶¯à·Ģà¶½":2869,"à·ľâĢį":2870,"Ġà·ĥà¶¸à¶ľà¶º":2871,"à·ľà·Ĭ":2872,"Ġà¶ĳà¶´à¶¸à¶«à¶ļ":2873,"Ġà·Ħà¶©":2874,"Ġcomp":2875,"à¶Ńà¶½à¶¸":2876,"Ġà¶´à¶¯à¶º":2877,"cl":2878,"Ġà¶¢à¶ºà¶ļ":2879,"Ġ||":2880,"oll":2881,"2017":2882,"Ġ33":2883,"aj":2884,"à¶±à¶§à¶¸":2885,"ĠPl":2886,"erm":2887,"Ġà¶ľà·Ħà¶´":2888,"à¶ļà¶§à¶¯":2889,"Ġà¶¯à·Ħà·Ģà¶½":2890,"rit":2891,"à¶Ľà¶Ń":2892,"Ġà¶ļà·ħà¶º":2893,"Ġà¶ļà¶½à¶º":2894,"à¯į":2895,"Ġà¶´à·Ģà·ĥà¶Ń":2896,"ings":2897,"à·Ħà¶½à¶ļ":2898,"Ġhe":2899,"à¶±à¶ļà¶½":2900,"à¶ļà¶ľà¶±":2901,"Ġà¶°à¶±à·Ģà¶Ń":2902,"Ġà¶±à¶Ł":2903,"à¶»à¶¸à¶ļ":2904,"Ġà¶¯à·ģ":2905,"pen":2906,"à¶§à¶ºà¶¸":2907,"Ġ36":2908,"Ġà¶īà·Ħà·ħà¶§":2909,"à·Ħà¶´à¶Ń":2910,"Ġà¶ľà·ĥà¶±":2911,"ally":2912,"Ġ1000":2913,"Ġà¶Ĩà¶ºà¶Ńà¶±à·Ģà¶½":2914,"à¤":2915,"à¶»à¶¢à¶º":2916,"à¶ľà·Ģà¶½à¶§":2917,"Ġà¶»à·ĥà¶º":2918,"io":2919,"Th":2920,"à·Ģà¶§à¶º":2921,"à¶±à¶ļà¶±":2922,"à¶½à¶±à¶¥à¶º":2923,"à¶©à¶±à¶ľ":2924,"ĠAs":2925,"Ġà¶½à¶½":2926,"Ġà¶·à¶§":2927,"ware":2928,"à¶ļà·Ģà¶Ń":2929,"Ġà¶ľà¶Ńà·Ħ":2930,"Ġ09":2931,"à·Ħà¶ºà¶§":2932,"Ġà¶½à¶¸à¶º":2933,"Ġà¶ĩà¶¯à¶ľ":2934,"à¶ľà¶ºà¶ļà¶§":2935,"à¶«à¶¸":2936,"ood":2937,"Ġà¶ļà·ħà¶¸à¶«":2938,"Ġà¶ħà¶»à¶½":2939,"ĠGoogle":2940,"uw":2941,"ric":2942,"Ġnews":2943,"ĠâĢĽ":2944,"ata":2945,"à·Ł":2946,"Ġx":2947,"Ġà·Ħà¶Ńà¶ļ":2948,"à¶Ķà¶¶à¶§":2949,"à¶½à¶ºà¶Ń":2950,"à¶½à¶§à¶¸":2951,"à¶¸à¶Ł":2952,"à¶ħà¶±à¶Ń":2953,"Ġman":2954,"Ġà¶¶à·ħà¶ļ":2955,"à¶±à¶ºà¶Ń":2956,"ade":2957,"33":2958,"à¶¯à¶½à¶§":2959,"Ġà¶»à¶¶à¶»":2960,"row":2961,"Ġà¶¶à¶©à¶ľ":2962,"Ġ1990":2963,"à¶»à·Ħà¶»":2964,"Ġà¶ļà¶½à·Ħ":2965,"à¶ħà¶ľ":2966,"à·Ĭ?":2967,"Ġà¶½à¶¶à¶±à·Ģ":2968,"Ġà¶ļà¶±à·Ģ":2969,"à¶©à¶ļà¶»à¶±":2970,"Ð½":2971,"Ġà¶Ńà¶½à¶º":2972,"form":2973,"Ġà¶¸à·Ģà¶ľ":2974,"à·Ķ\"":2975,"Ġà¶¸à·Ģà¶ļ":2976,"Ġ400":2977,"à¶¸à·Ħà¶»":2978,"Ġà¶»à¶«à·ĥ":2979,"à·ĵ)":2980,"Ġà¶¶à¶»à¶ļ":2981,"Ġà¶ľà¶º":2982,"à·Ģà¶»à¶Ń":2983,"ivers":2984,"Ġà·Ĥà¶»":2985,"à¶ľà¶«à¶±":2986,"à¶»à·Ģà¶»à¶º":2987,"à¶»à·Ģà¶½à¶§":2988,"Ġ|-":2989,"à¶ĩà·ĥ":2990,"Ġ1989":2991,"Ġà¶ľà¶©":2992,"Ġà¶ĳà·ħà·Ģà·ħ":2993,"70":2994,"eg":2995,"Ġ75":2996,"à¶ºà·Ħà¶´":2997,"Ġà·Ģà¶ºà¶¹":2998,"Ġà¶´à·Ħà¶»à¶ļ":2999,"35":3000,"OT":3001,"à¶Ńà·Ģà¶½":3002,"uct":3003,"à·Ĭ/":3004,"Ġà¶»à¶§à¶ļà¶§":3005,"Ġ1960":3006,"à¶»à·Ħà¶«à¶ºà¶ļ":3007,"Ġà¶ļà¶©à¶¯":3008,"sp":3009,"Ġà¶ĩà¶ļ":3010,"Ġ''":3011,"à¶Į":3012,"Ġà¶łà¶½à¶±à¶º":3013,"à¶¢à¶ļà¶º":3014,"Ġà·ĥà·ħà¶ļ":3015,"wikipedia":3016,"Ġà¶´à¶§à·Ħ":3017,"à¶¨à¶ļà¶º":3018,"ĠMore":3019,"à¶¸à¶±à¶¸":3020,"Ġà·Ħà¶´":3021,"Ġà¶ĭà¶¹à¶½":3022,"à·Ģà·ĥà¶¸":3023,"à¶ĭà¶´":3024,"ros":3025,"à¶Ńà¶»à¶±":3026,"à¶łà¶»à¶º":3027,"à¶»à·Ħà¶«":3028,"Ġà¶ĳà¶¶à¶³":3029,"ert":3030,"à¶»à¶ľà¶¸":3031,"Ġà¶Įà¶»":3032,"Ġà¶ĳà·Ĩ":3033,"Ġà¶ľà·Ħà¶ļ":3034,"à·Ĵ.\"":3035,"Ġà¶īà¶»à¶«à¶¸":3036,"2016":3037,"Ġà¶±à¶´":3038,"Ġup":3039,"ix":3040,"Ġà¶´à·ĥà¶ļ":3041,"Ġà¶¸à¶½à¶º":3042,"ha":3043,"Ġà¶´à¶»à¶ļ":3044,"à·ĥà¶»à¶ºà¶§":3045,"Ġ1970":3046,"à¶§à·Ģà¶±":3047,"========":3048,"Ġà¶ļà¶±à¶ľ":3049,"à¶Ńà¶¶":3050,"Ġ#":3051,"à¶ļà¶§à¶Ń":3052,"Ġà¶ļà¶´à¶½":3053,"Ġcont":3054,"Ġà¶ľà¶ºà¶±":3055,"48":3056,"Ġà¶¢à¶ľà¶Ń":3057,"..?":3058,"Ġyou":3059,"Ġà¶±à·Ģà·ĥ":3060,"ĠâĢĮ":3061,"à¶Ľà¶±à¶º":3062,"ystem":3063,"IS":3064,"à¶«à·Ħ":3065,"à¶°à¶ļà¶»":3066,"ology":3067,"à¶¸à¶¸à¶Ń":3068,"ari":3069,"Ġà¶´à¶±à·ĥ":3070,"port":3071,"Ġà¶īà¶¸à·Ħà¶Ń":3072,"Ġà¶¶à¶½à¶¯":3073,"Ġà¶Įà¶§":3074,"ĠHot":3075,"ĠâĢ¢":3076,"Ġ150":3077,"à·ļ!":3078,"à¶ļà¶»à¶±à¶º":3079,"Ġà·Ģà·ħà¶½":3080,"à·ħà·Ħ":3081,"bo":3082,"Ġà¶´à¶±à·Ģ":3083,"à¶·à¶±":3084,"Ġà¶Ľà¶«":3085,"à¶īà¶ļ":3086,"à¶½à·Ħ":3087,"Ġà¶¸à¶½à¶ļ":3088,"Ġà¶ħà¶»à¶¹":3089,"Ġ2001":3090,"à¶»à¶®à¶¸à¶º":3091,"31":3092,"we":3093,"à¶ºà·ģ":3094,"à·Ĵ.)":3095,"Ġà¶ĳà¶ļà·Ģà¶»":3096,"Previous":3097,"Ġà·Ģà¶§à¶º":3098,"raph":3099,"à·Ĥà·Ģà¶½":3100,"artic":3101,"Ġà·Ħà¶¬à¶ļ":3102,"à¶łà¶¸":3103,"anth":3104,"à¶¯à¶ºà¶Ń":3105,"Ġà¶»à¶§à¶¸":3106,"à¶Ńà¶±à¶¯":3107,"à·ģà·Ģà¶½à¶§":3108,"................":3109,"à·Ļà·Ĵ":3110,"à·ĥà¶¸à¶§":3111,"à¶±à¶Ł":3112,"Ġ32":3113,"ĠSc":3114,"Ġ2020":3115,"uk":3116,"Ġà·ĥà·ĥà¶»":3117,"Ġà¶ļà¶©à¶±":3118,"Ġà¶»à¶³":3119,"Ġà¶»à¶«à·Ģà¶ļ":3120,"TE":3121,"à¶ºà¶ļà¶¯":3122,"ime":3123,"Ġà·Ħà¶»à·ĥ":3124,"ese":3125,"ĠVideo":3126,"à¶¶à¶«":3127,"Ġà¶»à¶¢à¶ºà¶ļ":3128,"eat":3129,"à¶§à¶ºà¶ļ":3130,"Ġà¶ļà·ħà¶¯":3131,"Ġà¶īà¶³à¶ľ":3132,"Ġà¶¯à¶¸à¶¸":3133,"à·Ĥà¶ºà¶ļà¶§":3134,"eth":3135,".......":3136,"ðŁĺ":3137,"mer":3138,"Ġà¶Ĩà¶ºà¶Ńà¶±à¶ºà¶§":3139,"à¶«à¶´":3140,"Ġ2002":3141,"Ġà¶Ĩà¶Ńà¶Ń":3142,"à·ĬâĢĮ,":3143,"Ġà¶ľà·Ħà¶ľ":3144,"Ġà¶´à¶»à·ĥ":3145,"Ġà¶ħà¶ºà·Ħà¶´à¶Ń":3146,"à·Ħà¶´":3147,"à·Ħà¶ļà¶º":3148,"à¶ķà¶±":3149,"à¶§à¶¸à¶§":3150,"ward":3151,"à¶ħà¶·":3152,"Ġà¶´à¶Ńà¶±":3153,"à¶»à¶¸à¶¶":3154,"à¶»à·Ħà¶ºà¶ļ":3155,"ery":3156,"à¶·à·Ģà¶º":3157,"à¶ºà¶ºà¶º":3158,"à¶©à¶½à¶ºà¶ļ":3159,"Ġà¶¸à¶Ńà¶§":3160,"Ġà¶´à·Ħà·ħà¶§":3161,"à¶°à¶¸":3162,"ys":3163,"Ġà·ħà¶¯à¶»":3164,"à·Ĥà·Ģà¶»à¶º":3165,"Ġà¶¸à·Ħà¶«":3166,"à·Ŀ...":3167,"à¶ĳà¶¶":3168,"Ġà¶¶à¶ļ":3169,"Ġà¶»à¶łà¶ļà¶º":3170,"OS":3171,"ube":3172,"ĠApp":3173,"?âĢĿ":3174,"rou":3175,"à¶«à¶ļà¶»":3176,"Ġà·ĥà¶¸à¶»à·ĥ":3177,"à·Ģà¶»à¶ºà¶±":3178,"era":3179,"à¶Ķà¶ļ":3180,"Ġà·Ģà¶´":3181,"à¶Ŀà¶º":3182,"Ġres":3183,"à¶»à·Ģà¶ºà¶ļ":3184,"à¶°à¶¯":3185,"Ġà¶¸à¶¸à¶º":3186,"Ġà¶Ĩà·Ģà¶Ń":3187,"Ġà¶ħà·Ģà¶ºà·Ģ":3188,"à¶ļà¶»à¶´":3189,"à¶¶à¶»à¶ľà¶¸":3190,"Ġà¶¸à¶±à¶¸":3191,"à¶Ńà¶ºà¶Ń":3192,"Ġ48":3193,"icket":3194,"Ġà¶ľà¶¸à¶ľ":3195,"à¶¨à¶ļ":3196,"Ġ$":3197,"Ġà·ĥà¶§à¶±à¶ļ":3198,"à·ģà¶Ńà¶ºà¶ļ":3199,"à¶»à¶ļà¶ºà¶ļ":3200,"ember":3201,"à¶¯à¶ļà¶¸":3202,"Ġà¶ĩà·Ĩ":3203,"à¶¢à¶¸":3204,"Ġà¶±à¶§à¶±":3205,"anc":3206,"ject":3207,"à¶ºà¶±à¶ļ":3208,"oh":3209,"à¶«à¶ºà¶ļà¶§":3210,"à·ı.\"":3211,"55":3212,"à·Ĵà·Ļ":3213,"à¶¸à·ĥà¶±":3214,"à¶¸à¶»à¶«":3215,"Ġà¶Ĵà¶¢à¶±":3216,"Ġà¶©à·Ģ":3217,"Ġà¶ħà·Ħà·Ģà¶½":3218,"à¶¸à¶»à¶Ń":3219,"à¶½à¶¸à¶ļ":3220,"Ġà·ĥà¶¸à¶½":3221,"Ġ1977":3222,"à¶ľà¶ľ":3223,"à¶ºà¶±à¶¸":3224,"Ġ:-":3225,"99":3226,"Ġà¶ĳà¶ļà¶´":3227,"Ġà¶»à¶¯":3228,"Ġà¶ľà¶¸à¶ļ":3229,"à¶©à¶¯":3230,"à¶ļà¶½à¶´":3231,"Ġà¶¸à·Ħà¶´":3232,"à·Ŀ..":3233,"à·Ĥà·Ģà¶»":3234,"ater":3235,"à·Ĥà¶§":3236,"à¶©à¶ļà¶§":3237,"à¶»à·Ģà¶Ń":3238,"à¶¯à¶ļà¶§":3239,"à·Ļà·Ĭ.":3240,"esh":3241,"Ġà¶ħà¶¸à¶Ńà¶¸":3242,"ĠIS":3243,"Ġà¶¢à¶ºà¶»à¶Ń":3244,"à·ģà¶¸":3245,"ors":3246,"Ġfirst":3247,"Ġà¶¸à¶¯à¶ļ":3248,"à·Ģà¶¸à¶ļ":3249,"Ġà¶ļà¶»à¶ļ":3250,"Ġà¶´à¶¶":3251,"à¶«à·ģ":3252,"Ġà¶ĳà¶ļà·ĥ":3253,"Ġim":3254,"à¶´à·ĥà¶§":3255,"ĠFacebook":3256,"ĠCont":3257,"Ġdis":3258,"âĢ¢":3259,"Home":3260,"à¶ĳà¶ºà¶§":3261,"oftware":3262,"Ġà¶ħà¶»à¶ľà¶½à¶ºà¶ļ":3263,"Ġà¶»à·ħ":3264,"Ġà¶Ĩà¶ľà¶¸à¶ļ":3265,"Ġlanka":3266,"à¶Ĩà¶±":3267,"Ġà¶ĭà¶´à·Ģ":3268,"Ġà¶ļà¶¸à¶§":3269,"Ġà·Ģà¶ºà·ĥà¶§":3270,"der":3271,"Ġà¶ħà¶Łà¶½":3272,"à¶Ī":3273,"à·Ħà·ħ":3274,"Ġà·ĥà¶Łà·Ģ":3275,"Ġà¶¸à¶³":3276,"à¶±à¶ļà¶¯":3277,"Ġà¶ºà·ĥ":3278,"Ġà·ĥà·Ħà¶¢":3279,"Ġà¶½à¶¶à¶¸":3280,"Ġà¶¸à¶ľà·Ħ":3281,"ool":3282,"à¶Łà¶º":3283,"az":3284,"à·ĶâĢĻ":3285,"Ġà¶ļà¶»à¶±à¶ļ":3286,"eng":3287,"ĠWindows":3288,"Ġà¶ľà·ĥà¶ļ":3289,"title":3290,"Ġà®":3291,"riv":3292,"****":3293,"Ġà·Ģà¶½à·Ģ":3294,"à·Ĭ.....":3295,"à¶§à¶©":3296,"à¶łà¶±à¶ºà¶ļ":3297,"ict":3298,"à¶©à·Ģà¶½":3299,"Ġà¶Ĭà·ĥ":3300,"Ġà¶ľà¶¸à¶±à¶§":3301,"ID":3302,"ype":3303,"Ġà·Ģà¶°":3304,"Ġà¶Ńà¶»à¶¸à¶§à¶¸":3305,"ead":3306,"Ġà·Ħà¶§à¶ľà¶Ń":3307,"à·ĲâĢĻ":3308,"Ġà¶īà·Ģà¶Ńà¶§":3309,"Ġ1980":3310,"Ġà¶Ĩà¶ľà¶±":3311,"à¶¥à¶ºà¶ļ":3312,"47":3313,"à¶¯à¶»à¶ļ":3314,"à·ĥà¶ļà¶ľ":3315,"Ġall":3316,"à¶ºà¶Ńà¶±":3317,"à¶ĩà¶ľ":3318,"cri":3319,"à¶ļà¶¶à¶½":3320,"à¶«à¶½":3321,"à·ĥà¶»à¶«à¶º":3322,"à¶¸à¶»à¶ºà¶ļ":3323,"Ġà¶»à·ĥà·Ģ":3324,"Ġmore":3325,"line":3326,"ates":3327,"Ġà¶ĳà¶¸à¶Ł":3328,"Ġà¶¢à¶ºà¶ľà¶Ń":3329,"na":3330,"Ġà·Ģà¶½à¶§à¶Ń":3331,"à·Ģà¶ļà¶¸":3332,"ĠSp":3333,"Ġag":3334,"ĨĴ":3335,"Ġà¶ħà¶¯à·Ħà¶±":3336,"Ġà¶¢à¶¸":3337,"Ġab":3338,"ÂłÂł":3339,"à¶±à¶¸à¶±":3340,"ĠCol":3341,"ĠAnd":3342,"à·ħà¶«":3343,"ents":3344,"Ġà·Ģà¶»à¶¯à¶ļà¶»":3345,"à¶¸à¶Ńà¶º":3346,"à¶ĳà¶ł":3347,"à¶Ĩà¶¯":3348,"Ġqu":3349,"ĠMah":3350,"Ġte":3351,"ĠIntern":3352,"à¶ľà¶»à¶§":3353,"https":3354,"Ġev":3355,"Ġà·ĥà¶»à¶½à·Ģ":3356,"Ġà¶ħà·Ģà·ĥà¶»à¶º":3357,"à¶´à¶»à¶¸":3358,"à¶ºà¶±à¶ºà¶ļ":3359,"à¶ºà¶ºà¶ļà¶§":3360,"à¶»à¶ļà¶Ńà¶±à¶º":3361,"Ġplay":3362,"90":3363,"ral":3364,"Ġ2003":3365,"Ġà¶ĩà¶Łà·Ģ":3366,"Ġwhich":3367,"Next":3368,"Ġà¶ĩà¶¯à¶½":3369,"Ġà¶ķà¶±à¶¸":3370,"à·Ĥà¶«à·Ģà¶½":3371,"196":3372,"à·Ģà·Ħà¶¸":3373,"Ġà¶Ĵà¶ļà¶±":3374,"Ġà¶ķà¶½":3375,"ĠSer":3376,"Ġà¶¢à¶±à¶»à¶¢à¶º":3377,"à·ĵ...":3378,"Ġà¶Ĭà·ħ":3379,"\".":3380,"ãĤ":3381,"Ġ1987":3382,"ike":3383,"Ġà¶»à·Ħà·ĥà¶ļ":3384,"si":3385,"ĠQ":3386,"Ġtheir":3387,":-":3388,"Ġà·Ħà¶Ńà·ħ":3389,"ited":3390,"à¶ºà·Ģà¶»à¶ºà¶ļ":3391,"to":3392,"ãĥ":3393,"à·ĶâĢĿ":3394,"à·Ģà¶ļà¶ľ":3395,"yn":3396,"à¶ħà¶´à¶§":3397,"Ġà¶ħà¶ľà¶ºà¶±":3398,"ose":3399,"Ġà·Ħà¶§à¶ľà¶±":3400,"à·ı?":3401,"à¶ºà¶ļà¶»à¶«à¶º":3402,"ĠMan":3403,"32":3404,"à·Ģà¶±à¶§":3405,"à¶»à¶«à¶Ń":3406,"à·ĥà¶³à¶±":3407,"Ġà¶¯à·Ħà¶º":3408,"Ġà·ĥà·Ħà¶±à¶ºà¶ļ":3409,"Ġà¶»à·Ģà¶§":3410,"à·Ģà¶»à¶ĳà·ħ":3411,"Ġà¶ĳà¶ļà¶¯":3412,"Ġà¶ĳà¶ºà¶Ń":3413,"38":3414,"Ġà·ģà¶Ńà·Ģà¶»":3415,"Ġà¶Ńà¶»à¶ľà¶ºà¶§":3416,"à¶Ńà¶ºà¶ļà¶§":3417,"à¶ºà¶±à¶ľ":3418,"à¶ħà·Ħ":3419,"ĠDownload":3420,"Ġà¶Ķà¶»à¶½":3421,"Ġà¶¯à¶©à¶ºà¶ļ":3422,"36":3423,"ading":3424,"75":3425,"à·Ģà·Ħà¶½":3426,"à¶¸à·Ģà¶±":3427,"icros":3428,"Ġà¶ħà¶ºà¶§à¶Ń":3429,"à¶°à·ĥ":3430,"man":3431,"Ġà¶ĩà¶«":3432,"Ġà¶Ķà¶¶à¶½":3433,"à·Ĩà¶º":3434,"Ð¾Ð":3435,"gh":3436,"Ġà¶ħà·Ģà¶´":3437,"Ġ65":3438,"à¶±à¶±à·Ģ":3439,"Ġà¶ºà¶§à¶Ńà¶§":3440,"ĠDe":3441,"ower":3442,"Ġà¶¶à¶¹":3443,"ener":3444,"Ġà¶Ĭà¶½à¶Ł":3445,"à¶ºà¶ľà·Ħ":3446,"ĠPr":3447,"à¶ºà¶±à·Ģà¶¯":3448,"ĠâĨĴ":3449,"Ġà¶»à¶łà¶±à¶º":3450,"Ġbut":3451,"so":3452,"Ġhave":3453,"à·Ģà¶´à¶Ń":3454,"à·Ķà·ı":3455,"à¶½à·Ģà¶Ń":3456,"à¶©à·ĥ":3457,"ĠComments":3458,"à¶«à¶»":3459,"uth":3460,"Ġà¶¢à¶ºà·Ģ":3461,"39":3462,"ĠÃ":3463,"Ġà¶Ĩà¶§":3464,"à·ĬâĢĺ":3465,"à¶ºà¶Ńà¶¸":3466,"à¶¶à¶½à¶¸":3467,"Ġà¶Ĩà¶¯à¶»à¶ºà¶ļ":3468,"igh":3469,"Ph":3470,"à¶ļà¶»à·Ģ":3471,"=\"":3472,"ĠSub":3473,"à¶Ĥ..":3474,"Ġà¶Ĩà¶¸à¶±":3475,"à¶Ńà¶ºà¶º":3476,"Ġ~":3477,"Ġà¶ħà·Ħà¶´":3478,"ĠMar":3479,"à¶©à¶ļà¶§à¶º":3480,"evel":3481,"Ġ34":3482,"iew":3483,"à·ĥà¶ºà¶ļà¶§":3484,"Ġà¶ļà·ĥà·ħ":3485,"à¶´à¶ľ":3486,"à·ħà¶ºà¶ļ":3487,"Ġà¶īà·ģ":3488,"Ġà¶¯à·Ģà·ĥà¶ļà¶§":3489,"à¶Ĩà·ĥ":3490,"à·ĲâĢĿ":3491,"Ġà·ĥà¶¶à¶»à¶ľà¶¸":3492,"].":3493,"Ġweb":3494,"ĠâĢĶ":3495,"++":3496,"Ġà¶§à·Ģ":3497,"à·Ĵ.....":3498,"89":3499,"à¶»à·Ħà¶ºà¶±":3500,"oy":3501,"Ġà¶Ĩà¶ľ":3502,"Ġà¶»à¶¸":3503,"Ġà¶Ĵà¶ľ":3504,"\",":3505,"Ġà·ĥà¶±à¶Ń":3506,"CC":3507,"à¶»à·Ģà¶«":3508,"Ġà¶Ĵà·Ģà¶§":3509,"Ġà¶Ńà¶¶à¶¸":3510,"37":3511,"icrosoft":3512,"à¶ļà¶«":3513,"à¶©à¶¸à¶ļ":3514,"Ġà¶´à·ħà¶Ń":3515,"Ġhis":3516,"????":3517,"news":3518,"à·ļ(":3519,"à¶¢à¶ļà¶ºà¶±":3520,"Ġà¶Ńà¶¹":3521,"Ġà¶ľà¶Ńà·Ģà¶±":3522,"Ġ1994":3523,"à¶»à¶±à·Ģ":3524,"à¶©à¶ºà¶§":3525,"Ġà·Ģà·ĥà¶¸":3526,"ĠEd":3527,"ton":3528,"à¶¢à¶ľà¶Ń":3529,"Ġà¶ħà¶´à¶ļ":3530,"Ġ99":3531,"à·ĥà¶¶":3532,"à¶§à¶½à¶ºà¶ļ":3533,"An":3534,"Ġà¶Ĭà¶»":3535,"red":3536,"à¶±à¶§à¶¯":3537,"Ġ1988":3538,"Ġà¶łà¶½":3539,"Ġà¶½à¶Łà¶§":3540,"Ġà¶ħà¶ľà·Ģ":3541,"à¶¯à¶ļà¶½":3542,"à·ĥà·Ģà¶ºà¶§":3543,"Ġà¶´à¶§à¶º":3544,"Ġà·ĥà·Ħà¶ļà¶»":3545,"!!!!":3546,"à¶Ńà¶»à¶ºà¶§":3547,"à·ĳ....":3548,"à¶´à·Ģà¶½":3549,"Ġ//":3550,"à¶½à·Ģà¶»":3551,"à·ľ,":3552,"ĠComp":3553,"à¶ºà¶´à¶Ń":3554,"inal":3555,"php":3556,"à¶łà¶ļà¶º":3557,"OC":3558,"ini":3559,"Ġ38":3560,"Ġcan":3561,"Ġà¶ħà¶¸à¶Ńà¶±":3562,"ush":3563,"ific":3564,"Ġà¶īà·Ģà·Ħà¶½":3565,"Ġà·Ħà¶¹":3566,"à¶®à¶ºà¶±":3567,"à¶´à¶·":3568,"Ġà¶ľà¶«à¶º":3569,"à·Ĥà¶ºà¶º":3570,"Ġà¶ľà¶«à¶±à¶ļà¶§":3571,"Ġà¶ħà¶¯à·Ħà·ĥà¶º":3572,"ilm":3573,"à·Ģà¶łà¶±à¶º":3574,"Ġone":3575,"ung":3576,"Ġà¶Ĩà·Ģà¶§":3577,"Ġà·Ģà¶ºà·ĥà¶ļ":3578,"à·ĥà¶¸à·Ħ":3579,"Ġà¶ħà¶»à¶¹à¶±":3580,"Ġ1978":3581,"asing":3582,"à·Ĥà¶ļà·Ģà¶»à¶º":3583,"à¶ħà¶ľà¶¸":3584,"ser":3585,"à¶ľà¶¸à¶ľ":3586,"500":3587,"2014":3588,"à¶ľà¶Ńà¶ºà¶ļ":3589,"Ġà¶ħà¶ºà¶±":3590,"oo":3591,"à¶ºà¶¸à¶Ń":3592,"à¶Ńà¶½à¶ºà¶ļ":3593,"Ġà¶»à¶¢à¶¸à·Ħ":3594,"à¶»à¶¸à¶±":3595,"à¶Ĩà¶ľà¶¸":3596,"56":3597,"à¶½à·Ģà·Ģ":3598,"osted":3599,"à¶Ĥ...":3600,"Ġà¶»à·Ħà¶Ń":3601,"Ġà¶ľà¶Ńà¶º":3602,"Ġà¶´à·Ħà¶ļà¶§":3603,"à¶½à·Ģà¶±":3604,"à¶Ķà¶¶à¶ľ":3605,"à¶½à¶¶à¶±":3606,"Ġà¶ļà¶¢":3607,"à·ģà¶Ńà¶º":3608,"Ġà¶ĩà¶³à¶ľ":3609,"ĠWorld":3610,"à·ıâĢ¦.":3611,"à·ĥà·Ģà¶±":3612,"Ġ250":3613,"34":3614,"Ġà¶¸à·Ħà¶¸":3615,"Ġà¶Ĩà¶½à¶º":3616,"à·ĵÂŃ":3617,"ett":3618,"iversity":3619,"St":3620,"earch":3621,"Ġà¶±à¶¸à·ĥ":3622,"Ġ37":3623,"Ġà¶»à·Ħà¶Ńà¶±":3624,"à¶ļà¶½à¶º":3625,"à¶ºà¶±à·Ģà¶±à¶¸":3626,"à¶ľà¶Ńà¶ºà¶±":3627,"à¶¸à¶§à¶¸":3628,"à¶łà¶±à¶ºà¶§":3629,"à¶ºà¶»à¶Ń":3630,"à·ĥà¶»à¶«":3631,"Ġà¶»à¶Ńà¶±":3632,"à¶¶à·Ħà¶§":3633,"Ġme":3634,"Ġà¶ĭà¶´à¶ºà¶±":3635,"à¶Ńà¶·":3636,"âĢĶ":3637,"Ġà¶Ńà¶»à¶«à¶º":3638,"Ġà·ħà¶Łà¶¯":3639,"Ġà¶Ĭà¶¸":3640,"Ġà¶»à¶¢à¶»à¶§":3641,"ĠPhot":3642,"à·Ļ....":3643,"OM":3644,"à¶¢à¶ºà¶ľ":3645,"Ġà¶ļà¶©à¶½":3646,"ĠRes":3647,"More":3648,"Ġà¶ħà¶§à·Ģ":3649,"ould":3650,"Ġà¶ħà¶´à¶Ń":3651,"Ġà¶¸à¶©à¶ļà¶½à¶´":3652,"à·Ĭà·Ĭ":3653,"à¶©à¶ºà¶±":3654,"à¶Ńà·ĥ":3655,"Ġà¶īà¶©à¶¸à¶ļ":3656,"ani":3657,"ely":3658,"ĠUN":3659,"ron":3660,"à·Ŀà¶Ĥ":3661,"Ġà¶Ĩà·ĥà¶±à¶º":3662,"reen":3663,"ama":3664,"BC":3665,"ÑģÑĤ":3666,"ma":3667,"ĠâĢĭ":3668,"à¶±à¶±à¶¸":3669,"Ġz":3670,"Ġà¶ľà¶¶":3671,"Ġà¶ĳà¶Ńà¶±à¶§":3672,"Ġà¶ħà¶´à¶±à¶ºà¶±à¶º":3673,"à¶¸à¶ºà¶ļà¶§":3674,"à·ĥà¶ºà¶º":3675,"à·Ļà·ĬâĢį":3676,"à¶¯à¶¶":3677,"à·ĬâĢįâĢį":3678,"Ġà¶ħà¶¸à¶»à·Ģ":3679,"Ġ47":3680,"Ġdo":3681,"Ġà¶´à·Ħà¶½à¶§":3682,"à¶ºà¶°":3683,"Ġà¶´à¶³":3684,"Ġà¶ĭà¶´à¶¸":3685,"Ġà·ĥà¶§à¶±à¶§":3686,"apt":3687,"Ġà¶¶à¶ºà¶º":3688,"Ġ56":3689,"Ġ1956":3690,"Ġà¶Ķà¶¶à¶§à¶Ń":3691,"roid":3692,"ĠBl":3693,"icial":3694,"à¶»à¶¸à¶Ń":3695,"Ġà¶ħà·Ģà¶·":3696,"ale":3697,"à¶ļà¶©à·Ģ":3698,"à·Ģà¶½à¶º":3699,"à¶ļà·Ģà¶»à¶«à¶º":3700,"Ġà·Ģà¶¢":3701,"Ġhas":3702,"à·ĥà¶½à¶º":3703,"à¶īà¶½":3704,"Ġ55":3705,"Ġï":3706,"Ġ1983":3707,"46":3708,"Ġà¶¯à¶»à¶º":3709,"à·ģà¶½":3710,"ital":3711,"AN":3712,"à¶¸à¶ł":3713,"à·Ģà¶§à¶¯":3714,"à¶±à¶ľà¶»":3715,".(":3716,"Ġà¶ĳà¶ºà¶¯":3717,"à¶¯à¶»à¶¯":3718,"à¶½à¶ļà¶±":3719,"à¶ºà·Ģà¶½à¶§":3720,"à¶¸à¶łà¶±":3721,"à·ĵ-":3722,"à·Ħà¶¬à·Ģ":3723,"ats":3724,"à¶ºà¶ľà¶¸":3725,"Ġà¶±à¶¶":3726,"à¶łà·ĥ":3727,"Ġam":3728,"ricket":3729,"Ã©":3730,"à·ĵ..":3731,"Ġà¶Ĩà¶»à·Ģ":3732,"iya":3733,"à¶Ńà·Ģà¶±":3734,"à¶»à·Ģà¶¸":3735,"SL":3736,"Ġà¶¶à·ħà¶½":3737,"à¶ħà¶´à¶»":3738,"à¶Ńà·Ģà¶½à¶§":3739,"à¶ļà¶®":3740,"Ġà¶ĭà·Ģà¶¯":3741,"Ġà¶¶à·Ģà¶§à¶¯":3742,"Ġacc":3743,"ril":3744,"à¶¸à¶§à·Ģà¶Ń":3745,"Ġà¶¶à¶½à¶±à¶ļ":3746,"Ġà·Ģà¶ľà¶ºà¶ļ":3747,"Ġro":3748,"à¶ºà¶±à·Ģà¶±":3749,"Ġent":3750,"à·ı]":3751,"Ġà·Ģà¶±à¶º":3752,"Ġsu":3753,"ĠNew":3754,"à·ĥà¶ļà¶º":3755,"à¶°à¶±à¶´":3756,"à¶½à¶ľà¶±":3757,"Ġà¶ħà·Ĥ":3758,"Ġ46":3759,"Ġà¶ļà¶§à·Ħà¶¬":3760,"Ġ.....":3761,"à¶ºà·Ģà¶±à·Ģ":3762,"oci":3763,"ĠEnglish":3764,"à¶©à¶±à¶ľà¶±":3765,"me":3766,"à¶¢à¶ľ":3767,"à¶ºà¶Ńà¶±à¶º":3768,"Ġà¶īà¶©à¶¯":3769,"à¶§à¶´à¶½":3770,"Ġà¶¤":3771,"Ġà¶ħà·Ħà¶ļ":3772,"ublic":3773,"à·ģà¶ļà¶ºà¶ļ":3774,"à·Ĥà¶ļà¶ºà¶ļ":3775,"à·ħà¶Łà¶§":3776,"umber":3777,"ild":3778,"Ġar":3779,"à¶¯à¶»à¶¸":3780,"Ġà·ĥà¶ł":3781,"ĠII":3782,"à¶¯à¶§à¶¸":3783,"à·Ĥà¶¥à¶º":3784,"Ġà¶ħà¶ºà¶º":3785,"à¶ħà¶´à¶ľ":3786,"ĠâĢįà·Ļ":3787,"ĠCon":3788,"und":3789,"index":3790,"à¶»à¶«à¶ºà¶ļà¶§":3791,"49":3792,"ãĢ":3793,"à¶¢à¶´":3794,"ax":3795,"à·ģà¶ļà¶ºà¶±":3796,"Ġ1999":3797,"Ġà¶ĳà·Ģà¶ļ":3798,"à¶°à¶ļà¶¸":3799,"Ġà¶´à·Ģà¶»à¶±":3800,"à¶§à·Ģà¶½":3801,"à¶¸à¶»à¶ºà¶§":3802,"Ġà¶»à¶ľ":3803,"ii":3804,"à·ģà¶¶":3805,"Ġà·ħà¶ľ":3806,"à¶Ŀà¶±":3807,"ĠRev":3808,"à¶ļà¶³":3809,"à¶©à¶±à¶ºà¶§":3810,"eld":3811,"100":3812,"Ġà¶½à·ĥà¶±":3813,"Ġà·Ģà¶½à¶Ń":3814,"à¶»à¶´à¶§à¶ºà¶§":3815,"77":3816,"Ġà¶¸à¶Ńà¶ļà¶ºà¶ļ":3817,"Ġà¶Ĩà·Ģà¶¸":3818,"ĠPort":3819,"Ġtw":3820,"à·ĥà·Ģà¶½":3821,"Ġwere":3822,"rid":3823,"IC":3824,"Ġà¶¸à¶³à¶ļ":3825,"Ġdes":3826,"à¶ĳà¶ļà¶½":3827,"let":3828,"Ġed":3829,"à·ļ'":3830,"à·ĴâĢ¦.":3831,"Ġà¶ħà·ĥà¶½à¶§":3832,"Ġ42":3833,"à·ĥà¶¸à¶º":3834,"Ġà¶Ńà¶»à¶º":3835,"à·ĳà¶Ĥ":3836,"à¶§à¶´à¶Ńà¶ļ":3837,"ĠFor":3838,"Ġà¶´à¶½à·ĥ":3839,"Ġà¶±à¶¸à¶§":3840,"Ġ39":3841,"Ð»":3842,"à·Ħà¶Ńà¶¸":3843,"à·ģà·ĥ":3844,"att":3845,"Ġà¶ļà¶»à·ħ":3846,"Ġà·ĥà¶¸à¶±à¶½":3847,"ement":3848,"evelop":3849,"elect":3850,"Ġà¶ħà¶»à·Ģ":3851,"Ġwho":3852,"Ġà¶´à¶§à¶½":3853,"Ġout":3854,"à¶ķà¶ļ":3855,"Ġ1947":3856,"à¶łà¶Ń":3857,"Ġrec":3858,"Ġà¶ħà¶ľà¶Ń":3859,"à¶´à·Ħà¶Ń":3860,"à¶Ĩà¶ł":3861,"à¶¸à¶ļà¶º":3862,"ina":3863,"à¶¯à¶»à¶ºà¶ļ":3864,"Ġà¶ºà¶§à·Ģ":3865,"stall":3866,"à¶¯à¶ºà¶º":3867,"Ġcomment":3868,"44":3869,"à¶¢à¶¶":3870,"à¶ĭà¶©":3871,"à·ļ.....":3872,"Ġartic":3873,"Ġà¶´à¶Ńà¶½":3874,"Ġà·ĥà¶ļà·ĥà¶±":3875,"Ġà¶¯à·Ħà¶Ń":3876,"echn":3877,"irect":3878,"Ch":3879,"à¶½à¶ļà¶»":3880,"Ġ600":3881,"adi":3882,"air":3883,"Ġà¶¸à¶±à·ĥà¶§":3884,"à¶«à·Ģà¶½":3885,"Ġmatch":3886,"Ġà¶¢à¶±à·Ģà¶»":3887,"âĢĮà·ı":3888,"Ġ189":3889,"ĠÂ·":3890,"Ġà¶ĳà·ĥà·Ģ":3891,"à·ĥà¶§à¶º":3892,"à·Ģà¶ºà¶¯":3893,"inda":3894,"Ġem":3895,"Ġà·ĥà¶ľà¶º":3896,"Ġà¶ĩà·ĥà¶§":3897,"Ġper":3898,"ames":3899,"Ġà¶ĩà¶Łà¶§":3900,"Ġhttps":3901,"Ðº":3902,"Ġà¶´à¶»à¶Ńà¶»à¶º":3903,"âĢ¦..":3904,"ages":3905,"à¶ºà¶¶à·Ħ":3906,"à¶Ŀà¶»à¶Ń":3907,"Ġà¶ħà·Ħà¶ľ":3908,"ional":3909,"âĢĮà·Ļ":3910,"à·Ģà¶ºà·ĥ":3911,"à¶ľà¶ºà¶º":3912,"Ġà¶ĭà¶´à¶ļà¶»à¶«à¶ºà¶ļ":3913,"Ġ2019":3914,"Â´":3915,"à·Ħà¶«à¶º":3916,"Ġà¶¸à¶»à¶½":3917,"à¶±à¶ºà¶¸":3918,"Ġà¶¸à¶Ńà¶ļà¶ºà¶§":3919,".[":3920,"Ġà·Ģà·ģ":3921,"à·ıà·Ĭ":3922,"Ġ1998":3923,"Ġà¶ĳà¶ļà¶±":3924,"iri":3925,"ym":3926,"à·ĵâĢĻ":3927,"gram":3928,"Ġà·Ħà¶Ńà¶»à¶ļà¶§":3929,"à¶½à·Ģà¶½à¶§":3930,"CO":3931,"inue":3932,"à¶¯à¶¸à¶±":3933,"Ġà¶Ńà¶»à¶ľà¶ļ":3934,"Ġà¶Ńà¶±à¶±":3935,"à¶°à¶ºà¶ļà¶§":3936,"à¶¢à¶±à·Ģ":3937,"à¶·à¶¯":3938,"Ġà¶ħà¶¯à¶§":3939,"Ġà·Ħà¶§à¶ľ":3940,"Ġà·ĥà¶´à¶ºà¶º":3941,"Ġà¶¸à¶Ńà¶ļà¶ºà¶±":3942,"ĉĉ":3943,"Ġà¶ļà¶¹":3944,"ograph":3945,"Ġà¶ħà¶´à¶º":3946,"2012":3947,"fter":3948,"ya":3949,"âĢįà·Ļ":3950,"Ġà¶ļà¶½à¶¶":3951,"ĠWh":3952,"ðŁĳĮðŁĳĮðŁĳĮðŁĳĮðŁĳĮðŁĳĮðŁĳĮðŁĳĮðŁĳĮðŁĳĮðŁĳĮðŁĳĮðŁĳĮðŁĳĮðŁĳĮðŁĳĮ":3953,"oint":3954,"ED":3955,"à·Ĥà¶ºà¶ºà¶±":3956,"Ġà¶Ĵà¶ļà¶ļà¶ºà¶ļ":3957,"ĠMicrosoft":3958,"ences":3959,"Ġà¶ħà¶¸à¶»":3960,"à¶»à¶¸à·Ģà¶Ń":3961,"ĠMag":3962,"--------":3963,"58":3964,"oth":3965,"oph":3966,"à¶ľà·Ħà¶±":3967,"à¶¢à¶Ń":3968,"Ġà¶Ķà¶©":3969,"à¶»à·Ģà¶¯":3970,"à¶´à¶ľà¶Ń":3971,"Ġà¶½à¶ºà¶±":3972,"ĠUS":3973,"Ġà¶©à¶ºà¶½":3974,"à¶©à¶±à¶ºà¶ļ":3975,"à·ĥà¶»à¶±":3976,"ise":3977,"à·Ķ:":3978,"rop":3979,"Ġà¶¸à¶Ńà¶·":3980,"Ġà¶ºà·Ħà·ħ":3981,"à·ļ-":3982,"2010":3983,"à¶¯à¶ļà¶ºà¶±":3984,"olit":3985,"à¶Ńà¶«":3986,"à¶½à¶§à¶Ń":3987,"Ġà¶¸à¶±à·ĥà¶ļ":3988,"à·ħà¶¹à·Ģ":3989,"amil":3990,"BN":3991,"à·ı(":3992,"à¶½à¶¸à¶º":3993,"Ġ58":3994,"ator":3995,"à·Ĵ).":3996,"à·Ħà¶§à¶¸":3997,"Ġà¶ľà¶½à¶±":3998,"à·Ķ!":3999,"Ġà¶¯à¶»à¶¸":4000,"à¶©à¶»à¶º":4001,"Ġà¶ļà¶¸à¶½":4002,"oot":4003,"à¶Ńà¶ļà¶¸":4004,"uter":4005,"work":4006,"Ġ1971":4007,"IN":4008,"à¶±à¶»à¶Ń":4009,"à·ģà¶¯":4010,"à¶·à·Ģà¶ºà¶ļ":4011,"Ġà¶īà·Ģà¶»à·Ģ":4012,"Ġà¶±à¶§à¶¶":4013,"à·ĥà¶¯à¶º":4014,"Ġà¶½à¶¸":4015,"ĠSite":4016,"Ġà¶Īà¶Ńà¶§":4017,"oldid":4018,"Ġà¶§à¶»":4019,"à¶¶à¶³à·Ģà¶º":4020,"word":4021,"Ġà¶ħà¶·à¶º":4022,"Ġpr":4023,"à¶½à¶´à¶Ń":4024,"Ġalso":4025,"à·ļ:":4026,"à¶¯à¶¹":4027,"udd":4028,"antha":4029,"GB":4030,"à¶ºà¶¯à¶¸à¶ļ":4031,"amb":4032,"Ġà¶ļà¶½à¶¯":4033,"tr":4034,"Ġà¶±à¶»à¶¹":4035,"à¶ºà¶¹à¶½":4036,"à¶½à·Ģà¶ļ":4037,"52":4038,"à¶¸à·Ģà¶Ń":4039,"à¶¸à¶«à¶º":4040,"Ġà¶¢à¶ºà¶¸":4041,"à¶·à·ĥ":4042,"orn":4043,"eal":4044,"gr":4045,"itt":4046,"à¶ºà¶ºà¶±à¶ºà¶ļ":4047,"à·Ķà·Ķ":4048,"Ġà¶ľà·ĥà¶¸":4049,"à·ħà·Ģà¶½":4050,"AS":4051,"MS":4052,"à¶±à¶ºà¶¯":4053,"ĠâĢĻ":4054,"ĠComm":4055,"à¶¶à¶¸":4056,"Ġà¶Ķà¶Ńà¶±":4057,"Ġà¶ħà¶±à¶ľ":4058,"à¶§à¶ľà¶Ń":4059,"ĠØ":4060,"à¶±à¶Ľ":4061,"à¶¢à¶§":4062,"Ġà·Ħà¶»à¶º":4063,"anda":4064,"Ġà¶ħà¶©à¶ļ":4065,"Ġà¶¯à·Ħà¶¸à¶§":4066,"Ġ1948":4067,"43":4068,"à¶±à·Ħà¶¸":4069,"ife":4070,"Ġà¶Ńà·Ħà¶©":4071,"ij":4072,"ĠOne":4073,"ove":4074,"à·ĥà¶ļà¶»":4075,"Ġà·ĥà¶¸à¶Łà¶º":4076,"eed":4077,"Ġà¶´à¶Ńà¶ļ":4078,"Ġoff":4079,"Ġcomm":4080,"roup":4081,"à·Ģà¶Ńà¶º":4082,"à¶¨à¶ļà¶ºà¶±":4083,"à¶Ńà·ģ":4084,"à¶Ĩà·Ħ":4085,"Ġà¶Ńà¶©":4086,"ĠTest":4087,"mail":4088,"Ġà¶ļà¶©à¶ļ":4089,"à¶ļà·ħà·Ħ":4090,"à¶¡à¶±":4091,"mage":4092,"à·Ģà¶½à¶§à¶Ń":4093,"Ġà¶´à¶±à·Ģà¶±":4094,"à¶©à·ĥà¶§à·Ħà¶±à¶§":4095,"Ġà¶ĳà¶Ńà¶±à¶¯":4096,"ĠUniversity":4097,"co":4098,"ient":4099,"TA":4100,"ĠAm":4101,"Ġà¶ľà¶ľ":4102,"à¶³à¶±":4103,"Ġpart":4104,"à·Ģà¶ļà¶»":4105,"Ġà¶ķà¶ļà¶§":4106,"Ġà¶ļà¶´à¶§":4107,"Posted":4108,"à·ļ.âĢĿ":4109,"Ġthey":4110,"Ġà¶¸à·Ģà¶±":4111,"Ġà¶¸à·Ģà¶§":4112,"Ġ95":4113,"ins":4114,"à¶¶à¶³à·Ģà¶Ń":4115,"à¶¥à·Ģà¶»":4116,"Ġà¶¸à·Ħà¶»à¶ľà¶¸":4117,"site":4118,"à·Ĵ(":4119,"ĠSL":4120,"à¶±à¶¯à·ĥ":4121,"ĠArt":4122,"86":4123,"Ġà¶ħà¶«à¶¯":4124,"Ġà¶´à·Ħà¶¯":4125,"istory":4126,"Ġà¶»à¶¹":4127,"Ġ00":4128,"à¶Ńà¶±à¶Ń":4129,"Ġà¶¸à¶»à¶¯":4130,"Ġà¶łà¶½à¶±":4131,"à¶ºà·ĥà¶±":4132,"ĠYou":4133,"Ġà¶Ĩà·Ģà¶»":4134,"ĠTV":4135,"à·Ĭà·Ļ":4136,"à¶´à¶§à¶º":4137,"à¶»à¶ºà¶¯":4138,"à¶Ĩà¶»à¶ļ":4139,"Ġà¶¸à¶łà¶±":4140,"ĠPer":4141,"Ġà¶īà¶³à¶½à¶¸":4142,"ai":4143,"2009":4144,"à·Ģà¶°à¶»":4145,"à¶ºà¶§à¶¯":4146,"ution":4147,"ience":4148,"2013":4149,"ero":4150,"Ġ()":4151,"57":4152,"à·Ĥà¶±à¶½":4153,"ever":4154,"à¶¸à¶Ńà¶ļ":4155,"ER":4156,"cess":4157,"à¶ļà¶¸à¶Ń":4158,"à¶»à¶Ńà¶±":4159,"ular":4160,"ĠÂ«":4161,"Ġà¶´à¶Ńà¶»":4162,"à·ĵà·ĬâĢį":4163,"à¶¸à¶±à·ĥ":4164,"Ġà¶ħà¶½à·Ģ":4165,"à¶¯à·Ħà·ĥà¶§":4166,"reat":4167,"Ġà¶ľà¶½à¶ļ":4168,"ays":4169,"AM":4170,"Ġà¶Ķà¶ł":4171,"Ġsystem":4172,"str":4173,"Ġbl":4174,"Ġà·ĥà¶¸à¶±à¶º":4175,"Ġà¶´à·ħà¶´":4176,"ena":4177,"à¶¢à¶ºà¶ļà¶½":4178,"ĠOn":4179,"Ġà·Ħà¶´à¶±":4180,"Ġ1996":4181,"yle":4182,"à¶ķà·ĥ":4183,"Ġà¶ĭà¶»à·Ħ":4184,"à¶ĳà·Ĩ":4185,"ourn":4186,"42":4187,"News":4188,"Ġ43":4189,"Ġ1995":4190,"ll":4191,"Ġà¶ļà¶½à¶§":4192,"ories":4193,"à·ĥà¶¸à¶±":4194,"Ġà¶ħà¶±à¶»":4195,"à¶»à¶ľà¶Ńà·Ģ":4196,"à·ı......":4197,"ideos":4198,"66":4199,"à·ģà¶ºà¶ļà¶§":4200,"à¶±à·Ģà¶½à¶¯":4201,"Ġà·Ħà¶¸à¶±":4202,"Ġà¶¸à·ĥà¶ļà¶§":4203,"ĠâĢįâĢį":4204,"88":4205,"urn":4206,"Ġà¶ļà·ĥà¶½":4207,"Ġà¶¶à¶ºà¶ļ":4208,"Ġà¶ħà·Ħà¶¹":4209,"à¶ºà·Ģà·ĥà¶¸":4210,"ret":4211,"Ġà·ĥà¶»à¶¸":4212,"à·ĲÂŃ":4213,"à·Ĥà¶«à¶ºà¶ļà¶§":4214,"Ġà·ĥà¶½à·ĥà¶±":4215,"à¶ºà·Ģà¶´":4216,"MD":4217,"Ġarticle":4218,"Ġà¶Ĩà¶ľà¶¸à¶§":4219,"Ġà¶ħà·ĥà·ħ":4220,"à·Ģà¶¸à¶º":4221,"Ġà¶¢à·Ģà¶±":4222,"Ġà¶īà·Ħà¶½à¶§":4223,"blog":4224,"Ġ>":4225,"Ġà¶ľà¶³":4226,"à¶»à¶¸à¶½":4227,"Ġà¶¸à¶Ńà¶ºà¶§":4228,"asinghe":4229,"ĠØ§":4230,"Ġà¶¸à·Ħà·ĥ":4231,"ĠIs":4232,"Ġadd":4233,"ĠOfficial":4234,"Ġà·ĥà¶¶à¶¯":4235,"à¶´à¶½à¶ºà¶ļ":4236,"à¶ļà¶ºà¶¸":4237,"Ġà¶´à·ħà¶ļ":4238,"à¶ºà¶ļà¶¸":4239,"arg":4240,"Ġà¶ħà¶¬à¶±":4241,"Ġteam":4242,"41":4243,"Ġ1986":4244,"à¶»à¶ľà¶½":4245,"à·ĻÂŃ":4246,"Ġà¶¶à¶½à¶ľà¶Ń":4247,"Ġà·ĥà¶»à·ħ":4248,"à¶ļà¶©à¶¸":4249,"Ġà¶¯à¶¹à¶¯":4250,"à¶»à¶ºà¶§à¶¸":4251,"ium":4252,"ĠHD":4253,"Ġà¶ħà¶ºà¶»":4254,"ier":4255,"va":4256,"Ġà¶´à¶®à¶º":4257,"Ġà¶»à¶§à¶Ń":4258,"à¶»à¶«à¶ºà¶±":4259,"cript":4260,"à¶»à¶°à¶»":4261,"Ġà¶¸à¶Ńà¶ºà¶º":4262,"ĠðŁĺ":4263,"angu":4264,"Ġ5000":4265,"à·Ħà¶Ńà¶»":4266,"à¶¯à¶»à¶ºà¶±":4267,"âĢįà·Ĭ":4268,"à¶©à¶ľà¶¸":4269,"à·ļà·Ĭ":4270,"etwork":4271,"ublish":4272,"78":4273,"Ġà¶Ńà¶´":4274,"Ġà¶ħà¶¸à¶»à¶¯":4275,"Com":4276,"Ġà¶±à·Ģà¶º":4277,"Ġà¶ĳà¶ļà¶§à¶¸":4278,"à¶Ľà¶ļ":4279,"Ġsub":4280,"à¶»à·Ħà·ĥà¶ļ":4281,"Ġà·Ħà¶Ńà¶½":4282,"Ġà·ĥà·Ħà¶¸":4283,"à·ħà¶¹à¶¯":4284,"Ġseries":4285,"à¶»à¶ļà¶Ń":4286,"à·Ģà¶¶":4287,"à¶Ńà¶»à¶½":4288,"Ġà¶Ńà¶®":4289,"ml":4290,"à¶¯à·Ģà·ĥà¶ļ":4291,"Ġà¶ļà¶¶à¶½":4292,"à¶¨à¶½":4293,"Ġ44":4294,"Ġ49":4295,"Ġ1991":4296,"Ġà¶¹":4297,"à¶±à¶Ńà¶»à¶¸":4298,"à¶¯à·Ģà·ĥ":4299,"à¶»à¶¸à¶»à¶Ń":4300,"ae":4301,"à¶»à¶Ńà¶º":4302,"à¶»à·Ħà¶«à¶ºà¶§":4303,"ouse":4304,"press":4305,"65":4306,"à·Ħà¶©":4307,"Ġà¶īà¶³à·Ħ":4308,"ru":4309,"à¶¸à¶ºà¶º":4310,"Ġ1950":4311,"ĠSec":4312,"à¶¯à¶±à·Ģ":4313,"Ġà¶ľà¶±à¶±à¶ļ":4314,"con":4315,"Ġà¶¢à¶±à¶±à¶º":4316,"ĠIP":4317,"Ġ<":4318,"à¶¢à¶¸à¶º":4319,"Ġà¶ħà¶Ńà¶ľ":4320,"à¶ķà·Ģ":4321,"lad":4322,"Ġ1997":4323,"ĠAll":4324,"Ġà¶¸à¶ļà¶»":4325,"à¶ĳà¶¢":4326,"???":4327,"TV":4328,"Ġà¶µà¶½à¶º":4329,"Ġà¶ĳà¶ľ":4330,"Ġà·Ĩà¶»":4331,"Ġà¶½à¶Łà¶¯":4332,"inn":4333,"à¶´à¶¸à¶«à¶ļ":4334,"à·ĥà¶»à·Ģ":4335,"Ġà¶Ĵà¶ļà¶»":4336,"Ġ64":4337,"Ġà¶Ŀà¶±à¶Ń":4338,"Ġits":4339,"à¶©à·Ģà¶½à¶§":4340,"à·ģà¶ºà¶º":4341,"2011":4342,"Ġ1972":4343,"Ġà¶ĳà¶ļà·Ħà¶¸":4344,"Ġà¶¸à¶Ńà¶ļà¶¯":4345,"Ġhad":4346,"Ġà·ģà¶±":4347,"Ġ3000":4348,"Ġà·Ģà¶±à·ĥ":4349,"Ġ800":4350,"Ġuse":4351,"à¶§à¶±à¶º":4352,"à·ĥà¶ļà¶¸":4353,"Ġà¶ļà¶©à¶ºà¶ļ":4354,"outh":4355,"Ġfile":4356,"Ġtwo":4357,"Ġind":4358,"Ġà¶ĳà¶ļà¶Łà·Ģ":4359,"Ġform":4360,"Ġà·Ħà¶Ł":4361,"à·Ĭ),":4362,"use":4363,"Ġà¶´à¶±à¶Ńà¶ļ":4364,"à®¿":4365,"AR":4366,"Ġà¶ļà¶»à·Ģà¶½":4367,"Ġ1993":4368,"à¶½à¶ļà¶ºà¶ļ":4369,"Ġà¶ļà¶½à¶´":4370,"Ġ51":4371,"Ġwww":4372,"Ġà¶īà·Ħà¶Ńà¶¯":4373,"ĠAndroid":4374,"à·Ŀ-":4375,"Ġà¶īà¶ľà¶±":4376,"Ġà·ĥà·Ħà¶±à¶º":4377,"____":4378,"59":4379,"Ġtime":4380,"à¶»à¶¥à¶´":4381,"ĠContinue":4382,"à·ı/":4383,"à¶ļà·Ħ":4384,"Ġà¶·à¶§à¶º":4385,"Ġà¶ħà¶±à¶´":4386,"à¶ľà·ģ":4387,"Ġà¶Ĩà¶ºà¶Ńà¶±à·Ģà¶½à¶§":4388,"Ġà·Ģà¶łà¶±à·Ģà¶½":4389,"Ġà·ĥà¶¶à¶¯à¶Ń":4390,"à¶ļà¶±à¶º":4391,"Ġà¶ĳà¶¸à¶±":4392,"els":4393,"Ġà¶īà·Ģà·ĥà¶±":4394,"Ġà¶ľà¶½à·Ģà¶½":4395,"Ġreading":4396,"ĠSil":4397,"its":4398,"ĠFr":4399,"osh":4400,"Ġà¶ĳà¶ļà¶§à¶Ń":4401,"Ġà¶´à¶±à·Ħà¶ļ":4402,"ures":4403,"Ġà¶»à¶®à·Ģ":4404,"ble":4405,"87":4406,"Ġà·ĥà¶¶à¶±":4407,"ute":4408,"Ġà¶½à¶¢":4409,"Ġà¶»à·ģ":4410,"ĠSam":4411,"ction":4412,"ava":4413,"Ġrun":4414,"US":4415,"à·ļà·ĬâĢį":4416,"Ġà¶´à¶»à¶½":4417,"ĠLe":4418,"Ġà¶ŀ":4419,"Ġ41":4420,"mp":4421,"ÙĦ":4422,"Ġ!!":4423,"Ġà¶ĩà¶ļà¶©à¶¸":4424,"Ġà¶ļà¶»à¶§":4425,"Ġà¶ħà¶Ńà¶»à·Ģ":4426,"Ġà¶ļà¶»à¶±à·Ģà¶¯":4427,"..........":4428,"Ġà¶¸à¶§à¶±à¶¸":4429,"ĠRah":4430,"Ġ120":4431,"à¶½à¶¥à¶º":4432,"à¶¶à·Ħà¶ļ":4433,"à·Ĥà¶¥à¶ºà¶±":4434,"à¶ľà¶Ńà¶ºà¶§":4435,"à¶±à¶¸à¶¸":4436,"à¶¢à¶ºà¶¯":4437,"Ġother":4438,"Ġà¶ļà¶¯à·Ģ":4439,"oon":4440,"à·Ħà¶±à¶ºà¶§":4441,"à¶ºà¶´à¶±":4442,"Ġà·Ģà¶»à¶§à¶Ń":4443,"»¿":4444,"à¶½à¶ļà¶»à¶Ń":4445,"à¶½à¶ºà¶ļà¶¯":4446,"Ġà¶·à¶§à¶ºà¶±":4447,"/-":4448,"à¶´à¶ºà¶º":4449,"TTE":4450,"Ġà¶¸à¶ľà¶ļ":4451,"Ġà¶ļà¶§à¶§":4452,"Ġà¶Ĩà¶·à¶»à¶«":4453,"Ġà¶ħà¶Ńà¶´à·ĥ":4454,"Ġà¶Ĵà·Ģà¶º":4455,"à¶Ńà¶»à·Ģà¶½":4456,"2008":4457,"âĢįâĢįâĢįâĢį":4458,"53":4459,"Ġen":4460,"Ġà¶ĳà¶±à¶Ń":4461,"âĨ":4462,"à¶ºà¶ľà¶Ń":4463,"Ġà¶´à¶¤":4464,"Ġà¶¸à·Ħà¶¯":4465,"Ġà¶ļà¶½à·Ģ":4466,"à¶»à¶«à·Ģ":4467,"rent":4468,"Ġpre":4469,"IV":4470,"à·ĥà¶±à¶¸":4471,"Ġagain":4472,"IT":4473,"Ġà¶ĭà¶´à¶ļà¶»à¶«à¶º":4474,"Ġà¶ĩà¶³à¶½":4475,"à¶¯à¶±à¶ºà¶±":4476,"ative":4477,"à¶ºà¶¸à¶±à¶ļ":4478,"à¶§à·ĥà¶§":4479,"Ġà¶·à·Ģà¶º":4480,"à¶ºà·Ģà¶¸":4481,"Ġà¶ħà¶Ńà¶»à¶¸à¶ľ":4482,"ident":4483,"Ġà¶ĭà·ĥà¶§":4484,"Ġà¶¸à¶Łà·Ħ":4485,"Ġà¶ĳà¶½à·Ģ":4486,"Ġà¶¸à¶½à¶½":4487,"Ġà¶½à¶ºà¶±à¶½":4488,"be":4489,"duct":4490,"à·ģà¶ľà¶Ń":4491,"à¶®à¶ºà¶§":4492,"Ġà¶ºà·Ħà¶´à¶Ńà¶ļ":4493,"min":4494,"Ġà¶Ĵà¶±":4495,"à¶»à¶¸à¶ºà¶±":4496,"à¶ħà¶§":4497,"Ġcol":4498,"ĠOs":4499,"app":4500,"à¶½à¶¯à¶ļ":4501,"Ġà·Ģà¶½à·ĥ":4502,"ĠTe":4503,"à¶·à¶»à¶«":4504,"Â·":4505,"Ġà¶ħà·Ģà¶»":4506,"Ġà¶ĩà¶¬":4507,"à¶Ńà¶»à¶§":4508,".,":4509,"à¶Ńà¶±à¶§":4510,"Ġà·ĥà¶ļà¶½":4511,"à·ħà¶´à¶Ń":4512,"Ġà¶Ĭà¶½à¶ľ":4513,"Ġdownload":4514,"ÂłĠ":4515,"...?":4516,"Ġà¶°à¶¢à¶º":4517,"à¶ļà¶½à¶§":4518,"à¶¢à¶±à¶ºà¶±":4519,"arath":4520,"Ñĥ":4521,"Ġà¶ħà¶»à¶·à¶º":4522,"Ġinter":4523,"NOT":4524,"Ġwill":4525,"à·ĥà¶ľà¶Ń":4526,"à·ĵ\"":4527,"à¶Ĵà¶ļà¶§":4528,"à·ļ;":4529,"ĠDis":4530,"Ġ71":4531,"arm":4532,"à¶©à¶´à¶º":4533,"à¶ĭà·ĥà·ĥ":4534,"76":4535,"any":4536,"à¶¯à¶»à¶±":4537,"à¶ĩà¶¸à¶Ń":4538,"usic":4539,"à¶ħà·Ģà·ĥà¶±":4540,"wiki":4541,"à¶¸à·Ģà¶½":4542,"Ġà¶łà¶«":4543,"Ġà¶¸à¶§à¶¸":4544,"Ġà·Ģà¶»à¶¯à¶§":4545,"ĠReview":4546,"à¶ºà·Ģà¶¯":4547,"Ġà¶ļà¶§à¶ļ":4548,"Ġ2500":4549,"à¶§à¶¸à¶ļà¶§":4550,"à¶¶à¶³à·Ģà¶¯":4551,"à·ĥà·Ħà¶ľà¶Ń":4552,"Ġdi":4553,"à¶´à·ģ":4554,"Ġà·Ħà·Ģà·ĥà¶§":4555,"à¶³à¶ľà¶Ń":4556,"à¶»à·Ĥ":4557,"ux":4558,"Ġ{":4559,"Ġover":4560,"Ġ62":4561,"Ġà¶ļà·Ģà¶¯à¶Ń":4562,"opy":4563,"NOTOC":4564,"||":4565,"ĠÎ":4566,"Ġà¶»à¶§à·Ģ":4567,"à¶Ķà¶¶à¶Ń":4568,"Ġà¶Ńà¶»à¶Łà¶ļ":4569,"ĠPortal":4570,"âĢįà·ı":4571,"à¶°à¶±à¶ºà¶±":4572,"Ġà¶ĳà¶ļà¶ľ":4573,"Ġà¶ľà¶½à¶´":4574,"ĠOr":4575,"Ġkn":4576,"à¶ĵ":4577,"ĠRating":4578,"Ġà·Ģà¶»à¶¯à·Ģ":4579,"Ġà¶¶à·ĥà¶º":4580,"Ġà¶»à·ĥà¶ļ":4581,"outube":4582,"à¸":4583,"Ġà¶ĩà¶»à¶º":4584,"son":4585,"Ġà¶ħà¶ľà¶½":4586,"Ġyear":4587,"Ġà¶ħà¶Ńà¶ļà¶§":4588,"Ġà¶´à¶§à¶ļ":4589,"Ġ1992":4590,"à¶±à¶ļà¶º":4591,"Ġà¶·à·Ģ":4592,"Ġà¶ħà·Ģà¶±à¶Ń":4593,"Ġà¶¢à¶ºà¶ľà¶±":4594,"Ġrest":4595,"à¶Ńà·Ģà¶¸":4596,"à·ļâĢį":4597,"Ġà¶´à¶±à¶Ńà¶§":4598,"ä¸":4599,"à¶»à·ĥà¶»":4600,"Ġà¶Ĵà·Ģà¶Ń":4601,"Sri":4602,"à¶ºà¶½à¶¯":4603,"Ġà¶Ĩà¶»à¶ł":4604,"Ġà·Ģà·ĥà¶»à¶§":4605,"à·Ģà¶±à¶ļ":4606,"à¶±à¶»à¶º":4607,"ferences":4608,"Ġà¶¶à¶ºà·Ģ":4609,"à·Ĭ).":4610,"ĠUp":4611,"ĠAss":4612,"ane":4613,"à¶¨à¶ºà¶ļ":4614,"Ġsup":4615,"ustral":4616,"Ġà¶ħà¶¯à·Ħ":4617,"Ġsm":4618,"à¶¤à¶º":4619,"Ġ1500":4620,"Ġà¶ħà¶¯à·Ħà·ĥà¶§":4621,"arket":4622,"Ġà¶ĩà¶¹à¶»":4623,"à¶´à¶½à¶º":4624,"chi":4625,"85":4626,"Ġà·ĥà¶»à¶¯":4627,"Ġà¶´à¶§à¶½à·Ģ":4628,"Ġà¶±à·Ģà¶ºà¶ļ":4629,"Ġà·Ģà¶ľà¶¶à¶½":4630,"enter":4631,"Ġnew":4632,"à¶®à¶»":4633,"à·ĥà¶¸à·ĥ":4634,"300":4635,"à¶»à·ģà·ĥ":4636,"ĠTw":4637,"PA":4638,"à·Ģà¶½à¶ļ":4639,"à¶ľà¶«à¶ļà¶ºà¶ļ":4640,"ield":4641,"ices":4642,"Ġ66":4643,"à·ĬâĢ¦.":4644,"ency":4645,"Ġà·Ħà¶Ńà¶»à·Ģ":4646,"Ġà¶ħà¶Ńà·Ģà¶»":4647,"à¶īà¶¸":4648,"à¶¯à¶¸à¶º":4649,"Ġà¶ļà¶»à¶¬":4650,"à¶ļà¶»à¶«à¶ºà¶±":4651,"Ġà¶±à¶ľà¶»à·Ģà¶½":4652,"ÑģÑĤÑĢ":4653,"Ġà¶ħà¶§à¶¸":4654,"Ġà¶¯à¶¸à¶º":4655,"Ġà¶½à·Ħ":4656,"à·Ĵ.[":4657,"Ġà¶¯à¶±à·Ģà¶±":4658,"ĠVi":4659,"Ġà¶»à¶¢à¶ºà¶±":4660,"over":4661,"af":4662,"à·ĥà¶»à¶¯":4663,"Ġà¶ĩà¶½à·Ģ":4664,"Ġà¶´à¶¯à¶ºà¶ļ":4665,"Ġà¶ľà¶«à¶ºà¶§":4666,"à·ĥà¶±à¶ºà¶§":4667,"the":4668,"ĠSch":4669,"Ġ).":4670,"à¶łà¶©":4671,"à¶Ĩà¶ļ":4672,"////":4673,"à¶ºà¶½à¶±":4674,"ĠĠĠĠĠ":4675,"79":4676,"Ġà·Ħà¶¶":4677,"à¶»à¶§à¶ļ":4678,"atic":4679,"Ġ54":4680,"overn":4681,"Ġ%":4682,"à·Ķ'":4683,"stit":4684,"à¶ĭà¶´à¶Ń":4685,"asa":4686,"Ġà¶´à¶»à¶º":4687,"Ġà¶ĳà¶ļà·Ģ":4688,"thi":4689,"ali":4690,"à·ĵâĢį":4691,"ĠĠĠĠĠĠĠĠĠĠĠĠĠĠĠĠĠĠĠĠĠĠĠĠĠĠĠĠĠĠĠĠ":4692,"à¶¸à¶»à¶±":4693,"à¶¢à¶±à¶´":4694,"Ġà¶¸à·Ħà¶»à·Ħ":4695,"à¶¨à¶Ńà¶¸":4696,"Ġopen":4697,"à¶Ńà·Ģà¶º":4698,"lanka":4699,"à¶®à¶ļà¶º":4700,"Ġà¶´à¶Ńà¶±à·Ģ":4701,"à¶¸à¶»à¶«à¶º":4702,"Ġà¶¯à·Ħà¶¯":4703,"à·Ħà¶¶":4704,"à·Ĥà¶ºà¶Ń":4705,"Ġà¶¸à·Ħà¶¶":4706,"Ġà·ĥà¶»à¶ł":4707,"Ġà·ĥà·ħà¶ļà¶±":4708,"Ġ1985":4709,"BO":4710,"à¶´à¶ºà¶ļà¶¯":4711,"Ġreg":4712,"ized":4713,"Ġ77":4714,"Ġ1982":4715,"à¶ºà¶ļà·Ģ":4716,"à¶¹à¶§":4717,"Ġà¶ķà·Ģà¶»":4718,"alk":4719,"à¶¢à¶ºà¶¶":4720,"Ġ1984":4721,"à·ĳâĢ¦":4722,"à¶Ķà·ĥ":4723,"Ġà¶ĳà·ħà·Ģ":4724,"Ġonly":4725,"Ġ1965":4726,"Ġà¶įà¶Ń":4727,"Ġà¶ħà¶´à·Ģà¶Ń":4728,"Ġ52":4729,"ĠDNA":4730,"Ġ88":4731,"DI":4732,"à¶®à·Ģà¶Ń":4733,"Ġà¶¸à·Ħà¶ļ":4734,"à¶»à¶ļà¶½":4735,"à¶Ľà·Ģ":4736,"à¶ħà·Ģà·ģ":4737,"Ġà¶ºà·Ħà¶¸":4738,"Ġà¶¸à·Ħà¶ľ":4739,"ĠMy":4740,"à¶Ńà¶¸à¶§":4741,"à¶±à·ĥà¶ļà¶§":4742,"Ġà¶»à¶¢à¶ļà¶¸":4743,"ĠIndia":4744,"Ġà¶½à¶«":4745,"à¶³à¶¯":4746,"à¶Ŀà¶«à¶º":4747,"Ġà·ĥà¶ľà¶ºà¶±":4748,"âĢĭ,":4749,"ĠJay":4750,"à¶¸à¶ļà¶»":4751,"à¶ºà¶ºà¶Ń":4752,"Ġwe":4753,"Ø±":4754,"à¶©à·Ģà¶»":4755,"Ġà¶§à¶ºà¶»":4756,"Ġgr":4757,"à¶»à¶±à¶ºà¶ļ":4758,"Ġà¶±à¶ļ":4759,"à·ģà·Ģà¶ºà¶±":4760,"mm":4761,"pos":4762,"Ġà¶ļà¶©à¶º":4763,"ize":4764,"Ġclick":4765,"Image":4766,"date":4767,"ange":4768,"lon":4769,"anglad":4770,"angladesh":4771,"AT":4772,"à·ģà¶»":4773,"à¶ļà¶»à¶¯":4774,"Ġwebsite":4775,"à¶»à¶ļà¶¸à¶ļ":4776,"Ġyour":4777,"à¶ļà·Ħà¶¸":4778,"Ġà¶¸à¶ľà¶´":4779,"irt":4780,"Ġ1981":4781,"Ġà¶´à¶«à¶Ń":4782,"Ġfl":4783,"ersion":4784,"Ġà¶ºà·Ģà¶½":4785,"Ġà¶ľà¶½à¶ľ":4786,"Phone":4787,"à·ı;":4788,"Ġbet":4789,"à¯ģ":4790,"ĠInternational":4791,"à¶ļà¶¶":4792,"Ġà¶īà·Ħà¶½à¶¸":4793,"ization":4794,"à·Ģà¶ºà¶¸":4795,"à¶±à¶Ľà¶º":4796,"ocial":4797,"à¶§à¶ºà¶±":4798,"à·ģà·Ģà¶Ń":4799,"à¶¸à¶ļà¶¸":4800,"Ġdef":4801,"à¶Ĥ-":4802,"Ġà¶Ĩà¶Ńà¶»":4803,"Ġused":4804,"Ġà¶īà¶´à¶º":4805,"ĠAb":4806,"à·Ħà¶³":4807,"Ġà¶Ĩà·Ģà¶»à¶«":4808,"Ġsec":4809,"Ġno":4810,"col":4811,"ke":4812,"Ġà¶ļà¶¨":4813,"à¶´à¶´":4814,"Ġà¶ľà¶¯":4815,"Ġrel":4816,"athun":4817,"Ġ!!!":4818,"Ġà¶ļà¶ł":4819,"à¶Ĩà¶±à¶º":4820,"clud":4821,"à¶½à·Ģà¶ºà¶ļ":4822,"other":4823,"à¶»à·Ħà¶±":4824,"ied":4825,"ĠRep":4826,"ĠMaga":4827,"Ġà¶½à¶´":4828,"à¶Łà¶½":4829,"Ġà¶»à¶§à¶§à¶¸":4830,"âĢĻ,":4831,"Ġà¶»à¶§à¶´":4832,"Ġà¶°à·Ģà¶½":4833,"ĠBr":4834,"Ġà¶ħà·Ħà·ĥà¶§":4835,"à·ıâĢĺ":4836,"à¶©à·Ģà·ĥà¶¸":4837,"à¶ĳà¶ļà¶¸":4838,"une":4839,"69":4840,"Ġà¶ħà¶»à¶ľà¶±":4841,"wards":4842,"yp":4843,"ica":4844,"à¶£":4845,"à¶»à·Ħà¶±à¶º":4846,"ities":4847,"ters":4848,"à¶·à¶ºà¶§":4849,"Ġà¶ºà¶±à¶Ń":4850,"arn":4851,"As":4852,"à·ħà¶ºà¶§":4853,"à·Ŀ\"":4854,"à·Ĵà¶Ĥ,":4855,"ĠRahathun":4856,"à¶¨à¶ºà¶±":4857,"à·ģà¶ºà¶Ń":4858,"ĠSoftware":4859,"Ġà¶ĳà·ħà·Ģà¶½":4860,"Ġà¶ļà·ħà¶ļ":4861,"Ġà¶ħà¶Ńà¶½":4862,"Ġà¶´à¶Ńà¶¸":4863,"ĠRaj":4864,"rist":4865,"à·ļ.\"":4866,"à·Ķ/":4867,"ene":4868,"à¶»à¶½à¶º":4869,"à·ĥà¶¢":4870,"à¶¸à¶±à¶ļ":4871,"à·Ĭ.âĢĿ":4872,"Ġà¶´à·ħà¶ļà¶»":4873,"ĠLTTE":4874,"ĠDes":4875,"Category":4876,"PS":4877,"ï»¿":4878,"ĠBlog":4879,"à·Ĥà¶«à·Ģà¶½à¶§":4880,"à¶©à¶±à¶Ł":4881,"à¶±à·Ħà·Ģ":4882,"Ġà¶Ńà¶»à¶Łà¶ºà¶ļ":4883,"Ġà¶ħà·Ģà·ĥà¶»à¶ºà¶ļ":4884,"Ġà¶¢à¶±à¶»à¶¢":4885,"à®¤":4886,"Ġsoftware":4887,"Ġtrans":4888,"ĠPlay":4889,"pro":4890,"Ġà¶Ĩà¶´à¶±":4891,"à¶Ķà¶½":4892,"ĠAcc":4893,"Re":4894,"erson":4895,"Sh":4896,"à·Ģà¶łà¶±":4897,"Ġà¶ľà·Ģà¶º":4898,"Ġà·ĥà¶¸à·ĥà¶¸":4899,"à¶»à¶¸à¶ºà¶ļà¶§":4900,"ots":4901,"âĢĭà·Ļ":4902,"Ġà¶½à¶ľà¶§":4903,"Ġà¶¸à·Ħà¶»":4904,"Ġ85":4905,"ured":4906,"Ġstud":4907,"Ġbeen":4908,"IA":4909,"itter":4910,"imes":4911,"2005":4912,"Ġà¶´à¶»à¶«à·Ģ":4913,"par":4914,"à¶ºà·Ħà¶¸":4915,"à·ģà¶Ń":4916,"à¶Ľà¶ļà¶ºà¶±":4917,"à¶»à¶ºà¶§à¶º":4918,"Ġwork":4919,"ika":4920,"Ġà¶ļà¶»à¶«à¶º":4921,"Ġà¶ķà¶¸":4922,"Ġà¶Ĵà¶©":4923,"Ġà·ģà¶Ńà¶ļ":4924,"Ġmod":4925,"Ġà¶Ĩà¶»à¶«":4926,"à·ļ.)":4927,"ĠCo":4928,"à¶¶à¶½à¶´":4929,"Ġà¶Īà¶³":4930,"Ġĉ":4931,"à¶Ńà¶¥":4932,"ision":4933,"eop":4934,"à¶´à¶¶":4935,"Ġà¶´à·ħà·Ģà¶±":4936,"âĨĳ":4937,"67":4938,"à·Ħà¶§à¶º":4939,"ĠFM":4940,"ĠOsse":4941,"à·ĶâĢ¦":4942,"à¶½à¶ľà¶Ń":4943,"Ġac":4944,"à·ģà¶±à¶ºà¶±":4945,"istan":4946,"ÙĨ":4947,"Ġà¶©à¶©":4948,"Ġafter":4949,"Cl":4950,"ON":4951,"à¶ĭà·ĥ":4952,"Ġ700":4953,"à¶±à¶±à¶º":4954,"à·Ĥà¶¯":4955,"Ġà¶ĭà¶¸à¶Ń":4956,"ley":4957,"à¶»à¶·à¶½":4958,"TM":4959,"led":4960,"à·ļÂŃ":4961,"ĠOpen":4962,"94":4963,"à·Ĥà¶¶":4964,"à·Ģà¶»à¶±à¶º":4965,"Ġà¶´à¶¯à¶¸":4966,"Ġà¶ľà¶½à·Ģà¶±":4967,"Ġà¶ĳà·Ģà¶½":4968,"à·Ģà¶»à·Ģ":4969,"Ġà¶ľà¶Ńà¶ļà¶»à¶±":4970,"Ġà¶´à·Ħà·Ģ":4971,"Ġ1979":4972,"obile":4973,"uddh":4974,"68":4975,"Ġà¶´à¶»à¶±":4976,"inc":4977,"ĠPost":4978,"Ġà¶°à¶±à¶´":4979,"à¶»à¶´à¶Ń":4980,"ĠIII":4981,"ody":4982,"...........":4983,"51":4984,"Ġà·Ģà¶ºà¶»":4985,"Ġsome":4986,"Ġ57":4987,"Ġà¶ĳà¶ļà¶Łà¶º":4988,"Ġà¶±à·Ħ":4989,"aka":4990,"Ġà¶©à¶¶à¶½":4991,"à¶¨à¶Ń":4992,"Ġbec":4993,"ets":4994,"à¶®à¶ļà¶®à¶±à¶º":4995,"à¶Ľà¶Ńà¶¸":4996,"à¶ĩà¶ºà¶ľ":4997,"ĠGu":4998,"à®ķ":4999,"ĠReviewed":5000,"ten":5001,"à¶ºà·Ģà¶º":5002,"à¶´à¶®":5003,"à·Ĥà·Ģà¶½à¶§":5004,"Ġà¶¸à·Ħà¶Ł":5005,"ote":5006,"à¶½à¶»à¶º":5007,"Ġà¶ħà¶´à¶ł":5008,"à¶»à¶¸à¶¯":5009,"à¶Ńà¶ºà¶ľ":5010,"Ġà¶¸à¶ľà¶©":5011,"Ġtype":5012,"Ġ72":5013,"rilanka":5014,"ĠMaha":5015,"ality":5016,"Ġà¶ľà¶«à¶ļ":5017,"Ġà¶ħà·Ħà¶ľà¶±":5018,"Ġà¶ĳà¶¯à¶Ń":5019,"ough":5020,"elf":5021,"ety":5022,"ury":5023,"Ġagainst":5024,"à¶ľà¶¸à¶ºà¶§":5025,"ĠSup":5026,"ament":5027,"............":5028,"à¶ĵà¶Ń":5029,"à¶Ńà¶ļà¶ºà¶±":5030,"Ġà¶ĩà¶»à¶ľ":5031,"à¶®à¶ļà¶®":5032,"uri":5033,"à¶«à¶¸à¶º":5034,"ider":5035,"Ġà¶ĭà¶´à·ĥà¶¸":5036,"64":5037,"VD":5038,"vent":5039,"Ġà¶´à·ĥà¶§":5040,"Ġà¶ħà·ĥà¶·":5041,"à¶¢à¶±à¶´à¶Ń":5042,"Ġà·ħà¶Łà¶¸":5043,"ankan":5044,"Ġright":5045,"à·ıà·Ļ":5046,"Ġà¶ħà¶´à¶§à¶Ń":5047,"================":5048,"à·ĥà¶½à¶¸":5049,"vice":5050,"à¶ĳà¶¸à¶ľ":5051,"ger":5052,"à·Ģà¶±à¶Ń":5053,"à¶ļà¶»à·Ģà¶±":5054,"à¶¢à¶±à¶±":5055,"uss":5056,"html":5057,"Ġabout":5058,"à¶ľà¶ºà¶Ń":5059,"ĠSk":5060,"ï¼":5061,"à·ħà¶ºà¶±":5062,"à·ħà·Ħà¶ļ":5063,"ĠDr":5064,"This":5065,"pr":5066,"Ġà¶´à·ħà¶ļà¶»à¶±":5067,"ple":5068,"à¶¯à·Ģà¶½à¶§":5069,"à¶´à¶ºà¶Ń":5070,"à¶´à¶»à¶º":5071,"à¶¶à¶ľ":5072,"Ġsex":5073,"aster":5074,"fl":5075,"ombo":5076,"Ġà¶Ńà¶¯à¶¶à¶½":5077,"Ġà¶ħà¶´à¶¸à¶«":5078,"Ġà¶´à¶§à·Ģ":5079,"aking":5080,"à¶»à·Ģà¶«à¶º":5081,"uman":5082,"à·Ħà¶ļà¶ºà¶±":5083,"Ġà·ĥà¶³à·Ħà¶±à¶ļ":5084,"ĠGr":5085,"ense":5086,"à·Ĭ......":5087,"Ġà¶¯à·Ħà¶±":5088,"à·ħà¶¸à¶º":5089,"Ġvis":5090,"à¶´à¶±à¶Ń":5091,"Ġà¶»à¶¯à·Ģ":5092,"à¶Łà¶ºà¶ļ":5093,"Ġà¶«à¶ºà¶ļ":5094,"à¶¢à¶¹":5095,"à¶Ńà¶»à¶¯":5096,"à¶§à¶Ńà¶¸":5097,"à¶Ľà¶±à¶ºà¶ļ":5098,"Ġse":5099,"order":5100,"ps":5101,"rol":5102,"à·ĵâĢĿ":5103,"Ġà¶¯à¶¸à¶½":5104,"Ġà·Ħà¶»à·Ģà¶±":5105,"ĠFl":5106,":)":5107,"à¶ħà¶¢":5108,"à¶Ńà¶±à¶ºà¶±":5109,"ĠAustral":5110,"Ġcons":5111,"Ġà¶ºà·Ģà¶±à·Ģ":5112,"Ġ89":5113,"Ġà¶¯à·Ħà·ĥà¶ļà¶§":5114,"Ġà¶ĳà¶±à¶ļà¶¸":5115,"Ġà¶łà¶¸à¶Ń":5116,"Ġà¶īà·Ħà·ħà¶º":5117,"por":5118,"à¶®à¶»à¶º":5119,"Ġthan":5120,"iles":5121,"read":5122,"Ġà¶ºà¶§à¶§":5123,"Ġwhen":5124,"Ġà¶ľà¶Łà¶§":5125,"à¶Ĩà¶»à¶¸":5126,"à·ħà¶¯à¶´":5127,"54":5128,"à·Ĵ/":5129,"à¶ļà¶½à¶ļ":5130,"83":5131,"à¶´à¶»à¶ºà¶ļ":5132,"Ġà¶ºà·Ħà¶±":5133,"à·Ģà¶½à·Ģ":5134,"Ġà¶ļà¶»à·Ģà¶º":5135,"Ġà¶¸à·Ħà·ħ":5136,"Ġact":5137,"ĠiPhone":5138,"spot":5139,"à¶ļà¶§à¶º":5140,"Ġ1952":5141,"ĠInternet":5142,"ve":5143,"à¶»à¶»à¶Ń":5144,"ars":5145,"à¶¯à¶©":5146,"ĠAg":5147,"de":5148,"à¶ºà¶Ńà¶º":5149,"als":5150,"Ġvideo":5151,"ohn":5152,"ES":5153,"of":5154,"Ùĩ":5155,"à¶¢à¶½à¶º":5156,"Ġmy":5157,"ollow":5158,"à¶Ńà¶±à¶¸":5159,"Ġà·Ħà·Ĥ":5160,"ister":5161,"Ñı":5162,"ĠTag":5163,"vers":5164,"Ġà¶ħà¶ļà¶»":5165,"Ġà¶ħà¶¥":5166,"à·Ħà·ĥà¶ļ":5167,"à·Ģà¶¥":5168,"Ġà¶ļà¶±à·ĥ":5169,"Ġà·Ģà¶©à¶±":5170,"ck":5171,"la":5172,"Ġà¶ĳà¶ºà¶¸":5173,"Ġà·ĥà¶¸à¶´":5174,"Ġblog":5175,"Ġlink":5176,"Ġà¶¢à¶±à¶ľà·Ħà¶«à¶º":5177,"Äģ":5178,"à¶ļà·Ģà¶¯":5179,"à·ĬâĢľ":5180,"una":5181,"ĠVideos":5182,"à¶¯à¶ľà¶±":5183,"ada":5184,"uck":5185,"Ùħ":5186,"à·ĿâĢĻ":5187,"Ġà¶ĳà¶ļà¶±à¶¸":5188,"Ġcricket":5189,"Ġher":5190,"?âĢĻ":5191,"à¶±à¶ºà¶ļà¶¯":5192,"Ġà¶Ŀà¶«":5193,"Ġà¶¯à¶Łà¶½à¶±":5194,"97":5195,"à¶ħà·ģ":5196,"Ġà¶ĩà·ĥà·ħ":5197,"Ġà¶ĩà¶³à¶±":5198,"ura":5199,"Ġ1975":5200,"Wh":5201,"top":5202,"Ġà¶¶à·Ģà¶§à¶º":5203,"à¶¸à¶½à¶Ń":5204,"2007":5205,"ept":5206,"à·ĥà¶»à¶Ń":5207,"Ġà¶¸à·ĥà¶ļ":5208,"à¶±à·Ģà¶¸":5209,"Ġcall":5210,"à¶ľà·ĥà¶¸":5211,"à·Ħà¶»à¶±":5212,"Ġ160":5213,"Ġà¶¯à·ĥà¶±":5214,"Ġà·ĥà¶¸à·Ģ":5215,"ream":5216,"Ġà¶Ĩà¶ºà¶Ńà¶±à¶ºà¶±":5217,"Ñĭ":5218,"à¶»à·Ģà¶±à¶Ń":5219,"2000":5220,"Ġà¶Īà¶±":5221,"ource":5222,"Ġà·ĥà·Ħà¶ľà¶Ńà·Ģ":5223,"ged":5224,"à¶«à¶ļà¶§":5225,"à·Ĥà¶¸à·Ģ":5226,"left":5227,"Ġà¶±à¶»à¶ļà¶º":5228,"à¶ľà¶±à¶ºà¶§":5229,"Ġà¶§à¶ļ":5230,"irus":5231,"eople":5232,"It":5233,"à·Ĭà·ĬâĢį":5234,"Ġà¶¯à¶¸à¶±à·Ģ":5235,"Ġà¶¯à·Ħà¶ºà¶ļà¶§":5236,"IP":5237,"ror":5238,"Ġà¶¸à¶¬":5239,"Ġà¶Ĵà¶»":5240,"Ġà·ĥà·Ħà·ĥ":5241,"à¶ºà¶¸à¶ºà¶±":5242,"ĠFile":5243,"Ġ1815":5244,"ĠOS":5245,"cept":5246,"...\"":5247,"Ġà¶ħà¶©à¶±":5248,"Ġà·Ģà¶§à·Ģ":5249,"à¶»à¶¶à¶½à¶º":5250,"ublished":5251,"à¶½à¶©":5252,"Ġ53":5253,"ĠBe":5254,"Ġà¶¸à·Ħà¶»à·Ħà¶Ńà¶±":5255,"Ġà·Ģà·Ħà¶ľ":5256,"ima":5257,"à·Ģà¶Ńà¶§":5258,"à¶½à¶ļà¶¸":5259,"à¶»à¶¯à·Ģ":5260,"ĠNational":5261,"à¶Ńà¶¥à¶º":5262,"Ġà¶±à¶Łà¶±":5263,"à¶¶à¶»à¶ºà¶ļ":5264,"à·ģà¶±à·Ģ":5265,"à·ĳ\"":5266,"Ġà·ĥà·Ħà¶ºà¶ļ":5267,"Ġà¶ħà¶ºà·Ģà¶½":5268,"Ġà¶ļà¶©à·Ģ":5269,"Ġà¶ļà·Ģà¶»à¶ļ":5270,"Ġà¶ĸà·Ĥà¶°à¶ºà¶ļ":5271,"Ġà¶¶à¶¹à¶»":5272,"à·Ķ;":5273,"Ġspe":5274,"Ġpass":5275,"Ġà¶ĭà¶º":5276,"ĠPC":5277,"Ġhigh":5278,"evelopment":5279,"à¶»à¶¯à¶¬":5280,"formation":5281,"eneral":5282,"ĠUNP":5283,"ĠSilva":5284,"Ġà¶ĩà·Ģà¶±":5285,"Ġà¶ļà¶½à¶¸à¶±":5286,"ĠCD":5287,"Ġgame":5288,"à·Ŀ)":5289,"ĠGun":5290,"Ġentry":5291,"Ġà¶Ķà¶ºà¶ľ":5292,"à¶Ŀà¶ļ":5293,"Ġà¶¯à·Ħà¶±à¶º":5294,"Ġà¶ļà·Ħà¶§":5295,"à¶īà·Ħà·ħ":5296,"à¶¢à¶ºà·Ģà¶»":5297,"Ġdev":5298,"ĠFeat":5299,"98":5300,"Un":5301,"Ġà¶Ĩà¶ľà¶¸à¶±":5302,"Ġob":5303,"à¶¯à¶½à¶ļà¶§":5304,"à¶¶à·Ģà¶±":5305,"align":5306,"ĠSystem":5307,"Ġfacebook":5308,"Ġà¶»à¶®à¶ºà¶§":5309,"96":5310,"Ġsite":5311,"Ġ78":5312,"Ġlangu":5313,"Ġphot":5314,"Ġà¶½à¶Ŀ":5315,"Ġà·Ģà¶½à¶§à¶¯":5316,"ĠCar":5317,"Ġà¶¢à¶½à¶¢":5318,"Ð²":5319,"Ġà·Ĩà¶±":5320,"à·Ģà·Ħà¶½à¶ļ":5321,"Ġà·Ģà¶´à·ĥà¶»":5322,"ĠPhotos":5323,"Ġà¶ľà¶¢":5324,"à¶Ńà¶»à¶ľ":5325,"enn":5326,"Ġà·ĥà¶¯à·Ħà¶§à¶¸":5327,"à·ĥà¶½à¶ļà¶§":5328,"?)":5329,"ģ£":5330,"à¶ºà¶ļà·Ģà¶»":5331,"Ġcapt":5332,"unt":5333,"Ġà·Ħà¶Ńà¶»à·Ģà¶±":5334,"Ġstr":5335,"à¶»à¶¸à¶§":5336,"Ġà¶»à¶¸à¶«":5337,"à¶½à¶±à¶¸à¶º":5338,"ility":5339,"à·Ģà¶»à¶«à¶ºà¶ļà¶§":5340,"Ar":5341,"à¶»à¶´à¶±":5342,"à·Ķ....":5343,"à¶¶à¶¯à¶º":5344,"à·Ĥà¶Ńà¶¸":5345,"ural":5346,"PU":5347,"à¶¶à¶´":5348,"Ġà¶Ĵà¶ļà¶¸":5349,"à¶Ľà·ĥ":5350,"AC":5351,"à·ĥà¶±à¶ļ":5352,"Ġà¶ºà·ģ":5353,"ĠNumber":5354,"ird":5355,"ship":5356,"Ġà¶Ĭà¶½":5357,"Ġthere":5358,"à¶ĭà¶´à¶¸":5359,"Ġà¶±à·Ģà¶ļà¶®":5360,"):":5361,"Ã¡":5362,"ĠBo":5363,"à¶»à·Ħà¶¸":5364,"ĠAf":5365,"Ġinstall":5366,"à¶ĳà¶Ńà¶±":5367,"Ġà¶ļà¶§à¶ļà¶Ń":5368,"que":5369,"Ġà¶ĭà¶ļà·Ħ":5370,"Ġà¶ĭà¶¯à·Ħà·ĥ":5371,"à¶ĩà·Ģ":5372,"à¶¸à·Ħà¶¢à¶±":5373,"95":5374,"gy":5375,"::":5376,"Ġà¶Ĵà¶º":5377,"à¶ļà¶ºà¶Ń":5378,"Ġco":5379,"à¶½à¶¥à¶ºà¶±":5380,"à¶ļà¶ºà¶º":5381,"Ġà·Ħà¶¯à·Ģà¶Ńà¶§":5382,"ission":5383,"En":5384,"à¶¸à¶¸à¶º":5385,"ino":5386,"à¶Ĩà·Ģ":5387,"à¶¡à¶±à¶º":5388,"emb":5389,"Ġunder":5390,"EN":5391,"à¶»à¶½à¶±":5392,"ĠWadi":5393,"Ġà¶ĩà¶Łà¶½":5394,"à¶ļà¶©à¶ļ":5395,"à·Ļà·Ł":5396,"Ġà·ĥà¶½à¶ļà¶¸":5397,"Ġà¶īà·Ģà¶»à¶ºà¶ļ":5398,"Ġà·Ħà¶ºà¶ļà¶§":5399,"Ġà¶»à¶ľà¶´":5400,"2006":5401,"71":5402,"ĠðŁ":5403,"à·Ħà¶»à¶º":5404,"à¶·à¶«":5405,"Ġà·Ģà¶ľà·Ģ":5406,"ĠSouth":5407,"Ġcount":5408,"ĠPri":5409,"à¶Ńà¶»à¶ºà¶ļà¶§":5410,"Ġà¶»à¶¢à¶ļ":5411,"Ġà¶ħà¶±à·Ģà·ĥà¶»":5412,"Ġà¶ħà¶»à¶ľà¶½à¶ºà¶§":5413,"aid":5414,"rome":5415,"à¶Ńà¶ļà¶»à¶«à¶º":5416,"à¶´à¶«à¶ºà¶ļ":5417,"à¶´à·Ħà¶ļ":5418,"à¶Ĩà¶¯à¶»à¶º":5419,"Ġif":5420,"à¶ľà¶Ńà·Ħ":5421,"à¶ħà¶¶":5422,"Ġkey":5423,"Ġà·ģà·Ĥ":5424,"à¶°à¶±à¶ľ":5425,"Ġà¶¶à·Ħà¶§":5426,"EC":5427,"TC":5428,"Ġà¶ĩà¶½à¶±":5429,"Ġà¶ĳà¶ļà·Ģà¶»à¶¸":5430,"à¶»à·Ģà¶ºà¶§":5431,"Ġà¶ħà·Ħà·Ģà¶»":5432,"rib":5433,"Ġ83":5434,"ography":5435,"li":5436,"à¶ºà¶½à·Ģà¶Ń":5437,"à¶¸à¶ºà¶Ń":5438,"omen":5439,"ĠĠĠĠĠĠ":5440,"ott":5441,"Ġ1976":5442,"Ġrating":5443,"net":5444,"Ġ:(":5445,"resent":5446,"MP":5447,"à·Ģà¶±à¶¯":5448,"Ġà¶ļà¶½à·Ģà¶¸":5449,"Ġmay":5450,"à¶³à·Ħ":5451,"Ġà¶¢à·ĥ":5452,"Ġà·ĥà¶¸à¶ºà¶ļ":5453,"iness":5454,"OR":5455,"Ġà¶¢à¶½à¶ºà¶§":5456,"62":5457,"au":5458,"à¥":5459,"âĢį.":5460,"Ġà·Ģà·ĥà¶»à¶ļà¶¸":5461,"ĠFm":5462,"à·Ģà¶°":5463,"Ġà¶¸à¶»à¶«à¶ºà¶ļ":5464,"à·Ģà¶½à¶¸à¶ļ":5465,"à¶Ńà¶ºà¶¸":5466,"à¶īà·Ģà·ĥ":5467,"ĠMal":5468,"Ġmost":5469,"Ġà¶ľà·Ħà¶ľà¶±":5470,"Ġsuch":5471,"à¶Ńà¶´à¶Ń":5472,"à¶¹à¶º":5473,"à·Ĥà¶ļà·Ģà¶»":5474,"Ġinclud":5475,"ween":5476,"yl":5477,"à·ļâĢ¦.":5478,"Ġà¶Ĩà·Ģà¶»à¶«à¶ºà¶ļ":5479,"à¶Ĩà¶¯à¶»":5480,"Sc":5481,"Ġ......":5482,"à¶ºà¶¸à¶ºà¶ļ":5483,"à¶ºà·ĥà¶±à¶º":5484,"Ġà¶±à·ħà¶½":5485,"echnology":5486,"UR":5487,"Ġà¶Ĵà¶ļà¶§à¶Ń":5488,"eylon":5489,"ible":5490,"Ġà¶´à¶»à·Ģ":5491,"à¶»à·ħà¶º":5492,"da":5493,"à·´":5494,"Ġà¶ºà·Ģà¶¸":5495,"Ġ68":5496,"à·Ĵ......":5497,"ham":5498,"à¶±à¶¶":5499,"à¶°à·Ģà¶½":5500,"à·Ģà·ĥà¶»à¶ļ":5501,"Ġà¶łà¶º":5502,"Ġà¶ķà¶½à¶±":5503,"ĠLED":5504,"Ġà¶ļà·Ģà¶±":5505,"à¶ºà¶±à¶ºà¶§":5506,"à·Ģà¶ºà·ħ":5507,"à·Ĵ.(":5508,"Ġà¶īà¶«":5509,"ature":5510,"Ġà¶»à¶Łà·Ħà¶½":5511,"à¶ĳà¶ļà¶ļ":5512,"ĠPre":5513,"à¶»à¶·à·Ģà¶º":5514,"board":5515,"fo":5516,"Ġà¶´à·ĥà·ħ":5517,"Ġà¶Ńà¶¯à¶¶à¶¯à¶º":5518,"AD":5519,"à¶©à¶ħà¶Ń":5520,"Ġà¶ļà¶»à·Ģà¶¸":5521,"Ġdec":5522,"Ġà·ĥà·ģ":5523,"à¶¢à¶ºà¶Ń":5524,"Ġà¶¸à·Ħà¶»à¶¢":5525,"à¶ĩà¶«":5526,"ĠFree":5527,"Ġà¶Ķà·ĥà·Ģà¶±":5528,"my":5529,"sc":5530,"Ġà¶ħà¶¸à¶»à¶«":5531,"92":5532,"Hiru":5533,"Select":5534,"à·ıâĢľ":5535,"Ġà¶ĳà·Ģà¶»":5536,"Ġà¶¶à¶½à¶´à¶±":5537,"Ġà¶ħà¶Ńà¶´à¶Ń":5538,"à¶Ńà¶ºà¶¯":5539,"à¶»à¶´à¶§à·Ģà¶½":5540,"à®°":5541,"Ġà·Ģà¶½à¶º":5542,"Ġso":5543,"ĠNov":5544,"2004":5545,"nect":5546,"à·Ĳ\"":5547,"à¶´à¶½à¶ļ":5548,"ines":5549,"ĠAmer":5550,"Ġà¶´à¶§à·Ģà¶±":5551,"61":5552,"Tube":5553,"fore":5554,"à·Ģà¶¢":5555,"à·ħà·Ģà¶»à¶ļ":5556,"à·Ģà¶´à·Ħà·ĥ":5557,"ĠEngland":5558,"ÙĪ":5559,"Ġà¶ĭà¶¯à¶¸":5560,"Ġass":5561,"Ex":5562,"Le":5563,"Ġà¶ĳà¶§":5564,"Ġà¶½à¶¶à¶´":5565,"Ġà¶Ĵà¶ļà¶¸à¶Ń":5566,"à¶®à·ĥ":5567,"Ġ(\"":5568,"olution":5569,"EO":5570,"Ġmon":5571,"ĠBangladesh":5572,"LOM":5573,"ner":5574,"à¶¸à¶¢":5575,"à·Ĥà¶°":5576,"Ġà¶»à·ĥà¶ºà¶ļ":5577,"à¶ľà¶«à¶±à¶º":5578,"ants":5579,"à·ĥà¶§à¶Ń":5580,"Ġà¶´à¶ľ":5581,"à¶±à·Ģà·Ģ":5582,"Ġà·ĥà·Ħà¶ľà¶Ńà¶º":5583,"Ġà¶«à¶ºà¶§":5584,"à·ĥà¶¢à¶±à¶ļ":5585,"à·Ļà·Ļ":5586,"Ġà¶¸à¶ľà¶¯":5587,"blogspot":5588,"à¶ºà¶¸à¶ļà¶§":5589,"à¶±à·Ģà¶ļ":5590,"à¶´à¶Ńà¶¸":5591,"à·Ĥà¶«à·Ģ":5592,"ĠRate":5593,"ather":5594,"73":5595,"à·Ĥà¶»à¶Ń":5596,"Ġà¶ľà¶Ńà¶ļ":5597,"Ġà¶ħà¶©à¶´à¶«":5598,"Ġthem":5599,"à¶»à¶ľà·Ħ":5600,"ocal":5601,"à·ĥà·Ħà¶º":5602,"à¶¯à¶¸à¶ļ":5603,"Ġà¶Ńà¶»à¶¶":5604,"ĠRan":5605,"?.":5606,"à¶±à¶»à¶½":5607,"à·ģà·Ģà¶ºà¶ļ":5608,"à·Ĵà¶Ĥ.":5609,"Ġà¶ļà¶»à¶½à¶Ń":5610,"à¶ĩà¶ºà¶§":5611,"ĠPar":5612,"ĠIMD":5613,"à¶ļà¶ºà¶ļà¶§":5614,"à¶°à¶¸à¶º":5615,"ĠSe":5616,"Ġà¶Īà¶§":5617,"Ġà¶¶à·ħ":5618,"Ġà¶ĳà¶½à·Ģà¶±":5619,"Ġà¶ħà¶ľà¶¶":5620,"Ġà¶¯à·Ħà¶¸à¶ļ":5621,"ĠJan":5622,"84":5623,"way":5624,"à¶¯à¶ľà¶¸":5625,"Ġà¶±à¶ºà¶±":5626,"à¶¶à¶½à¶ºà¶ļ":5627,"à¶ĳà¶´à¶¸à¶«à¶ļ":5628,"à¶»à¶«à¶ļ":5629,"ĠIT":5630,"ĠTrans":5631,"))":5632,"Ġà·ĥà¶³à¶»":5633,"à¶½à¶±à¶ºà¶ļà¶§":5634,"Ġà¶Ńà¶»à·Ħà¶ļ":5635,"ican":5636,"Ġà¶ļà¶©à·Ģà¶½":5637,"LOMBO":5638,"82":5639,"ĠPM":5640,"Ġà¶ħà¶ľà¶·":5641,"Read":5642,"à·ĥà¶Ł":5643,"Ġà¶ĩà¶«à·Ģ":5644,"Ġà¶ħà¶Ńà¶»à¶º":5645,"Ġ4000":5646,"ĠHistory":5647,"Ġclass":5648,"ĠISBN":5649,"har":5650,"Ġà¶ĭà¶¯à¶»":5651,"à¶ĳà·Ģà¶ļà¶§":5652,"Ġ69":5653,"à¶¯à·Ħà¶¸à¶§":5654,"Ġaccount":5655,"à¶ļà·Ģà¶½à¶§":5656,"Ġà¶ļà¶§à¶Ń":5657,"Ġà¶¯à·Ħà¶»":5658,"à·ħà¶ļà¶§":5659,"Ġà¶Ĩà¶Ľ":5660,"à¶»à¶¸à¶ºà¶º":5661,"Ġphone":5662,"Ġ000":5663,"lex":5664,"à·ģà¶ļà·Ģà¶»à¶º":5665,"uring":5666,"uthor":5667,"BS":5668,"Tr":5669,"Ġ]":5670,"Ġì":5671,"à¶ľà¶¸à¶ļà¶§":5672,"Ġà¶¶à¶§à¶»":5673,"à·ĿâĢĿ":5674,"ĠSm":5675,"Ġà¶Īà¶º":5676,"irc":5677,"Ġprogram":5678,"oom":5679,"itor":5680,"Ġ180":5681,"ffect":5682,"âĢĽ":5683,"Ġà¶±à·Ħà¶»":5684,"250":5685,"UN":5686,"Ġà¶ķà¶´":5687,"Ġà¶ħà¶·à¶ºà¶ľ":5688,"Ġà¶¶à¶»à·Ģ":5689,"ĠFilm":5690,"akistan":5691,"à¶°à¶ľ":5692,"Ġà¶ĭà·ĥà¶¸":5693,"à¶łà¶ļà¶ºà¶ļ":5694,"Ġà¶Ĩà¶¯à¶»à¶ºà¶§":5695,"à·ľà¶Ĥ-":5696,"Ëľ":5697,"à·ĴâĢĺ":5698,"Ġà·Ģà¶¸à¶Ń":5699,"à¶ľà¶±à¶ºà¶ļ":5700,"ince":5701,"à¶¥à·Ģà¶»à¶º":5702,"Ġrem":5703,"à¶±à¶§à·Ģà¶Ń":5704,"Ġ1930":5705,"ĠCor":5706,"à¶´à¶ºà¶ļà¶¸":5707,"ĠKar":5708,"Ġà¶»à·Ħà¶ļ":5709,"à¶ĳà·Ģà¶±":5710,"à¶Ĩà¶½":5711,"Ġfilm":5712,"Ġany":5713,"Ġatt":5714,"COLOMBO":5715,"ĠDiv":5716,"ĠStud":5717,"Ġ1968":5718,"ĠClick":5719,"72":5720,"ET":5721,"Ġà¶¬":5722,"Ġà¶©à¶½à·ĥ":5723,"à¶ĭà¶½":5724,"Ġdif":5725,"ĠKum":5726,"Ġà¶½à¶ľà¶¯":5727,"rive":5728,"à¶ºà¶¢à¶±à¶ļ":5729,"à¶©à¶ļà¶»":5730,"à¶ºà¶½à¶½":5731,"à¶»à¶«à·ģ":5732,"andard":5733,"à¶¢à¶ļà·Ģà¶»":5734,"Ġà¶¯à·Ħà¶©":5735,"Ĥ¬":5736,"Ġà¶±à¶¸à¶º":5737,"à¶°à·Ģà¶±":5738,"à¶¸à¶ļà¶·":5739,"\"|":5740,"à¶±à¶¸à¶§":5741,"Ġà¶±à·Ĥ":5742,"à·Ŀ....":5743,"Ġà¶´à¶»à¶Ńà¶»à¶ºà¶ļ":5744,"Ġà¶ķà¶º":5745,"à¶Ľà¶»":5746,"********":5747,"Ġà·Ħà·ĥà¶±":5748,"à¶ļà¶»à¶ºà¶±":5749,"Ġworld":5750,"ĠGame":5751,"ĠDirect":5752,"à¶§à¶¸à¶º":5753,"ĠSur":5754,"Ġinto":5755,"ists":5756,"à¶«à·Ģà¶½à¶§":5757,"à¶ºà¶±à¶§":5758,"ony":5759,"Ġcap":5760,"à¶»à·ħà¶§":5761,"ula":5762,"Ġà¶ĭà¶¶à¶½":5763,"à¶Ńà¶¸à¶±à¶º":5764,"âĢĿ.":5765,"itiz":5766,"Ġà¶Ńà·Ħà¶±à¶¸à¶ļ":5767,"à·ĥà·Ħà¶ºà¶ļ":5768,"Ġà¶ħà¶§à·Ģà¶±":5769,"Ġprot":5770,"Ġà·Ģà¶¯à¶ºà¶ļ":5771,"Ġà¶ľà·Ģà¶ºà¶±":5772,"à·Ĥà¶ļà¶Ń":5773,"à¶ħà·ħ":5774,"à·Ģà¶ºà¶ļà¶¯":5775,"ĠNo":5776,"400":5777,"à·Ĵ),":5778,"Ġà·Ģà¶§à¶ºà¶§":5779,"ategories":5780,"day":5781,"à¶Ńà¶½à¶§":5782,"à·Ĥà·Ģà¶Ń":5783,"Ġsl":5784,"Al":5785,"à¶¸à·Ģà¶»":5786,"Ġà¶ļà¶±à¶§":5787,"ĠĠĠĠĠĠĠ":5788,"Ġà¶¸à¶©à¶ļ":5789,"Ġà¶±à¶ľà¶¸":5790,"Ġà¶Ńà¶½à¶ºà¶ļ":5791,"à·ģà¶«à¶ºà¶ļ":5792,"à¶°à·Ģà¶½à¶§":5793,"à¶»à¶ºà¶¸":5794,"Ġà¶¶à¶½à¶ľ":5795,"Ġla":5796,"Ġà¶Ĩà¶¯à¶»à·Ģà¶±":5797,"aà¶§":5798,"Ġext":5799,"à¶ļà·Ģà¶»":5800,"Ġà·ĥà¶»à¶«à¶º":5801,"à·ĵà·Ĵ":5802,"à¶¢à¶ºà¶¸":5803,"Ġà¶ħà¶´à¶½":5804,"à¶®à¶Ń":5805,"à¶ļà¶½à¶ºà¶ļ":5806,"Ġà¶´à¶§à¶ºà¶ļ":5807,"Ġà¶ļà¶»à¶½à¶º":5808,"Ġà¶±à¶¸à¶Ń":5809,"alt":5810,"Ġbook":5811,"ĠWe":5812,"à¶¸à·Ħà¶«":5813,"ĠApple":5814,"à¶ľà¶½à¶ļ":5815,"à¶´à¶Ńà¶±":5816,"à¶ĳà¶¸à¶±":5817,"à·Ĩà¶½":5818,"Ġ59":5819,"oday":5820,"play":5821,"Ġbetween":5822,"ĠratingGive":5823,"AL":5824,"à·Ģà·Ģà¶Ń":5825,"à¶´à¶ļà¶»":5826,"Ġà¶Ĩà·ĥà¶¸":5827,"ĠDec":5828,"à¶©à¶ľà·ĥ":5829,"Ġà¶¸à¶¸à¶¯":5830,"Ġà¶Ĵà¶ļà¶ļà¶ºà¶§":5831,"Ġà¶ĭà¶´à¶¯à·Ģà¶±":5832,"usiness":5833,"äº":5834,"à¶°à¶ļà¶ºà¶±":5835,"à·ĥà¶»à¶½":5836,"riend":5837,"Ġ125":5838,"Ġname":5839,"Pro":5840,"à¶¢à¶·":5841,"ĠCup":5842,"Ġback":5843,"ĠBro":5844,"ĠIt":5845,"à¶¯à¶«":5846,"à¶³à¶ľà¶±":5847,"Ġà¶ħà¶Ńà¶´à¶º":5848,"à·Ĩà¶±":5849,"Ġà¶ĭà¶¯à¶»à¶º":5850,"ĠMedia":5851,"imal":5852,"ucation":5853,"74":5854,"uch":5855,"Ġà¶Ĵà·Ħ":5856,"à·Ĭ.\"":5857,"Ġà¶Ĩà¶ºà¶Ńà¶±à¶ºà¶ļà¶§":5858,"atha":5859,"aha":5860,"âĸ":5861,"à¶®à¶ľ":5862,"ĠDVD":5863,"à¶´à·Ħà¶¯":5864,"Ġ1964":5865,"ternational":5866,"MB":5867,"à¶¯à·ħ":5868,"itch":5869,"Ġche":5870,"à·ĥà·Ģà¶ºà¶ļà¶§":5871,"Ġ1967":5872,"rowser":5873,"Ġà¶Ńà¶«à¶ļ":5874,"Ġà¶½à¶¶à¶Ń":5875,"à¶ºà¶©":5876,"Ġà¶ļà·ħà¶¹":5877,"à¶½à¶ļà¶«":5878,"ĠChe":5879,"Ġstyle":5880,"Video":5881,"Ġà¶·à¶¯":5882,"ĠIC":5883,"à®¾":5884,"Ġchar":5885,"ĠIndian":5886,"63":5887,"xx":5888,"Ġà·Ħà¶»à·Ħà¶§":5889,"ased":5890,"ives":5891,"ÑĮ":5892,"Ġà·Ģà·Ħà¶»":5893,"Ġà¶Ńà¶½à¶Ń":5894,"Ġà¶Ķà¶ºà¶Ń":5895,"à¶«à¶ºà¶Ń":5896,"Ġà¶¸à¶±à¶»à¶¸":5897,"Ġ350":5898,"Ġà¶´à¶±à·Ħ":5899,"Ġà·Ģà¶¸à¶±à¶º":5900,"pert":5901,"à·Ļ\"":5902,"à¶ľà¶½à¶§":5903,"Ġà¶´à·Ħà¶Ńà¶§":5904,"lease":5905,"eter":5906,"à¶´à¶ļà¶º":5907,"Ġà¶±à¶Ńà¶»à·Ģ":5908,"ĠVim":5909,"ious":5910,"Â»":5911,"à·Ħà¶±à·Ģà¶½":5912,"à·Ģà¶»à¶´":5913,"ĠAt":5914,"Ġ92":5915,"Ġprof":5916,"ĠQu":5917,"pect":5918,"à¶ºà¶ļà¶§à¶¸":5919,"Ġà¶ĳà¶ļà¶ľà¶Ń":5920,"ĠSl":5921,"ason":5922,"Ġ1962":5923,"ÛĮ":5924,"Ġà¶©à¶ľ":5925,"Ġcode":5926,"à¶Ĭà¶¢":5927,"à¶ºà·Ħà¶´à¶Ń":5928,"à¶Ńà·ħ":5929,"à¶ļà¶Ńà¶»":5930,"à·ļ).":5931,"Ġà·ĥà¶ľà¶»":5932,"Ġà·ĥà¶¸à¶Ńà¶½":5933,"Ġà¶ĭà·ĥà¶ļ":5934,"ĠBook":5935,"à¶Ĭà·ħà¶Łà¶§":5936,"ðŁĳĮðŁĳĮðŁĳĮðŁĳĮðŁĳĮðŁĳĮðŁĳĮðŁĳĮðŁĳĮðŁĳĮðŁĳĮðŁĳĮðŁĳĮðŁĳĮðŁĳĮðŁĳĮðŁĳĮðŁĳĮðŁĳĮðŁĳĮðŁĳĮðŁĳĮðŁĳĮðŁĳĮðŁĳĮðŁĳĮðŁĳĮðŁĳĮðŁĳĮðŁĳĮðŁĳĮðŁĳĮ":5937,"Ġà·ĥà¶¸à¶§":5938,"à¶»à·ĥà¶¸":5939,"Ġà·Ģà¶©à¶¸":5940,"ĠAp":5941,"Ġà¶Ĩà¶ľà¶¸à¶±à¶º":5942,"à¶Ĭà·ħà¶Ł":5943,"Ġ1973":5944,"TS":5945,"Ġà·Ģà·ĥà¶º":5946,"Ġà¶Ĭà¶§à¶´à·ĥ":5947,"Ġcar":5948,"à¶ºà¶ºà¶±à¶ºà¶±":5949,"ĠCS":5950,"Ġà¶Ķà·ĥà¶´":5951,"Ġrep":5952,"gossip":5953,"ole":5954,"ye":5955,"à¶»à·Ģà¶ļ":5956,"Ġà·Ģà¶¯à¶º":5957,"Ġà¶Ķà¶¸":5958,"à¶ħà¶Ł":5959,"Ġà¶¸à¶Ńà¶¸":5960,"à¶¨à·Ģ":5961,"itizen":5962,"81":5963,"Ð¼":5964,"à¶¯à¶¢à¶±à¶ļ":5965,"Ġà¶ļà¶±à¶Ń":5966,"Ġà·ĥà¶¸à¶¶à¶»":5967,"à·Ģà¶ļà¶ºà¶ļ":5968,"Ġà¶´à·ħà¶³":5969,"à·ģà·Ģà¶ºà¶§":5970,"Ġà¶¸à·ħà¶ľ":5971,"à·Ģà¶¸à¶§":5972,"à¶´à¶¸à¶º":5973,"Ġà·ĥà¶¸à¶®":5974,"Ġà¶»à¶¢à·Ģ":5975,"ĠMac":5976,"à¶ºà·Ģà·ĥà¶§":5977,"imb":5978,"Ġà¶µà¶½à¶ļ":5979,".-":5980,"Ad":5981,"uro":5982,"Ġend":5983,"à¶»à¶łà¶±":5984,"à¶Ńà¶¶à¶±":5985,"à¶©à¶Ńà¶½":5986,"à·ģà¶ļà¶Ń":5987,"Ġà¶īà¶º":5988,"..\"":5989,"Ġà¶¸à¶ľà¶§":5990,"ĠMed":5991,"XX":5992,"à·ĳ!":5993,"Ġà·Ģà¶ľà¶º":5994,"Ġmat":5995,"Ġ1945":5996,"Ġà¶ħà¶Ńà¶»à¶¯":5997,"ora":5998,"ĠAir":5999,"Ġwould":6000,"ĠNetwork":6001,"ĠWij":6002,"Ġà¶ħà¶¸à¶Ńà¶ļà·Ģ":6003,"urity":6004,"ĠResp":6005,"ling":6006,"Ġà¶¯à¶©à¶º":6007,"Ġà¶ĩà¶Ńà¶¸":6008,"à¶´à¶Ńà¶±à¶º":6009,"à¶·à·Ģà¶±":6010,"Ġà¶¸à¶Ńà¶°":6011,"à¶¯à¶»à¶ºà¶§":6012,"ĠGe":6013,"ayake":6014,"Ġà¶ĳà¶±à¶ļà¶½":6015,"\")":6016,"à¶Ńà¶§à¶Ń":6017,"Ġà¶±à·Ħà¶º":6018,"à¶¶à¶½à¶ļ":6019,"à¶¢à¶±à¶¸":6020,"Ġà¶¢à¶ºà¶½à¶Ń":6021,"ering":6022,"ĠAM":6023,"Ġdet":6024,"Ġ113":6025,".âĢĻ":6026,"hi":6027,"à·Ļ)":6028,"Ġfun":6029,"ope":6030,"aint":6031,"à¶¸à¶½à·ĥ":6032,"à·Ĳ`":6033,"Ġ900":6034,"ĠODI":6035,"ause":6036,"à¶§à¶¹":6037,"Ġà¶±à·Ģà¶¯":6038,"ĠID":6039,"Ġdr":6040,"Ġdep":6041,"acy":6042,"ĠJava":6043,"awe":6044,"td":6045,"à·ĥà¶§à¶¸":6046,"à¶§à¶ļà¶¸":6047,"Ġà·ĥà·ĥà¶³":6048,"à·ĥà¶½à¶ºà¶ļ":6049,"Ġ98":6050,"Ġ;)":6051,"Ġà¶Ńà·Ģà¶»":6052,"ĠLike":6053,"Ġbr":6054,"ĠJohn":6055,"Ġ1974":6056,"à¶¢à¶±à¶ºà¶ļà¶§":6057,"bal":6058,"à·Ĭ*":6059,"à·ĥà¶ºà¶Ń":6060,"Ġà·Ģà¶½à¶§à¶º":6061,"Ġcr":6062,"ĠMost":6063,"ĠPart":6064,"ample":6065,"overnment":6066,"For":6067,"kara":6068,"Ġà¶ļà¶»à¶±à¶½à¶¯":6069,"à·Ħà¶½à¶ºà¶ļ":6070,"Ġset":6071,"Ġsch":6072,"Ġwrit":6073,"ĠOct":6074,"Ġ1969":6075,"Ġà·Ģà¶łà¶±à¶ºà¶§":6076,"ÂłÂłÂłÂł":6077,"ually":6078,"à·ĻâĢ¦":6079,"Ġà·Ģà·ħà¶³":6080,"ĠAct":6081,"Ġcopy":6082,"ĠRec":6083,"Ġ96":6084,"Ġà¶±à¶§à¶¹":6085,"wn":6086,"yd":6087,"à¶§à¶ľà¶±":6088,"Ġà¶ļà·Ĥ":6089,"Ġà¶ħà¶¢à¶±":6090,"Ġà¶¸à¶Ńà¶ºà¶±":6091,"unic":6092,"Ġà·Ģà¶¯à¶±à¶ļ":6093,"Ġà·Ħà¶¯à·Ģà¶Ńà¶ļ":6094,"Ġà¶ħà¶»à¶«":6095,"à·Ĥà¶·":6096,"Ġà¶Ĵà·ĥ":6097,"Ġà¶ĭà¶»à¶ľ":6098,"Ġà¶ºà¶±à·Ģà¶¯":6099,"Ġà·Ģà·Ħà¶±à¶º":6100,"à¶ºà¶ľà¶½":6101,"à·Ħà¶ļà¶Ń":6102,"Ġà¶ĭà¶´à¶¯à·Ģ":6103,"à¶©à¶ļà¶ºà¶ļ":6104,"ogn":6105,"Ġ1940":6106,"back":6107,"à·ļ......":6108,"Ġà·ĥà¶»à¶±":6109,"à¶«à¶ºà¶º":6110,"ĠHar":6111,"Ġà¶¢à¶±à¶ľà·Ħà¶±":6112,"à¶Ńà·Ģà¶»":6113,"Ġà¶ĳà¶ļà·Ħ":6114,"Ġà¶łà¶¸à¶½":6115,"Ġà¶Ńà¶¸à¶±à¶§":6116,"AB":6117,"WS":6118,"Ġà¶»à¶¯à¶ľ":6119,"Ġà·ĥà¶¸à¶»à¶ļ":6120,"Ġà·ģà¶Ńà¶ļà¶º":6121,"à¶ļà¶½à¶Ń":6122,"Ġgroup":6123,"++++":6124,"DF":6125,"à¶´à¶ļà¶»à¶«à¶º":6126,"à¶´à·ħà¶ļ":6127,"inia":6128,"ĠBand":6129,"Ġdeg":6130,"ren":6131,"Ġà¶´à¶¯à·Ģà¶±":6132,"ĠCricket":6133,"Ġà¶´à¶½à¶ļà¶»à¶±":6134,"à¶»à¶ļà¶®à¶±à¶ºà¶ļ":6135,"ĠâĢĿâĢĻ":6136,"à¶¯à¶·":6137,"à·Ĥà¶±à¶ºà¶ļ":6138,"à¶ħà·Ħà·ĥ":6139,"à·Ķà¶Ĥ-":6140,"Ġà·Ģà¶¸à¶§":6141,"à¶Ńà¶»à¶ºà¶±":6142,"à¶ľà¶ºà¶¯":6143,"Ġà·Ħà¶»à·Ģà¶Ń":6144,"Ġà¶ķà¶´à¶±":6145,"à¶»à¶ľà·Ħà¶ļà¶±":6146,"à¶Ńà¶»à¶Ń":6147,"oney":6148,"Ġà¶ĩà·ĥà¶ļ":6149,"à¶ļà¶»à¶ºà¶ļ":6150,"ĠMov":6151,"ful":6152,"à¶§à¶±à¶¸":6153,"Ġà¶ħà¶»à¶¶à¶º":6154,"icles":6155,"Ġcategory":6156,"à¶ºà·Ģà¶»à¶ºà¶±":6157,"Ġnumber":6158,"à·ĬâĢĻâĢĻ":6159,"2001":6160,".//":6161,"à·Ģà·ħà¶ļ":6162,"à¶Ńà¶©":6163,"à¶Ńà¶§à¶º":6164,"âĢļ":6165,"à¶łà·Ģ":6166,"Ġà¶§à¶Ń":6167,"à¶ĳà¶´":6168,"Ġà¶ħà·ĥà¶½à¶¯":6169,"à¶¨à¶ºà¶§":6170,"à¶Ŀà¶«à¶ļ":6171,"ĠYouTube":6172,"oor":6173,"Ġà¶ĳà¶¢à¶±":6174,"à¶»à¶¸à¶«à¶ºà¶ļ":6175,"Ġà¶ħà¶ºà¶®":6176,"Ġint":6177,"à¶©à¶¶à¶½à¶±":6178,"PP":6179,"à¶ľà¶Ł":6180,"Ġà¶½à·Ģà¶«":6181,"Ġà¶ļà¶»à¶±à·Ģà¶§":6182,"à·Ĵ.âĢĻ":6183,"ones":6184,"Ġcur":6185,"Ġword":6186,"à¶±à·Ħà·Ģà¶ļ":6187,"Ġgo":6188,"He":6189,"à¶¸à¶±à¶§à¶¸":6190,"icro":6191,"Ġpar":6192,"à¶§à·ĥà¶ļà¶§":6193,"Ġà¶Ńà¶¯à¶¶à¶¯":6194,"Ġbeing":6195,"ĠArch":6196,"Ġà¶ļà¶¸à¶Ń":6197,"à¶Ĩà¶Ń":6198,"Ġ76":6199,"ĠJul":6200,"Ġspec":6201,"Ġà¶ĭà¶¹à·Ģ":6202,"Ġelect":6203,"Ġà¶ĳà¶±à¶ļà¶±":6204,"/=":6205,"EL":6206,"PH":6207,"Sinhala":6208,"Ġà¶ħà·ĥà¶»à¶«à¶º":6209,"à¶¯à¶»à·Ģà¶»":6210,"Ġà¶´à¶¸à¶«à¶§":6211,"Ġà·Ģà¶§à¶ºà¶ļ":6212,"Ġà¶±à¶©à¶º":6213,"Ġà·ĥà¶´à¶ºà¶¸":6214,"awan":6215,"TML":6216,"à¶ºà¶¯à¶»":6217,"à¶ļà¶ºà¶§à¶¸":6218,"à·Ħà¶½à¶ºà¶§":6219,"ĠWest":6220,"Ø¯":6221,"Ġà¶±à·Ģà¶¸":6222,"Ġà¶Ķà¶¶à¶¸":6223,"inux":6224,"ĠISO":6225,"à¶ºà¶±à·Ģà¶½":6226,"à¶¸à¶§à¶±à¶¸":6227,"ĠSrilanka":6228,"ader":6229,"ript":6230,"Ġà·Ĭ":6231,"à¶½à¶»à¶Ń":6232,"ĠIm":6233,"Ġ110":6234,"Ġà¶¢à¶±à¶¸à¶Ńà¶º":6235,"Ġà¶Ĭà¶½à¶Łà¶§":6236,"âĢĶâĢĶ":6237,"iam":6238,"à¶½à¶´à¶»":6239,"Ġà¶Ķà¶¶à¶±":6240,"Ġwon":6241,"Ġ67":6242,"igital":6243,"Ġà¶µà¶½à¶ºà¶ļ":6244,"istry":6245,"ĠâĢ¦.":6246,"à¶ĥ,":6247,"ĠOnline":6248,"à·Ħà¶»à¶ļ":6249,"à¶ĭà¶«":6250,"Ġlike":6251,"Ġà·Ģà·Ħà¶½à¶º":6252,"ournal":6253,"ness":6254,"Ð´":6255,"à¶½à·Ģà¶½à¶¯":6256,"Ġà·ĥà·ĥà¶³à¶±":6257,"à¶ľà¶½à¶ľ":6258,"lev":6259,"Ġà¶ĭà¶¹à¶½à¶ľ":6260,"ĠAustralia":6261,"à¶°à¶±à·Ģ":6262,"à¶»à¶ļà¶¯":6263,"Ġà¶ºà¶±à¶ļà¶¸":6264,"Ġà·Ģà¶½à¶½":6265,"lete":6266,"Ġ63":6267,"Ġà¶ĭà¶¹à¶½à¶§":6268,"han":6269,"less":6270,"à·ĸ-":6271,"âĢĿâĢĿ":6272,"Ġà¶Ńà¶»à¶¸à¶ļà¶§":6273,"ĠKing":6274,"Ġ130":6275,"ĠPhone":6276,"ĠManag":6277,"à·Ģà¶ļà¶§à¶¸":6278,"ĠAwards":6279,"ĠMay":6280,"uy":6281,"Ġeng":6282,"Ġà·ĥà¶ºà¶±":6283,"à¶łà¶ºà¶±":6284,"Ġthree":6285,"ump":6286,"Ġà¶¶à¶©à·Ģ":6287,"à¶´à·Ħà·ħ":6288,"awa":6289,"Ġmany":6290,"Sp":6291,"à¶ºà¶®":6292,"Ġà¶ļà·ģ":6293,"à¶¢à¶±à¶ľ":6294,"Ġ1920":6295,"Ġpoint":6296,"Ġwhere":6297,"ober":6298,"IM":6299,"for":6300,"à¶¯à¶±à¶ļ":6301,"à·ĸ)":6302,"à¶ºà¶§à·Ģà¶Ń":6303,"tha":6304,"à¶Ńà¶¸à¶ºà¶±":6305,"Ġà¶´à·Ħà¶§":6306,"ĠCeylon":6307,"Ġfree":6308,"irl":6309,"ips":6310,"à¶ľà¶«à¶ļà¶ºà¶§":6311,"Ġà¶īà¶©à¶ļà¶©à¶¸":6312,"ference":6313,"gan":6314,"à¶½à¶ł":6315,"à¶°à¶¸à¶±à¶º":6316,"Ġà¶ĭà¶¢":6317,"à¶ºà·Ģà¶ľ":6318,"Ġcent":6319,"Ġà¶»à·ĥà¶¯":6320,"à¶±à·Ħà·ħ":6321,"2002":6322,"rama":6323,"resident":6324,"à¶°à¶ºà¶º":6325,"Ġà¶Ĭà·ħà¶ľ":6326,"ĠBuddh":6327,"Ġà¶ĭà¶©à¶¯":6328,"Ġà¶īà¶©à¶ļà¶©à¶ļ":6329,"Ġà¶¯à¶«à·Ħ":6330,"à¶ļà¶ļà¶»à¶«à¶º":6331,"à¶¢à¶ºà¶ļà¶§":6332,"orrent":6333,"à¶¶à¶½à¶Ń":6334,"ĠICC":6335,"à·ıâĢĻâĢĻ":6336,"Ġprocess":6337,"ibr":6338,"à¶©à·Ģà¶±":6339,"Ġ--":6340,"Ġhim":6341,"Ġà¶įà¶«":6342,"ler":6343,"Ġà¶ħà¶¯à¶¸":6344,"ĠTamil":6345,"à·ĥà¶¥à¶º":6346,"Ġà¶½à¶¶à¶½":6347,"orth":6348,"Ġà¶ļà¶§à¶´":6349,"Ġà¶¶à·Ħà¶ļ":6350,"à·Ĭ_":6351,"à¶±à¶½à¶º":6352,"à¶ºà¶¶":6353,"à¶¸à¶¢à¶ºà¶±":6354,"Ġà·ĥà·ĥà¶½":6355,"Ġà¶Ķà¶´à¶»":6356,"Ġà¶ļà¶½à·Ħà¶ļ":6357,"Ġà¶¢à¶±à¶±":6358,"ĠMod":6359,"Ġà·Ħà¶¬à¶±":6360,"Ġonline":6361,"âĢ¦âĢ¦âĢ¦âĢ¦":6362,"ĠAdd":6363,"Ġà·ĥà¶Ńà¶»à¶ļ":6364,"Ġà¶ĭà¶¶à¶§":6365,"à·Ģà¶»à¶ºà¶§":6366,"Ġà¶¸à¶Ńà¶¯":6367,"à¶Ĩà¶´":6368,"Ġà¶´à¶½à¶¯":6369,"Ġ73":6370,"à·ĴâĢĻâĢĻ":6371,"ĠHirugossip":6372,"à¶±à¶ļà·Ģà¶Ń":6373,"Ġà¶´à·ħà¶ļà·ħ":6374,"iter":6375,"Ġà¶Ŀà¶§":6376,"Ġday":6377,"Ġ81":6378,"à·ħà¶³à·ĥ":6379,"rough":6380,"ification":6381,"à·Ģà¶±à¶ºà¶§":6382,"à¶ºà¶»à¶º":6383,"Ġà¶¯à·Ĥ":6384,"à¶Ĵà¶ļà¶Ń":6385,"ĠCent":6386,"ĠDay":6387,"à·ı.......":6388,"References":6389,"à¶©à·Ħ":6390,"à¶īà¶³":6391,"ĠMusic":6392,"Ġà¶ļà¶®à¶±à¶º":6393,"à·ħà¶³à¶´à¶½":6394,"Ġ1958":6395,"à·ĵâĢ¦":6396,"Ġà·Ħà¶ºà·Ģà¶±":6397,"Ġà¶¶à¶»à¶«":6398,"ĠCO":6399,"Ġ::":6400,"à·ļ/":6401,"à¶Ńà·Ģà¶¸à¶Ń":6402,"ĠAc":6403,"ðŁĳį":6404,"à®Ł":6405,"Ġ1963":6406,"Ġ225":6407,"ĠFeatured":6408,"Ġà¶¸à¶¤":6409,"Ġà¶±à·Ģà¶½":6410,"ille":6411,"Ġvi":6412,"rypt":6413,"ĠEl":6414,"ISBN":6415,"%)":6416,"à·ĴâĢĮ":6417,"Ġà¶´à·Ģà¶±":6418,"Ġà¶ľà·Ħà¶§":6419,"Ġà·Ģà¶½à·Ģà¶½":6420,"à¶ľà¶¸à¶±à¶ºà¶§":6421,"Ġfollow":6422,"Ġà¶ħà¶¹à¶»":6423,"ociety":6424,"aut":6425,"à¶Ńà·Ħà¶¸":6426,"à¶½à·Ģà¶¸":6427,"Ġà¶ľà¶ľà¶±":6428,"à¶¢à·Ģà¶½":6429,"ĠCitizen":6430,"Ġet":6431,"à·ĲâĢ¦":6432,"Ġà¶ĭà¶³":6433,"à¶±à·Ģà·Ħà¶»":6434,"ĠSw":6435,"Ġà·Ģà¶§à¶½":6436,"Ġpage":6437,"Ġà¶ħà¶¶à¶½à¶±":6438,"pa":6439,"put":6440,"ÃŃ":6441,"ìĿ":6442,"à·ĳâĢĿ":6443,"à·ĥà¶±à¶ºà¶ļ":6444,"ati":6445,"ĠFB":6446,"Ġgu":6447,"Ġ1953":6448,"à¶Įà¶»":6449,"Ġyears":6450,"CD":6451,"Published":6452,"SP":6453,"à¶»à¶ºà¶ľ":6454,"Ġà¶¶à¶½à·ĥà¶¸":6455,"Ġà¶ļà¶©à·Ģà·ĥà¶¸":6456,"ask":6457,"eek":6458,"sa":6459,"à¶ľà¶Ńà¶¯":6460,"à¶ĩà¶»":6461,"ĠMon":6462,"Ġbo":6463,"à¶īà¶ľ":6464,"à¶Ŀà¶»":6465,"Ġ94":6466,"ĠColombo":6467,"AA":6468,"cont":6469,"à·ıà·ı":6470,"à·ĥà¶±à·Ģ":6471,"Ġà¶¶à¶ºà¶§":6472,"Ġà¶ĭà¶·à¶º":6473,"Ġà·Ģà¶±à¶±":6474,"Ġà¶ļà¶©à¶īà¶¸":6475,"Ġhere":6476,"2003":6477,"inhal":6478,"à¶ļà¶·":6479,"à·Ħà¶½à¶ļà¶§":6480,"Ġà¶ħà¶½à¶ļ":6481,"à¶»à¶¯à¶º":6482,"add":6483,"ĠFire":6484,"Ġà¶ĸà·Ĥà¶°à¶º":6485,"à¶ĭà¶¹à¶§":6486,"ĠSun":6487,"Ġtext":6488,"ument":6489,"angala":6490,"à¶½à·Ģà¶ļà·Ģ":6491,"à·Ĵà·Ĭ":6492,"Ġà¶±à·Ģà¶»à¶Ń":6493,"Ġà¶¶à¶½à·ĥ":6494,"Ġà¶´à¶»à¶¯à·Ģ":6495,"à¶īà¶¶":6496,"ĠCan":6497,"ĠInstit":6498,"Ġà¶¸à·ħà·Ģ":6499,"ĠHe":6500,"iction":6501,"Â°":6502,"à·ĵ'":6503,"Ġà¶ķà·Ĩ":6504,"Ġsim":6505,"Ġà¶¶à¶¯à·Ģ":6506,"ota":6507,"à¶±à¶Ľà¶ºà¶±":6508,"IF":6509,"km":6510,"ris":6511,"à·ģà¶±à·Ģà¶½":6512,"à¶ºà¶±à¶ºà¶±":6513,"ĠMin":6514,"Ġà¶Ŀà¶»":6515,"ĠInter":6516,"achchi":6517,"uary":6518,"à·Ķ`":6519,"à¶´à¶½à¶¸":6520,"Ġà¶ħà·ĥà¶¶à¶©":6521,"ĠSMS":6522,"ĠPH":6523,"Ġà·ĥà¶½à¶ļà¶±à·Ģ":6524,"ĪĴ":6525,"à·Ģà¶³à¶ļ":6526,"à¶¶à·Ģà¶§":6527,"à¶ºà¶±à·Ģà¶§":6528,"Ġà¶´à·Ħà¶Ńà¶»à¶§":6529,"itha":6530,"lood":6531,",âĢĭ":6532,"Ġà¶¸à¶§à¶º":6533,"ĠPress":6534,"Ġdata":6535,"----------------":6536,"ĠAccount":6537,"à·Ħà¶ľà¶Ń":6538,"à¶«à¶±à·Ģ":6539,"ites":6540,"Ġà¶ĭà¶¹à¶Ń":6541,"Ġret":6542,"à·ı).":6543,"à·ı.âĢĻ":6544,"Ġ101":6545,"à¶ħà¶Ńà¶»":6546,"ĠAug":6547,"ĠNe":6548,"Ġ84":6549,"Ġà·Ħà¶Ńà¶»à¶§":6550,"à·ĥà¶¸à·Ħà¶»à·Ģ":6551,"ky":6552,"Â¼":6553,"à¶©à¶ļà¶¸":6554,"à¶»à¶¸à·ģ":6555,"Ġà¶Ķà¶¶à¶§à¶¸":6556,"à·ı,,":6557,"Ġà¶¯à·Ģà·ĥà¶¸":6558,"Ġ87":6559,"ĠReg":6560,"Ġà¶¢à¶±à¶´à¶¯à¶ºà¶§":6561,"à¶Ńà¶»à¶ļà¶»":6562,"à¶®à¶¯":6563,"Ġà¶ħà·Ģà¶¸à¶±":6564,"Ġà¶Ĭà·ħà¶¸":6565,"Ġà¶¯à·Ħà·ĥà¶º":6566,"itions":6567,");":6568,"SA":6569,"à¶±à·Ģà·ĥ":6570,"à·Ĥà¶«à·Ģà¶½à¶¯":6571,"à¶»à¶ºà¶§à¶Ń":6572,"Ġà¶ĩà¶¯à¶ľà¶±":6573,"oda":6574,"Ġ1961":6575,"Ġ1959":6576,"Ġà·Ģà·Ģà¶±":6577,"à¶´à·Ħà¶±":6578,"à¶ºà¶ļà¶½":6579,"à¶ľà¶±à¶ļ":6580,"Ġà·Ģà¶§à¶»à·Ģ":6581,"à¶©à¶±à¶Łà¶±":6582,"Ġ82":6583,"Ġà¶¸à¶Łà¶´":6584,"Ġrequ":6585,"à·Ħà¶»à¶«à¶ºà¶ļà¶§":6586,"box":6587,"Ġà¶ļà¶±à¶ļ":6588,"à·ģà¶¸à¶Ń":6589,"Ġà¶ļà¶»à¶´à¶±":6590,"à¶ļà¶½à¶±à¶º":6591,"à¶ħà¶©à·Ģ":6592,"Ġà¶»à¶Łà¶±":6593,"Ġà¶¸à¶Łà¶ļ":6594,"Ġà¶½à¶Łà¶¸":6595,"âĢĮà·ļ":6596,"ĠComputer":6597,"ÂłĠÂłĠ":6598,"eptember":6599,"ues":6600,"à¶ľà¶ľà¶Ń":6601,"à¶´à·Ģà¶½à¶§":6602,"à¶»à·Ħà¶ºà¶§":6603,"ĠChand":6604,"ĠComment":6605,"ĠSecret":6606,"à¶Ńà¶¸à¶ļ":6607,"Ġà¶ħà¶ļà¶½":6608,"à¶´à¶ļà¶»à¶«":6609,"Ġà¶Ńà¶º":6610,"Ġà¶ĭà·Ħ":6611,"ĠLink":6612,"Ġkm":6613,"ukthi":6614,"olitical":6615,"ĠAfric":6616,"OL":6617,"à·ı),":6618,"Ġà¶Ĵà¶¶":6619,"edi":6620,"Ġpublic":6621,"Ġfast":6622,"ĠLankan":6623,"ries":6624,"à¶Ńà¶ļà¶ºà¶ļ":6625,"Ġsur":6626,"ĠGroup":6627,"Ġ86":6628,"ounc":6629,"vert":6630,"Ġsecond":6631,"cast":6632,"å¤":6633,"à¶ºà·Ħà¶±":6634,"à¶§à¶¸à¶Ń":6635,"à·ľ..":6636,"à¶«à¶ļà¶»à¶«à¶º":6637,"Ġà¶ķà¶ľ":6638,"Ġ,,":6639,"à·ľ...":6640,"ĠWar":6641,"Ġlog":6642,"iver":6643,"Ġà·Ħà¶Ńà¶»à¶¯":6644,"Ġ1949":6645,"Ġà¶ħà¶ľà¶±à¶ľà¶»à¶º":6646,"ih":6647,"à¶ļà·ĥà¶±":6648,"à·ĵà¶Ĥ":6649,"à·Ģà¶½à¶§à¶¯":6650,"Ġà¶Ĩà·ĥà¶±à¶ºà¶ļ":6651,"ĠEm":6652,"à·Ģà¶Ł":6653,"à¶´à¶Ńà¶ļà¶§":6654,"à¶»à·ħà¶¶à¶©":6655,"à¶»à¶·à·Ģ":6656,"ĠInt":6657,"ÙĬ":6658,"à·Ģà·ģà¶º":6659,"à·ģà¶ļà¶»":6660,"ĠPakistan":6661,"ĠDush":6662,"ours":6663,"ground":6664,"Ġà¶¢à·Ģà¶º":6665,"à¶±à·Ģà¶ºà¶±":6666,"ĠPower":6667,"Ġà¶Ńà¶»à¶ľà¶ļà¶»":6668,"ĠKal":6669,"ological":6670,"à·ĥà·Ģà¶ºà¶ļà¶¯":6671,"Ġà·Ģà¶ºà¶½":6672,"à¶¶à¶¶":6673,"Ġà¶ĩà¶ºà¶Ń":6674,"Ġsign":6675,"ĠMe":6676,"apak":6677,"Ġval":6678,"ĠðŁĻ":6679,"ĠVimukthi":6680,"Ġà¶¸à¶¸à¶±à¶¸":6681,"à¶´à·ĥà¶º":6682,"à¶ľà¶¸à¶ºà¶ļ":6683,"Ġà¶ļà¶§à·Ģ":6684,"Ġà¶ļà¶©à·Ģà¶Ń":6685,"Ġà¶¶à¶©à¶§":6686,"ift":6687,"TI":6688,"Ã³":6689,"à¶»à·Ĩ":6690,"à¶¯à·Ħà¶Ń":6691,"à¶¸à¶Ńà¶ºà¶±":6692,"à·Ĳ.âĢĿ":6693,"ĠProf":6694,"arathna":6695,"Ġel":6696,"à·Ħà¶¸à¶º":6697,"Ġà¶»à¶ľà¶»":6698,"à¶±à¶ºà¶§à¶Ń":6699,"ĠCard":6700,"oud":6701,"ĠToday":6702,"ï¼Į":6703,"App":6704,"Ġ........":6705,"à·Ģà¶¥à¶ºà¶±":6706,"à¶´à¶¤":6707,"Ġà¶¯à¶»à¶±à·Ģ":6708,"Ġà¶ħà¶ļà¶§à¶º":6709,"Ġpeople":6710,"à·Ģà¶«à¶º":6711,"Ġà¶ļà·Ģà¶º":6712,"Ġà¶ĳà¶¸à¶§à¶º":6713,"Ġà¶ĳà¶ļà·ħ":6714,"Ġà¶ħà·ĥà·Ħà¶±à¶º":6715,"à¶±à¶¯à¶§":6716,"ĠUnited":6717,"1990":6718,"ration":6719,"Ġà·Ħà¶ºà·Ģ":6720,"à¶³à¶Ń":6721,"à¶Ńà¶»à¶¸à¶º":6722,"à·ĺà¶Ĥ":6723,"Ġà·Ģà¶ľà¶ĭà¶Ń":6724,"Ġopt":6725,"à¶ļà¶©à·Ģà¶½":6726,"ahinda":6727,"span":6728,"ĠAssoci":6729,"æľ":6730,"à¶ºà¶Łà¶º":6731,"Ġà¶īà¶¹":6732,"à·ı.)":6733,"âĢĿ,":6734,"Ġ74":6735,"Ġà·Ħà¶Ńà¶ļà¶§":6736,"ahara":6737,"RC":6738,"by":6739,"xy":6740,"Ġà¶īà¶»à¶§":6741,"Ġà·Ĩà¶ºà¶»":6742,"Ġà¶ĩà¶³à¶§":6743,"///":6744,"aste":6745,"à¶»à¶Ł":6746,"à¶¢à¶´à¶±":6747,"à¶»à¶ļà¶±":6748,"ĠPol":6749,"Ġfr":6750,"ĠLead":6751,"Ġ6000":6752,"à¶Ĭà·ģ":6753,"Ġà·Ħà¶¬à¶§":6754,"Ġà¶¶à·ĥà¶§":6755,"à¶©à¶»à¶ºà¶ļ":6756,"Ġà¶īà¶ºà¶±":6757,"à¶¢à¶¢":6758,"ĠMP":6759,"ĠTo":6760,"Ġà¶´à¶½à¶ºà¶±":6761,"rim":6762,"Ġà¶»à¶®à·Ģà¶½":6763,"àª":6764,"à·Ģà¶ľà¶±":6765,"à¶ļà¶±à¶¸":6766,"à¶ľà·Ħà·Ģ":6767,"Ġà·ĥà¶¸à¶ł":6768,"à¶½à¶±à¶ºà¶±":6769,"ald":6770,"ĠGam":6771,"Ġdist":6772,"Ġ140":6773,"Ġà¶ħà¶±à·Ģà·ĥà¶»à¶º":6774,"ulture":6775,"à¶´à¶©":6776,"à·Ŀ'":6777,"à¶łà¶»à¶¸":6778,"Ġà¶ħà¶»à¶ľà¶Ń":6779,"ĠLtd":6780,"Ġbel":6781,"ĠRawan":6782,"Ġà¶ĳà·ħà¶ļ":6783,"Ġà¶Ńà¶¶à¶º":6784,"Ġlist":6785,"On":6786,"à·Ĳ....":6787,"à¶½à¶ºà¶¯":6788,"Ġà¶ħà¶Ńà·Ħà¶»":6789,"à¶Ķà¶»":6790,"à·ĳ.âĢĿ":6791,"Ġà·Ħà¶¯à¶±à¶ļ":6792,"Ġà¶ĳà¶Ńà¶±à¶¸":6793,"à¶ľà¶¸à¶±à¶ºà¶ļà¶§":6794,"redit":6795,"ĠDushantha":6796,"ĠRawanasinghe":6797,"à¶°à¶»à¶º":6798,"Ġà¶Ŀà¶±à¶ļà¶¸":6799,"lobal":6800,"à¶ľà·ĥà¶±":6801,"Ġà¶¯à¶¯":6802,"Ġà·ĥà¶Ńà¶ļ":6803,"à·Ĥà¶«à¶ºà¶º":6804,"à¶Ĩà·ĥà¶±":6805,"Ġmin":6806,"Ġà·ħà¶¸à¶ºà¶§":6807,"Ġprov":6808,"Pl":6809,"à¶»à¶ļà¶©":6810,"Ġà¶ħà¶½à·ĥ":6811,"ĠMini":6812,"à¶Ŀà·Ģ":6813,"à¶»à¶¢à¶Ń":6814,"à·Ģà¶»à¶«à¶ºà¶ļà¶¯":6815,"à¶½à¶»à¶ºà¶ļ":6816,"à¶§à¶ľà¶¸":6817,"Ġà¶¯à¶±à·Ģ":6818,"Ġà¶Ńà¶½à¶ºà¶§":6819,"Ġà¶ĩà¶©à¶¸":6820,"à¶łà¶½à¶±à¶º":6821,"à¶¹à¶»":6822,"Ġpos":6823,"Ġà¶ļà¶½à¶¶à¶½à¶ļ":6824,"ta":6825,"à¶¸à¶ļà¶»à¶«à¶º":6826,"à¶©à¶¸à·Ģ":6827,"à¶ºà·Ģà¶©à¶±":6828,"Ġà·Ħà¶¯à¶¸":6829,"à¶ĩà¶³":6830,"Ġà¶´à·Ħà·ħà·Ģ":6831,"à®®":6832,"Ġà¶ħà¶ºà¶ļà¶»":6833,"Ġlet":6834,"ĠSubtitle":6835,"à¶¢à¶±à¶ļà¶º":6836,"à¶Ŀà¶§à¶ļ":6837,"Ġà¶ĩà¶¯à·Ģ":6838,"odes":6839,"erman":6840,"ĠðŁĺĢ":6841,"Ġruns":6842,"get":6843,"à·Ħà¶¯à·Ģ":6844,"à¶ľà·Ģà¶±":6845,"à¶½à¶ºà¶¸":6846,"à·Ģà¶§à¶±":6847,"à¶Ķà¶§":6848,"Ġfeat":6849,"Ġ1200":6850,"owever":6851,"à¶Ńà¶»à¶ºà¶ļà¶ľ":6852,"Ġà¶ħà¶¸à¶½":6853,"Ġà¶ĳà¶½à¶¹":6854,"ĠCC":6855,"à¶ĭà¶´à¶±":6856,"Ġ1951":6857,"older":6858,"à¶ľà·Ħà¶½":6859,"à¶¶à·Ģà¶ļ":6860,"à¶¶à¶»à¶Ń":6861,"Ġà¶ľà¶Ńà¶ļà¶»":6862,"Ġà·Ĩà·Ģ":6863,"Ġemail":6864,",\"":6865,">>":6866,"åı":6867,"à·Ĭ]":6868,"à·Ĵ`":6869,"Ġà¶ĭà¶ļà·ĥ":6870,"Ġà¶ħà¶¯à¶¯":6871,"Ġstate":6872,"Ġ1957":6873,"Ġà¶´à·Ħà¶±à¶ļ":6874,",,,,":6875,"à¶¶à¶¸à¶º":6876,"erv":6877,"à¶Ĩà¶±à¶±":6878,"Ġmade":6879,"Ġà·ĥà¶½à¶ļà¶º":6880,"à¶±à¶ľà¶Ńà·Ģ":6881,"ialog":6882,"Ġà¶ħà·Ģà¶Ńà¶ļ":6883,"!\"":6884,"sy":6885,"à·Ĳà·Ļ":6886,"à¶´à¶®à¶º":6887,"à¶´à¶±à¶ºà¶±":6888,"à·ı...\"":6889,"à®²":6890,"à¶»à¶¶à¶½à¶Ń":6891,"view":6892,"irtual":6893,"à¶Ńà¶»à¶ľà¶º":6894,"à¶±à·ĥà¶§":6895,"ĠSir":6896,"Ġsinhala":6897,"Ġterm":6898,"à¶ĭà¶¶":6899,"Ġgood":6900,"Ġà¶ħà¶§à¶ļà¶§":6901,"à¶Īà¶Ń":6902,"Ġà·Ģà¶°à·Ħ":6903,"Ã¤":6904,"Ġà¶ļà·ħà·Ģ":6905,"à¶¯à¶ºà¶¯":6906,"ĠCr":6907,"Ġ61":6908,"ĠNE":6909,"aining":6910,"ĠYork":6911,"Ġà¶¯à·ģà¶¸":6912,"Ġà¶±à¶»à¶ļà¶¸":6913,"à·Ĥà¶½à¶Ń":6914,"Ġà¶ĳà¶ļà¶§à¶º":6915,"à¶»à¶¯à¶ļ":6916,"Ġà¶½à¶¯à·Ħ":6917,"Ġà¶°à¶¸à¶±":6918,"Ġperson":6919,"ĠÃĹ":6920,"Leave":6921,"Script":6922,"face":6923,"à¶½à¶¢":6924,"à·Ĥà¶»à¶º":6925,"Ġà¶ħà¶¯à¶º":6926,"Ġà¶ħà¶»à·Ħà¶Ń":6927,"Ġà¶ħà·ĥà·Ħ":6928,"ĠSeptember":6929,"à¶¯à·Ħà·ĥà¶ļà¶§":6930,"Ġcor":6931,"Ġpartic":6932,"Ġboth":6933,"ĠData":6934,"ela":6935,"à¶µà¶½à¶¯":6936,"umn":6937,"ĠViews":6938,"91":6939,"à·ĴâĢľ":6940,"à·ĥà¶¸à¶Ń":6941,"atus":6942,"ĠProgram":6943,"struct":6944,"à¶½à¶ľà¶¸":6945,"Ġà¶´à¶½à¶±":6946,"Ġà¶ħà¶°à¶»":6947,"Ġcard":6948,"à¶ĭà¶»":6949,"Ġhand":6950,"Ġneed":6951,"Ġlanguage":6952,"MA":6953,"zz":6954,"à¶ºà¶ľà¶±":6955,"à¶ľà¶¢":6956,"Ġà¶±à·Ģà¶±":6957,"à·Ģà¶½à¶´":6958,"Ġà¶¶à¶½à¶ºà¶±":6959,"Ġà¶Ńà¶»à¶Łà¶ºà¶§":6960,"Ġà¶ħà¶»à¶¹à¶º":6961,"ĠArticles":6962,"Ġprotect":6963,"Ġà·Ģà¶»à¶ļà¶§":6964,"Ġà·Ģà¶°à¶ļ":6965,"à¶ľà¶ºà¶¸":6966,"Ġà¶»à¶§à¶§à¶Ń":6967,"à¶ļà¶¸à¶½":6968,"à·Ĥà¶ºà¶ºà¶ļ":6969,"Ġà¶ħà·ĥà¶´":6970,"atter":6971,"Ġà¶´à·Ħà¶»à·Ģà¶½":6972,"à·Ĵ\".":6973,"organ":6974,"ĠÐ¿":6975,"Â´Â´":6976,"Ġà¶ľà¶¢à¶¶":6977,"à¶»à¶¸à·Ģà¶½":6978,"à¶ļà¶½à¶¸":6979,"Ġà·Ħà¶¯à¶¯":6980,"Ġ93":6981,"Ġ1966":6982,"lication":6983,"Ġplayed":6984,"ĠTwitter":6985,"ior":6986,"Ġà¶ħà¶»à¶º":6987,"à¶łà¶ļà¶ºà¶±":6988,"à¶»à¶Ńà·Ģà¶±":6989,"à·ħà¶¹à·Ģà¶±":6990,"à¶ļà¶»à¶«à¶ºà¶ļà¶§":6991,"amm":6992,"ĠBlack":6993,"ĠSchool":6994,"à·Ħà¶§à¶Ń":6995,"Ġà¶°à¶±à·ĥ":6996,"ĠSen":6997,"Ġour":6998,"à¶¯à¶ļà¶ºà¶ļ":6999,"Ġà¶ļà¶´à¶±à·Ģ":7000,"à·ĳ.....":7001,"ĠThis":7002,"Ġ365":7003,"fox":7004,"à¶ºà¶¹":7005,"à¶¢à¶ļà¶»":7006,"à·ĬâĢĭ":7007,"Ġà¶ļà¶½à¶»":7008,"Ġpol":7009,"ĠPerera":7010,"Ġ{|":7011,"ĠOctober":7012,"ms":7013,"à·Ģà¶«à¶ļ":7014,"à¶«à¶ºà¶¯":7015,"ĠPe":7016,"ĠGold":7017,"ify":7018,"ĠAruna":7019,"ford":7020,"vel":7021,"Âµ":7022,"Ġà¶ľà¶Ńà¶ļà·ħ":7023,"Ġà¶ķà¶»":7024,".........":7025,"Ġà¶ļà¶©à¶Ń":7026,"ĠHIV":7027,"olitics":7028,"ĠAugust":7029,"93":7030,"BM":7031,"ule":7032,"à·ı........":7033,"Ġà¶ĭà·Ģà¶Ń":7034,"thing":7035,"Ġsk":7036,"oug":7037,"Ġhot":7038,"idd":7039,"Ġ),":7040,"Ġwhat":7041,"ondon":7042,"Ġà¶Ńà¶»à¶ľà¶ºà¶ļà¶¯":7043,"FC":7044,"oice":7045,"Ġà¶ĳà·Ģà¶±à·Ģ":7046,"à·Ģà·ĥà¶»à¶ļà¶§":7047,"Ġà¶īà¶¯à¶ľ":7048,"à¶±à¶ľà¶»à¶º":7049,"ulation":7050,"ĠKey":7051,"quot":7052,"Ġmatches":7053,"ĠIMDB":7054,"post":7055,"à·ĥà¶»à¶¸":7056,"à¶©à¶ľà¶±":7057,"Ġà¶ĭà¶¸à¶ľ":7058,"Ġà¶¸à·Ħà¶±à¶ľà¶»":7059,"elp":7060,"Ġ011":7061,"echà¶ļà¶Ń":7062,"Ġvisited":7063,"Ð¹":7064,"oman":7065,"Ġà·ĥà¶§à·Ħà¶±à¶§":7066,"RE":7067,"gmail":7068,"Ġà¶ħà¶ļà¶»à¶Ń":7069,"à¶½à¶ļà·ĥ":7070,"à¶»à·ĥà·Ģ":7071,"Ġà·Ģà¶³à·Ģ":7072,"à·ĥà¶»à·ĥà·Ģ":7073,"onse":7074,"Ġà¶ħà¶ľà¶§":7075,"à®©":7076,"Ġversion":7077,"III":7078,"Ð½Ð¸":7079,"ethod":7080,"à¶¢à¶±à¶ľà·Ħà¶±à¶º":7081,"VP":7082,"åħ":7083,"Ġ_":7084,"à¶¯à·Ģà¶Ń":7085,"Ġà¶±à¶ļà¶½":7086,"à¶ºà¶ºà·ħ":7087,"atuw":7088,"Ġà·ĥà¶¸à¶ľà¶¯":7089,"Ġà·Ģà¶§à¶ļ":7090,"Ġthese":7091,"à¶ĩà¶´à¶½":7092,"ĠMobile":7093,"à¶§à¶½à¶ºà¶§":7094,"Ġmov":7095,"Ġ1931":7096,"1977":7097,"ĠScience":7098,"ðŁĳįðŁĳį":7099,"ĠInstitute":7100,"GO":7101,"à·ı!!!":7102,"à·Ķ(":7103,"à¶½à¶¸à¶§":7104,"à¶¯à·ģà¶ļ":7105,"Ġà¶¢à¶©":7106,"à¶Ĵà·Ĥ":7107,"à¶īà¶©à¶¸":7108,"ĠMa":7109,"à¶ĭà¶ľ":7110,"Ġwater":7111,"ĠWik":7112,"ãĢģ":7113,"à¶½à·ĥà¶±":7114,"Ġà·ĥà¶ºà¶±à¶º":7115,"Ġà¶ĩà¶±à¶½":7116,"à¶ĳà¶»":7117,"ival":7118,"yc":7119,"à¶¸à·Ģà¶½à¶§":7120,"à·ĥà¶¥à¶ºà¶±":7121,"à¶¸à¶Ńà¶ºà¶ļ":7122,"à¶ºà¶Ńà¶½":7123,"à¶Ľà¶¸":7124,"à¶ħà¶¸à¶»à¶Ń":7125,"Ġeven":7126,"Ġà¤":7127,"Ġà¶ļà¶ľ":7128,"à¶°à¶ºà¶Ń":7129,"Ġà¶ħà¶½à·Ģà¶±":7130,"Ġcre":7131,"Ġwin":7132,"ĠEr":7133,"Ġà¶ħà¶ºà¶ļà¶»à¶±":7134,"Ġorig":7135,"1994":7136,"1970":7137,"Ġ@":7138,"à·ħà·Ģà¶§":7139,"Ġà¶īà¶»à¶ļ":7140,"Ġwell":7141,"Ġear":7142,"ealth":7143,"Ġà·Ħà¶©à¶ļ":7144,"à¶¶à·Ģà¶Ń":7145,"Ġà·Ģà¶±à¶¸":7146,"arch":7147,"Ġer":7148,"Ġï¿½":7149,"à·Ģà¶ł":7150,"à¶½à¶¸à¶±":7151,"Ġà¶ĩà¶¸à¶º":7152,"à¶ºà¶±à¶ºà¶ļà¶§":7153,"Ġà¶¶à¶½à¶Ń":7154,"à¶ħà¶³":7155,"à¶»à¶«à¶ºà¶º":7156,"Ġthrough":7157,"ape":7158,"Ġstart":7159,"ights":7160,"Ġjust":7161,"à¶Įà·Ģ":7162,"ãĢĤ":7163,"ridge":7164,"LC":7165,"Ġá":7166,"à·Ģà·Ħà¶Ń":7167,"Ġà¶ļà·Ĩ":7168,"Ġà¶Ńà¶½à¶±":7169,"à¶ºà¶¸à¶«":7170,"ination":7171,"Ġà¶Ńà·Ħà¶±à¶¸à¶§":7172,"à®ª":7173,"Ġà¶±à¶»à¶ļà¶¯":7174,"text":7175,"ven":7176,"à·ĥà¶ł":7177,"Ġà¶ºà¶±à¶ļà¶½":7178,"ilos":7179,"Ġ1800":7180,"ume":7181,"ourt":7182,"Ġà¶¸à¶¢":7183,"Ġà¶Ńà·Ģà¶ļ":7184,"à¶®à·Ģà¶½":7185,"Ġà¶ļà¶½à¶¸":7186,"Ġà¶ħà·ĥà¶½à¶¸":7187,"Ġà·Ĩà¶½":7188,"Ġ450":7189,"Ġpm":7190,"Ġfull":7191,"comm":7192,"Ġà¶ħà¶¬à¶±à·Ģ":7193,"##":7194,"',":7195,"oad":7196,"à·ĥà¶´à¶Ń":7197,"Ġà¶ºà·Ħà¶½":7198,"Ġà¶ķà·Ģà¶§":7199,"enu":7200,"arachchi":7201,"ita":7202,"ĠBar":7203,"Ġ79":7204,"Ġinv":7205,"ĠInstall":7206,"à·Ħà¶¬à¶Ń":7207,"Ġmanahara":7208,"Rip":7209,"dom":7210,"à·ĥà·Ģà¶ľ":7211,"Ġà¶ĭà¶ºà¶½":7212,"Ġtest":7213,"Ġmedia":7214,"ipl":7215,"ĠElect":7216,"Ġ??":7217,"Ġvery":7218,"Ġà¶¢à¶±à¶ľà·Ħà¶±à¶ºà¶ļ":7219,"Ġà¶ľà¶±à¶º":7220,"à¶ļà¶ļà¶¯":7221,"à·ĳ.\"":7222,"ĠMad":7223,"à¶ļà·ħà¶Ń":7224,"à·Ħà¶»à¶«à¶ºà¶§":7225,"Ġbefore":7226,"Ð¿":7227,"à·ĸâĢį":7228,"à·Ħà¶»à¶´":7229,"ĠCategories":7230,"à¶ĩà¶§":7231,"ĠMS":7232,"Ġpower":7233,"ĠPass":7234,"Ġà¶Įà¶±à¶Ń":7235,"uto":7236,"phone":7237,"\\\\":7238,"ming":7239,"ring":7240,"à¶§à¶ļà¶Ń":7241,"Ġà¶ħà·ĥà¶»":7242,"Ġà¶ļà¶»à¶«à¶ļ":7243,"Ġà¶Ĩà·Ģà¶¯":7244,"à·Ģà¶»à¶°":7245,"à¶·à¶Ń":7246,"adem":7247,"Ġdel":7248,"à¶¸à¶ļà¶§à¶¯":7249,"Ġà¶ļà·Ģà¶»à¶¯":7250,"ains":7251,"à¶±à¶ļà¶¸à¶ļ":7252,"Ġthen":7253,"reed":7254,"ĠLinux":7255,"ĠIà·Ģà¶±":7256,"ĠHTML":7257,"ĠWill":7258,"Ġà¶´à·Ħà¶½à·Ģ":7259,"Ġà¶´à¶½à¶ļà¶½":7260,"à¶ĭà¶©à¶»à¶§":7261,"ĠNovember":7262,"ĠJanuary":7263,"à·ĥà¶§à¶±":7264,"à¶½à¶»à¶ºà¶§":7265,"à¶½à¶±à¶¥à¶ºà¶ļ":7266,"Ġà¶ĳà¶½à·Ģà¶½":7267,"ãģ®":7268,"Ġcomputer":7269,"ĠMarch":7270,"à·Ĭ|":7271,"à¶´à·Ģà¶±":7272,"Ġà¶¯à¶¶à¶»":7273,"Ġà·Ħà¶¢":7274,"Ġà¶ĭà¶±à·Ħà¶¸":7275,"Ġà¶´à·Ħà¶º":7276,"ĠTechnology":7277,"Ġmarket":7278,"ĠBrit":7279,"ustom":7280,"ĠEngine":7281,"ĠAmerican":7282,"IL":7283,"Ġà¶¢à¶ºà¶½à¶½":7284,"à¶ºà¶½à¶ļ":7285,"Ġà¶ļà¶§à·Ģà¶½":7286,"ĠPay":7287,"Ġfour":7288,"ĠDev":7289,"ĠNot":7290,"ĠNeth":7291,"ĠOf":7292,"Ġappear":7293,"ķĶ":7294,"à¶½à·Ģà¶»à¶«à¶º":7295,"info":7296,"Ġtag":7297,"à¶¸à·Ħà·Ģ":7298,"ified":7299,"titles":7300,"ĠâĢĭà·Ļ":7301,"à¶¸à·ĥà¶¸":7302,"à¶´à¶¯à¶º":7303,"Ġà¶Ĩà¶Ŀ":7304,"..!":7305,"à¶Ńà¶±à¶ľà¶½":7306,"Ġfound":7307,"Ġmag":7308,"à¶Ĭà¶±":7309,"ferent":7310,"ĠCompany":7311,"HO":7312,"Î±":7313,"à¶½à¶ļà¶ľ":7314,"Ġà¶Ķà¶¶à·Ģà·Ħà¶±":7315,"Ġà·Ģà·ĥà¶»à·Ģà¶½":7316,"Ġsing":7317,"Ġsame":7318,"à¶¡à¶Ń":7319,"ĠHome":7320,"iron":7321,"ĠChrist":7322,"Ġà¶ĩà¶§à¶ºà¶ļ":7323,"Ġà¶»à·Ģà¶§à¶±":7324,"à¶ļà¶¸à¶ļà¶§":7325,"à¶´à¶»à·Ģ":7326,"à¶ħà¶±à¶±":7327,"à¶¬à¶½":7328,"ĠRed":7329,"Ġlife":7330,"à·ģà¶±à¶ºà¶ļà¶§":7331,"Ġresult":7332,"ĠïķĶ":7333,"Ġà¶¸à¶©à¶ļà·ħà¶´":7334,"à·ļ.[":7335,"Ġà¶¶à¶½à¶ĩà¶«":7336,"à·Ģà·ĥà¶ļà¶§":7337,"Ġà¶»à¶§à¶ļà¶¸":7338,"à¶½à·Ģà¶ºà¶§":7339,"Ġav":7340,"Ġà¶Īà¶Ńà¶ļ":7341,"ĠðŁĻĤ":7342,"ilosoph":7343,"CS":7344,"bit":7345,"cent":7346,"oz":7347,"Ã¶":7348,"à¶½à·ĥà¶ļ":7349,"âĢī":7350,"Ġà¶ħà¶±à¶°":7351,"à¶Ĵà·Ģà¶ľ":7352,"adu":7353,"adio":7354,"Ġ1954":7355,"?...":7356,"Ø¨":7357,"å®":7358,"à¶ļà·Ģà¶»à¶«":7359,"anayake":7360,"ĠSan":7361,"Ġà¶¯à¶¸à¶±à¶º":7362,"Ġline":7363,"ces":7364,"á¹":7365,"à¶ļà¶©à¶ľà¶½":7366,"ffic":7367,"1999":7368,"à¶ºà·ĥà¶±à¶ºà¶ļ":7369,"Ġsupport":7370,"mar":7371,"nd":7372,"à¶ºà¶ļà¶»à¶±":7373,"Ġà¶ĳà¶ļà¶½à·ĥ":7374,"à¶Ľà¶±à¶ľà¶Ń":7375,"âĢĮà·ľ":7376,"Ġà¶ħà·ĥà¶»à¶«à·Ģ":7377,"ĠRajapak":7378,"à·ĿÂŃ":7379,"Ġà¶īà·Ģà¶ļ":7380,"aly":7381,"Ġ360":7382,"ĠMarket":7383,"Ġpop":7384,"à¶ĭà¶¸":7385,"Ġfield":7386,"Ġà¶ĳà·ħà·Ģà¶±":7387,"Ġdirect":7388,"ĠJune":7389,"à·Ħà¶¯à¶Ń":7390,"'t":7391,"One":7392,"Ð±":7393,"Ġà¶¶à¶»à¶§":7394,"Ġà¶ļà¶»à·Ģà¶±à·Ģ":7395,"Ġà·ĥà¶¸à¶ºà¶§":7396,"Ġà¶ķà¶±à¶º":7397,"ĠMax":7398,"Ġbro":7399,"à¶µà¶§":7400,"unity":7401,"à¶´à·ħà¶§":7402,"annel":7403,"à¶½à¶Ŀ":7404,"âĢİ":7405,"Ġà¶¸à¶»à¶´":7406,"à¶´à¶»à¶«":7407,"Ġà¶»à¶¶":7408,"à¶ļà¶¸à¶¯":7409,"Ġà¶ķà¶©":7410,"Ġà¶©à¶ļ":7411,"Ġ1900":7412,"à¶¨à¶´":7413,"Ġport":7414,"à¶ĭà¶¹à¶½":7415,"Ġscript":7416,"ĠUSB":7417,"à¶»à¶¯à¶ľ":7418,"Ġà·Ħà¶³à¶ľà¶¸":7419,"Ġà¶´à¶½à·Ģà¶±":7420,"Ġà¶ĭà¶©à¶ľ":7421,"Ġlaw":7422,"à¶»à¶ļà¶®à¶±à¶ºà¶§":7423,"Ġread":7424,"Ġà·Ģà·ħà¶ľà¶¸":7425,"Ġà¶»à¶łà¶ļà¶ºà¶±":7426,"Ġdisc":7427,"ĠTagged":7428,"kk":7429,"âģ£":7430,"à¶±à¶¸à¶ļà¶§":7431,"Ġà·ĥà·Ĩ":7432,"à¶´à¶»à¶ºà¶§":7433,"Ġà¶ĳà¶±à·Ģà¶¯":7434,"à¶°à·Ģà¶º":7435,"à¶±à·Ģà¶ľ":7436,"Ġà¶ħà¶»à·Ħ":7437,"atab":7438,"à¶»à¶ºà¶ļà¶¯":7439,"omb":7440,"ĠLa":7441,"ĠBest":7442,"Ġà¶ļà¶®à¶±":7443,"anga":7444,"ude":7445,"Ġimage":7446,"Ġest":7447,"à·Ģà¶Łà¶±":7448,"Ġà¶Ĩà¶ºà¶¸":7449,"à¶»à¶¸à¶ºà¶Ń":7450,"à¶¸à¶ºà¶¯":7451,"ĠAsh":7452,"à¶¸à¶½à¶ľ":7453,"Ġà·ĥà¶»à¶½à¶º":7454,"emory":7455,"Ġà¶¸à¶»à¶«à¶ºà¶Ń":7456,"QL":7457,"You":7458,"vices":7459,"Ġà¶ĭà·Ģ":7460,"Ġà¶ĳà¶ļà¶ļà¶¯":7461,"Ġà¶ħà¶½à¶ľ":7462,"Ġà¶Įà¶Ń":7463,"à·Ĭ\".":7464,"à¶»à¶¶à¶½à·Ģ":7465,"ternal":7466,"ayaka":7467,"Ġaddress":7468,"à¶½à¶§à¶º":7469,"à·ģà¶ľà¶Ńà·Ģ":7470,"à¶°à¶±à¶ºà¶ļà¶§":7471,"Ġà¶īà¶½à¶±":7472,"Ġà¶ħà¶½à·Ħà¶´":7473,"Ġà¶±à¶§à¶±à·Ģ":7474,"Ġ.......":7475,"Ind":7476,"ĠOffice":7477,"DA":7478,"Ã¼":7479,"à·ĥà¶ľà¶¸":7480,"à¶§à·ĥà¶º":7481,"à¶¯à¶»à¶ļà¶§":7482,"Ġà¶ħà¶Ńà¶±":7483,"à¶Ľà¶ºà¶ļ":7484,"à¶½à¶°à¶»à¶º":7485,"à¶ĭà¶ļ":7486,"ĠGod":7487,"à·Ģà¶ºà¶§à¶Ń":7488,"ĠÂ´":7489,"udio":7490,"à·ıâĢ¦..":7491,"Ġconf":7492,"à·ĥà¶¸à·Ħà¶»à¶ļ":7493,"lim":7494,"à¶ĸà·Ĥ":7495,"à·Ħà¶©à·Ģ":7496,"à¶ºà¶ļà¶ļà¶¸":7497,"Ġà¶ļà¶©à¶¸":7498,"Ġsw":7499,"Ġtit":7500,"à¶ļà¶©à¶º":7501,"à¶Ńà¶ºà¶§à¶Ń":7502,"ĠOb":7503,"istor":7504,"Ġà¶»à¶łà¶ļ":7505,"ender":7506,"parent":7507,"Ġà·ĥà¶µà¶½":7508,"à¶ļà¶»à¶ºà¶§":7509,"Ġà¶©à¶±":7510,"iving":7511,"150":7512,"ĠEducation":7513,"Ġdesign":7514,"Ġrecogn":7515,"gen":7516,"Ġà¶³":7517,"Ġà¶ľà¶ľà·Ħ":7518,"à¶ºà¶ºà¶¯":7519,"onom":7520,"arge":7521,"ĠCamp":7522,"ĠBBC":7523,"ctor":7524,"à¶»à·ħà¶±":7525,"Ġà¶ľà¶Łà¶ļ":7526,"ccess":7527,"ĠServer":7528,"ettings":7529,"à¶ļà¶®à¶±à¶º":7530,"Ġà¶ķà¶±à¶¯":7531,"ĠRob":7532,"Ġmed":7533,"Ġà¶´à¶§à¶½à¶º":7534,"Ġà¶¢à¶±à·Ģà¶»à¶¸":7535,"Ġrecord":7536,"ĠØ§ÙĦ":7537,"Neth":7538,"æĸ":7539,"à¶ºà¶ĩà¶½":7540,"Ġà¶ħà·ĥà¶º":7541,"Ġà¶ļà¶½à¶±":7542,"ases":7543,"ÑĢÐ°":7544,"Ġscreen":7545,"Ġknow":7546,"à¶¶à·Ģà¶º":7547,"à¶ħà·Ģà¶¸":7548,"Ġà¶§à·Ģà¶»":7549,"Ġà·ĥà¶´à¶ºà¶±à·Ģ":7550,"ĠIsland":7551,"eh":7552,"à·ĥà·ħà¶ļ":7553,"à·Ĥà¶¸à¶±":7554,"Ġà¶Ńà¶»à¶ľà¶¸":7555,"eder":7556,"itive":7557,"lege":7558,"ĠPrevious":7559,"ĠFeb":7560,"1980":7561,"ĠChin":7562,"à¶ľà¶¸à¶±à¶ºà¶ļ":7563,"Ġadmin":7564,"Ð¾Ð²":7565,"ĠDivis":7566,"Ġdegree":7567,"ÃĹ":7568,"à¶±à¶½à·Ģ":7569,"à·Ļ.....":7570,"Ġà¶¸à·ħà¶ļ":7571,"Ġà¶ĩà¶§à¶º":7572,"Ġà¶»à·ĥà¶§":7573,"Ġ1917":7574,"à¶ĩà·Ħ":7575,"Ġsearch":7576,"Ġwes":7577,"Ġgossip":7578,"eph":7579,"à·Ĭ.......":7580,"dd":7581,"yr":7582,"à¶ľà¶µà¶½":7583,"Ġà¶¶à¶§à¶±":7584,"Ġà·ħà¶º":7585,"ides":7586,"Ġlong":7587,"Ġà¶´à¶¸à¶±à¶º":7588,"Ġhead":7589,"Ġà¶Ĩà¶´à¶±à·ģ":7590,"Bl":7591,"Ð³":7592,"Ñĩ":7593,"Ġà¶ĳà¶±à¶º":7594,"à¶Ľà¶±à·Ģà¶½":7595,"ĠRNA":7596,"Ġmar":7597,"ila":7598,"ĠHer":7599,"ĠVis":7600,"illage":7601,"ection":7602,"atuwangala":7603,"za":7604,"à¶į":7605,"Ġà¶¶à¶Ńà¶½":7606,"Ġà¶ħà¶¸à¶»à¶´":7607,"à·ĥà¶ļà¶ºà¶±":7608,"reak":7609,"Ġown":7610,"aper":7611,"ĠShare":7612,"Ġ1939":7613,"ĠClass":7614,"à¶ºà¶°à¶»à¶«":7615,"à·Ħà¶¸à¶±":7616,"à·Ĵ.âĢĻâĢĻ":7617,"Ġwindows":7618,"ĠBM":7619,"Ġ10000":7620,"ension":7621,"1989":7622,"ĠJuly":7623,"ti":7624,"à¶ºq":7625,"Ġà¶ħà¶§à·ĥ":7626,"à·Ģà¶±à¶ºà¶ļ":7627,"Ġà¶Ĵà·Ĥ":7628,"Ġà¶ºà¶±à¶ļà¶±":7629,"Ġà·Ģà¶»à¶ºà¶ļ":7630,"à·Ģà¶«à¶§":7631,"à¶»à¶¶à¶½à¶¸":7632,"Ġconnect":7633,"ĠPlan":7634,"imbab":7635,"ĠJavaScript":7636,"off":7637,"Ġà¶¶à·Ħà¶»":7638,"à·Ģà¶¯à¶Ń":7639,"ĠSath":7640,"ĠCal":7641,"à¶»à¶´à¶»":7642,"rip":7643,"Ġà¶ĩà¶³à¶ļ":7644,"ĠVik":7645,"1996":7646,"Ġshould":7647,"ĠAsia":7648,"ĠRepublic":7649,"imbabwe":7650,"Ġà¶ļà·Ģà¶»à¶º":7651,"à¶ĳà¶©":7652,"Ġà¶ķà¶±à¶±":7653,"ĠSong":7654,"à¶¢à¶ºà·ĥ":7655,"Ġà¶Ńà¶»à¶Łà¶ļà¶»":7656,"ternet":7657,"Î¿":7658,"Øª":7659,"à¶±à¶»à¶ºà¶ļ":7660,"à¶Ńà¶½à¶ļ":7661,"à¶¸à¶½à¶ļ":7662,"à·ĿâĢį":7663,"Ġà¶ĩà¶¯à¶±":7664,"à¶´à¶Ńà¶½":7665,"Ġà¶¸à·Ħà¶ľà¶¸":7666,"à¶ĳà¶ļà¶§":7667,"ined":7668,"ĠSocial":7669,"Ġlost":7670,"Ġcommon":7671,"à¶±à·ģ":7672,"Ġà¶¢à¶Ń":7673,"à·ĳ)":7674,"à·Ħà¶±à¶ļ":7675,"Ġà¶·à·Ĥ":7676,"Ġsave":7677,"à¶°à¶±à¶ºà¶Ń":7678,"ĠHol":7679,"Ġà·Ģà·Ħà¶ľà¶±":7680,"ĠService":7681,"CE":7682,"aff":7683,"Ġà·Ħà¶ºà¶¯":7684,"Ġà¶¶à·ĥà¶ļ":7685,"à¶Ĥ....":7686,"Ġà¶ļà·ħà¶ľ":7687,"à¶´à·ĥà¶¸":7688,"à¶ĭà¶´à¶¯":7689,"ĠRel":7690,"à·ħà¶³à¶ľ":7691,"Ġnon":7692,"Ġà¶Įà¶»à¶±":7693,"Ġget":7694,"Ġà¶ļà¶»à¶¯à¶»à¶ļ":7695,"iber":7696,"uwa":7697,"Ġupdate":7698,"ĠAfrica":7699,"à¶¸à¶³":7700,"Ġà¶»à¶³à·Ģà¶±":7701,"Ġà¶īà¶¯à¶½à¶¸":7702,"ĠLife":7703,"ola":7704,"ournament":7705,"duction":7706,"?,":7707,"eel":7708,"ktop":7709,"empl":7710,"Ġà¶ĭà¶´à¶Ńà¶ļ":7711,"ĠSuper":7712,"à¶ļà¶Ńà¶»à¶ľà¶¸":7713,"à·ĥà¶Ńà¶»":7714,"à¶§à¶ºà¶§":7715,"à¶«à¶ļà¶º":7716,"Ġà¶Ńà¶«à¶Ń":7717,"à¶°à¶Ŀ":7718,"à¶¸à¶§à¶ľ":7719,"Ġà¶ļà¶©à¶´":7720,"âĢ¦?":7721,"Ġdevelop":7722,"à¶»à¶łà¶ļ":7723,"Ġ1818":7724,"à¶®à¶ļà¶®à¶±":7725,"apan":7726,"Ġà¶ħà·Ģà¶½à·ĥ":7727,"IDEO":7728,"FF":7729,"bima":7730,"uj":7731,"ze":7732,"Ġà·Ģà¶¸à¶±":7733,"Ġà·Ģà·ĥà¶ļ":7734,"à¶¯à·ħà¶¯":7735,"Ġà¶ħà¶¹à¶±":7736,"à¶ºà¶ļà¶©":7737,"Ġà¶Ĩà¶±à¶Ń":7738,"Ġà¶Ńà¶»à¶½":7739,"Ġà¶Ĵà¶ļà¶´":7740,"ĠPresident":7741,"ouch":7742,"ĠDevelopment":7743,"ili":7744,"Ġshare":7745,"à·Ĭ........":7746,"à·Ħà¶ºà¶ļà¶§":7747,"à¶§à·Ħà¶»":7748,"Ġà·ĥà¶¸à¶ľà¶Ń":7749,"à¶Ĵà¶ļà¶±":7750,"ĠCode":7751,"Ġà¶ºà¶¸à¶´":7752,"Ġcase":7753,"à¶Ŀà¶±à¶ļ":7754,"Ġfinal":7755,"ĠGl":7756,"ĠDi":7757,"olar":7758,"amily":7759,"TP":7760,"à·ļâĢĺ":7761,"à¶´à¶»à·ĥ":7762,"ĠSing":7763,"Ġtour":7764,"Ġmake":7765,"avid":7766,"ella":7767,"conom":7768,"TF":7769,"Ġà¶¯à¶Łà¶ļ":7770,"Ġà¶Ńà¶´à·ĥ":7771,"à¶°à¶·":7772,"Ġà¶ĳà¶ļà·Ģà¶Ń":7773,"à¶»à¶Ńà¶¸":7774,"Ġà¶īà·Ħà¶½à¶º":7775,"reland":7776,"ĠPa":7777,"Ġà¶´à¶½à¶´":7778,"acter":7779,"à¶¢à¶ļà·Ģà¶»à¶º":7780,"ĠChar":7781,"illa":7782,"Ġà¶ĳà¶ļà¶ļà¶¸":7783,"à¶®à¶ºà¶º":7784,"à¶»à¶ļà¶¸à¶§":7785,"Ġà¶ļà¶»à¶½à¶¸":7786,"leg":7787,"isk":7788,"Ġhome":7789,"à¶¯à¶ºà¶ļà¶¯":7790,"Ġà¶ĩà¶³à¶´":7791,"ĠWid":7792,"epend":7793,"ĠForex":7794,"600":7795,"sung":7796,"uild":7797,"Ġà·Ģà¶ľà¶Ń":7798,"Ġà¶´à·ĥà¶¸":7799,"Ġshe":7800,"ersh":7801,"Ġwhile":7802,"Ġà¶±à¶»à¶¹à¶¸":7803,"Ġcalled":7804,"ĠRespons":7805,"à¶¯à·Ģà¶¸":7806,"à·ģà¶´à¶Ń":7807,"ales":7808,"Ġà¶Ĩà¶¯à¶¸":7809,"Ġdown":7810,"Ġ97":7811,"Ġà¶ħà¶Ńà¶»à¶¸à¶Ł":7812,"ĠAlp":7813,"Ġfastnews":7814,"ĠNEWS":7815,"à·ĥà·Ģà¶½à¶§":7816,"à¶Ĥ\"":7817,"à¶®à¶ļà¶¸":7818,"ĠList":7819,"Ġ|--":7820,"Ġà¶ĩà¶³à¶ľà¶Ń":7821,"ired":7822,"à¶»à¶ļà¶§à·Ģ":7823,"2020":7824,"à¶ľà·Ħà¶±à·Ģ":7825,"Ġcountry":7826,"à¶¸à·Ģà¶º":7827,"Ġà¶¸à¶¯à¶º":7828,"à·ģà¶·":7829,"à¶·à¶ºà¶±":7830,"Ġà·Ħà¶»à¶¹":7831,"à¶Ńà¶¸à¶½":7832,"ĠPage":7833,"ĠDo":7834,"à¶¯à·Ģà¶ł":7835,"Ġ?\"":7836,"ĠStr":7837,"Ġ1955":7838,"Ġsexual":7839,"Des":7840,"Ġant":7841,"Ġà·ĥà¶ļà¶»":7842,"Ġà·ĥà¶¸à¶¶à¶»à¶Ń":7843,"Ġà¶ħà¶¸à¶»à¶ļ":7844,"âĢ¦âĢ¦.":7845,"ĠHigh":7846,"otion":7847,"essional":7848,"ĠChina":7849,"PF":7850,"ran":7851,"à¶ľà¶¶":7852,"Ġà·Ħà¶ºà¶§":7853,"à·Ģà¶»à¶¯à·Ģ":7854,"à¶ºà¶½à¶¸":7855,"à¶»à·ĥà¶ļ":7856,"Ġà¶ļà¶«à¶§":7857,"à¶¶à¶½à¶ºà¶§":7858,"ĠRoy":7859,"Ġ107":7860,"à¶ºà·Ģà¶±à¶ļ":7861,"Ġequ":7862,"ĠDesign":7863,"Cont":7864,"bed":7865,"ä»":7866,"à¶§à¶ļà¶§":7867,"Ġà¶»à·ĥà¶½":7868,"Ġà¶ĭà¶»à¶«":7869,"à¶»à¶¸à¶«à¶ºà¶§":7870,"à¶»à¶ļà¶§à¶º":7871,"à¶¸à¶Ńà·Ģ":7872,"Ġà·Ħà¶»à·Ģà¶½":7873,"ĠHow":7874,"ĠAng":7875,"urope":7876,"Ġengine":7877,"à¶¸à¶½à·Ģ":7878,"à·Ħà¶Ł":7879,"Ġà·ĥà¶¸à¶¸":7880,"à¶¸à¶ºà¶¸":7881,"...!":7882,"Ġà·ħà·Ħ":7883,"ental":7884,"ĠIV":7885,"Ġ105":7886,"irm":7887,"Ġnetwork":7888,"ĠSecretari":7889,"à¶¸à·ģ":7890,"à¶§à¶ļà¶ºà¶ļ":7891,"Ġà·Ħà·ħ":7892,"à·Ĭ.)":7893,"Ġà¶Ķà¶ºà·Ģà¶ľ":7894,"ĠSociety":7895,"à¶§à¶»à¶ºà¶§":7896,"Ġwicket":7897,"etic":7898,"Ġà¶ħà¶¸à¶Ńà¶ļà¶º":7899,"RA":7900,"Ġà¶·à·Ģà¶Ń":7901,"inary":7902,"à¶´à¶ºà¶¯":7903,"aria":7904,"à·ĥà¶§à¶¯":7905,"Ġ750":7906,"Ġinc":7907,"aker":7908,"akes":7909,"Ġeffect":7910,"ĠEnter":7911,"Ġserver":7912,"ĠSubtitles":7913,"untu":7914,"PHOT":7915,"ef":7916,"à¶½à·Ģà¶§":7917,"à¶°à¶ľà¶º":7918,"Ġà¶ħà·Ģà¶¢":7919,"Ġà¶ļà¶½à¶¶à¶½à¶º":7920,"à¶±à¶Ńà¶ļ":7921,"Ġà¶¸à¶§à¶¯":7922,"Ġà¶ļà¶«à¶´":7923,"rew":7924,"rial":7925,"Ġà¶ļà¶³à¶±":7926,"1997":7927,"ĠAsian":7928,"Ġpassword":7929,"ĠAlpinia":7930,"wa":7931,"Ġka":7932,"à¶½à·ĥà¶§à·Ħà¶±":7933,"à¶¯à¶±à·Ģà¶½":7934,"Ġà¶ľà¶¸à¶»":7935,"Ġà¶½à¶§":7936,"à·ĸ...":7937,"à¶ľà¶Ńà¶´":7938,"Ġà¶©à¶ºà¶±":7939,"Ġduring":7940,"à·ľà¶Ĥ,":7941,"Ġred":7942,"aily":7943,"ief":7944,"jects":7945,"iod":7946,"à·Ĥà·ĥ":7947,"à·ı.âĢĻâĢĻ":7948,"à¶»à¶§à·Ģà¶½":7949,"Ġcould":7950,"lement":7951,"Ġwomen":7952,"à·Ĵ..!":7953,"1960":7954,"ĠWord":7955,"Ġà·Ģà·Ħà¶½à¶ļ":7956,"à¶»à¶·à·Ģà¶ºà¶ļ":7957,"800":7958,"Ð·":7959,"ĠÏ":7960,"à¶¸à¶¤":7961,"à·Ĳ)":7962,"à·Ŀ!":7963,"Ġà¶ħà¶¯à¶ļ":7964,"Ġà¶ľà¶Ńà¶ļà¶½":7965,"Ġmember":7966,"Ġmanag":7967,"Ġschool":7968,"BA":7969,"youtube":7970,"à·Ĵ.//":7971,"à·Ĵ.......":7972,"à·ļ.(":7973,"alle":7974,"à¶´à¶ºà¶ļà¶§à¶¸":7975,"à¶§à·Ħà¶Ń":7976,"ĠLaw":7977,"Ġà¶¸à¶»à¶±à·Ģ":7978,"à¶©à·ĥà¶§à·Ħà¶±à¶ļà¶§":7979,"Ġvol":7980,"ocument":7981,"à·ĴâĢį.":7982,"illion":7983,"à¶§à¶»à¶§à·Ģà¶½":7984,"ÐºÐ°":7985,"à¶»à¶ļà¶»à¶«à¶º":7986,"à·ĥà·Ĩ":7987,"à·ģà¶±à·Ģà¶½à¶§":7988,"Ġà¶¸à·Ħà¶¸à¶ľ":7989,"Ġà¶¢à¶±à·ģ":7990,"à¶Ńà¶¸à·Ģ":7991,"alth":7992,"ĠMet":7993,"Ġà¶ĳà¶¯à·Ģà·ĥ":7994,"Ġfact":7995,"ĠBut":7996,"ĠHuman":7997,"à¶½à¶ºà¶§à¶¸":7998,"Ġà¶ľà·Ħà¶±à¶º":7999,"ĠAssociation":8000,"book":8001,"à¶½à¶¶à·Ģ":8002,"Ġà¶¢à·Ģà¶ºà¶ļ":8003,"Ġà·ĥà·Ħà¶¶":8004,"Ġà¶¢à¶±à·ĥ":8005,"à¶ļà¶ºà¶¯":8006,"reg":8007,"ĠMich":8008,"Ġà¶Ĩà¶łà¶»à¶«à¶º":8009,"Ġtop":8010,"ĠVol":8011,"Ġà¶¯à¶©à¶¶":8012,"ocr":8013,"ĠMahinda":8014,"ss":8015,"à¶§à¶±à·Ģ":8016,"à¶«à¶·":8017,"Ġà¶ĳà¶¸à¶§":8018,"à¶ºà¶½à¶§":8019,"à¶ºà¶¸à·Ģ":8020,"Ġà¶´à·ħà¶ļà¶»à¶¸":8021,"à¶¢à¶±à¶±à¶º":8022,"oma":8023,"ando":8024,"à¶»à¶¶à¶½à¶ºà¶±":8025,"ĠDivisional":8026,"à¶¸à¶·":8027,"à¶ĳà¶ļà¶Ń":8028,"à·Ħà¶»à¶±à¶ºà¶ļ":8029,"âĢ¦âĢĿ":8030,"Ġsaid":8031,"ewa":8032,"Ġà·ĥà¶½à¶ļà¶½":8033,"ema":8034,"Ġ1942":8035,"1998":8036,"Ġà·Ħà¶Łà·Ģà¶±":8037,"Ġdifferent":8038,"ael":8039,"duc":8040,"åľ":8041,"à¶§à¶ļà¶¯":8042,"Ġà¶ħà¶łà¶½":8043,"Ġà¶±à¶¸à¶ļà¶§":8044,"..âĢĿ":8045,"à¶ļà¶»à¶§":8046,"à¶ħà¶¹":8047,"à¶»à¶«à¶¯":8048,"inu":8049,"à¶¯à¶»à¶§à¶¸":8050,"à¶Ľà¶«à¶º":8051,"ĠTimes":8052,"rix":8053,"ĠFC":8054,"Ġ170":8055,"Ġshow":8056,"Ġexper":8057,"RI":8058,"aà¶±":8059,"à·Ļ!":8060,"Ġà¶ļà¶¯à¶¸":8061,"Ġà¶´à¶¶à·ħ":8062,"à·ģà·Ģà¶ļà¶»":8063,"à·Ĥà¶ºà¶¸":8064,"Ġà¶ħà¶ºà¶¸":8065,"à¶ļà¶§à·Ģà¶Ń":8066,"Ġà¶Ĭà¶©":8067,"Ġà·Ģà·ĥà¶Ł":8068,"à¶´à¶½à·Ģà¶½":8069,"unch":8070,"Ġà¶¯à·Ħà¶ºà¶§":8071,"Ġtrade":8072,"ĠSecurity":8073,"Ġà¶ħà¶Ńà¶»à¶¸à¶ľà¶¯":8074,"atabase":8075,".âĢĻâĢĻ":8076,"du":8077,"ray":8078,"Ġà¶ħà¶®à¶Ń":8079,"Ġà¶ĩà¶±à·Ģ":8080,"Ġà¶ºà¶±à·Ģà¶±":8081,"à·ģà¶ºà¶¯":8082,"à¶Ľà¶ºà¶§":8083,"à¶»à·Ħà¶ļ":8084,"uration":8085,"GE":8086,"Google":8087,"New":8088,"hot":8089,"ville":8090,"Ķ¨":8091,"Ġà¶ļà¶»à¶¯à¶»à¶º":8092,"Ġà¶ļà¶»à¶±à·Ģà¶±":8093,"ĠGeneral":8094,"asiri":8095,"ĠVen":8096,"Ġà·Ģà¶»à¶¸à¶ļ":8097,"anna":8098,"Ġïĳ":8099,"Ġà¶ļà¶½à¶¶à¶½à¶ºà¶ļ":8100,"facebook":8101,"Ġĉĉ":8102,"Ġà¶¯à·ħà¶³":8103,"Ġà¶īà¶ł":8104,"Ġà·Ģà¶»à¶«à¶º":8105,"erc":8106,"à·Ĥà¶«à¶ºà¶Ń":8107,"à¶ĩà·Ĩ":8108,"Ġà¶¸à·ĥà¶¯":8109,"uma":8110,"Ġà¶Įà¶±":8111,"athil":8112,"ĠâĤ¬":8113,"Ġexample":8114,"ĠÂ´Â´":8115,"Gossip":8116,"wh":8117,"Ùİ":8118,"à¶ºà¶¢":8119,"Ġà¶ħà¶Ľà¶±":8120,"Ġà¶ºà·Ģà¶´":8121,"à¶ºà¶ļà¶§à¶Ń":8122,"à¶¢à¶ºà·Ģ":8123,"à¶¸à¶±à¶ºà¶ļ":8124,"Ġà¶ķà¶©à¶»":8125,"à¶ĩà¶¯":8126,"ĠBh":8127,"Ġ91":8128,"à·ļ?\"":8129,"Ġeach":8130,"ĠSeries":8131,"cription":8132,"Ġïĳ¤":8133,"à¶¢à¶¯":8134,"Ġà¶ĭà¶§":8135,"à¶»à¶ļà¶Ńà¶±à¶ºà¶ļ":8136,"Ġà¶´à¶±à·Ħà¶ļà¶§":8137,"à¶ºà¶ºà¶±à¶ºà¶§":8138,"Ġà¶»à¶§à·Ģà¶½à¶¯":8139,"imate":8140,"Ġà¶ºà·Ħà¶´à¶Ńà¶§":8141,"ĠJames":8142,"avel":8143,"indow":8144,"Ġà¶ļà·Ħà¶´":8145,"Ġà¶ļà¶½à¶¶à¶½à¶ºà¶§":8146,"à¶»à¶¢à¶±à¶±":8147,"rivate":8148,"ĠSecretariats":8149,"Ġà·Ģà¶«":8150,"Ġà¶ĩà¶§à·Ģ":8151,"Ġà¶ħà¶Ńà¶¸":8152,"Ġà¶ħà¶½à¶½":8153,"ised":8154,"ĠDem":8155,"Ġà¶¯à¶¸à¶ºà¶±":8156,"Ġknown":8157,"fr":8158,"oe":8159,"war":8160,"Ġà¶ļà¶¶à¶»":8161,"Ġà·ĥà¶½à¶¸":8162,"à¶ľà¶¸à¶¯":8163,"inter":8164,"ĠCenter":8165,"Ġà¶Ĩà·Ģà·Ħà¶¸":8166,"ĠâĢįâĢįâĢį":8167,"Ġà¶¶à·ĥà¶ºà¶ļ":8168,"Ġ118":8169,"ING":8170,"à·ĥà¶»à¶¯à¶ºà¶ļ":8171,"à¶¯à¶§à¶Ń":8172,"Ġà¶´à¶®à¶ºà¶ļ":8173,"Ġà·Ģà¶±à·ĥà¶±":8174,"Ġ119":8175,"Ġà¶¢à¶±à·ĥà¶Ń":8176,"Ġà·ĥà¶³à¶ļà¶©":8177,"à¶¹à¶ľ":8178,"ĠPan":8179,"ĠHu":8180,"ivid":8181,"à¶°à¶ºà¶±à¶§":8182,"ĠShow":8183,"Ġspeed":8184,"Ġart":8185,"à¶ļà¶Ńà¶±":8186,"à¶¯à·ģ":8187,"à¶¢à·ģ":8188,"ĠIIà·Ģà¶±":8189,"Ġdevice":8190,"ĠPHP":8191,"CH":8192,"RL":8193,"à·Ħà¶Ńà¶»à¶ļ":8194,"à¶½à¶·à·Ģ":8195,"Ġà·ĥà¶ľ":8196,"à¶©à¶´à¶Ń":8197,"à¶ºà¶ļà¶±":8198,"à¶·à·Ģà¶Ń":8199,"Ġà¶ħà¶©à·ĥ":8200,"à¶Ľà¶ļà¶ºà¶ļ":8201,"Ġà¶ĩà¶ºà¶¯":8202,"Ġmusic":8203,"ĠHealth":8204,"1948":8205,"ipp":8206,"Ġà¶´à¶«à¶´":8207,"They":8208,"Ġà¶Ĭà·ħà¶ľà¶§":8209,"à¶ĸà·Ĥà¶°":8210,"SD":8211,"ks":8212,"ved":8213,"Ġ\\":8214,"Ġà¶±à·ĥà¶±":8215,"Ġà¶»à·Ĥ":8216,"Ġà¶ĭà¶»à¶¯":8217,"à¶»à¶¯à¶¸":8218,"Ġà¶Ĭà¶ºà¶¸":8219,"Ġà¶ħà·Ħà¶¯":8220,"Ġoper":8221,"Ġtournament":8222,"Ġhost":8223,"Ġnow":8224,"aving":8225,"Ġà·Ģà·ħà·Ģà¶½":8226,"pg":8227,"Ġorder":8228,"à¶±à·ħ":8229,"à·ı!!":8230,"à·ĵ/":8231,"Ġà·Ħà¶ºà·ĥ":8232,"Ġà·Ħà¶Ńà¶»à¶º":8233,"Ġà¶ľà¶¸à¶º":8234,"Ġà¶Ĵà¶½":8235,"à¶¸à¶Ńà¶ºà¶§":8236,"à¶½à¶ļà¶¯":8237,"ĠPal":8238,"adasa":8239,"ĠEar":8240,"ĠÐ¸":8241,"Ġshort":8242,"Con":8243,"Ġà·ĥà¶°":8244,"Ġà·ĥà¶³à¶ļ":8245,"à¶¸à¶½à¶°à¶»":8246,"Ġà¶ħà¶ľà¶»à¶¯à¶ľ":8247,"Ġà¶ºà¶±à·Ģà¶½":8248,"Ġà¶¢à¶±à·Ģà¶»à¶¸à¶ļ":8249,"awbima":8250,"asekara":8251,"ĠiOS":8252,"ought":8253,"Col":8254,"à¶´à¶¢":8255,"à¶´à·Ħà¶½":8256,"Ġà¶ĳA":8257,"Ġà¶½à¶³":8258,"Ġà¶Ĵà¶¯":8259,"à·Ģà¶ļà¶Ń":8260,"Ġà¶ħà·Ģà¶¥":8261,"à¶¸à¶«à¶§":8262,"omet":8263,"ands":8264,"ĠNAB":8265,"iven":8266,"ĠFirefox":8267,"FP":8268,"now":8269,"yth":8270,"à·ĵ....":8271,"Ġà¶¯à¶»à¶Ń":8272,"atform":8273,"à¶Ĩà¶°":8274,"Ġside":8275,"ref":8276,"Ġpat":8277,"Ġbest":8278,"Ġà¶ĳà·ħà¶¯":8279,"ĠFull":8280,"ĠForm":8281,"Ġ175":8282,"Ġcomments":8283,"Ġ1944":8284,"à·ĴâĢĿ.":8285,"à¶»à¶¢à¶±à¶±à¶º":8286,"ĠIndies":8287,"colspan":8288,"ĠIIIà·Ģà¶±":8289,"bol":8290,"ĠÑģ":8291,"à¶Ńà¶ļà¶»à¶º":8292,"à¶´à¶½à¶§":8293,"Ġà¶Ķà·ĥà¶»":8294,"Ġà·ĥà·Ħà·ĥà¶¸":8295,"ĠTop":8296,"ĠWith":8297,"ivil":8298,"Ġà¶¸à¶©à·Ģà¶½":8299,"à¶»à¶¶à¶½à¶Ńà¶¸":8300,"Ġcaption":8301,"NS":8302,"center":8303,"Ġà¶ļà¶¶à¶©":8304,"Ġà¶¸à·Ģà¶ļà¶§":8305,"à·ħà¶¶":8306,"Ġà¶ĩà¶ºà¶º":8307,"Ġà¶ļà¶»à¶±à·Ģà¶±à¶¸":8308,"Ġà¶Ķà¶¶à¶º":8309,"Ġsong":8310,"ĠPat":8311,"Ġà¶¶à¶½à¶´à·Ģà¶Ń":8312,"asy":8313,"Ġà¶¶à¶½à¶ºà¶Ń":8314,"Ġ720":8315,"Ġà¶´à¶§à¶¶":8316,"ĠFirst":8317,"ĠVal":8318,"ĠChrome":8319,"ians":8320,"Ġleg":8321,"ittle":8322,"ruary":8323,"PHOTOS":8324,"GA":8325,"RO":8326,"lam":8327,"à¶¸à¶ŀ":8328,"à·ĵà·ĵ":8329,"à¶ĤâĢĻ":8330,"à¶±à¶ºà¶§à¶º":8331,"Ġà·Ģà¶±à¶ľà¶Ń":8332,"à¶¢à¶ºà¶»à¶Ń":8333,"à¶¡à¶º":8334,"iller":8335,"SLR":8336,"Ġperform":8337,"ĠResponses":8338,"Maha":8339,"PC":8340,"aug":8341,"à¶½à¶´à¶±":8342,"à¶§à¶¶":8343,"0000":8344,"Ġà¶ķà¶ļà¶º":8345,"Ġ1912":8346,"à·Ĳ.\"":8347,"itz":8348,"Ġtake":8349,"Ġà¶ħà¶ľà·Ħà¶»":8350,"ĠDep":8351,"à¶½à¶ºà¶§à¶Ń":8352,"ourse":8353,"action":8354,"ĠExt":8355,"Ġservice":8356,"Comments":8357,"ĠOrgan":8358,"sk":8359,"à¶½à¶Ńà¶½":8360,"Ġà¶¸à·Ģà¶Ń":8361,"à¶´à·Ģà¶»à¶ļ":8362,"à·Ŀ?":8363,"à·ģà¶ºà¶¸":8364,"à¶»à·Ħà¶«à¶ºà¶±":8365,"Ġà¶ļà¶«à·ĥ":8366,"à¶½à¶±à¶ºà¶Ń":8367,"Ġselect":8368,"ĠTorrent":8369,"à·ı..!":8370,"Ġ8000":8371,"ĠOpt":8372,"ĠStar":8373,"ained":8374,"ĠThero":8375,"Ġunp":8376,"achine":8377,"Ġbecause":8378,"à¶ħà¶Łà·Ħà¶»":8379,"à·ĵà·Ĭ":8380,"Ġà¶ħà·Ĩ":8381,"à¶´à·Ħà·ĥ":8382,"Ġà¶ľà·ĥà¶§":8383,"Ġà¶ľà·Ħà¶º":8384,"à·ħà¶ļà¶±":8385,"à·Ģà¶½à¶ļà¶¸":8386,"à·ĺà·ĺ":8387,"Ġway":8388,"Ġ103":8389,"oto":8390,"Ġ2025":8391,"Ġtool":8392,"Ġann":8393,"à¶ľà·Ħà¶ľ":8394,"à·ĥà¶»à¶¯à¶º":8395,"ouncil":8396,"Ġ**":8397,"Ġorgan":8398,"à·Ķà·Ļ":8399,"Ġà¶´à¶½à¶º":8400,"Ġà¶Ńà¶½à¶ľ":8401,"à¶łà¶»à¶ļ":8402,"Ġà¶´à¶Ńà¶§":8403,"à¶»à¶§à¶¯":8404,"Ġ1929":8405,"ĠCN":8406,"à¶ĩà¶©":8407,"isc":8408,"à·Ķà¶Ĥ,":8409,"ĠTime":8410,"Ġbow":8411,"ĠBi":8412,"ĠEUR":8413,"ivity":8414,"Ġà¶ħà·Ģà¶¸à¶Ł":8415,"à·ļ.......":8416,"Ġà¶»à¶¯à·ħ":8417,"Ġà¶łà¶½à¶±à¶ºà¶±":8418,"sych":8419,"Handa":8420,"br":8421,"ny":8422,"wood":8423,"à¶ļà¶½à¶±":8424,"à·Ĥà¶¯à¶º":8425,"à·Ģà¶Ńà¶ļà¶§":8426,"à¶»à¶¸à·Ħ":8427,"à¶»à¶«à·Ģà¶½":8428,"ĠLat":8429,"ĠEv":8430,"Ġà¶¸à·ħà·ĥ":8431,"0530":8432,"Ġ:-)":8433,"incip":8434,"ĠPrem":8435,"aa":8436,"viron":8437,"à¶Ńà¶±à¶ļ":8438,"à¶¶à¶ļà¶»":8439,"Ġà¶ºà¶§à·Ħà¶Ń":8440,"Ġà¶ļà¶»à¶«à·Ģ":8441,"à¶±à·Ģà¶»":8442,"Ġ123":8443,"Ġà¶»à¶®à¶ºà¶ļà¶§":8444,"Ġà¶ĭà¶ľà·ĥ":8445,"1983":8446,"1987":8447,"ertain":8448,"aterial":8449,"ĠSathHanda":8450,"cient":8451,"ning":8452,"web":8453,"Ñħ":8454,"Ġà·ĥà¶±à·ĥ":8455,"à¶ľà¶»à¶ºà¶ļ":8456,"Ġà¶ħà¶Ńà¶´":8457,"Ġà¶¸à¶ľà·Ħà¶»":8458,"à¶»à¶«à¶ļà¶¸":8459,"à·ĥà¶ºà¶ľ":8460,"ĠRay":8461,"Ġdom":8462,"à¶Ĭà¶½à¶Ł":8463,"à·Ĭ\",":8464,"ĠJVP":8465,"Ġalign":8466,"ĠBuddhist":8467,"lock":8468,"à¶Ńà¶¥à¶ºà¶±":8469,"à¶ºà¶ļà¶ºà¶§":8470,"à¶»à¶¸à¶ľ":8471,"Ġà¶±à¶¸à¶¯":8472,"ĠCity":8473,"Ġsri":8474,"Ġmet":8475,"Ġview":8476,"âĢĮâĢĮ":8477,"ĠYoutube":8478,"1978":8479,"Eng":8480,"à·Ĵà·ĵ":8481,"à·Ģà¶łà¶±à¶ºà¶ļ":8482,"à¶ļà·ģ":8483,"Ġà·ĥà¶Ńà¶±":8484,"Ġà¶ºà·Ħà¶Ń":8485,"Ġà¶´à¶¯à¶¸à¶§":8486,"ĠSearch":8487,"à¶īà·Ģ":8488,"lean":8489,"lear":8490,"Ġbar":8491,"amera":8492,"ĠNext":8493,"sha":8494,"Author":8495,"DP":8496,"VIDEO":8497,"nail":8498,"à¶´à¶½à·Ģ":8499,"à¶łà·ĥà¶¸":8500,"à·ĳâĢ¦.":8501,"à¶ľà¶Ńà¶ļ":8502,"à¶Łà¶ļà¶¸":8503,"ically":8504,"Ġsocial":8505,"à¶¶à¶¯à·Ģà¶º":8506,"ouble":8507,"ĠLondon":8508,"aminda":8509,"Ġà¶ĩà¶ľà·Ģ":8510,"aps":8511,"award":8512,"Ġà¶¯à·ģà¶ļà¶ºà¶ļ":8513,"ĠBoard":8514,"MC":8515,"à¹":8516,"à¶ºà¶»à¶§":8517,"à¶§à¶´à¶±":8518,"à¶·à¶ļà¶º":8519,"Ġà¶ļà¶½à¶¸à¶«":8520,"à¶´à¶ºà¶»":8521,"ĠLive":8522,"Ġà·ĥà¶´à¶®":8523,"Ġvari":8524,"Ġ1946":8525,"raft":8526,"ĠâĢĻâĢĻ":8527,"à·Ĭ!!":8528,"à·ĶâĢĺ":8529,"à¶´à¶«à¶ºà¶§":8530,"Ġà¶»à¶¯à¶½":8531,"à¶ľà¶±à¶ļà¶º":8532,"Ġà¶»à¶§à¶º":8533,"Ġà¶ħà·ĥà·Ģà¶½":8534,"Ġà¶ĭà¶¯à¶ļ":8535,"ĠCredit":8536,"Ġà¶īà¶³à¶ľà¶±":8537,"ĠHold":8538,"ĠHOT":8539,"Ġà¶ºà¶±à·Ģà¶§":8540,"Ġà¶ħà¶ºà¶§à¶º":8541,"Ġà¶ºà¶§à¶ľ":8542,"Ġà·ĥà¶¸à¶±à·ħ":8543,"Ġ1600":8544,"Ġà¶¥à¶Ń":8545,"Ġwithout":8546,"Ġedit":8547,"âĢįâĢįâĢįâĢįâĢįâĢįâĢįâĢį":8548,"Ġcapital":8549,"MO":8550,"go":8551,"roll":8552,"à¶Ńà¶ļà¶»à¶«":8553,"Ġà¶ħà¶´à¶»à¶¯":8554,"à¶»à¶¸à¶±à¶º":8555,"à¶»à¶«à·Ģà¶½à¶§":8556,"ato":8557,"ĠSpe":8558,"ĠCPU":8559,"ĠAv":8560,"Ġfriend":8561,"Ġà¶Īà¶¯":8562,"roph":8563,"ived":8564,"urs":8565,"à®¯":8566,"à¶»à¶¸à¶«à·ģ":8567,"PreviousPrevious":8568,"Ġà¶Ĩà¶ľà¶¸à¶ļà¶§":8569,"uf":8570,"à¶§à·ĥà¶Ń":8571,"à·Ĳ!":8572,"Ġà·ĥà¶ľà·Ģ":8573,"à·ĵ!":8574,"Ġà¶¶à¶§à¶º":8575,"à¶®à¶»à¶ºà¶ļ":8576,"Ġà¶¸à¶¸à¶¸":8577,"Ġà¶ĳà·Ģà¶´":8578,"Ġprom":8579,"Ġà¶´à¶½à¶½":8580,"à·Ĵ..âĢĿ":8581,"ĠWork":8582,"ids":8583,"itional":8584,"à·Ĭà¶Ĥ":8585,"Ġà¶ļà¶¸à¶º":8586,"Ġà¶´à·Ģà¶ļ":8587,"à¶ľà¶»à¶Ń":8588,"Ġà¶ĩà¶§à·ĥ":8589,"Ġà¶¢à¶½à·Ģ":8590,"à¶ľà¶½à·Ģ":8591,"Ġ1915":8592,"ĠGo":8593,"Ġà¶ħà¶ºà¶§à¶¯":8594,"ira":8595,"Ġà¶ĳà¶ºà¶§à¶Ń":8596,"Ġà·Ĥà¶©":8597,"ĠÂ£":8598,"Ġà¶ħà¶±à·Ģà¶¶":8599,"Ġà¶ħà·Ģà¶ºà·Ģà¶ºà¶ļ":8600,"NextNext":8601,"Ġà·ģà¶Ńà¶ļà¶ºà¶ļ":8602,"Dr":8603,"à¶½à¶³à¶´":8604,"Ġà¶ħà¶Ńà·ħ":8605,"à¶Ńà¶±à¶ºà¶ļà¶§":8606,"Ġà¶ľà¶«à¶±à¶§":8607,"ĠAC":8608,"Ġsource":8609,"Ġ108":8610,"Ġ112":8611,"ĠÂ¥":8612,"Ġplace":8613,"ĠZimbabwe":8614,"lor":8615,"side":8616,"Ġep":8617,"à¶«à¶±à¶º":8618,"Ġà¶Ĩà¶»à¶±":8619,"Ġà¶Ĭà·Ģ":8620,"à¶»à·ĥà¶ºà¶ļ":8621,"à·ĥà¶¸à¶½":8622,"Ġsyn":8623,"Ġcal":8624,"Ġà¶¡à¶º":8625,"Ġdem":8626,"Ġinformation":8627,"Ġà¶ĩà¶»à¶¶":8628,"Ġà¶µà¶ļ":8629,"ended":8630,"ysics":8631,"Ġevent":8632,"Ġevery":8633,".âĢľ":8634,"dr":8635,"mark":8636,"Ġå":8637,"à¶ĤâĢĿ":8638,"à·ĥà¶»à¶§":8639,"ening":8640,"Ġà·ħà¶¸à¶ºà¶ļ":8641,"isode":8642,"ĠDialog":8643,"à·Ģà¶ºà¶§à¶¸":8644,"Ġà¶ĭà¶©à¶¸":8645,"Ġhistory":8646,"Ġaccess":8647,"Ġsmall":8648,"Ġincluding":8649,"ĠApril":8650,"à¦":8651,"à¶´à·Ħà¶»":8652,"à·ľÂŃ":8653,"Ġà¶½à¶½à¶±":8654,"Ġà¶¢à¶ľ":8655,"à¶ħà¶¯à·Ħà·ĥ":8656,"Ġà¶»à¶¢à¶ºà¶ļà¶§":8657,"à¶ļà¶½à·Ħ":8658,"ĠSA":8659,"Ġpress":8660,"à¶Ŀà¶¸":8661,"Ġter":8662,"à·ı..\"":8663,"Ġdevelopment":8664,"acka":8665,"ĠFS":8666,"ĠVersion":8667,"Ġgener":8668,"à¯Ī":8669,"clus":8670,"à·ĬâĢĭà·Ļ":8671,"à¶ļà·Ĥ":8672,"Ġà·Ħà·ĥà¶»":8673,"Ġà¶ĩà¶»à¶´":8674,"Ġà¶ħà·Ģà·ģà¶º":8675,"Ġpp":8676,"Ġbox":8677,"Ġbrowser":8678,"ĠEconom":8679,"ĠÂ°":8680,"ĠStates":8681,"ĠSmart":8682,"Hz":8683,"ji":8684,"Ġes":8685,"Ġà·Ģà¶±à¶ºà¶§":8686,"à¶łà¶Ńà¶¸":8687,"à·ı.(":8688,"Ġà¶¸à¶Ńà¶ļà¶±":8689,"à·Ĥà¶ºà¶»":8690,"Ġà¶ľà¶¸à¶±à¶º":8691,"à¶ĭà¶ľà¶Ń":8692,"ĠDel":8693,"Ġ106":8694,"Ġlight":8695,"Ġà¶±à·Ģà¶Ńà¶±":8696,"Ġà¶ħà·Ģà¶½à¶¸":8697,"1995":8698,"Ġâģ£":8699,"Ġà¶ħà·ĥà¶¸à·ĥà¶¸":8700,"Ġ1936":8701,"ajor":8702,"And":8703,"iii":8704,"ĠCorpor":8705,"à¶¯à·Ģà¶º":8706,"à¶´à¶½à¶Ń":8707,"à¶³à·ĥà¶½":8708,"Ġà¶ħà¶Ńà¶§à¶¸":8709,"Ġà¶Ĭà¶Ńà¶½":8710,"ĠCons":8711,"amal":8712,"à¶Ĭà¶§à¶Ń":8713,"urr":8714,"Ġà¶ľà·Ħà¶«à¶º":8715,"à·ĥà¶½à¶ļà¶±":8716,"ills":8717,"International":8718,"Ġresearch":8719,"Ġblock":8720,"Ġsmart":8721,"vironment":8722,"Fi":8723,"à¶©à¶±à¶ºà¶ļà¶§":8724,"à·ĳâĢĻ":8725,"à·Ĭ,,":8726,"Ġà¶ħà¶ºà·Ģà·ħ":8727,"à¶īà¶§":8728,"Ġsay":8729,"Ġfin":8730,"Ġà¶īà¶³à¶ľà¶Ń":8731,"ĠDecember":8732,"à¶¯à¶»à¶ļà¶¸":8733,"Ġà¶¯à¶Ńà¶ļ":8734,"à¶°à¶¶":8735,"à¶łà¶¯":8736,"Ġà¶ħà¶Ńà¶¯":8737,"Ġà·Ģà¶½à¶§à¶¸":8738,"erg":8739,"à¶±à·ĥà¶Ń":8740,"à¶ºà¶Ńà¶§":8741,"Ġà¶´à¶¸à¶«à¶ļà¶§":8742,"à¶´à¶¯à·Ģà¶º":8743,"andy":8744,"Ġà¶Ńà¶¶à¶±à·Ģ":8745,"ĠEp":8746,"istic":8747,"Ġà¶¸à¶ľà·Ħà¶»à·Ģ":8748,"ĠKumar":8749,"ĠWilliam":8750,"ault":8751,"df":8752,"Ġec":8753,"à¶§à¶ľà·ĥ":8754,"Ġà¶ħà¶§à¶´":8755,"Ġà·Ħà¶ľ":8756,"à·Ĥà¶ļà¶¸":8757,"à·Ģà¶ļà·Ģ":8758,"à¶´à¶Ńà¶¸à¶º":8759,"à¶·à¶ºà¶Ń":8760,"ĠCIA":8761,"à¶½à¶±à¶ºà¶º":8762,"ried":8763,"Ġstandard":8764,"Ġà¶ħà¶Łà¶½à¶ļ":8765,"ĠÐ¾":8766,"à¶¸à¶»à¶Ńà¶±":8767,"________":8768,"Ġprotected":8769,"PL":8770,"Ġà¶Ĩà¶¢":8771,"Ġà·ħà¶³":8772,"Ġà·ħà¶ľà¶§":8773,"Ġà¶ľà¶¸à¶±à¶ļà¶§":8774,"style":8775,"Ġsee":8776,"isch":8777,"Ġball":8778,"Ġgoogle":8779,"Ġà¶´à¶»à¶«à¶ľà¶¸":8780,"ĠÐ²":8781,"Ġ1938":8782,"ï¿½ï¿½":8783,"................................":8784,"ysis":8785,"HD":8786,"ially":8787,"à·ĥà¶¯à¶±":8788,"Ġà·ĥà·ĥà¶´":8789,"à¶ºà¶ļà¶»à¶«":8790,"à¶°à¶»à¶ºà¶±":8791,"Ġà¶ĭà¶«à¶Ń":8792,"Ġà¶ĭà¶·à¶Ń":8793,"à·Ģà¶»à¶·":8794,"Ġà·ĥà·Ħà¶ºà¶§":8795,"à¶´à¶Ńà¶º":8796,"ĠĠĉ":8797,"Ġà¶ļà¶§à¶ĭà¶Ń":8798,"ison":8799,"Ġà¶ħà¶ľà¶ºà¶§":8800,"Ġmess":8801,"1952":8802,"urg":8803,"Ġà¶¯à·Ħà¶±à·Ģ":8804,"eved":8805,"Ġà¶¸à·Ģà¶ļà¶ľ":8806,"ĠResearch":8807,"1000":8808,"Ġà·ĥà¶»à¶¸à¶ļ":8809,"à·Ģà¶½à¶§à¶º":8810,"Ġà·Ģà¶±à·ĥà¶Ń":8811,"Ġà·Ħà¶³à·Ħà¶±":8812,"à¶¶à¶½à¶°":8813,"ĠLog":8814,"ĠBusiness":8815,"Ġà¶ļà¶³à¶ļ":8816,"Ġref":8817,"Ġà¶±à·Ģà¶ļà¶º":8818,"ĠCollege":8819,"ĠTags":8820,"à¶ºà¶ºà¶¸":8821,"Ġà¶ħà¶§à¶¯":8822,"à¶¸à¶±à¶Ń":8823,"Ġà¶łà¶¸à¶»":8824,"à¶ħà¶«":8825,"Ġ220":8826,"à¶»à·Ģà¶ľ":8827,"Ġpen":8828,"ĠPDF":8829,"Ġfiles":8830,"Ġà¶ľà¶½à·Ħ":8831,"ĠGB":8832,"ĠRA":8833,"Ġmethod":8834,"riy":8835,"à¶»à¶´à¶§à¶ºà¶ļà¶§":8836,"à¶½à¶ľà¶§":8837,"ĠOper":8838,"Ġà¶ħà¶Łà·Ģ":8839,"Ġchild":8840,"Ġdoes":8841,"inning":8842,"til":8843,"çļ":8844,"êµ":8845,"à¶»à¶®à¶º":8846,"à¶´à¶»à¶ļ":8847,"à¶ºà¶±à¶±":8848,"à·Ģà¶±à¶ºà¶±":8849,"Ġà¶±à¶¸à¶±":8850,"Ġà¶¢à¶±à¶ľà¶Ń":8851,"Ġà¶Ķà¶¶à¶¯":8852,"Ġ---":8853,"ared":8854,"à¶»à·Ħà·Ģ":8855,"ĠSim":8856,"Ġtable":8857,"Ġwatch":8858,"ĠBy":8859,"ĠIreland":8860,"ĠHind":8861,"Ġhelp":8862,"à·ħà¶Łà¶ļ":8863,"Ġgovernment":8864,"ĠInformation":8865,"obia":8866,"ĠQual":8867,"Ġblack":8868,"Ġfunction":8869,"Ġà¶Ńà¶¯à¶¶à¶¯à¶ºà¶ļ":8870,"ĠFebruary":8871,"SM":8872,"We":8873,"aim":8874,"Ġà¶ľà¶ºà¶¸":8875,"à¶łà¶½à¶Ń":8876,"Ġà¶¶à¶½à¶¸à¶«":8877,"Ġà¶·à·Ģà¶ºà¶ļ":8878,"Ġà¶Ńà¶»à¶½à¶º":8879,"ĠSud":8880,"ĠMawbima":8881,"Ġwid":8882,"Ġà·ĥà¶½à·ĥà¶º":8883,"Ġà¶»à¶§à¶ļà¶¢":8884,"Ġà¶¯à·Ħà¶ħà¶§":8885,"Ġplan":8886,"ĠReading":8887,",âĢĿ":8888,"Am":8889,"Mar":8890,"aus":8891,"och":8892,"à·ļà¶Ĥ":8893,"Ġà·ĥà·ħà·ĥ":8894,"à¶°à¶±à¶§":8895,"ored":8896,"aries":8897,"Ġthose":8898,"Ġà¶ļà¶§à·Ħà¶©":8899,"Ġà¶ħà·Ħà¶¸à¶©":8900,"ily":8901,"agram":8902,"Ġ128":8903,"Ġgen":8904,"Ġwhit":8905,"ĠÐ½":8906,"unga":8907,"oshop":8908,"ledge":8909,"ĠKarun":8910,"à¶ľà¶¸à¶Ń":8911,"à¶´à¶»à¶Ń":8912,"à·ľ`":8913,"Ġà·Ħà¶¶à¶½":8914,"à·ĿâĢ¦":8915,"Ġà¶ħà·Ģà¶¸à¶º":8916,"ĠPublic":8917,"Ġà¶´à¶½à¶ļà¶»":8918,"ĠBatuwangala":8919,"Ġinn":8920,"à·Ģà¶»à¶«à¶ºà¶±":8921,"Ġ978":8922,"à·ĥà¶³à¶ľà¶±":8923,"à®³":8924,"rict":8925,"inhalese":8926,"ĠCCTV":8927,"ership":8928,"At":8929,"PG":8930,"Ġenc":8931,"à¶ºà·ĥà¶¸":8932,"à¶¸à·Ħà·ĥ":8933,"Ġà¶ĳà¶´à¶»":8934,"à¶łà¶±à¶ºà¶±":8935,"ĠBank":8936,"ĠHard":8937,"Ġ2030":8938,"Ġlast":8939,"ĠVid":8940,"ĠUb":8941,"ecial":8942,"Ġleft":8943,"ĠManagement":8944,"bps":8945,"lt":8946,"âĪĴ":8947,"Ġ!!!!":8948,"à¶»à¶Ńà¶»":8949,"Ġà¶ĳà¶¬":8950,"Ġà¶Ĩà¶ļà¶»à¶º":8951,"à·Ħà¶»à¶ºà¶ļ":8952,"à¶»à¶«à¶ºà¶Ń":8953,"à¶īà·Ħà¶½":8954,"ĠAD":8955,"à¶°à¶±à¶ºà·Ģ":8956,"Ġà¶ħà¶ľà¶¯":8957,"ĠDigital":8958,"ĠWick":8959,"ague":8960,"Ġà¶¸à¶¯à¶ļà¶§":8961,"Ġà¶Ĭà¶½à¶ľà¶§":8962,"ĠBlogger":8963,"ibrary":8964,"cm":8965,"sm":8966,"val":8967,"à¶¯à¶ļà¶»":8968,"à¶·à¶¸":8969,"Ġà¶©à¶¸":8970,"icon":8971,"Ġhow":8972,"Ġà·ĥà¶½à¶ļà¶Ń":8973,"utom":8974,"eck":8975,"oung":8976,"1988":8977,"ictionary":8978,"met":8979,"ty":8980,"à·Ģà¶¯à¶º":8981,"à¶½à¶·à¶º":8982,"à¶«à¶Ŀ":8983,"à¶¶à¶ºà¶±":8984,"Ġà¶ļà¶»à¶±à¶±":8985,"Ġà¶ħà¶±à¶¸":8986,"Ġà¶ĳà·Ħà¶¸":8987,"à¶½à¶ļà¶½":8988,"à·ĥà¶»à¶ºà¶±":8989,"Ġà·ĥà¶Ńà¶ºà¶ļ":8990,"à¶ľà¶½à¶¸":8991,"à·ĥà¶ļà¶Ń":8992,"Ġà¶©à¶»":8993,"à¶Ķà¶´":8994,"ĠGreen":8995,"Ġder":8996,"à·ħà¶³à¶ľà¶Ń":8997,"Ġlove":8998,"Ġà¶´à¶«à·Ħà¶ļ":8999,"Ġà·ĥà¶»à¶½à·Ģà¶¸":9000,"à¶¸à¶©à¶ļà¶½à¶´":9001,"1993":9002,"ĠProv":9003,"ÐµÑĢ":9004,"Ġbutton":9005,"Ġà¶¢à¶±à¶»à¶¢à¶ºà¶ļ":9006,"AP":9007,"Â¹":9008,"Ġë":9009,"Ġà¶´à¶®":9010,"à·ĬâĢį...":9011,"Ġà·Ħà¶Ńà¶»à¶¸":9012,"Ġà¶ľà¶¢à¶¸":9013,"à¶©à·Ģà¶Ń":9014,"à¶¢à¶±à·Ģà¶½":9015,"Ġà¶Ĩà·Ģà¶½":9016,"à¶ĩà¶´":9017,"à¶ļà¶»à¶«à·Ģà¶½":9018,"ĠNet":9019,"à¶¯à¶¸à·Ħà¶Ń":9020,"Ġà¶´à·Ħà·ħà¶¸":9021,"Ġà¶ĩà¶§à¶ļà¶§":9022,"elling":9023,"1971":9024,"ras":9025,"ract":9026,"Ġu":9027,"Ġà¶¯à·Ģà¶§":9028,"Ġà¶»à·Ħà¶º":9029,"Ġà¶Ĵà¶´":9030,"à¶·à¶´":9031,"à¶¸à¶ºà¶¢à¶±à¶ļ":9032,"à·Ģà·ĥà¶±à¶º":9033,"Ġà¶´à¶¸à¶«à¶¯":9034,"âĢĻ.":9035,"ĠHad":9036,"Ġ7000":9037,"Ġà¶¯à·Ħà¶ħ":9038,"ocus":9039,"Ġà¶¸à·ħà¶½":9040,"Ġproject":9041,"à¶½à·Ģà¶ºà·ĥ":9042,"ronic":9043,"hotnews":9044,"ek":9045,"ng":9046,"pal":9047,"áĪ":9048,"Ġà·Ĵ":9049,"Ġà¶ļà¶¬":9050,"Ġà·Ħà¶Ńà¶º":9051,"Ġà·ĥà¶¸à¶¶à¶»à·Ģ":9052,"à·Ĥà¶ºà¶¯":9053,"atural":9054,"à¶¯à¶½à¶Ń":9055,"Ġà·Ģà¶§à¶ļà¶»":9056,"à¶¸à¶½à¶»":9057,"Ġdid":9058,"Ġà¶¯à·Ħà·Ģ":9059,"Ġrece":9060,"ops":9061,"à®µ":9062,"1992":9063,"ugg":9064,"æĹ":9065,"Ġà¶¸à¶ļà¶±":9066,"Ġà¶ľà·ĥà¶º":9067,"à¶»à¶ºà·Ģ":9068,"Ġà¶¢à¶±à·Ħà¶¸":9069,"à¶¨à·ģ":9070,"rel":9071,"Ġocc":9072,"ĠGlobal":9073,"ĠDh":9074,"adcast":9075,"Ġmain":9076,"ĠNGO":9077,"Ġà¶Ńà¶»à¶ľà¶ºà¶ļà¶§":9078,"ĠKh":9079,"uwan":9080,"Ġinterest":9081,"ĠUpdate":9082,".__":9083,"band":9084,"ein":9085,"ele":9086,"iqu":9087,"à·Ģà¶¯à¶±":9088,"à·Ģà¶łà¶»":9089,"à·Ħà¶ºà¶Ń":9090,"à¶§à¶ľà¶»":9091,"à¶ºà¶ļà¶»à¶«à¶ºà¶§":9092,"ano":9093,"Ġtyp":9094,"ĠTechà¶ļà¶Ń":9095,"Ġà¶ĭà¶©à·Ģà¶½à·Ģ":9096,"ĠHouse":9097,"Ġ102":9098,"à¶»à¶®à¶¸à·Ģà¶»à¶§":9099,"ĠState":9100,"Ġ1937":9101,"Ġquality":9102,"'.":9103,"SI":9104,"ney":9105,"à·Ģà·Ħà·ĥà¶ļ":9106,"à¶Ńà¶±à·Ģà¶¯":9107,"à·Ķ.....":9108,"Ġà¶¯à¶ľà¶½à¶±":9109,"à¶»à¶¸à¶«à¶ºà¶±":9110,"Ġà¶¢à¶±à¶¶à¶½à¶º":9111,"edy":9112,"à¶ļà¶Ńà¶§":9113,"Ġà·Ħà¶³à¶§":9114,"Ġwar":9115,"oles":9116,"Ġà¶Ńà¶»à¶ľà·Ģà¶½":9117,"irth":9118,"ayer":9119,"à¶ħà¶¯à¶§à¶Ń":9120,"ĠĠĠĠĠĠĠĠĠ":9121,"à·ı:-":9122,"1982":9123,"ances":9124,"Ġconsider":9125,"Ġmonth":9126,"?'":9127,"Open":9128,"],":9129,"ique":9130,"à·ĥà¶¶à¶»à¶ľà¶¸":9131,"à¶°à·Ģà¶Ń":9132,"Ġà¶ļà¶»à¶ļà·Ģ":9133,"à·ĸà¶Ĥ":9134,"ĠMr":9135,"ĠDiss":9136,"ĠRich":9137,"Ġdon":9138,"1956":9139,"Ġ1848":9140,"Ġà·ħà¶¸à¶ºà¶ľ":9141,"ĠJournal":9142,"à¶ķà¶»":9143,"à¶´à·Ħà¶ļà¶§":9144,"ĠReferences":9145,"Ġà¶¶à¶§à¶½à¶±":9146,"à¤¾":9147,"Asian":9148,"Ġstudy":9149,"EE":9150,"ced":9151,"à·ĥà·Ħà¶±":9152,"à·ĥà¶ľà¶±":9153,"à·ĻâĢĿ":9154,"à¶¯à¶¬":9155,"Ġà¶ķà·Ģà¶½":9156,"Ġà¶°à¶±à¶ºà¶ļ":9157,"ĠSu":9158,"à¶ºà¶¯à¶¸à¶§":9159,"ĠMus":9160,"Ġà¶¸à¶½à¶½à·ĥ":9161,"ĠGames":9162,"Ġmult":9163,"ilar":9164,"ĠFound":9165,"ĠOut":9166,"Ġà¶ħà·ħà¶½":9167,"inds":9168,"awei":9169,"ĠBritish":9170,"KA":9171,"ìĶ¨":9172,"Ġà¶´à¶¹à¶º":9173,"Ġà¶¯à¶©à¶¸":9174,"à¶Ĩà¶¸":9175,"Ġà¶¸à¶½à¶¶":9176,"à¶»à¶¢à¶¸":9177,"ĠHost":9178,"Ġà¶¸à¶Łà¶§":9179,"Ġne":9180,"Ġà¶¯à·Ħà¶±à·Ģà·Ģ":9181,"even":9182,"Ġforex":9183,"Ġà¶ħà¶§à¶§":9184,"à¶»à·Ħà·ĥà¶±":9185,"Ġcontrol":9186,"Ġlankahotnews":9187,"ĠHoldings":9188,"Facebook":9189,"eep":9190,"ius":9191,"oin":9192,"Ġà¶¨":9193,"à¶ºà¶Ł":9194,"Ġà¶¯à·Ģà¶±":9195,"Ġà¶ĳà¶»à¶±":9196,"Ġà¶Ķà¶Ńà¶½":9197,"à¶ħà·ĥà¶±":9198,"Ġà·Ħà¶»à¶ºà¶ļ":9199,"Ġà¶ħà¶»à¶ľà¶½à¶ºà¶±":9200,"alpa":9201,"ĠRav":9202,"Ġinternational":9203,"Ġà¶Īà¶´":9204,"Ġà¶ľà¶»à·Ħà¶±":9205,"urch":9206,"Ġ1943":9207,"ails":9208,"Ġund":9209,"Ġjob":9210,"Ġcurrent":9211,"HE":9212,"lin":9213,"à¶±à¶·":9214,"à·Ģà·Ģà¶½":9215,"à¶ļà¶½à¶±à¶ºà¶ļ":9216,"à·Ļà·Ĭ,":9217,"Ġà¶Ńà¶ļà¶Ń":9218,"à¶©à¶ºà¶ļà¶§":9219,"Ġà¶½à¶¶à¶¯":9220,"à¶ľà¶±à¶ºà¶±":9221,"ĠSum":9222,"Ġpay":9223,"ĠHy":9224,"Ġhouse":9225,"Ġà¶Įà¶±à¶±à¶º":9226,"à¶ħà¶¯à¶Ń":9227,"ĠJob":9228,"Ġà¶ļà·Ģà¶»à¶ºà¶ļ":9229,"awans":9230,"Ġà¶ĳà¶ļà¶ļà¶§à¶¸":9231,"à·ĥà¶¸à¶±à¶½":9232,".'":9233,"jith":9234,"à¶ľà¶±à·Ģ":9235,"Ġà¶¯à·ĥà¶Ń":9236,"Ġà¶¶à¶»à¶º":9237,"à·Ĥà·Ģà¶»à¶ºà¶ļ":9238,"à·Ģà¶Ńà¶±":9239,"à·Ģà¶§à·Ģà¶Ń":9240,"Ġ1918":9241,"Ġ1921":9242,"à¶Ĵà¶¸":9243,"reet":9244,"à¶»à¶¢à¶±à¶ļ":9245,"ĠLove":9246,"ĠRath":9247,"ĠEast":9248,"ĠEurope":9249,"agon":9250,"head":9251,"Ġgirl":9252,"à®±":9253,"à·ľâĢįà·Ĭ":9254,"Ġresp":9255,"à¶¨à¶ļà¶®":9256,"ĠGeorg":9257,"ĠFCID":9258,"Â¾":9259,"à·Ħà·Ģà·ĥ":9260,"Ġà·ĥà¶¤":9261,"Ġà·Ħà¶ºà¶»":9262,"à¶©à¶´à¶Ńà¶ļ":9263,"Ġà·ĥà¶¸à¶»à¶¸":9264,"à¶łà¶´":9265,"à¶ºà¶½à¶ľ":9266,"Ġà·Ģà¶½à¶¸":9267,"à¶ºà¶¸à¶¯":9268,"ĠCre":9269,"Ġà·ĥà¶±à·ĥà¶±":9270,"otal":9271,"Ġlos":9272,"2019":9273,"Ġgames":9274,"Ġ135":9275,"à·Ĥà¶«à¶ºà¶ļà¶¯":9276,"Ġà¶ħà¶«à·ĥà¶ļ":9277,"Ġ1933":9278,"uwath":9279,"However":9280,"Î¹":9281,"à·Ģà¶¢à¶±":9282,"à·ĥà¶¥":9283,"à·Ħà¶ºà¶º":9284,"Ġà¶´à¶¢":9285,"à·ĵ:":9286,"Ġà¶ħà·Ħà¶»":9287,"à¶©à¶¸à¶±":9288,"Ġà¶½à¶ľà¶¸":9289,"Ġà¶ħà¶´à¶§à¶¸":9290,"à¶Ĵà¶ļà¶º":9291,"Ġà¶īà¶½à·Ģ":9292,"ĠMc":9293,"Ġposs":9294,"ĠGPS":9295,"ĠRas":9296,"Ġgl":9297,"eve":9298,"ĠPhoto":9299,"ĠSamar":9300,"à¶®à¶ļà¶®à¶±à¶ºà¶ļ":9301,"men":9302,"à¶¯à·Ģà¶±à·Ģ":9303,"à¶Ńà¶»à·Ģà¶»":9304,"Ġà¶ħà¶´à·ĥ":9305,"Ġà¶¸à·Ħà¶´à¶§":9306,"à·Ģà·ĥà¶º":9307,"à¶Ľà¶½":9308,"Ġ1924":9309,"Ġà·Ĩà·ĥ":9310,"Ġà¶Ńà·Ģà¶Ńà·Ģà¶Ń":9311,"Ġsqu":9312,"ĠMB":9313,"ĠMark":9314,"ĠPolitics":9315,"ĠDavid":9316,"à·ģà¶ļà·Ģà¶»":9317,"à¶»à¶·à·Ģà¶ºà¶±":9318,"Ġà¶´à·Ħà¶»à¶§":9319,"Ġreal":9320,"à·ĴâĢ¦..":9321,"rown":9322,"ĠColumn":9323,"lette":9324,"à¶¸à¶»à¶ļ":9325,"Ġà¶¸à¶»à¶ļ":9326,"Ġà¶ľà·Ħà¶¸":9327,"à¶°à·ģ":9328,"à·Ĥà¶±à¶ºà¶§":9329,"à¶Ńà¶»à¶«à¶º":9330,"à¶¸à¶ļà¶½":9331,"Ġà¶ºà¶±à·Ģà¶±à¶¸":9332,"à¶ħà¶ľà¶±":9333,"à¶§à¶Ńà¶¯":9334,"Ġà·Ħà¶»à¶´":9335,"thers":9336,"Ġtry":9337,"Ġbit":9338,"ĠBrowser":9339,"aced":9340,"ĠWater":9341,"Ġless":9342,"1991":9343,"Ġroom":9344,"anguage":9345,"-)":9346,"900":9347,"ÉĻ":9348,"åĲ":9349,"à¶½à¶¶à¶º":9350,"Ġà¶ļà·Ģà¶¸":9351,"à·Ĳ'":9352,"Ġà¶ħà·Ģà¶ºà·Ģà¶º":9353,"à¶»à¶¯à¶ºà¶±":9354,"ĠBal":9355,"Ġ154":9356,"ively":9357,"Ġà·Ģà¶»à¶¯à¶ļà¶§":9358,"emat":9359,"Ġà¶ľà·Ħà¶«":9360,".............":9361,"à¶´à¶§à¶ºà¶ļ":9362,"à¶ľà¶¸à¶±à¶ºà¶±":9363,"ĠProject":9364,"plor":9365,"Ġlevel":9366,"Ġlinks":9367,"cap":9368,"uel":9369,"Ġà¶¯à·ħà¶¹":9370,"à¶·à·Ģà¶±à¶º":9371,"à¶»à¶«à¶§":9372,"esis":9373,"ĠShe":9374,"Ġà·ĥà¶¸à¶Łà¶¯":9375,"à¶ºà·Ģà·ĥà¶ļ":9376,"Ġà¶īà¶©à¶¸à¶§":9377,"ĠImage":9378,"Ġinf":9379,"imi":9380,"ĠAdv":9381,"Ġà¶ļà¶»à¶ļà·Ģà¶±":9382,"Ġpract":9383,"à¶¶à¶½à¶ļà¶©":9384,"ĠPassword":9385,"ja":9386,"ËĪ":9387,"à¶±à¶ļà¶»":9388,"à¶ľà¶ļà¶»":9389,"à¶ľà¶»à¶ºà¶§":9390,"Ġà·Ħà¶ŀ":9391,"Ġà¶¶à¶ļà¶¸":9392,"Ġà¶Ķà¶¯":9393,"à¶·à¶ºà¶ľ":9394,"Ġà¶´à¶»à¶ľ":9395,"Ġà¶°à¶¢":9396,"à¶ļà¶½à·ĥ":9397,"ĠSave":9398,"Ġopp":9399,"Ġmuch":9400,"Ġà¶ĩà¶ľà¶§":9401,"à¶´à·ħà·Ģà¶½":9402,"à·ı\".":9403,"Ġà¶¯à·ģà¶ļà¶ºà¶ļà¶§":9404,"There":9405,"!âĢĿ":9406,"DE":9407,"SC":9408,"ĉĠ":9409,"Ħ¢":9410,"à·Ĵ*":9411,"à¶±à¶¸à¶Ń":9412,"à¶¸à·ĥà¶ļ":9413,"Ġà·Ģà·Ħà·ĥ":9414,"à¶³à·Ģà¶½":9415,"à·Ģà¶Ńà¶ºà¶ļ":9416,"à·Ģà¶ļà¶§à¶Ń":9417,"Ġà·ĥà·Ħà·ģ":9418,"Ġà¶ħà·Ģà¶¸à¶ľ":9419,"Ġà¶Ńà¶»à¶±":9420,"....\"":9421,"ators":9422,"alin":9423,"à¶ĩà¶Ł":9424,"ĠDil":9425,"ĠBas":9426,"Ġdue":9427,"osa":9428,"irror":9429,"ags":9430,",,,":9431,"reedom":9432,"watch":9433,"Ġ================":9434,"à·Ģà¶¸à¶Ń":9435,"à¶´à¶ºà¶¸":9436,"Ġà¶±à¶¢":9437,"Ġà¶ĩà¶»à¶Ń":9438,"à¶¢à¶»à¶Ń":9439,"à¶·à¶ļà¶»":9440,"Ġà¶±à·Ģà¶ľà¶Ń":9441,"Ġhack":9442,"imation":9443,"uture":9444,"opp":9445,"ĠâĢ¦..":9446,"ðŁĳĮðŁĳĮðŁĳĮðŁĳĮðŁĳĮðŁĳĮðŁĳĮðŁĳĮðŁĳĮðŁĳĮðŁĳĮðŁĳĮðŁĳĮðŁĳĮðŁĳĮðŁĳĮðŁĳĮðŁĳĮðŁĳĮðŁĳĮðŁĳĮðŁĳĮðŁĳĮðŁĳĮðŁĳĮðŁĳĮðŁĳĮðŁĳĮðŁĳĮðŁĳĮðŁĳĮðŁĳĮðŁĳĮðŁĳĮðŁĳĮðŁĳĮðŁĳĮðŁĳĮðŁĳĮðŁĳĮðŁĳĮðŁĳĮðŁĳĮðŁĳĮðŁĳĮðŁĳĮðŁĳĮðŁĳĮðŁĳĮðŁĳĮðŁĳĮðŁĳĮðŁĳĮðŁĳĮðŁĳĮðŁĳĮðŁĳĮðŁĳĮðŁĳĮðŁĳĮðŁĳĮðŁĳĮðŁĳĮðŁĳĮ":9447,"Ġboard":9448,"IG":9449,"à·ĥà·Ģà¶Ń":9450,"à·Ļà·Ĵ.":9451,"Ġà¶¯à¶»à¶¯":9452,"à·ģà·Ģà¶½à¶¯":9453,"Ġà¶¢à¶§":9454,"à·Ħà¶½à¶Ń":9455,"à¶»à¶ºà¶ļà¶¸":9456,"à·Ģà¶ºà¶ļà¶º":9457,"ĠDSLR":9458,"à·ļ...\"":9459,"Ġvirus":9460,"ability":9461,"ecut":9462,"à·Ħà¶¯à·ģ":9463,"OSS":9464,"Ġimport":9465,"Ġlanguages":9466,"ĠChinese":9467,"athilaka":9468,"å¸":9469,"à¶´à¶°":9470,"Ġà¶Ńà·ħ":9471,"à·Ĵ.'":9472,"Ġà¶Ĵà¶ļà¶½":9473,"alysis":9474,"à¶©à¶ļà·ħ":9475,"à¶ľà¶ºà¶ļà¶¯":9476,"à¶¡à·Ģ":9477,"à·Ļ.\"":9478,"Ġmobile":9479,"Ġ111":9480,"à·ĬâĢĻ,":9481,"Ġgiven":9482,"Ġ1400":9483,"à¶ķà¶½":9484,"Ġà¶ħà·Ħà¶±à¶ļ":9485,"Ġvict":9486,"Ġà¶įà·Ĥ":9487,"Ġteams":9488,"ĠBandara":9489,"ĠWikipedia":9490,"TB":9491,"drop":9492,"å¹":9493,"à·Ĵ!!":9494,"à¶¸à¶½à¶§":9495,"à¶¯à¶½à¶º":9496,"à¶¶à·Ģà¶¸":9497,"Ġà¶ĳà¶ļà¶¸à¶º":9498,"Ġà¶ħà¶´à¶¸à¶«à¶º":9499,"Ġà·ĥà·Ħà¶±à¶¯":9500,"Ġà¶©à¶ŀ":9501,"à¶ĩà¶ļ":9502,"rey":9503,"rees":9504,"Ġpolitical":9505,"Ġtechn":9506,"ĠDrama":9507,"à·ļ..?":9508,"apers":9509,"ĠChamp":9510,"à·ĴâĢĻ.":9511,"à¶ľà·Ħà¶´":9512,"Ð°ÑĢ":9513,"ĠExpress":9514,"Ġfollowing":9515,"IR":9516,"LO":9517,"gl":9518,"jpg":9519,"Î½":9520,"à¶±à¶»à¶ļ":9521,"à¶ļà¶½à¶ļà¶§":9522,"Ġà¶ļà¶łà¶½":9523,"à¶ľà¶°":9524,"Ġà¶Ńà·ĥ":9525,"à¶ĳà·ħà¶¹":9526,"Ġà¶´à¶¯à¶ºà¶§":9527,"ĠAction":9528,"ĠGen":9529,"ĠRem":9530,"Ġà¶»à¶§à·Ģà¶½à¶Ń":9531,"ĠBox":9532,"Ġinst":9533,"à¶ĳà¶¸à¶Ł":9534,"Ġ115":9535,"Ġ240":9536,"1985":9537,"ts":9538,"ves":9539,"Ø³":9540,"à·ĥà·Ģà¶ļ":9541,"à¶³à·Ģà¶¸":9542,"Ġà¶ĳà¶±à·Ģà¶±":9543,"à¶Ĵà¶º":9544,"estern":9545,"Ġaward":9546,"Ġà¶±à¶ľà¶»à¶ºà¶º":9547,"Ġ???":9548,"âĢĭ?":9549,"Ġà·ĥà¶Ńà¶»à·Ģà¶±":9550,"ĠConf":9551,"Ġphoto":9552,"Ġwickets":9553,"If":9554,"Ġ}":9555,"à¶´à¶¸à¶±":9556,"à·Ģà¶±à¶´":9557,"à·Ħà¶±à¶¸":9558,"Ġà·ĥà¶³à¶¸":9559,"à·ĵ.)":9560,"Ġà¶´à·Ħà¶¸":9561,"ĠCong":9562,"Ġthread":9563,"Ġà¶ļà¶§à·Ħ":9564,"rem":9565,"à¶»à¶ľà¶¸à¶±":9566,"anced":9567,"ÐºÐ¸":9568,"Â®":9569,"à¶±à¶´à·Ħ":9570,"Ġà·Ħà¶Ńà¶§":9571,"à·ħà·Ģà¶±":9572,"Ġà¶ĭà·ĥà¶º":9573,"Ġà¶ĭà¶´à¶ľ":9574,"Ġ1914":9575,"ster":9576,"icle":9577,"itation":9578,"Ġsens":9579,"ĠKore":9580,"à¶¯à¶ºà¶§à¶Ń":9581,"Ġà¶ħà¶ľà¶ºà¶ºà¶±":9582,"1984":9583,"unday":9584,"ymbol":9585,"ĠMovie":9586,"levision":9587,"ilosophy":9588,"700":9589,"?..":9590,"à¶ļà¶ļà¶¸":9591,"Ġà¶ĩà¶¯à¶ľà¶Ń":9592,"à·Ģà¶½à¶ľ":9593,"à¶¸à¶ļà·Ģà¶±":9594,"Ġà¶Ńà¶»à·Ģà¶§":9595,"Ġà¶Ĭà¶ľ":9596,"edd":9597,"Ġcamp":9598,"à¶©à¶±à¶ºà¶±":9599,"à·Ħà¶¸à¶©":9600,"ĠHack":9601,"aces":9602,"ĠFin":9603,"ĠVirtual":9604,"Ġreport":9605,"Ġlead":9606,"1972":9607,"Ġcontent":9608,"ĠDef":9609,"âĸł":9610,"Ġviews":9611,"PN":9612,"rest":9613,"sch":9614,"à¶±à¶ľà¶¸":9615,"à¶¸à·Ħà¶¸":9616,"Ġà¶¶à¶¢":9617,"Ġ1922":9618,"ĠAth":9619,"ĠAward":9620,"à¶ļà¶»à¶«à·Ģ":9621,"ĠTechn":9622,"Ġbody":9623,"ache":9624,"Ġ104":9625,"upt":9626,"Ġà¶ĳà¶»à¶§à¶§":9627,"Ġque":9628,"Ġsuccess":9629,"cy":9630,"âĺ":9631,"ìĦ":9632,"à·Ħà¶±à·Ģà¶½à¶§":9633,"Ġà¶¸à·Ģà¶º":9634,"à¶¶à¶¢":9635,"Ġà¶ºà·Ĥ":9636,"à¶³à·ĥ":9637,"à·Ģà¶ºà¶¹":9638,"Ġ1925":9639,"ĠCouncil":9640,"Ġcirc":9641,"ĠTool":9642,"ĠDon":9643,"ĠDrive":9644,"ĠRAM":9645,"uru":9646,"Ġgreat":9647,"à·Ħà¶¬à¶º":9648,"Ġà¶¶à¶§à¶ºà¶ļ":9649,"Ġtrad":9650,"cribe":9651,"Ġqual":9652,"LL":9653,"Qu":9654,"ging":9655,"yes":9656,"Âģ":9657,"ĠÙħ":9658,"à¶»à¶ľà¶¸à¶±à¶º":9659,"à·Ħà·Ģà¶½":9660,"à¶«à·Ħà¶¸":9661,"Ġà¶ļà¶½à¶ļà¶¯":9662,"anch":9663,"à¶¶à¶±à¶±à¶º":9664,"à¶ļà¶½à¶¯":9665,"à¶§à¶»à¶ºà¶ļà¶§":9666,"reaking":9667,"à¶ĭà¶ºà¶±":9668,"Ġmust":9669,"Ġoften":9670,"Ġà·ĥà¶»à·ĥà¶±":9671,"Ġhard":9672,"Ġlook":9673,"Ġrepl":9674,"Ġà¶Ńà¶½à¶ºà¶ļà¶§":9675,"à¶ļà¶¸à¶§à·Ģà¶Ń":9676,"ĠUnion":9677,"ÐµÐ½":9678,"ĠScreen":9679,"Ġcentury":9680,"Ed":9681,"PM":9682,"cel":9683,"eer":9684,"sl":9685,"ïĢ":9686,"à·Ĭ&":9687,"à¶»à¶ļà¶»à¶±":9688,"Ġà¶¸à·Ģà¶¸":9689,"à¶´à¶Ńà¶±à¶ºà¶ļ":9690,"Ġà·ģà¶¸":9691,"Ġà¶ħà¶Ńà·Ģ":9692,"à¶Ĩà¶´à¶¯":9693,"ĠMath":9694,"Ġà¶¸à¶½à¶ľ":9695,"Ġà¶ħà¶ľà¶ºà¶¸":9696,"à·Ĥà¶±à¶»":9697,"Ġà¶ļà¶´à¶´":9698,"Ġver":9699,"Ġbeh":9700,"Ġ1935":9701,"icture":9702,"à¶Ńà¶¥à¶Ń":9703,"ĠGolden":9704,"oà¶ļ":9705,"åŃ":9706,"à·Ħà¶ļà¶ºà¶ļ":9707,"à·ĵ;":9708,"à¶Ĥ?":9709,"à¶łà¶§":9710,"à·ĬâĢĮ\"":9711,"à·ĬâĢĮ)":9712,"à¶ħà¶»à¶¸":9713,"Ġà¶ĳà¶ºà¶¸à¶º":9714,"à¶»à¶«à¶ļà¶»":9715,"Ġà¶ħà¶½à·Ģà¶½":9716,"ench":9717,"Ġà¶ļà¶©à¶±à·Ģ":9718,"à¶ĩà¶»à¶½":9719,"Ġmen":9720,"ĠWi":9721,"ources":9722,"ĠChat":9723,"ĠYear":9724,"Ġscience":9725,"Ġrecognized":9726,"bl":9727,"hu":9728,"Ġà·ĥà¶¸à¶¢":9729,"à·ı.'":9730,"Ġà¶ħà¶ºà·Ģà¶Ń":9731,"à¶»à·ĥà¶ºà¶§":9732,"Ġà¶´à·Ħà¶«":9733,"Ġpresent":9734,"ĠLine":9735,"ĠRun":9736,"Ġà¶ĩà¶¯à¶´":9737,"ette":9738,"à·Ĭ..!":9739,"Ġloss":9740,"ĠView":9741,"Ġà¶ħà¶Łà·Ģà¶±":9742,"lection":9743,"ength":9744,"à¶Ĩà¶¯à¶»à¶«":9745,"Ġprint":9746,"ĠPriy":9747,"ĠCSS":9748,"Microsoft":9749,"PI":9750,"à¶ľà¶³":9751,"à·ģà¶§":9752,"à·Ĥà¶ľà¶Ń":9753,"à¶¢à¶±à·Ģà¶½à¶§":9754,"à·Ģà¶»à¶ľ":9755,"Ġà¶ħà¶¯à·Ģà¶±":9756,"à¶ħà¶¸à¶»":9757,"à¶±à¶Ńà¶±":9758,"orial":9759,"Ġovers":9760,"ĠFern":9761,"iph":9762,"à¶»à¶´à¶§à¶ºà¶º":9763,"ĠJapan":9764,"âĢįâĢįâĢį":9765,"ãģĹ":9766,"ealand":9767,"ĠTeam":9768,"Ġcaptain":9769,"Ġoriginal":9770,"After":9771,"bar":9772,"kg":9773,"uit":9774,"Ġid":9775,"à¶ºà¶«à¶º":9776,"à·ĻâĢĻ":9777,"à·Ħà¶Ńà¶ļ":9778,"à¶©à¶ľà¶Ń":9779,"Ġà¶ĩà·Ģà¶»":9780,"à¶¢à¶«":9781,"à¶łà¶ºà¶§":9782,"à·Ĩà·ĥ":9783,"onym":9784,"Ġà¶ĭà¶¯à¶ºà¶±":9785,"à¶¥à¶Ń":9786,"Ġà¶ħà·Ħà·Ģà¶»à¶º":9787,"à¶Ńà¶½à¶Ń":9788,"à¶»à¶ºà¶§à¶¯":9789,"oulette":9790,"ĠRuss":9791,"Ġà¶ĭà¶©à¶Ł":9792,"enty":9793,"ĠWil":9794,"email":9795,"Ġ145":9796,"ahoo":9797,"Ð½Ñĭ":9798,"ixel":9799,"Ġappeared":9800,"ĠMichael":9801,"]]":9802,"vt":9803,"Ġide":9804,"à¶´à¶Ńà¶»":9805,"Ġà¶¯à¶ºà¶½":9806,"Ġà¶ħà¶´à·Ħà¶§":9807,"à·Ģà¶ºà·Ģ":9808,"Ġà¶¶à¶½à¶½à¶¸":9809,"à¶¹à·ĥ":9810,"ĠMicro":9811,"Ġtab":9812,"Ġfolder":9813,"ĠNam":9814,"elle":9815,"Ġtook":9816,"Ġ1100":9817,"ĠJack":9818,"Ġà¶ĩà¶´à¶ļà¶»":9819,"ãģ«":9820,"ĠClub":9821,"ĠWhat":9822,"gypt":9823,"Be":9824,"ban":9825,"no":9826,"ìł":9827,"à·ļâĢľ":9828,"à¶¯à¶ł":9829,"à·Ŀà·Ĭ":9830,"à¶ľà¶½à¶¯":9831,"though":9832,"ĠSiy":9833,"à·ĥà¶¸à¶ľ":9834,"itect":9835,"ĠPark":9836,"Ġà¶ĩà¶±à·Ħ":9837,"Ġnext":9838,"à·ļ...?":9839,"ĠURL":9840,"Ġexam":9841,"ĠZealand":9842,"ĠBlue":9843,"Ġtitle":9844,"NU":9845,"Windows":9846,"ca":9847,"set":9848,"åĪ":9849,"à·Ļ?\"":9850,"à·ĥà¶½à¶»":9851,"ĠMor":9852,"à¶¯à¶ļà·Ģà¶»à¶º":9853,"Ġà¶Ńà¶»à¶ľà·Ģà¶½à¶¯":9854,"Ġ1080":9855,"Ġà¶ĳà¶ºà¶§à¶¸":9856,"Ġnational":9857,"Ġà¶Įà¶«à¶Ń":9858,"à¶´à·ħà·Ģ":9859,"Ġà·ĥà¶Łà·Ģà¶±":9860,"Ġà¶»à¶łà¶ļà¶ºà¶ļ":9861,"Ġcond":9862,"ĠPlayer":9863,"Ġà·ĥà¶¸à¶®à¶ºà¶ļà¶§":9864,"à¶Ńà¶¹":9865,"à·ĥà¶¸à¶»":9866,"Ġà¶´à¶¹":9867,"Ġà¶Ĩà·Ģà·ĥ":9868,"à¶»à¶ļà¶Ńà¶±à¶ºà¶§":9869,"Ġà·Ģà¶»à·Ħà¶±":9870,"ĠSyn":9871,"ĠCap":9872,"icense":9873,"à·Ķ.âĢĿ":9874,"à¶Ĩà¶§à¶±":9875,"Ġà¶ļà¶±à¶´":9876,"Ġold":9877,"Ġtem":9878,"à¶ļà¶©à¶ºà¶ļ":9879,"à·Ĭ...\"":9880,"Ġlim":9881,"istant":9882,"à·ĴâĢįâĢį":9883,"Ġà·Ģà¶łà¶±à·Ģà¶½à¶§":9884,"à·ĬâĢ¦..":9885,"Ġ1941":9886,"Ġà¶īà¶»à¶«à¶¸à¶ļ":9887,"Ġappro":9888,"ĠControl":9889,"etting":9890,"ĠSamsung":9891,"ĠSkype":9892,"à¥į":9893,"ME":9894,"ways":9895,"à¶§à·Ģà¶ļ":9896,"Ġà¶¯à¶½à¶º":9897,"Ġà¶ºà·Ģà¶º":9898,"Ġà¶¢à¶ºà¶§à¶¸":9899,"Ġà¶¸à¶§à¶±":9900,"Ġà¶»à¶¢à¶ľ":9901,"Ġ1910":9902,"ĠSat":9903,"Ġà¶ĳà·ĥà¶¸à¶º":9904,"Ġà·ħà¶´à¶§":9905,"Ġsince":9906,"ĠMaster":9907,"ĠBack":9908,"Ġà¶ºà¶§à¶ļ":9909,"Ġ1880":9910,"ĠJe":9911,"Ġ2600":9912,"ãģŁ":9913,"ĠISIS":9914,"Ð¾Ð¼":9915,"asingha":9916,"unication":9917,"à·ĵ(":9918,"Ġà¶¶à·ħà¶±":9919,"Ġà¶Ķà¶ºà¶§":9920,"erry":9921,"à¶»à·ĥà¶·":9922,"à·ĥà¶ļà·ĥ":9923,"alog":9924,"Ġà·ĥà¶»à·ħà·Ģ":9925,"ĠNorth":9926,"à¶»à¶łà¶ļà¶º":9927,"Ġ114":9928,"ĠĠĠĠĠĠĠĠĠĠ":9929,"aham":9930,"Ġdeath":9931,"Ġplayers":9932,"Ġsystems":9933,"Ġcountries":9934,"çļĦ":9935,"All":9936,"No":9937,"SO":9938,"bs":9939,"des":9940,"mal":9941,"à·ĻâĢ¦.":9942,"Ġà¶¸à¶»à¶¸":9943,"à·ģà¶«à¶ºà¶§":9944,"à¶Ĥà·Ļ":9945,"Ġà¶Ĩà¶±à¶¸":9946,"à·Ģà¶ļà¶§à¶º":9947,"anayaka":9948,"eri":9949,"Ġà¶ħà·ĥà¶¸à¶ľ":9950,"Ġ1927":9951,"ĠSee":9952,"Ġà¶¯à·Ģà·ĥà¶º":9953,"à·Ļ.âĢĿ":9954,"ĠLight":9955,"amed":9956,"à·ĥà¶³à·Ħ":9957,"à·Ĵ...\"":9958,"Ġlow":9959,"Ġà·ħà¶Łà¶§à¶¸":9960,"utch":9961,"Ġstatus":9962,"Ġproduct":9963,"raffic":9964,"Ġà¶¢à¶±à¶¸à¶Ńà·Ģ":9965,"Ġdisplay":9966,"ambots":9967,"Ġformat":9968,"PR":9969,"vey":9970,"Ïģ":9971,"à·ĥà·Ħà¶Ń":9972,"Ġà¶±à¶§à¶½":9973,"Ġà¶Ĵà·Ģà¶±":9974,"Ġà¶¶à¶½à·Ħ":9975,"Ġà¶ħà¶Ńà¶Ń":9976,"à¶»à·ĥà¶½":9977,"ĠSex":9978,"ising":9979,"ĠTom":9980,"Ġdrive":9981,"osp":9982,"Ġà¶Īà·Ģ":9983,"à¶Ĭà·ĥ":9984,"à·ģà¶ºà¶ļà¶¸":9985,"ĠUs":9986,"ĠProcess":9987,"anks":9988,"Ġà¶´à¶¯à¶±à¶¸à¶§":9989,"1986":9990,"Ġspambots":9991,"ĠUbuntu":9992,".âĢį":9993,"VI":9994,"gov":9995,"à·Ģà·Ģà¶±":9996,"à¶Ńà¶¢":9997,"à¶±à¶ºà¶§à¶¸":9998,"à·Ģà¶±à·ĥ":9999,"Ġà¶¶à¶½à¶ļà¶»":10000,"Ġ.!":10001,"icine":10002,"Ġstory":10003,"à·ı\",":10004,"obe":10005,"ĠWhite":10006,"Ġà¶ĳà·Ģà¶»à·ĥ":10007,"Ġetc":10008,"sub":10009,"sinhala":10010,"áĢ":10011,"à¶ļà¶´à¶§":10012,"à·ĻâĢįà·ĬâĢį":10013,"Ġà¶Ĩà¶¢à¶±":10014,"à¶ħà¶±à·Ģ":10015,"Ġ210":10016,"Ġà¶Ĭà¶§à¶¸":10017,"Ġà¶Ĵà¶ļà¶¯":10018,"atory":10019,"à¶½à¶°à¶»à¶ºà¶±":10020,"ĠType":10021,"à¶»à¶¢à¶»à¶§":10022,"à·Ģà¶ļà¶§à¶¯":10023,"ĠId":10024,"Ġà¶īà¶³à¶´":10025,"osc":10026,"Ġà·ĥà¶¸à¶±à¶½à¶º":10027,"ĠUK":10028,"Ġà·ĥà¶¶à¶³à¶ļà¶¸":10029,"Ġ077":10030,"Ġuser":10031,"Ġexp":10032,"ãĥ¼":10033,"Ġà·ĥà¶»à¶¯à¶¸":10034,"ĠRajapaksa":10035,"Ġà·ĥà¶ŀ":10036,"Ġà¶¸à¶ļà¶½":10037,"à¶«à¶°à¶»":10038,"à¶©à¶©":10039,"à¶·à¶ºà¶º":10040,"à¶»à·Ģà¶ºà¶±":10041,"Ġ1919":10042,"Ġ1905":10043,"à¶»à·Ģà¶»à¶ºà¶ļ":10044,"ential":10045,"à·Ģà¶»à¶«à·Ģà¶½à¶¯":10046,"Ġstill":10047,"useum":10048,"Ġà¶ĭà¶¯à·Ħà·ĥà¶§":10049,"äºº":10050,"Ġdraw":10051,"101":10052,"</":10053,"ki":10054,"mi":10055,"à¶¯à¶ºà¶¸":10056,"Ġà¶ºà·ĥà·ĥ":10057,"Ġà¶»à·Ħà¶§":10058,"Ġà¶»à¶«à¶ļ":10059,"Ġà¶ĩà¶Ńà¶º":10060,"Ġ(âĢľ":10061,"Ġà¶¢à¶±à·ĥà¶¸":10062,"Ġà¶§à¶¸":10063,"à·ĥà¶±à¶Ń":10064,"Ġà¶ķà¶ļà¶±":10065,"Ġà¶ĭà¶¯à¶½":10066,"aran":10067,"ĠCopy":10068,"Ġà·Ģà¶§à¶¯":10069,"Ġcm":10070,"ĠMeg":10071,"inger":10072,"anding":10073,"Ġblood":10074,"ĠGreat":10075,"ently":10076,"à·ģà¶±à¶ºà¶º":10077,"à¶Ńà¶ºà¶§à¶¸":10078,"Ġà¶ľà·Ħà¶¯":10079,"avi":10080,"Ġà¶±à·Ģà¶ļà¶ºà¶±":10081,"à·ıâĢ¦âĢĿ":10082,"Ġà¶¯à¶Łà¶»":10083,"ĠĠĠĠĠĠĠĠĠĠĠĠĠĠĠĠĠĠĠĠĠĠĠĠĠĠĠĠĠĠĠĠĠĠĠĠĠĠĠĠĠĠĠĠĠĠĠĠĠĠĠĠĠĠĠĠĠĠĠĠĠĠĠĠ":10084,"kin":10085,"uff":10086,"Ġ^":10087,"à·ħà¶´à¶±":10088,"Ġà¶Ķà¶ľà·ĥ":10089,"à·ĳ'":10090,"à¶®à¶½":10091,"à¶¸à¶±à¶¯":10092,"Ġà¶Ĭà¶½à¶¸":10093,"Ġà¶´à·ħà¶¯":10094,"Ġà·Ĩà¶§":10095,"à·ļ,,":10096,"Ġcell":10097,"à¶ļà¶»à¶«à¶ºà¶º":10098,"Ġfive":10099,"Ġ?âĢĿ":10100,"Ġ138":10101,"ĠInc":10102,"ĠInst":10103,"artment":10104,"Ġà¶ĭà¶´à¶ļà¶»à¶«à·Ģà¶½":10105,"ĠUnivers":10106,"iyan":10107,"ðŁĺĤ":10108,"Ġmean":10109,"ographic":10110,"Ġreturn":10111,")(":10112,"Or":10113,"Up":10114,"à¶±à·Ħà¶½":10115,"à¶½à·Ħà¶ļ":10116,"Ġà¶ļà¶¸à¶±":10117,"Ġà·Ħà¶½à¶±":10118,"Ġà¶¢à¶±à¶ļà¶º":10119,"à¶ħà·Ģà¶ļ":10120,"Ġà¶ħà¶©à¶ļà¶§":10121,"Ġà¶ķà¶±à¶±à¶¸":10122,"à¶īà¶©":10123,"Ġsix":10124,"ĠLab":10125,"ĠGraph":10126,"Ġà·ĥà¶½à·ĥà¶¸":10127,"Ġ122":10128,"Ġà·ħà¶Łà¶º":10129,"istr":10130,"à·ļ?âĢĿ":10131,"Ġwhite":10132,"Ġusually":10133,"Ġ1934":10134,"Ġcontact":10135,"Ġtransl":10136,"âĦ¢":10137,"à¶»à·Ģà¶±à·Ģ":10138,"à¶ľà·Ħà¶ļ":10139,"Ġà¶Ńà·Ģà¶½à¶¸":10140,"à·ħà¶ľà·ĥ":10141,"à·Ŀ.....":10142,"à¶¢à¶ļà¶Ń":10143,"Ġà·ĥà¶¸à¶¶à¶±":10144,"Ġà¶¸à·Ħà¶ĩà¶¸à¶Ń":10145,"à¶±à¶ļà¶ļ":10146,"Ġà¶©à¶ºà¶»":10147,"Ġ1923":10148,"iting":10149,"à¶Ĩà¶¶":10150,"Ġ550":10151,"asena":10152,"ention":10153,"ige":10154,"oper":10155,"à·Ĥà¶ºà¶§à¶Ń":10156,"ending":10157,"thern":10158,"ĠKumara":10159,"Ġspecial":10160,"Ġposition":10161,"gu":10162,"rite":10163,"à·ı][":10164,"à¶ºà¶Ĩà¶»à¶ł":10165,"à¶ļà¶±à·Ģ":10166,"à·Ĳ?":10167,"Ġà¶¶à¶¢à¶§":10168,"à·ħà¶Ķ":10169,"Ġà¶Ĵà¶Ńà¶»à¶¸":10170,"Ġà¶ļà¶»à¶±à·Ģà¶½":10171,"à¶ºà·Ģà·ĥà¶ļà¶§":10172,"à¶Ŀà¶Ńà¶¸":10173,"ðŁĴ":10174,"Ġgeneral":10175,"ocol":10176,"Ġyoutube":10177,"Ġwithin":10178,"à¶Ńà¶ļà¶§à·Ģà¶Ń":10179,"ĠÐº":10180,"à¶´à¶¸à¶«à¶¯":10181,"Ġusing":10182,"Ġadv":10183,"ĠTrade":10184,"adeep":10185,"Ġà¶ļà¶§à·Ħà¶¬à¶ļ":10186,"Ġdevices":10187,"Ġsingle":10188,")-":10189,"DT":10190,"RR":10191,"light":10192,"Ã§":10193,"à¶«à¶§à¶¸":10194,"à¶¶à¶½à·Ģ":10195,"à·ħà¶ļà¶»":10196,"Ġà¶ĩà¶»à¶±":10197,"Ġà¶»à·ĥà¶¸":10198,"à¶łà¶ŀ":10199,"onn":10200,"ĠSD":10201,"ĠSom":10202,"Ġà·ħà¶ļ":10203,"ĠAz":10204,"à¶ļà¶»à¶«à¶¸à¶º":10205,"Ġsam":10206,"Ġsound":10207,"ĠMat":10208,"Ġ650":10209,"à·Ģà¶ľà¶ļ":10210,"ĠNa":10211,"ĠName":10212,"Ġ168":10213,"à·Ģà·ħà¶½":10214,"ÐµÐ»":10215,"Ġà®ķ":10216,"Ġà·ĥà¶»à¶¯à¶¸à¶ļ":10217,"DS":10218,"mas":10219,"valign":10220,"Ø¹":10221,"Ġà·ı":10222,"à¶»à¶©à¶ļ":10223,"à¶Ńà·Ħà·ĥ":10224,"à¶ļà¶¢":10225,"Ġà·Ģà·ĥà¶½":10226,"Ġà¶¸à¶±à¶Ń":10227,"Ġà·Ħà¶«":10228,"à¶¶à¶»à¶ļ":10229,"à¶©à¶ļà¶½":10230,"Ġà¶īà·Ĩ":10231,"Ġà¶īà¶ºà¶»":10232,"Ġà·ĥà¶¸à¶»à¶Ń":10233,"à·Ģà¶ļà·Ģà¶Ń":10234,"Ġà¶ļà·ħà¶«":10235,"Ġà¶¢à¶±à¶ļà¶Ń":10236,"alf":10237,"Ġ1928":10238,"à¶¸à¶»à·Ģà¶½":10239,"Ġà¶¯à¶±à¶±":10240,"Ġsol":10241,"à¶ĭà¶´à¶ļ":10242,"ĠRam":10243,"Ġà·Ħà·ĥà¶»à¶ļ":10244,"à·ĴâĢįà·Ļ":10245,"ording":10246,"ĠProt":10247,"1981":10248,"arget":10249,"ribut":10250,"Ġà¶ľà¶ľà¶±à¶ľ":10251,"MR":10252,"à¶ºà¶»à¶ļ":10253,"Ġà·Ģà·ħà·Ģ":10254,"Ġà·Ħà¶¶à¶»":10255,"à¶Ńà¶»à¶¸à¶ļ":10256,"Ġà¶·à¶ľà·Ģà¶Ń":10257,"à¶»à·Ģà¶¯à¶±":10258,"ĠSa":10259,"à¶ĩà·ħ":10260,"Ġsem":10261,"Ġà¶ħà¶´à¶§à¶¯":10262,"ĠVer":10263,"Ġrev":10264,"okia":10265,"alaxy":10266,"Ġ3500":10267,"ĠHotNews":10268,"à¶±à¶Łà¶§":10269,"?????":10270,"VQ":10271,"ba":10272,"ä½":10273,"Ġæ":10274,"Ġà¶¯à¶»à¶¯à¶¬":10275,"à·Ŀ(":10276,"Ġà¶ļà¶»à¶©":10277,"Ġà¶Ĵà¶¸à¶º":10278,"à¶ºà¶½à¶ºà¶§":10279,"à¶ħà¶»à¶½":10280,"Ġà¶ĳà¶¸à¶»":10281,"à·ı,âĢĿ":10282,"à¶¯à¶½à¶¸":10283,"à·ĥà¶½à·Ģ":10284,"itel":10285,"ilit":10286,"Ġà¶ĭà¶©à¶´à¶±":10287,"Ġheld":10288,"Ġlo":10289,"ules":10290,"aph":10291,"umbers":10292,"Ġcome":10293,"Ġà¶»à¶łà¶±à¶ºà¶ļ":10294,"IDS":10295,"Ġperiod":10296,"Ġoffice":10297,"****************":10298,"âĢĶâĢĶâĢĶâĢĶ":10299,"ĠCorporation":10300,"\"\"":10301,"Off":10302,"mistry":10303,"Ãł":10304,"à¶±à¶¶à·Ģ":10305,"à¶½à¶´à¶¯":10306,"à¶»à¶ºà·ħ":10307,"Ġà¶´à¶»à¶Ń":10308,"Ġ1911":10309,"Ġ1926":10310,"à¶¬à·Ģ":10311,"à¶Ĩà¶´à·Ħ":10312,"Ġcare":10313,"Ġmail":10314,"Ġmemb":10315,"ĠWatch":10316,"à·Ħà¶¯à·Ģà¶Ń":10317,"Ð½Ð°":10318,"color":10319,"Ġspeak":10320,"ĠPaul":10321,"Jun":10322,"google":10323,"à·Ĵ]":10324,"Ġà¶ĭà¶«à¶ļ":10325,"Ġà·ĥà·Ħà¶½à¶ļ":10326,"à¶´à¶Ńà¶¸à¶ºà¶±":10327,"Ġà·Ģà¶»à¶½":10328,"Ġà¶ħà¶°à¶¸":10329,"Ġà¶ķà¶±à·Ģà¶§":10330,"à¶Ľà¶±à¶ºà¶§":10331,"Ġà¶»à¶¢à¶ºà¶Ń":10332,"à¶½à¶¸à¶®":10333,"ander":10334,"à¶±à¶ľà¶ļ":10335,"Ġà¶ĩà¶Łà·ħ":10336,"Ġà¶Ĩà¶±à¶ºà¶±à¶ļà¶»":10337,"berg":10338,"ÐµÑĤ":10339,"ĠSpace":10340,"Ġenter":10341,"Ġ>>":10342,"350":10343,"My":10344,"PE":10345,"video":10346,"Ä«":10347,"åĬ":10348,"à·Ķ?":10349,"à¶§à·Ģà¶»":10350,"Ġà¶´à¶®à¶ºà¶§":10351,"Ġà¶ĳà¶±à·Ģà¶½":10352,"Ġà·ĥà¶¸à¶ºà¶±":10353,"à·Ĭ.(":10354,"Ġà¶ħà¶©à¶¸":10355,"Ġà¶´à·ħà¶³à¶±":10356,"à¶©à¶±à¶ľà¶¸":10357,"Ġwhe":10358,"ĠGood":10359,"Ġmode":10360,"ĠEmail":10361,"agama":10362,"ems":10363,"âĢĭâĢĭ":10364,"à¶ķà¶¸":10365,"overy":10366,"ailable":10367,"Ġà¶ļà·Ħà·Ģà¶Ń":10368,"ĠXP":10369,"ensis":10370,"ĠâĢĽâĢĽ":10371,"ãĤĴ":10372,"++++++++":10373,"ividual":10374,"Gr":10375,"Ļķ":10376,"à¶Ĥ)":10377,"à¶łà¶½à¶¸":10378,"à·ĳ......":10379,"à¶ħà·ĥà¶¸":10380,"ĠSiri":10381,"à¶Ńà¶½à¶ºà¶§":10382,"Ġtheory":10383,"ĠIN":10384,"Ġdays":10385,"à¶µà·ĥ":10386,"ida":10387,"Ġà¶µà¶½à¶ļà¶º":10388,"Ġà¶ľà·Ħà¶±à¶ļ":10389,"inder":10390,"Ġstage":10391,"ĠYour":10392,"Ġanother":10393,"ĠÐ´":10394,"Ġrepresent":10395,"gn":10396,"ÑĨ":10397,"Ġà·Ģà¶°à¶º":10398,"Ġà¶ľà¶¸à¶ļà¶§":10399,"Ġà¶Ĩà¶³":10400,"à¶·à¶ľ":10401,"à¶¸à¶Ńà¶½":10402,"Ġ.\"":10403,"Ġà¶ħà·Ħà¶½à¶ļ":10404,"ĠAk":10405,"Ġsit":10406,"ĠMess":10407,"Ġà¶»à·ĥà¶ºà¶§":10408,"Ġbus":10409,"asc":10410,"ĠDuration":10411,"ĠBel":10412,"etri":10413,"Ġà¶¶à¶»à¶´à¶Ńà¶½à¶¸":10414,"à®ļ":10415,"Ġà¶ĵà¶±":10416,"echan":10417,"azon":10418,"ĠICT":10419,"ĠManager":10420,"emplate":10421,"Tw":10422,"rd":10423,"Ġà¶´à¶¨à·Ģ":10424,"à¶ľà¶©à¶¸":10425,"à·ħà¶½à¶ļ":10426,"à¶ºà¶ļà¶§à¶º":10427,"à¶¢à·ĥà¶±":10428,"à¶Ńà¶»à·Ģà¶½à¶§":10429,"Ġà¶łà·Ģ":10430,"Ġà·Ģà¶»à¶½à¶Ń":10431,"arc":10432,"à¶¸à¶»à¶ºà¶ļà¶§":10433,"Ġbas":10434,"osis":10435,"Ġhuman":10436,"ayan":10437,"ĠVirus":10438,"Ġ25000":10439,"Ġiss":10440,"awk":10441,"à¶½à¶¹à·Ģ":10442,"Ġallow":10443,"serv":10444,"ooth":10445,"Ġ</":10446,"Ġwords":10447,"ycle":10448,"cut":10449,"à¶°à¶ł":10450,"ĠCH":10451,"Ġà¶ļà¶«à¶©":10452,"à¶¬à¶»":10453,"ĠAre":10454,"ĠAlex":10455,"ector":10456,"ellig":10457,"à·Ĥà¶¥à¶ºà¶ļ":10458,"Ġà¶±à¶§à·Ģà¶±":10459,"1964":10460,"Ġbecame":10461,"ĠAddress":10462,"ĠCampus":10463,"Asianparent":10464,"Man":10465,"TT":10466,"gress":10467,"rish":10468,"ËĿ":10469,"à¶»à¶¥à¶º":10470,"Ġà¶ľà¶³à¶ļ":10471,"à¶©à¶´à¶ºà¶ļ":10472,"à·Ĥà·Ģà¶º":10473,"Ġà¶Ĩà·Ģà¶±":10474,"à¶³à·Ģà¶º":10475,"à¶»à¶¸à·Ģà¶½à¶§":10476,"Ġà¶ĭà¶´à¶ļà¶»à¶±":10477,"Ġà¶»à¶¢à¶ļà¶¸à¶§":10478,"arat":10479,"ĠSand":10480,"Ġthink":10481,"requ":10482,"ĠGovernment":10483,"ĠHel":10484,"ĠHimi":10485,"river":10486,"à¶µà·Ģ":10487,"Ġà¶Ĩà·ĥà¶±à¶ºà¶§":10488,"Ġ1890":10489,"umer":10490,"uments":10491,"avy":10492,"Ġuntil":10493,"ãģ¨":10494,"à·Ħà¶½à¶ļà¶¸":10495,"ancer":10496,"ĠPhotoshop":10497,"ython":10498,"Bangladesh":10499,"uation":10500,"Ø´":10501,"à¶ľà¶´à¶±":10502,"Ġà¶ĩà·Ģà¶Ń":10503,"à·ĸâĢĻ":10504,"Ġà·Ģà¶±à¶½":10505,"à·Ħà¶±à¶ºà¶ļà¶§":10506,"ĠSign":10507,"ĠCall":10508,"à¶±à¶±à¶ľ":10509,"Ġperm":10510,"ĠLevel":10511,"ĠDC":10512,"Ġà¶¶à¶½à¶ºà¶¯":10513,"acc":10514,"Ġ1833":10515,"à¶¤à¶Ń":10516,"iment":10517,"exe":10518,"Ġà¶ļà·Ģà¶¯à·Ħà¶»":10519,"ablish":10520,"Ġà¶ĵà¶ļ":10521,"ĠChild":10522,"Ġeye":10523,"achel":10524,"Ġ1932":10525,"ĠAdmin":10526,"Ġ1895":10527,"ĠWhats":10528,"DL":10529,"field":10530,"mon":10531,"night":10532,"Ø©":10533,"Ġ==":10534,"à¶ºà¶´à¶±à¶º":10535,"à¶ļà·Ģà¶±":10536,"Ġà·Ħà¶ł":10537,"Ġà·Ħà·Ĩ":10538,"Ġà¶ļà¶½à¶ľ":10539,"à·ĥà¶»à·ĥ":10540,"à¶¯à¶»à¶ľ":10541,"arun":10542,"ĠCy":10543,"âĢ¦\"":10544,"Ġpot":10545,"otic":10546,"opt":10547,"Ġà¶±à¶»à¶ļà¶ļ":10548,"Ġapps":10549,"aptop":10550,"flu":10551,"attery":10552,"ĠFernando":10553,"EX":10554,"Ä±":10555,"à¶ºà¶»à¶ºà¶ļ":10556,"à¶½à·Ģà¶»à¶ļ":10557,"Ġà¶ļà¶¸à¶ļà¶§":10558,"Ġà¶¯à·ĥà¶ļ":10559,"Ġà¶¶à·Ħà¶½":10560,"Ġ230":10561,"à¶¶à¶±à¶±":10562,"à¶Ńà¶ļà¶ºà¶§":10563,"arian":10564,"Ġà¶ºà¶¸à·Ħà¶½":10565,"icode":10566,"Ġà¶ĳà·Ģà¶ľ":10567,"omas":10568,"à¶¸à¶½à¶»à¶Ńà¶±":10569,"ington":10570,"ĠPic":10571,"Ġmother":10572,"à·ı...!":10573,"Ġins":10574,"Ġge":10575,"comp":10576,"ĠNewsLeave":10577,"Ġele":10578,"Ġofficial":10579,"Ġà·Ģà·ħà¶³à¶±":10580,"ĠSiyatha":10581,"hana":10582,"åĨ":10583,"Ġà·ĥà¶¯à¶±":10584,"à¶´à·Ģà¶»":10585,"Ġà¶¶à¶»à·ĥ":10586,"à·ħà¶ľà¶§":10587,"Ġà¶ļà¶»à¶ļà·Ģà¶½":10588,"à·Ģà¶½à¶±":10589,"à¶±à¶Ńà¶ļà¶§":10590,"Ġ1907":10591,"Ġà¶±à¶ľà¶»à·ĥà¶·":10592,"à¶¶à¶¯à·Ģà¶Ń":10593,"Ġpo":10594,"ĠPen":10595,"ĠLocal":10596,"ĠDom":10597,"Ġà¶ĭà¶©à·Ģà¶Ń":10598,"rime":10599,"Ġà¶Ĩà¶ºà¶Ńà¶±à¶ºà¶º":10600,"Ġà¶ľà·Ħà¶ľà¶Ń":10601,"à¶»à·Ģà¶½à¶¯":10602,"Ġà¶ļà·Ģà¶¯à¶¯":10603,"à¶»à·Ħà¶«à¶ºà¶Ń":10604,"Ġclose":10605,"Ġà¶Ĩà¶·à¶»à¶«à¶ºà¶ļ":10606,"Ġspace":10607,"Ġcompet":10608,"ynor":10609,"ĠSLFP":10610,"Ġobject":10611,"Ġoption":10612,"ĠHuawei":10613,"ĠFoundation":10614,")\"":10615,"CN":10616,"à¶Ńà·Ģà¶»à¶º":10617,"Ġà¶ļà·Ģà¶§":10618,"à¶łà¶»à¶¯":10619,"Ġà¶ħà¶»à·ĥ":10620,"à¶ľà¶½à¶Ń":10621,"à¶ļà¶ļà¶§à¶º":10622,"à¶¯à¶ļà·Ģà¶»":10623,"à¶¯à¶ļà¶¸à¶§":10624,"à¶ĭà·Ĥ":10625,"ĠTNA":10626,"Ġbased":10627,"Ġ109":10628,"à·Ĵ...!":10629,"Ġ126":10630,"Ġà¶¯à¶¹à¶»":10631,"âĢ¦âĢ¦..":10632,"à¤°":10633,"USD":10634,"ĠIMDb":10635,"ĠVikalpa":10636,"ĠRayynor":10637,"TR":10638,"ga":10639,"áī":10640,"Ġà¶ĸ":10641,"à·Ģà¶¸à¶ļà¶§":10642,"à·ıà·Ĵ":10643,"Ġà·Ģà¶¯à¶ļ":10644,"à¶´à¶«à¶ºà¶±":10645,"Ġà·Ħà·Ħ":10646,"à¶¶à¶»à¶¸":10647,"Ġà¶¶à¶ľ":10648,"à·ħà·Ģà¶½à¶§":10649,"à·ħà·Ħà¶§":10650,"à·ı.âĢľ":10651,"Ġà¶¸à·Ħà¶¸à¶Ł":10652,"Ġà¶ļà·ħà¶¶à¶½":10653,"Ġà¶ļà¶½à¶¹":10654,"à¶§à¶¸à¶»":10655,"icy":10656,"Ġà¶ħà¶·à¶ºà¶·":10657,"ĠMart":10658,"ĠMoh":10659,"à¶ĭà¶ł":10660,"ĠLanguage":10661,"1947":10662,"Ġnov":10663,"Ġà¶ħà¶¶à¶¸à¶½":10664,"estival":10665,"ãģĦ":10666,"à·ģà·Ģà¶ºà¶¸":10667,"Ġà¶ħà¶»à¶¹à¶¸":10668,"ĠAcadem":10669,"Co":10670,"bon":10671,"drome":10672,"rad":10673,"~~":10674,"à¶»à¶±à¶¸":10675,"Ġà·Ģà¶ºà¶±":10676,"Ġà¶¸à¶¸à¶±":10677,"à¶ľà·Ģà¶½à¶¯":10678,"Ġà¶ĩà¶½à·ĥ":10679,"à¶¢à¶ºà¶º":10680,"à¶¸à¶ļà·ħ":10681,"à¶ħà·Ģà¶¯":10682,"à¶»à·Ģà¶´":10683,"à·ı,\"":10684,"Ġ190":10685,"à¶½à·Ģà¶´":10686,"à¶Ĩà¶ºà¶Ńà¶±à¶º":10687,"Ġcourt":10688,"ĠMp":10689,"ĠtheAsianparent":10690,"Ġbal":10691,"Ġbusiness":10692,"Ġà¶´à¶½à¶³":10693,"Ġrate":10694,"ĠStore":10695,"à¶ľà¶¸à¶±à¶ļ":10696,"Ġà¶ħà¶¢à¶§":10697,"ibility":10698,"ĠâĪĴ":10699,"Ġplayer":10700,"ĠSubz":10701,"Ġà¶¶à·ħà¶ĩà¶«":10702,"ĠFSX":10703,"UB":10704,"list":10705,"à·ļâĢĻâĢĻ":10706,"Ġà¶ĳà¶ŀ":10707,"à¶ºà¶§à¶»":10708,"Ġà¶ħà¶´à¶ľà¶¸à¶±à¶º":10709,"Ġà·ĥà·Ħà¶»":10710,"à¶»à¶ļà·Ģà¶»à¶º":10711,"Ġà¶´à·ĥà¶±":10712,"à¶ľà¶±à¶±":10713,"ĠSn":10714,"à¶±à¶ºà¶§à¶¯":10715,"ĠPad":10716,"à¶Ŀà¶§":10717,"Ġmahinda":10718,"ĠWomen":10719,"à¶»à¶®à¶¸à¶ļ":10720,"Ġà¶ĭà¶¹à¶ľ":10721,"Ġà¶ĩà¶Łà¶´à¶Ń":10722,"ĠUd":10723,"ĠâĢĿâĢĿ":10724,"ĠÂ½":10725,"à·ı.........":10726,"Ġà¶¸à·ħà¶¸":10727,"orts":10728,"ultural":10729,"à¶Ĩà¶ºà¶Ńà¶±":10730,"1979":10731,"Ġapplication":10732,"Ġupload":10733,"ysical":10734,"azine":10735,"!!!!!!!!":10736,"onymous":10737,"FA":10738,"VC":10739,"oid":10740,"ua":10741,"Ùģ":10742,"Ġ................":10743,"à¶¯à¶»à¶«":10744,"Ġà·Ħà¶¯à¶º":10745,"Ġà¶¶à¶ł":10746,"à¶±à¶ºà¶ļà¶¸":10747,"ĠTab":10748,"ĠLak":10749,"à·ı..âĢĿ":10750,"à¶ļà·ħà¶º":10751,"ĠBen":10752,"Ġà·Ħà¶¬à¶¸":10753,"Ġ132":10754,"akari":10755,"athna":10756,"Ġà¶»à¶Łà¶¯":10757,"Ġà·Ģà·ĥà¶»à¶ļà¶¯":10758,"shan":10759,"à¶§à¶»à¶§à¶ļ":10760,"à¶«à¶»à¶Ńà¶±":10761,"ĠAmerica":10762,"ĠCongress":10763,"HS":10764,"dis":10765,"ä¼":10766,"Ġur":10767,"à¶±à¶½à¶¯":10768,"à·ı''":10769,"à¶ļà¶Ńà¶ļ":10770,"à·Ħà·Ħ":10771,"Ġà¶´à¶ºà¶§":10772,"Ġà¶ħà¶½à¶º":10773,"Ġà¶ħà¶¤":10774,"à¶©à¶½à¶¸":10775,"Ġà¶ļà¶»à¶ļà¶»":10776,"Ġà¶¢à·Ħ":10777,"à¶łà¶½à¶ºà¶§":10778,"à¶Łà¶¸à¶±":10779,"Ġà¶ħà¶¯à¶§à¶¯":10780,"à¶ľà¶¸à¶±à·Ģà¶½à¶§":10781,"à¶ĳà¶§":10782,"Ġà¶ķà¶§":10783,"Ġà¶¯à¶»à¶´":10784,"ĠMur":10785,"à¶¸à¶½à¶»à¶Ń":10786,"ĠPur":10787,"Ġfire":10788,"à¶´à·Ģà·Ħà¶±":10789,"à¶»à¶ľà¶«":10790,"..............":10791,"Ġà¶µà¶½à¶ºà¶§":10792,"aken":10793,"à¶»à¶¶à¶Ń":10794,"uwana":10795,"ĠForum":10796,"attle":10797,"Ġmatrix":10798,"awansa":10799,"ê³":10800,"ìĪ":10801,"à¶¸à¶¶":10802,"Ġà¶±à¶§à¶´":10803,"Ġà¶ºà¶ľ":10804,"à¶°à¶»à¶ļ":10805,"à·Ĵà¶Ĥ..":10806,"Ġà¶ħà¶ºà·Ħ":10807,"Ġà¶§à¶ł":10808,"ĠSar":10809,"stein":10810,"ico":10811,"Ġà¶ħà·Ħà¶ľà¶Ń":10812,"à·Ļà·Ĭ..":10813,"à·Ģà¶ļà¶§à·Ģà¶Ń":10814,"ĠRom":10815,"Ġmark":10816,"ĠVPN":10817,"Ġ116":10818,"utt":10819,"Ġ1300":10820,"Ġrefer":10821,"à·Ĭ''":10822,"icks":10823,"1975":10824,"Ġà®¤":10825,"Ġroot":10826,"ĠStudio":10827,"Ġearly":10828,"ackage":10829,"æĺ":10830,"à¶ºà¶µ":10831,"à¶»à¶¶à¶»":10832,"à¶»à¶ļà¶»à¶ľ":10833,"à¶½à¶´à¶º":10834,"Ġà¶¯à·ĥà·Ģ":10835,"Ġà¶ĳà¶¶à¶¯":10836,"Ġà¶ļà¶»à¶ł":10837,"Ġà¶¢à¶ºà¶¯":10838,"à¶łà¶»à¶«à¶º":10839,"Ġà·Ģà¶±à¶ł":10840,"Ġà¶±à¶¸à¶ľ":10841,"à·ĥà¶±à¶ºà¶±":10842,"à¶Ľà¶»à¶º":10843,"Ġà¶ħà¶½à·Ģà¶Ń":10844,"à¶ºà·Ģà·ģà¶º":10845,"Ġself":10846,"à¶Ŀà¶«":10847,"ĠBer":10848,"Ġà¶«à¶ºà¶ľ":10849,"ocation":10850,"à¶´à·Ħà¶«":10851,"ither":10852,"Ġà¶ħà¶±à·Ģà¶»à¶Ń":10853,"Ġà¶īà·Ģà·ĥà¶½":10854,"Ġunivers":10855,"ãĤĭ":10856,"Comp":10857,"Ġà¶¸à¶Łà·Ħà¶»à·Ģ":10858,"Ġstudents":10859,"Ġcharacter":10860,"å¤§":10861,"ĠPlanet":10862,"ĠHadakari":10863,"EA":10864,"SQL":10865,"jan":10866,"ply":10867,"tain":10868,"à·Ģà¶¶à¶½à¶°":10869,"à¶»à¶§à¶º":10870,"Ġà¶¸à¶¡":10871,"Ġà¶¯à¶¸à¶Ń":10872,"Ġà·Ħà¶ºà¶º":10873,"Ġà¶Ĵà¶¸à¶Ń":10874,"à¶±à·Ģà¶ļà¶Ń":10875,"à¶·à¶ºà·Ģ":10876,"à¶«à¶ºà·Ģ":10877,"à¶»à¶ļà·Ģà¶»":10878,"à¶±à¶ļà¶Ń":10879,"Ġbi":10880,"Ġ|}":10881,"à¶Ńà¶±à¶ºà¶º":10882,"Ġinternet":10883,"eta":10884,"Ġlank":10885,"Ġà¶¢à¶ºà·ģ":10886,"ĠĠĠĠĠĠĠĠĠĠĠĠ":10887,"à·ģà·Ģà¶ºà¶ļà¶§":10888,"à¶®à¶ļà¶Ńà¶±à¶º":10889,"ĠâĢĮà·Ļ":10890,"Ġà¶¸à¶½à¶ļà¶©":10891,"\",\"":10892,"Ġcolor":10893,"ĠDisc":10894,"ĠAccess":10895,"Ġmodel":10896,"ĠParty":10897,"Ġà¶ħà¶½à¶ļà¶½":10898,"ĠRobert":10899,"ĠWidely":10900,"Ġinnings":10901,"HA":10902,"key":10903,"Ġà¶¶à¶Ńà¶ļ":10904,"à·Ĥà¶¸à¶º":10905,"Ġà¶ħà¶»à¶§":10906,"à·ĥà¶»à·Ħà¶¸":10907,"atto":10908,"à¶¨à·Ģà¶½":10909,"Ġà¶ħà·Ħà¶º":10910,"à¶¶à¶¯à·Ģà¶¯":10911,"Ġturn":10912,"Ġà·ĥà¶¯à·Ħà¶¸":10913,"Ġà¶Ńà¶»à¶ľà·Ģà¶½à¶§":10914,"Ġlens":10915,"ationship":10916,"ĠOrig":10917,"Ġ117":10918,"akk":10919,"Ġreach":10920,"aby":10921,"ĠChannel":10922,"ĠReal":10923,"obitel":10924,"1973":10925,"Ð¾Ð´":10926,"ï»¿ï»¿":10927,"Trans":10928,"struction":10929,"Pr":10930,"ao":10931,"iences":10932,"uv":10933,"win":10934,"¸ı":10935,"Ð¶":10936,"ĠĊ":10937,"à·Ķ),":10938,"à·Ļ-":10939,"à¶¯à¶±à¶¸":10940,"Ġà¶ļà¶§à¶¸":10941,"à·ľ-":10942,"Ġà¶ĳà¶½à¶ļ":10943,"à·Ģà¶±à¶±":10944,"Ġà¶·à·Ģà¶±":10945,"à¶ħà¶Łà¶½":10946,"à·ĥà¶ºà¶¯":10947,"Ġpath":10948,"Ġtimes":10949,"Ġà¶ĳà¶Ńà¶±à¶Ń":10950,"ĠLim":10951,"Ġà¶¶à·ĥà¶ºà¶§":10952,"ado":10953,"Ġmaterial":10954,"ework":10955,"Ġlocal":10956,"Ġ124":10957,"anger":10958,"Ġà¶ħà¶«à¶´à¶±à¶Ń":10959,"Ð¾ÑĢ":10960,"Ġà¶īà¶»à¶«à¶¸à¶§":10961,"ixed":10962,"Ð»Ð°":10963,"everal":10964,"bod":10965,"éĢ":10966,"ìĻķ":10967,"à·Ģà·ħà¶§":10968,"à¶ºà¶¤":10969,"à·ĥà·Ģà·ĥ":10970,"à¶ļà¶®à¶±":10971,"Ġà·ĥo":10972,"à¶«à·ĥà¶½":10973,"à·ĸ\"":10974,"Ġà¶ħà¶´à¶Ńà¶º":10975,"à¶·à·Ħ":10976,"à¶ħà·ĥà¶½":10977,"Ġà¶ħà¶©à¶´à¶±":10978,"Ġà¶ħà·ĥà·Ħà¶±à¶ļ":10979,"Ġsum":10980,"Ġcrit":10981,"Ġfont":10982,"theruwana":10983,"Ġmeet":10984,"ophobia":10985,"Ġcheck":10986,"perties":10987,"ĠResponse":10988,"ðŁĳįðŁĳįðŁĳįðŁĳį":10989,"clusive":10990,"!)":10991,"%,":10992,"Fl":10993,"fect":10994,"yal":10995,"à´":10996,"à·ĥà·Ħà¶ļ":10997,"Ġà¶¸à¶¯à¶±":10998,"Ġà¶ĩà¶«à·Ħ":10999,"à·ı.//":11000,"Ġà·Ģà¶±à¶´":11001,"Ġà¶Ĵà¶ļà¶¸à¶º":11002,"ona":11003,"Ġsize":11004,"omy":11005,"ĠText":11006,"ĠHead":11007,"change":11008,"à·ģà¶ºà¶§à¶Ń":11009,"Ġtoo":11010,"Ġ165":11011,"Ġà¶ĳà¶Ńà¶ļà¶±":11012,"ĠJust":11013,"Ġà¶Ńà¶½à¶½":11014,"Ġà·ĥà¶»à¶½à¶¸":11015,"eller":11016,"ĠArab":11017,"Ġchaminda":11018,"ĠAds":11019,"Ġcompany":11020,"ports":11021,"Ġaround":11022,"ĠUSA":11023,"coin":11024,"à¶ºà·ĥà¶±à¶ºà¶±":11025,"background":11026,"Î¿Ï":11027,"êµ°":11028,"etrieved":11029,"ND":11030,"National":11031,"ball":11032,"Ġà·Ĥà¶º":11033,"à·Ĭà·Ĵ":11034,"à·ĥà·ħ":11035,"à¶ļà·Ģà¶º":11036,"à¶¯à¶±à·Ģà¶½à¶§":11037,"à¶´à¶§à¶±":11038,"à¶°à¶¸à¶Ń":11039,"à¶¢à¶ļà¶ºà¶ļ":11040,"à¶ºà¶±à¶¯":11041,"Ġà¶´à¶»à¶¯à·Ģà¶±":11042,"Ġà¶´à·ĥà¶½":11043,"ĠSet":11044,"Ġ320":11045,"Ġcustom":11046,"à¶¶à¶½à·Ħà¶Ń":11047,"Ġfb":11048,"Ġfamily":11049,"ĠLand":11050,"aming":11051,"à¶ļà·ħà¶¯":11052,"ĠHor":11053,"otes":11054,"Ġà¶´à·Ģà¶»à¶½":11055,"ellow":11056,"ĠWebsite":11057,"Ġà¶±à¶Łà¶¸":11058,"Ġabove":11059,"ĠForce":11060,"ĠFlash":11061,"ĠKingdom":11062,"World":11063,"dà¶Ń":11064,"éĩ":11065,"Ġà·Ĥà¶±":11066,"Ġà¶ħà¶«à¶ļ":11067,"Ġà¶Ńà¶±à·Ģ":11068,"Ġà¶ľà·ħà¶´":11069,"Ġà¶»à¶ºà¶±":11070,"à·Ģà¶ļà¶±":11071,"inema":11072,"Ġà¶īà¶¯à¶´":11073,"ĠSal":11074,"à¶īà¶º":11075,"à¶¸à¶¯à¶Ń":11076,"Ġà¶īà¶©à·Ħ":11077,"à¶´à¶±à¶ºà¶Ń":11078,"Ġwant":11079,"ĠHP":11080,"1945":11081,"Ġà¶ľà¶«à¶±à¶ļà¶ľ":11082,"Ġbeg":11083,"Ġ270":11084,"acks":11085,"ustry":11086,"à¶ľà·Ħà·Ģà¶Ń":11087,"1967":11088,"Ð¾Ð»":11089,"Ġà¶»à¶¸à¶«à¶º":11090,"ittee":11091,"vention":11092,"irds":11093,"aweera":11094,"Ġvictory":11095,".?":11096,"To":11097,"ker":11098,"xford":11099,"£¼":11100,"âĿ":11101,"à·Ĵ!!!":11102,"à¶»à¶ŀ":11103,"à·ĵà·Ļ":11104,"à¶ľà¶µà¶½à¶º":11105,"Ġà¶¶à·Ĥ":11106,"Ġà¶¶à¶«à¶ļ":11107,"Ġà¶ļà¶»à¶´à¶½":11108,"à¶ºà¶±à·Ģà¶º":11109,"Ġà¶ļà¶½à¶«":11110,"à¶±à¶ļà¶ľ":11111,"à¶¯à¶±à¶ºà¶ļà¶§":11112,"Ġà¶ķà·Ģà¶»à¶º":11113,"à¶»à·Ħà¶Ń":11114,"à¶»à·Ħà¶ļà¶º":11115,"à¶½à·Ģà¶Ĩà¶»à¶ł":11116,"ĠPeople":11117,"Ġà¶ħà¶ľà¶ļ":11118,"ĠGmail":11119,"asp":11120,"asure":11121,"ĠDig":11122,"Ġmp":11123,"à¶µà¶½à¶Ń":11124,"Ġà¶ĩà¶³à¶ľà¶±":11125,"à¶ļà¶©à¶ºà¶±":11126,"Ġ155":11127,"Ġrelease":11128,"iff":11129,"Ġà¶¯à·ģà¶ļà·Ģà¶½":11130,"ãģ¯":11131,"class":11132,"////////":11133,"haraya":11134,"120":11135,"Gem":11136,"ï¸ı":11137,"à¶¸à¶ļà¶»à¶±":11138,"à¶¸à¶łà¶»":11139,"à·ĥà·Ģà¶§":11140,"à¶§à¶¶à¶½":11141,"Ġà¶±à¶»à¶ļà¶§":11142,"Ġà¶Ńà¶¯à·Ģ":11143,"à¶©à¶ºà¶º":11144,"Ġà¶ĩà¶§à¶¸":11145,"à¶ħà·Ħà¶±":11146,"Ġà¶ĭà¶´à¶¶":11147,"à¶Ľà¶ºà¶±":11148,"ĠCount":11149,"à¶¯à·Ħà·ĥà¶Ń":11150,"à·Ķ.\"":11151,"Ġpres":11152,"ĠLAN":11153,"ĠRadio":11154,"ĠFace":11155,"unction":11156,"à¶Ĭà¶Ĭ":11157,"Ġtoday":11158,"Ġ127":11159,"Ġà¶µà·ĥ":11160,"à·ĥà·ĥà¶´":11161,"***":11162,"izer":11163,"ormal":11164,"Ġago":11165,"1965":11166,"overnance":11167,"Ġcopyright":11168,"Ġpopular":11169,"110":11170,"Book":11171,"Is":11172,"do":11173,"iw":11174,"ÏĦ":11175,"à¶±à¶ľà¶½":11176,"Ġà·ĥà¶¯à¶»":11177,"âĢįâĢįà·ĬâĢį":11178,"Ġà·ĥà¶¸à¶ºà¶º":11179,"à¶łà¶ºà¶ļà¶»":11180,"à¶»à¶ļà·Ģ":11181,"Ġ(,":11182,"Ġà¶ļà¶½à¶½":11183,"à¶ħà¶¸à¶Ńà¶ļ":11184,"à¶Ńà¶ļà¶«":11185,"Ġà·ħà¶ľà¶¯":11186,"à¶īà¶´":11187,"Ġà¶ħà¶¯à·Ħà·ĥà¶Ń":11188,"Ġà¶ļà¶©à¶ī":11189,"Ġsettings":11190,"à¶ĭà¶´à¶»":11191,"à¶´à¶±à¶ºà¶º":11192,"Ġà¶ĳà·ħà¶¶":11193,"idence":11194,"usara":11195,"Ġlater":11196,"Ġà¶¶à¶©à¶īà¶»":11197,"Ġà·Ħà¶¬à¶Ń":11198,"Ġà¶ħà·Ģà¶ļà¶½":11199,"loy":11200,"Ġà¶ħà·Ģà¶±à¶©":11201,"ĠConnect":11202,"ĠTwenty":11203,"aduate":11204,"Ġeconom":11205,",...":11206,"OH":11207,"ZZ":11208,"aign":11209,"db":11210,"oka":11211,"çİ":11212,"à¶»à¶½à¶ºà¶ļ":11213,"à¶Ńà¶®":11214,"à¶ļà¶ļà¶»à¶±":11215,"Ġà·Ģà¶»à¶«":11216,"Ġà·ĥà·Ģà¶»":11217,"Ġà¶ľà·ĥà¶Ń":11218,"à·ļ.âĢĻ":11219,"Ġà¶±à¶¸à¶ºà¶ļ":11220,"Ġà¶ĭà¶´à¶½":11221,"orry":11222,"ĠSound":11223,"ĠSource":11224,"Ġà¶ļà¶©à¶ºà¶§":11225,"à¶ļà¶»à¶«à¶ºà¶Ń":11226,"ĠMiss":11227,"Ġà¶ħà¶ľà·Ħ":11228,"Ġfood":11229,"ĠBit":11230,"1950":11231,"ĠWin":11232,"à·ĥà¶³à¶»":11233,"à¶°à¶ºà¶ļà¶¯":11234,"ĠStandard":11235,"rivers":11236,"ĠâĢĭâĢĭ":11237,"Ġwriting":11238,"ĠRathn":11239,"?....":11240,"Sup":11241,"host":11242,"vest":11243,"çĶ":11244,"Ġà·´":11245,"ĠÙĪ":11246,"à·Ļ'":11247,"à·Ħà·Ģà¶±":11248,"à¶¶à¶±à¶¸":11249,"Ġà¶ĩà¶«à¶ºà¶ļ":11250,"à·ĸ;":11251,"Ġà¶Ĩà¶Ńà¶»à¶º":11252,"à¶Ńà¶ºà·Ģ":11253,"à¶Ńà¶±à¶±":11254,"Ġ1903":11255,"Ġà·Ģà¶§à¶ļà¶»à¶ľ":11256,"Ġà¶±à·Ģà·Ģ":11257,"Ġà¶ħà¶·à¶ºà¶Ń":11258,"à¶´à¶»à¶ºà¶ļà¶§":11259,"Ġtalk":11260,"ady":11261,"Ġà¶´à¶§à·Ģà¶½":11262,"à·Ĭ..\"":11263,"otor":11264,"Ġ121":11265,"ĠUser":11266,"Ġstates":11267,"Ġproble":11268,"ĠAnn":11269,"ĠAnt":11270,"outu":11271,"Ġà®ª":11272,"uddha":11273,"ĠSLT":11274,"Ġwritten":11275,"Ġsimilar":11276,"ĠadminPosted":11277,"WE":11278,"ä¹":11279,"æ°":11280,"ì£¼":11281,"à·Ķà·ĳ":11282,"à·Ķà¶ĥ":11283,"Ġà¶ľà·Ģà¶»":11284,"Ġà¶ħà¶´à·Ħà¶»à¶«à¶º":11285,"à¶ļà¶»à¶±à¶ºà¶ļ":11286,"à¶ĳà¶¢à¶±":11287,"à¶¶à¶³à·Ģà¶¸":11288,"ĠGerman":11289,"amu":11290,"ĠDictionary":11291,"Ġmajor":11292,"Ġlab":11293,"ĠTheory":11294,"Ġ50000":11295,"Ġjournal":11296,"ĠExplor":11297,"à·ĥà¶»à¶«à¶ļ":11298,"ĠGunasekara":11299,"Ġprofile":11300,"Ġfeatures":11301,"Ġwesi":11302,"je":11303,"à·Ħà¶«à¶ºà¶ļ":11304,"Ġà·ĥà·ĥà¶¸":11305,"à¶´à¶»à¶´":11306,"à¶«à¶Ńà¶ļ":11307,"à¶¶à·ĥà¶ļ":11308,"à·ħà·Ħà¶»":11309,"Ġà¶»à¶½":11310,"à¶®à¶´":11311,"à¶ļà¶»à¶±à¶ºà¶§":11312,"Ġà·Ģà¶½à¶±":11313,"Ġà¶¸à¶ľà¶°":11314,"à·Ħà¶»à¶±à¶º":11315,"à¶īà·Ħ":11316,"ĠMia":11317,"ĠMBC":11318,"Ġfind":11319,"Ġfoot":11320,"ĠGirl":11321,"Ġà¶¶à¶½à¶ºà¶º":11322,"Ġmemory":11323,"ĠBR":11324,"ĠNik":11325,"à·ģà¶ļà·Ģà¶½":11326,"ĠWestern":11327,"Ġ1870":11328,"Ġland":11329,"à·Ģà·Ħà¶±à¶º":11330,"à¶ľà¶ºà¶§à¶Ń":11331,"Ġà¶±à¶ľà¶»à¶¶à¶¯":11332,"Ġà¶Ķà¶Ńà¶±à¶§":11333,"ĠArmy":11334,"ãģĮ":11335,"rows":11336,"ucture":11337,"energy":11338,"NG":11339,"à¶Ńà¶ľà¶±":11340,"à¶¸à·ĥà¶º":11341,"à¶¸à¶¶à¶«":11342,"à·ĥà¶«":11343,"à¶´à¶ļà¶¸":11344,"à¶´à¶»à¶±":11345,"à¶¶à¶ºà¶§":11346,"à·ģà·Ģà¶±":11347,"Ġà¶½à¶´à¶º":11348,"à¶ĤâĢį":11349,"à¶Ńà¶»à¶ºà¶º":11350,"à¶ļà¶»à¶ļ":11351,"Ġà¶¶à¶½à·Ħà¶±":11352,"ori":11353,"enry":11354,"Ġ1906":11355,"Ġcertain":11356,"ĠTit":11357,"Ġwindow":11358,"ĠLeg":11359,"ĠGalaxy":11360,"Ġ20000":11361,"ĠRh":11362,"Ġà¶ĩà¶¸à·ĥà¶±":11363,"Ġà·Ģà·Ħà¶±à·Ģ":11364,"ĠKol":11365,"Ġ161":11366,"à·ĥà·Ģà·ģ":11367,"Ġà¶¯à·ĥà¶¯à·Ħà·ĥ":11368,"à¶ķà¶ľ":11369,"Ġcomb":11370,"lications":11371,"ancy":11372,"ictor":11373,"Ġarticles":11374,"ĠDisk":11375,"Ġactiv":11376,"liament":11377,"ĠAtt":11378,"ĠEarth":11379,"Par":11380,"Î»":11381,"åĽ":11382,"à¶¯à¶¸à¶Ń":11383,"Ġà¶¶à¶ļà¶§":11384,"Ġà¶ļà¶»à¶±à¶º":11385,"à¶łà·ģ":11386,"à¶Ńà¶ºà·ħ":11387,"Ġà¶¸à¶±à·Ħà¶»":11388,"Ġà¶ļà¶»à¶½à¶¯":11389,"ĠCirc":11390,"Ġà¶ħà·Ħà¶ļà¶§":11391,"ĠMun":11392,"à¶ĭà¶¯à¶º":11393,"ĠTel":11394,"ĠTem":11395,"Ġmm":11396,"à¶Ńà¶±à¶ºà¶Ń":11397,"1815":11398,"ĠEnvironment":11399,"Ġexpress":11400,"ÐµÑģ":11401,"rices":11402,"inner":11403,"Ġrelig":11404,"Ġmodern":11405,"Art":11406,"ĠModel":11407,"ĠOrganization":11408,"Car":11409,"ST":11410,"ken":11411,"à·ħà·Ģà¶»à¶§":11412,"à¶©à·ĥà¶§":11413,"Ġà¶ļà¶»à¶ĩà¶Ń":11414,"Ġà¶¢à¶±à¶¢":11415,"à¶ħà¶§à¶¸":11416,"à¶ħà¶ºà·Ģ":11417,"à¶¢à¶±à¶´à¶¯":11418,"ately":11419,"à¶´à¶ļà¶ºà¶ļ":11420,"à¶»à¶´à¶¯à¶º":11421,"ĠAriy":11422,"ĠMult":11423,"à¶ĭà¶¯à·Ģ":11424,"à¶ļà·ħà¶¸à¶±":11425,"ades":11426,"ĠBC":11427,"à¶µà·Ģà¶±":11428,"Ġ9000":11429,"ĠEmp":11430,"à·Ħà¶ļà¶ļà¶¸":11431,"Ġà¶¢à¶±à·Ģà·Ħà¶»":11432,"ards":11433,"come":11434,"à·ıâĢĿ.":11435,"ĠXt":11436,"Ġarea":11437,"Ġdise":11438,"ĠArts":11439,".................":11440,"ĠAustralian":11441,"ĠIDM":11442,"ĠSpeed":11443,"By":11444,"NO":11445,"Pad":11446,"cul":11447,"fic":11448,"scribe":11449,"Ġident":11450,"à·Ĭ!!!":11451,"à¶´à¶ļà¶§":11452,"Ġà·Ħà·ĥà¶½":11453,"Ġà¶ľà¶´":11454,"à·ģà¶±à·Ģà¶½à¶¯":11455,"Ġà¶ºà·ĥà¶±":11456,"Ġà¶ĭà¶»à¶±":11457,"Ġà¶ļà·ħà¶´":11458,"Ġà¶¸à¶§à·Ģà¶Ń":11459,"orage":11460,"ester":11461,"ĠSinhalese":11462,"ĠSunday":11463,"Ġà·ĥà¶¯à·Ħà¶§":11464,"à¶»à¶½à¶¸":11465,"Ġwent":11466,"Ġ15000":11467,"Ġà·Ģà·Ħà·ħ":11468,"Ġà·Ģà¶¯à·Ħ":11469,"à¶µà¶½à¶ºà¶±":11470,"à¶ħà¶¸à¶»à·ĥ":11471,"Ø§ÙĨ":11472,"Ġhealth":11473,"ĠØ´":11474,"ĠTele":11475,"ĠIntel":11476,"æĹ¥":11477,"ĠXtGem":11478,"Br":11479,"De":11480,"Har":11481,"ien":11482,"uil":11483,"yb":11484,"à·Ģà¶«à¶ºà¶ļ":11485,"à·ĥà¶ºà¶¸":11486,"à¶½à¶±à¶§":11487,"à¶¯à·Ģà¶»":11488,"à¶´à¶½à·ĥ":11489,"à¶¸à¶ļà¶Ń":11490,"Ġà¶Ńà¶»à·Ħà¶º":11491,"ĠSol":11492,"à¶´à·ĥà¶Ń":11493,"Ġà¶īà·Ħà·Ģà·Ħ":11494,"Ġsil":11495,"Ġcover":11496,"isa":11497,"Ġpal":11498,"Ġtechnology":11499,"oul":11500,"ĠLK":11501,"Ġden":11502,"à¶»à¶´à¶§à·Ģà¶½à¶§":11503,"Ġà¶¸à¶Łà·Ħà¶»":11504,"à·ħà¶³à¶´à·ħ":11505,"à¶Ńà·Ģà¶Ńà¶ļ":11506,"ĠĠĠĠĠĠĠĠĠĠĠ":11507,"ĠĠĠĠĠĠĠĠĠĠĠĠĠ":11508,"verter":11509,"reek":11510,"weet":11511,"Ġarch":11512,"ruit":11513,"duced":11514,"Ġperformance":11515,"mit":11516,"ross":11517,"à·ĥà·ĥà¶»":11518,"à·ļ),":11519,"Ġà¶´à¶«à¶ļ":11520,"Ġà¶ľà·ħà·Ģ":11521,"à¶Ńà¶»à¶Ł":11522,"Ġà·ĥà·Ħà¶¢à¶º":11523,"à¶»à¶¸à¶»":11524,"Ġà¶ĭà¶¯à¶ºà¶ļ":11525,"à¶Ńà¶ļà¶±":11526,"ĠSelect":11527,"iti":11528,"Ġà·Ħà¶³à¶º":11529,"Ġair":11530,"Ġauthor":11531,"ĠTur":11532,"Ġfac":11533,"ĠBreaking":11534,"ĠIf":11535,"osm":11536,"à·ģà¶ºà¶ļà¶¯":11537,"Ġlarge":11538,"urther":11539,"Ġà¶ĭà¶«à·Ģà¶§":11540,"ĠStart":11541,"à¶¢à¶ºà¶§à¶Ń":11542,"à·Ģà·ħà¶ľ":11543,"raz":11544,"Ġà¶ħà¶´à¶±à¶ºà¶±à¶ļà¶»":11545,"ĠCommission":11546,"keep":11547,"ĠDesktop":11548,"achelor":11549,"\">":11550,"AY":11551,"DD":11552,"ML":11553,"gar":11554,"youtu":11555,"Î¼":11556,"æĿ":11557,"à¶»à¶±à¶ºà¶§":11558,"à¶¸à¶¸à¶±à¶¸":11559,"à¶¶à¶ļà¶»à¶±":11560,"à¶ºà¶§à¶±":11561,"Ġà¶ħà¶´à¶½à¶º":11562,"Ġà·ĥà·Ħà¶ºà¶¯":11563,"à¶·à¶§":11564,"à·Ĵà¶Ĥ...":11565,"Ġà·Ģà¶½à¶´à¶±":11566,"à¶ĳà¶»à¶§":11567,"à¶»à¶«à¶ľ":11568,"Ġà¶ķà¶±à·Ģ":11569,"à·Ĵ,âĢĿ":11570,"à¶¯à·Ħà·ĥà¶º":11571,"ĠAst":11572,"Ġface":11573,"Ġfair":11574,"Ġbuild":11575,"ĠDaily":11576,"ĠRock":11577,"osition":11578,"ĠNir":11579,"Ġ1505":11580,"Ġà·Ħà¶¬à¶º":11581,"Ġà·Ħà¶¬à·Ģà¶½":11582,"Ġà·Ģà¶ºà·ĥà¶Ń":11583,"à¶ķà¶ļà¶§":11584,"Ġvideos":11585,"à·Ĭ.........":11586,"Ġ.........":11587,"ĠPhil":11588,"ĠHDRip":11589,"Ġindividual":11590,"PPO":11591,"--------------------------------":11592,"Ġà¶¶à¶§à¶±à¶½":11593,":#":11594,"FL":11595,"hel":11596,"time":11597,"å°":11598,"à¶½à·Ģà¶»à¶«":11599,"Ġà¶ļà·Ħà·Ģ":11600,"Ġà¶±à·ĥà¶»":11601,"à·ĸ..":11602,"Ġà¶Ĩà¶©":11603,"à¶±à¶ºà·ħ":11604,"à¶łà¶½à¶±":11605,"Ġà¶·à·Ģà¶ºà¶±":11606,"à·Ħà¶½à¶¯":11607,"Ġà¶Ĩà¶«à¶¸à¶©":11608,"Ġà¶ħà¶·à·Ģ":11609,"ĠAuto":11610,"ĠMuseum":11611,"ĠPop":11612,"ĠRoad":11613,"adh":11614,"olf":11615,"ided":11616,"Ġà¶Ľà¶¢":11617,"Ġà¶ĭà·ħà¶½":11618,"Ġà¶¸à·ħà¶´à·Ħ":11619,"illed":11620,"'''":11621,"Ġclaim":11622,"1976":11623,"Ġparty":11624,"ĠUpload":11625,"ependent":11626,"ĠButton":11627,"ecutive":11628,"*.":11629,"Oct":11630,"Sch":11631,"Sub":11632,"TO":11633,"Tags":11634,"iet":11635,"sw":11636,"uzz":11637,"à·Ĵ//":11638,"à¶»à·Ģà·ĥ":11639,"à¶»à¶¬":11640,"à¶´à¶ľà¶±":11641,"Ġà¶±à¶½à¶½":11642,"à·Ĵ.âĢľ":11643,"à¶¢à¶ºà¶§à¶¸":11644,"à¶³à¶ļà¶§":11645,"à·Ģà¶Ńà¶¸":11646,"à¶®à¶·":11647,"à¶»à¶¸à¶ºà¶¸":11648,"Ġà¶¢à¶±à¶°":11649,"Ġà¶ħà¶ºà·ĥ":11650,"Ġà¶Ńà¶»à·Ħà·Ģ":11651,"Ġà¶Ĭà¶¶":11652,"à¶¨à¶±":11653,"Ġthird":11654,"à¶½à¶§à¶¯":11655,"Ġcann":11656,"ĠMel":11657,"ĠTim":11658,"Ġà¶ħà¶ľà¶½à¶ļ":11659,"andra":11660,"Ġbats":11661,"Ġà¶Ķà¶¶à¶§à¶¯":11662,"Ġà¶¸à·ĥà¶ļà¶¸":11663,"osed":11664,"à¶µà¶½à¶ºà¶§":11665,"Ġà¶´à¶§à¶½à¶ºà¶ļ":11666,"Ġ157":11667,"Ġà·Ģà·Ħà¶´":11668,"istics":11669,"Ġà¶¶à¶»à¶´à¶Ńà¶½à¶º":11670,"Ġà¶ļà·Ģà¶»à·Ħ":11671,"Ġstop":11672,"---":11673,"à·ıâĢĻ,":11674,"Ġ071":11675,"ĠServices":11676,"ynam":11677,"trans":11678,"ĠViharaya":11679,"Ġavailable":11680,"EM":11681,"Sm":11682,"à·Ķ__":11683,"à¶¸à¶´à¶¯":11684,"à¶½à¶ļà¶»à¶±":11685,"Ġà·Ģà¶¯à·Ģ":11686,"Ġà¶´à¶§à·ĥ":11687,"Ġà¶ħà¶§à¶½":11688,"Ġà¶ĩà¶´à¶ºà¶§":11689,"à¶Ńà¶»à¶Łà¶º":11690,"à¶ħà¶ł":11691,"Ġà¶§à¶¢":11692,"...]":11693,"Ġà¶ħà¶¸à¶±à¶º":11694,"Ġà¶ķà¶ļà¶¸":11695,"Ġà¶Ĵà¶ļà¶±à¶¸":11696,"à¶»à·ĥà¶§":11697,"à¶»à·Ħà¶»à¶ļ":11698,"à¶ĩà¶ºà·Ģ":11699,"Ġà¶ľà¶¸à¶¸":11700,"Ġà¶±à¶ľà¶»à¶ºà¶±":11701,"ĠMother":11702,"Ġpc":11703,"Ġpri":11704,"Ġap":11705,"ĠLock":11706,"Ġ850":11707,"ires":11708,"à¶§à¶ļà¶ºà¶§":11709,"ĠEgypt":11710,"aga":11711,"à¶»à¶ľà·ĥ":11712,"Ġlive":11713,"Ġà¶¢à¶½à·ĥà¶¸":11714,"apala":11715,"à·ĥà¶»à¶ºà¶Ń":11716,"Ġà¶īà·Ģà·ĥà¶ľ":11717,"ãģ¦":11718,"Ġà¶ĭà¶ºà¶±à¶ļ":11719,"bert":11720,"1974":11721,"Ġà¶¯à·ģà¶½à¶ļ":11722,"Ð»Ð¸":11723,"Ġà¶ļà¶¹à¶ºà¶ļ":11724,"urrency":11725,"Point":11726,"Ven":11727,"her":11728,"rupt":11729,"âĪ":11730,"à¶±à¶Łà¶ļ":11731,"à¶¯à¶°":11732,"à¶´à¶®à¶ºà¶ļ":11733,"à¶©à¶¶à·ĥ":11734,"à¶°à¶±à·Ģà¶½à¶§":11735,"Ġà¶ļà¶»à¶½à¶±":11736,"à·Ĵ........":11737,"Ġà¶īà¶»à¶´":11738,"Ġà·ĥà¶¸à¶ļà¶º":11739,"Ġà¶łà¶½à¶±à¶ºà¶ļ":11740,"Ġà¶¸à¶Ńà¶ļà¶Ń":11741,"Ġà¶ħà¶»à¶´":11742,"à¶¶à¶»à¶ºà¶§":11743,"Ġà¶±à·Ģà¶ºà¶ļà¶§":11744,"rec":11745,"oms":11746,"Ġhaving":11747,"ĠEver":11748,"à·Ģà·Ħà¶±à¶ļ":11749,"Ġ152":11750,"âĢ¦.âĢĿ":11751,"ifi":11752,"ĠShar":11753,"Ġà·ĥà¶¸à¶»à¶±à·Ģ":11754,"Ġcomplet":11755,"ĠØ¨":11756,"ĠIslam":11757,"appy":11758,"Ġregister":11759,"ĠStudies":11760,"ĠBooks":11761,"ĠDemocr":11762,"She":11763,"å¾":11764,"è¡":11765,"à¶±à·Ħà·ĥ":11766,"à¶»da":11767,"à·Ļà·Ķ":11768,"Ġà¶Ńà¶½à¶´":11769,"à·ħà¶¯à¶»":11770,"à·Ĥà¶ºà¶·":11771,"à¶Ķà¶©":11772,"à¶¯à¶½à¶ľ":11773,"à¶¥à¶´":11774,"à¶Ńà·Ģà·ģà¶º":11775,"edit":11776,"Ġcat":11777,"ĠTut":11778,"ĠFeder":11779,"Ġ[[":11780,"Ġ137":11781,"ĠIns":11782,"Ġà¶ħà·ĥà¶»à¶«à¶ºà¶±":11783,"anner":11784,"riculture":11785,"à¶»à·Ħà¶»à¶§":11786,"trl":11787,"ientific":11788,"Ġà·Ħà¶¶à¶»à¶«":11789,"ĠArchae":11790,"Ġrequest":11791,"ĠRAW":11792,"AK":11793,"Ac":11794,"mission":11795,"æŃ":11796,"à¶±à¶ł":11797,"à¶Ńà¶ºà¶½":11798,"à¶ļà¶´à¶Ń":11799,"Ġà¶¸à¶©à¶¸":11800,"à¶©à¶¸à·ħ":11801,"à¶ºà¶½à¶±à¶¸":11802,"Ġà¶łà¶§":11803,"Ġà¶»à¶¢à¶¸":11804,"Ġà¶»à¶¢à¶¯à¶»":11805,"à¶»à¶´à¶¯":11806,"ĠMer":11807,"Ġothers":11808,"à¶¸à·ĥà¶ļà¶§":11809,"amin":11810,"ĠDet":11811,"agam":11812,"Ġà¶´à¶«à¶ľ":11813,"utter":11814,"akoon":11815,"ista":11816,"à·ı....!":11817,"Ġstar":11818,"oke":11819,"ounter":11820,"ished":11821,"à¶Ńà¶ľà¶»à·ĥ":11822,"Ġchang":11823,"Ġà¶ħà¶»à¶ľà¶½à¶ºà¶ļà¶§":11824,"039":11825,"Ġads":11826,"click":11827,"anthi":11828,"eshana":11829,"Ġ1896":11830,"ĠODIs":11831,"ĠCentral":11832,"Ã³n":11833,"ĠEuropean":11834,"ges":11835,"kn":11836,"pm":11837,"Ġ****":11838,"à¶§à¶ļà¶»à¶±":11839,"Ġà·Ģà¶´à¶»":11840,"Ġà¶ļà·Ħà¶±":11841,"à·ĵ),":11842,"Ġà·Ħà¶½à¶½":11843,"Ġà¶¶à·ħà¶°":11844,"à·Ģà¶Ńà¶ľ":11845,"Ġà¶¶à¶½à¶ļà¶»à¶¸":11846,"Ġà¶´à¶»à¶ºà¶±":11847,"à¶ħà¶»à¶ľ":11848,"Ġà¶īà¶¯à·Ħ":11849,"oro":11850,"Ġà¶ļà¶§à·Ģà·Ħ":11851,"à¶ĩà¶¹":11852,"ĠAL":11853,"Ġaway":11854,"Ġfem":11855,"Ġnever":11856,"à¶ºà¶ºà¶§à¶Ń":11857,"Ġrank":11858,"Ġimm":11859,"1969":11860,"Ġinclude":11861,"Ġconsidered":11862,"ĠGeorge":11863,"wid":11864,"á»":11865,"à·ĬâĢįà·Ļ":11866,"Ġà¶ºà¶¸à¶ļà¶§":11867,"Ġà¶īà¶Ńà¶»à¶ļ":11868,"Ġà·ĥà·Ħà¶ºà¶ļà¶º":11869,"à¶¸à¶±à¶ºà¶±":11870,"Ġà¶·à¶±":11871,"à·ĺ,":11872,"Ġà¶ļà¶Ńà¶ļ":11873,"à¶¸à¶«à¶ºà¶±":11874,"Ġà¶Ĵà¶ļà¶ļà¶ºà¶±":11875,"à¶ºà·Ģà¶ľà¶±":11876,"à¶°à¶ºà¶¯":11877,"Ġ1908":11878,"Ġà¶±à·Ģà·Ģà¶±":11879,"ĠAudio":11880,"à¶°à¶±à¶ºà¶º":11881,"omi":11882,"ĠPath":11883,"Ġà¶ĭà¶©à·Ħ":11884,"ĠNar":11885,"Ġà¶Īà·ĥ":11886,"à·Ĵ..\"":11887,"à·ħà¶¯à¶´à¶½":11888,"...............":11889,"Ġ1700":11890,"aves":11891,"Ġà¶ħà¶«à·ĥà¶ļà¶§":11892,"ends":11893,"Ġ280":11894,"ĠÐ¼":11895,"Ġexpl":11896,"lands":11897,"ĠApplication":11898,"1962":11899,"Ġïģ":11900,"airs":11901,"ĠðŁĺĽ":11902,"When":11903,"Ġà¶¸à¶¬à¶½":11904,"Ġcharge":11905,"IFA":11906,"yrics":11907,"ĠRoyal":11908,"Ġmanagement":11909,"ĠWickram":11910,"ĠNamib":11911,".:":11912,"FS":11913,"house":11914,"ios":11915,"yt":11916,"Â«":11917,"âĤ¬":11918,"Ġê":11919,"à·ı*":11920,"à¶ºà¶°à¶¸":11921,"à¶½à¶¸à¶Ń":11922,"à¶¶à¶ºà¶ļà¶§":11923,"à·ħà·Ħà¶ļà¶§":11924,"Ġà¶ļà·ħà¶½":11925,"ĠSP":11926,"Ġcost":11927,"Ġpur":11928,"Ġà¶īà·Ģà¶Ńà¶½à¶±":11929,"ĠDevelop":11930,"Ġà·ĥà¶§à¶±à¶ļà¶§":11931,"acters":11932,"ĠKa":11933,"à¶©à¶½à·Ģà¶½":11934,".....\"":11935,"Ġà¶ħà¶«à¶§":11936,"ĠUnc":11937,"Ġimp":11938,"enger":11939,"ribution":11940,"Ġà¶¯à¶©à¶ºà¶¸à¶§":11941,"Ġparticular":11942,"Lat":11943,"Ne":11944,"Press":11945,"TH":11946,"bro":11947,"div":11948,"self":11949,"ÑĪ":11950,"Ġí":11951,"à·Ħà¶¸à¶¯":11952,"Ġà¶ħà¶«à¶Ń":11953,"Ġà¶¯à¶ľ":11954,"à¶«à·Ģà¶±":11955,"à¶«à¶±à¶ļ":11956,"à¶«à¶§à¶Ń":11957,"Ġà¶ĩà¶ŀ":11958,"Ġà·ĥà·Ħà¶łà¶»":11959,"anel":11960,"à¶ľà¶½à¶ºà¶§":11961,"aram":11962,"ĠSony":11963,"Ġthought":11964,"à¶½à¶±à¶ºà¶¯":11965,"Ġà¶´à·Ģà·ĥà¶¯":11966,"ĠPoint":11967,"à¶»à¶¢à¶ºà¶§":11968,"Ġà¶ħà¶ľà¶ºà¶ļà¶§":11969,"Ġband":11970,"ĠGall":11971,"ĠRights":11972,"ĠNalin":11973,"Ġà¶Ķà·ĥà·Ģà¶¸":11974,"Ġà¶ļà¶´à¶¸":11975,"Ġà¶»à¶®à·Ģà¶½à¶§":11976,"à¶ħà¶¸à¶Ńà¶»":11977,"125":11978,"ologist":11979,"Ġà¶¯à¶Łà¶½à¶±à·Ģ":11980,"1961":11981,"Ġemp":11982,"ĠFBI":11983,"istorical":11984,"ometimes":11985,"MI":11986,"Me":11987,"med":11988,"çľ":11989,"ìĺ":11990,"à·Ĵ_":11991,"à¶»à·Ħà¶±à¶ºà¶ļ":11992,"à¶§à¶¸à¶±":11993,"à¶©à¶ļà¶»à¶´":11994,"à¶ľà¶Ńà·Ģà¶±":11995,"Ġà¶¶à¶½à·Ģà¶±":11996,"à¶½à¶±à¶ļ":11997,"à¶±à¶ļà¶§à¶¸":11998,"Ġà¶ħà¶¸à¶¯":11999,"à·ĥà¶±à¶¯":12000,"icer":12001,"ĠLee":12002,"asma":12003,"ĠDream":12004,"ĠNor":12005,"ĠFood":12006,"ĠFiles":12007,"Ġ1850":12008,"ayak":12009,"ago":12010,"ĠUlt":12011,"Ġkg":12012,"Ġà¶¢à¶±à¶´à¶¯à¶ºà¶ļ":12013,"Ġà¶ħà¶¬à¶½":12014,"ĠUnder":12015,"Ġà¶ļà¶Ńà¶»à¶ľà¶¸à¶§":12016,"1966":12017,"Story":12018,"ĠBlu":12019,"Ġà¶ħà¶Ńà·Ģà¶»à¶ºà¶§":12020,"What":12021,"iddle":12022,"iant":12023,"ju":12024,"mod":12025,"nam":12026,"tw":12027,"Ã¨":12028,"Ñİ":12029,"à¶»à¶ľà¶»":12030,"Ġà¶ļà¶¶à¶»à¶º":12031,"Ġà¶¸à¶½à¶§":12032,"Ġà¶¸à¶¢à¶»":12033,"Ġà¶±à¶§à¶¸":12034,"à·ģà¶ļà¶»à¶±":12035,"à¶¢à¶½à¶±à¶º":12036,"à·Ģà¶±à¶¢":12037,"à·Ģà¶»à·ĥà¶±":12038,"Ġà¶´à¶»à¶«à¶º":12039,"Ġà¶ħà¶¯à¶»":12040,"à¶¹à¶³":12041,"Ġ1909":12042,"à¶īà·Ģà¶Ń":12043,"Ġà·ĥà¶¸à¶Łà¶Ń":12044,"à¶Ńà¶½à¶ľ":12045,"Ġcenter":12046,"ĠMass":12047,"ĠTer":12048,"Ġfeel":12049,"à·Ģà¶»à¶«à·Ģà¶½à¶§":12050,"ĠKur":12051,"Ġà¶ĳà¶±à·Ģà¶§":12052,"Ġà¶Ĵà¶ļà¶§à¶¸":12053,"Ġà·ĥà¶ļà·ĥà¶¸":12054,"Ġking":12055,"Ġtrading":12056,"onda":12057,"Ġscored":12058,"ĠExternal":12059,"clop":12060,"Ġdoctor":12061,"Ġindic":12062,"ĠLeague":12063,"ĠMedical":12064,"Ġdeterm":12065,"Ġincre":12066,"rophy":12067,"ĠAcademy":12068,"LE":12069,"cell":12070,"more":12071,"Îµ":12072,"ĮĢ":12073,"Ġà¶¯à¶´":12074,"Ġà¶Ńà¶¢":12075,"à·ħà¶±à¶º":12076,"à¶°à¶±à·Ģà¶½":12077,"Ġà¶ĳà¶ļà¶ľà·Ģ":12078,"Ġà¶łà¶´":12079,"à¶ºà¶¸à¶¸":12080,"Ġà¶´à·ħà¶½à¶ļ":12081,"thur":12082,"à¶©à¶ļà¶¸à¶ļ":12083,"à¶Ķà·ħ":12084,"à¶Ķà¶¶à¶½":12085,"à¶Ĩà¶´à·ĥ":12086,"Ġseveral":12087,"Ġcrypt":12088,"ĠMode":12089,"ĠPublish":12090,"ĠPuwath":12091,"Ġmoney":12092,"Ġmicro":12093,"ĠNokia":12094,"à·ģà¶±à¶ºà¶Ń":12095,"Ġ1860":12096,"Ġà·Ĥà¶¸":12097,"à·ħà¶¯à·ĥ":12098,"Ġ????":12099,"Ġ133":12100,"ession":12101,"Ġà¶¢à¶±à¶¸à¶Ńà¶ºà¶ļ":12102,"These":12103,"ixer":12104,"etti":12105,"Ġeducation":12106,"tract":12107,"Ġà¶¸à·Ħà¶»à·Ħà¶Ń":12108,"iterature":12109,"Ġvalue":12110,"Ġletters":12111,"ĠMaxx":12112,"SS":12113,"Ã±":12114,"Ùĥ":12115,"ĉĠĠ":12116,"Ġà¶Ńà¶ľ":12117,"Ġà¶ĳà¶½à¶º":12118,"Ġà¶Ĵà¶¢":12119,"Ġà¶¶à¶½à¶ľà¶±":12120,"à¶ħà·Ģà¶Ń":12121,"à¶¹à·Ģ":12122,"Ġà¶´à¶Ńà¶±à¶º":12123,"Ġ1913":12124,"ĠSQL":12125,"Ġà·Ģà¶§à¶½à¶±":12126,"Ġcame":12127,"ĠMoney":12128,"Ġà¶īà¶©à¶Ń":12129,"Ġtotal":12130,"ĠLord":12131,"Ġà¶ľà¶½à¶±à·Ģ":12132,"Ġà¶ĭà¶©à¶º":12133,"ĠNight":12134,"Ġà·ĥà¶§à¶ļà¶´à¶§":12135,"1940":12136,"ĠWas":12137,"irun":12138,"à·Ĭ...!":12139,"unk":12140,"Ġ2050":12141,"Ġà·Ħà¶§à¶¯":12142,"à¶©à¶½à¶ºà¶Ń":12143,"Ġvoice":12144,"Ġà¶Ķà¶´à·Ģà¶Ń":12145,"abh":12146,"TER":12147,"Ð¾Ð³":12148,"????????":12149,"Ġ1894":12150,"Ġcommand":12151,"afe":12152,"à·ĥà¶Łà¶¶":12153,"Ġdegrees":12154,"Ġimportant":12155,"Acc":12156,"Amer":12157,"bat":12158,"code":12159,"fit":12160,"kh":12161,"}}":12162,"Ġang":12163,"à¶¸à·Ģà¶ľ":12164,"à¶§à¶ľà¶½":12165,"Ġà·Ģà·Ģà¶½":12166,"Ġà¶´à¶Ńà¶º":12167,"..)":12168,"à¶»à¶¸à¶ºà¶¯":12169,"Ġà¶§à¶±":12170,"à¶½à¶ļà·ħ":12171,"ores":12172,"Ġ192":12173,"à¶Ķà¶Ńà¶±":12174,"à¶īà¶´à¶¯":12175,"ĠCat":12176,"Ġsat":12177,"Ġsymbol":12178,"Ġcamera":12179,"à¶Ŀà¶»à¶º":12180,"Ġage":12181,"Ġtouch":12182,"à·Ħà¶§à¶¯":12183,"ĠLCD":12184,"ĠDatabase":12185,"Ġmass":12186,"ĠNow":12187,"Ġà¶´à¶«à·ĥ":12188,"Ġà¶ľà·Ħà¶ļà¶§":12189,"ĠKap":12190,"Ġà·Ģà¶ºà·ĥà¶º":12191,"ategor":12192,"Ġvar":12193,"à¶ļà¶ºà¶§à¶Ń":12194,"à¶ľà¶«à¶±à¶ºà¶ļ":12195,"à·Ħà¶»à¶«à¶ºà¶±":12196,"à¶¶à·Ħà¶ļà¶§":12197,"Ġ260":12198,"issa":12199,"ambridge":12200,"verse":12201,"380":12202,"DC":12203,"EB":12204,"Nov":12205,"Some":12206,"áĬ":12207,"éĽ":12208,"à·Ĵ''":12209,"à·Ħà¶¢":12210,"Ġà·Ģà·ħà¶¯":12211,"à¶«à¶ľà¶¸":12212,"Ġà¶Ńà¶¯à¶§":12213,"Ġà¶ĳà¶¶à¶±":12214,"à·ħà·Ģà¶Ń":12215,"Ġà¶ļà¶»à¶¶":12216,"à¶¸à¶ºà·ħ":12217,"Ġà¶¶à¶½à¶ļà¶»à¶±":12218,"à¶¯à¶»à¶½":12219,"à·Ĥà¶«à¶Ń":12220,"stant":12221,"edora":12222,"ĠMen":12223,"à¶¯à¶±à¶ºà¶º":12224,"Ġà¶ľà¶½à¶´à¶±":12225,"à·Ĥà¶ļà·Ģà¶»à¶ºà¶ļ":12226,"ĠDer":12227,"ĠRight":12228,"rier":12229,"Ġhowever":12230,"ĠâĢ¦âĢ¦":12231,"encies":12232,"Ġexist":12233,"Ð¸ÑĤ":12234,"Ġ1897":12235,"ä¸Ń":12236,"ĠVisual":12237,"ĠDharm":12238,"()":12239,"HC":12240,"den":12241,"dates":12242,"Ãŀ":12243,"ËĲ":12244,"å·":12245,"à·Ĭ[":12246,"Ġà¶¸à·ĥà¶§":12247,"Ġà¶ľà¶±à¶ºà¶§":12248,"Ġà¶¶à¶»à¶´":12249,"Ġà¶½à¶´à¶§":12250,"à¶Ńà¶»à·Ħ":12251,"Ġà¶¶à·Ģà·Ģà¶Ń":12252,"à¶¸à¶Ńà¶ļà¶º":12253,"Ġ(;":12254,"à¶Łà¶±à¶º":12255,"Ġà¶´à¶»à·ĥà¶Ń":12256,"Ġà·Ģà¶»à¶±":12257,"Ġà¶ħà¶©à¶±à·Ģ":12258,"à¶ºà¶ļà¶§à¶¯":12259,"ĠSettings":12260,"à¶»à¶ºà¶ļà¶§à¶º":12261,"Ġpublished":12262,"à·Ģà¶»à¶«à¶ºà¶Ń":12263,"ĠLi":12264,"Ġmillion":12265,"Ġà¶ĭà¶©à·Ģ":12266,"oseph":12267,"irg":12268,"idae":12269,"Ġ1865":12270,"Ġà¶±à¶©à¶»":12271,"à¶¸à·Ħà·ħ":12272,"Ġ129":12273,"Ġgraph":12274,"Ġ1397":12275,"à·ĬâĢĿ,":12276,"Ġà¶¶à¶¶à¶½à¶±":12277,"Ġteach":12278,"ĠFrank":12279,"ĠReport":12280,"ception":12281,"ĠITN":12282,"ĠWijes":12283,"ooriya":12284,"Ġlosing":12285,"ĠMaxxA":12286,"DNA":12287,"ÙĲ":12288,"ìŀ":12289,"à·Ħà¶ºà¶¯":12290,"à¶½à¶łà¶±":12291,"à¶©à·Ģà·ĥà¶±":12292,"Ġà¶¢à¶½à¶ľ":12293,"à¶±à¶ºà¶ľà¶»":12294,"Ġà¶Ĵà¶¸à¶ļ":12295,"Ġà¶ļà·ħà¶½à¶º":12296,"à¶¸à¶Ńà¶ļà¶¯":12297,"à¶»à·Ģà·ģ":12298,"à¶»à·Ģà¶±à¶º":12299,"à¶ľà¶±à¶ľ":12300,"Ġà·Ħà¶»à·ĥà¶»":12301,"Ġà·Ģà¶©à·Ģ":12302,"à·ĥà¶ļà¶¯":12303,"ĠCur":12304,"Ġthough":12305,"Ġtree":12306,"Ġweek":12307,"Ġfail":12308,"ĠLet":12309,"ĠLibrary":12310,"ĠGn":12311,"à·ģà¶ļà¶®":12312,"Ġà¶Įà·Ĥ":12313,"Ġà¶±à¶ľà¶»à·Ģà¶½à¶§":12314,"Ġà¶»à¶«à·ģ":12315,"istration":12316,"Ġvers":12317,"à·ĥà¶½à¶ļà¶¸":12318,"à¶ľà¶¸à¶±à¶§":12319,"ãģĻ":12320,"ramework":12321,"ĠAdobe":12322,"merc":12323,"à¶ºà¶»à¶Ńà¶±":12324,"Ġeditor":12325,"ĠEngineering":12326,"AF":12327,"Categories":12328,"EG":12329,"OF":12330,"po":12331,"srilanka":12332,"year":12333,"åį":12334,"à·ĶâĢĮ":12335,"à·Ļ......":12336,"à¶ľà¶«à¶ºà¶§":12337,"Ġà¶¯à¶»à·Ģ":12338,"Ġà¶¶à¶§à¶ľ":12339,"à·Ĵ.âĢį":12340,"à¶±à¶ºà·Ģ":12341,"Ġà¶ĭà·ģ":12342,"à¶Łà¶§":12343,"à¶ħà·Ħà¶½":12344,"à¶¯à¶±à¶±":12345,"à¶ļà¶ļà¶§à¶Ń":12346,"Ġ1901":12347,"à¶¯à¶½à¶ºà¶ļ":12348,"à¶»à¶½à¶ľ":12349,"ises":12350,"Ġfew":12351,"ĠDJ":12352,"Ġdocument":12353,"ĠFox":12354,"à·Ģà¶»à¶«à·Ģà¶½":12355,"Ġandroid":12356,"Ġlarg":12357,"Ġ139":12358,"Ġ256":12359,"Ġà¶¯à·ĥà¶½à¶ļ":12360,"Ġà¶Ńà¶½à¶ºà¶±":12361,"Ġformer":12362,"ĠStreet":12363,"à¶´à¶ºà¶§à¶Ń":12364,"à¶ºà¶·à¶§":12365,"Ġ0112":12366,"Ġà¶ħà¶»à¶ľà¶½à·Ģà¶½":12367,"ĠPlus":12368,"à¶¸à·Ħà¶»à¶ľà¶¸":12369,"ĠTests":12370,"conf":12371,"Ġsuper":12372,"ĠSupport":12373,"Ø¨Ùĩ":12374,"dropcap":12375,"%-":12376,"RT":12377,"Retrieved":12378,"XL":12379,"hter":12380,"uan":12381,"à·Ķ*":12382,"à·ļ........":12383,"Ġà¶¶à·Ģà¶±à¶¸":12384,"à¶©à¶´à¶½":12385,"Ġà¶īà¶Ńà¶»":12386,"Ġà¶¸à·Ħà¶ł":12387,"Ġà¶´à¶»à¶Ńà¶»":12388,"à·Ĭ.,":12389,"à¶ĳà·Ģà¶ļ":12390,"Ġà¶ĭà¶´à·ĥà¶»":12391,"à¶¢à¶±à¶¶à¶½à¶º":12392,"à·Ĥà¶«à¶ºà¶¯":12393,"à¶»à¶½à¶Ń":12394,"Ġson":12395,"Ġà¶»à·ĥà¶¥à¶Ń":12396,"Ġwinning":12397,"Ġdiv":12398,"ĠNote":12399,"ĠFort":12400,"Ġ1885":12401,"agn":12402,"Ġ158":12403,"à¶»à¶´à¶§à¶ºà¶Ń":12404,"istance":12405,"à¶©à¶´à·Ģà¶Ń":12406,"à¶¸à¶ºà¶§à¶Ń":12407,"verage":12408,"ugu":12409,"ashion":12410,"ĠAmar":12411,"Ġpartner":12412,"posed":12413,"prise":12414,"Ġattack":12415,"Ġestablish":12416,"/*":12417,"?âĢľ":12418,"Dec":12419,"Download":12420,"EP":12421,"link":12422,"uh":12423,"à¶Ńà·Ħà¶±à¶¸":12424,"à¶¸à·ĥà¶½":12425,"à¶§à·ĥà¶¸":12426,"à¶¯à¶§à¶º":12427,"à·Ĳ.....":12428,"à·ħà·ĥà¶±":12429,"à·ħà¶§à¶¸":12430,"à·Ģà¶ļà¶ł":12431,"Ġà¶ħà¶Ńà¶º":12432,"ananda":12433,"à·Ĩà¶»à¶±":12434,"iny":12435,"à¶¯à¶»à¶§à¶Ń":12436,"à¶Ľà¶±à·Ģà¶½à¶§":12437,"à¶ĩà·Ģà¶±":12438,"Ġà·Ħà¶³à¶´":12439,"à¶§à¶½à¶ºà¶ļà¶§":12440,"ĠGard":12441,"ĠBoot":12442,"Ġà·ĥà¶»à¶¹":12443,"ĠHa":12444,"ĠHom":12445,"Ġ1817":12446,"ĠEqu":12447,"owers":12448,"ĠOPPO":12449,"Ġà·ĥà¶¯à·Ħà¶±à¶ļ":12450,"Ġà¶ħà·Ħà·ĥà¶ļ":12451,"Ġeth":12452,"Ġask":12453,"à·ı!âĢĿ":12454,"Ð¾Ð½":12455,"Ġà®®":12456,"Ġzz":12457,"Ġrock":12458,"atting":12459,"ĠCentre":12460,"ìĿ´":12461,"Ġknowledge":12462,"ĠWhatsApp":12463,"Deshana":12464,"TY":12465,"Ø¬":12466,"à·Ĵà¶ĥ":12467,"à¶ľà¶¤":12468,"à¶ĤÂŃ":12469,"Ġà¶¢à¶¶":12470,"à·ļ.âĢĻâĢĻ":12471,"à·Ģà¶§à¶ļ":12472,"à¶ħà¶»à¶±":12473,"anish":12474,"Ġà¶ķà¶¶":12475,"à¶Ńà¶ļà·Ģà¶Ń":12476,"Ġà¶ļà¶§à¶ľ":12477,"Ġsir":12478,"Ġà·Ģà·ĥà¶»à¶º":12479,"ĠTor":12480,"ĠTre":12481,"aman":12482,"ĠDar":12483,"à·Ģà¶ºà¶§à¶¯":12484,"Ġà·ĥà¶»à·Ģà¶±à¶¸":12485,"ĠHand":12486,"1958":12487,"Ġà·ĥà¶½à¶»":12488,"Ġà·Ĥà·Ģà¶»":12489,"umara":12490,"usion":12491,"Ġà¶ħà¶Łà·Ģà¶º":12492,"epad":12493,"à·ıâĢį.":12494,"Ġà¶ĭà¶´à·ĥà¶·":12495,"à·ļâĢ¦..":12496,"ĠAdvent":12497,"Ġà¶´à¶»à¶¯à·Ģà¶¸":12498,"ĠFrench":12499,"position":12500,"Ġseason":12501,"utomatic":12502,"edding":12503,"bodusara":12504,"Res":12505,"UI":12506,"à·Ĵà·ı":12507,"Ġà¶¸à¶½à·Ģ":12508,"à¶´à·ĥà¶ļ":12509,"à¶´à¶±à¶ºà¶ļà¶§":12510,"Ġà¶¶à·Ģà¶½à¶Ń":12511,"Ġà¶ļà¶»à¶½à¶ļ":12512,"Ġà¶ļà¶»à¶ľà¶¸":12513,"à¶»à¶ºà¶½":12514,"à¶»à¶ļà¶ºà¶§":12515,"erawansa":12516,"Ġà¶©à¶½":12517,"Ġà¶ļà¶«à¶ļ":12518,"à¶ºà·ĥà¶±à¶ºà¶§":12519,"à¶ļà¶»à¶«à·Ģà¶½à¶§":12520,"Ġmaking":12521,"ĠBul":12522,"ĠBill":12523,"Ġà¶Īà·Ĥ":12524,"à¶½à¶ºà¶§à¶º":12525,"à¶ķà·ĥà¶º":12526,"indu":12527,"Ð°ÑĤ":12528,"Ġà¶ļà¶¸à¶§à·Ħà¶±":12529,"Ġpartition":12530,"Ġà¶ħà¶§à¶¸à·ĥ":12531,"ĠCharles":12532,"à¶Ĭà¶½à¶Łà¶§":12533,"Ġspeakers":12534,"Mon":12535,"cons":12536,"path":12537,"Éª":12538,"áĭ":12539,"à¶¸à¶łà¶ļ":12540,"à¶´à¶¬":12541,"Ġà¶ĳà¶»à¶¸":12542,"à¶³à·Ģà¶±à·Ģ":12543,"à·Ģà¶Ńà¶¯":12544,"Ġà¶ħà¶Ńà¶®":12545,"Ġà¶ħà·ĥà·ħà¶§":12546,"oral":12547,"Ġ1916":12548,"à¶Ĵà¶¸à¶§":12549,"Ġà¶´à¶±à¶½":12550,"ĠAI":12551,"ĠMobitel":12552,"Ġpush":12553,"ionship":12554,"Ġtri":12555,"Ġà¶īà·Ħà·ħà¶§à¶¸":12556,"ĠDown":12557,"ĠRa":12558,"ĠNAS":12559,"Ġà¶ľà·ĥà¶ļà¶§":12560,"à·ļ..\"":12561,"pha":12562,"Ġplatform":12563,"Ġtrack":12564,"Ġà¶Ńà¶«à¶¸à¶½":12565,"Ġà¶Ńà·Ħà·ħ":12566,"ĠSpecial":12567,"1968":12568,"Ġà·ĥà¶ļà¶½à·Ģ":12569,"Ġrelationship":12570,"Ġassoci":12571,"ĠPeace":12572,"Ġdomain":12573,"Ġpossible":12574,"âĺĲ":12575,"Ġà¶ļà¶©à¶īà¶¸à¶ļ":12576,"Do":12577,"How":12578,"burg":12579,"fin":12580,"hib":12581,"mical":12582,"Ã¦":12583,"áŀ":12584,"éģ":12585,"à¶Ńà¶¥à¶ºà¶ļ":12586,"à¶ļà¶¸à¶±":12587,"Ġà·Ģà¶¯à¶ºà¶§":12588,"Ġà¶¸à¶»à·Ħ":12589,"Ġà¶ĳà¶±à·ĥ":12590,"à¶©à¶ºà¶¸":12591,"à¶°à¶¸à¶±":12592,"Ġà¶¢à¶ºà¶»":12593,"à¶®à¶±à¶ºà¶ļ":12594,"à·Ĩà¶§":12595,"à·Ĩà¶ºà¶»":12596,"Ġà·Ģà¶©à·Ģà¶±":12597,"....?":12598,"enz":12599,"ĠSU":12600,"ĠSon":12601,"Ġà¶ħà¶¯à·Ħà·ĥà¶ļà¶§":12602,"Ġà·Ģà·Ħà¶±à¶ºà¶ļ":12603,"ĠPolitical":12604,"à¶¸à·ĥà¶±à·Ģ":12605,"Ġbattery":12606,"ĠBur":12607,"elt":12608,"Ġhor":12609,"ĠEle":12610,"Ġneg":12611,"iger":12612,"Ġgod":12613,"ecess":12614,"Ġà¶±à·Ģà¶ļà·Ģà¶¯à¶º":12615,"udi":12616,"ĠThr":12617,"ãģ§":12618,"ĠAlert":12619,"review":12620,"thumbnail":12621,"Ġà¶Ńà·Ħà·Ģà¶»":12622,"Ġever":12623,"Phot":12624,"atta":12625,"ĠIPL":12626,"Ġphotos":12627,"Ġkeyboard":12628,"Ġprofessional":12629,"ĠImages":12630,"Ġmessage":12631,"118":12632,"Free":12633,"Techà¶ļà¶Ń":12634,"kar":12635,"æķ":12636,"à·ĥà¶´à¶±":12637,"à¶§à¶ŀ":12638,"à·ģà¶ļà¶½":12639,"à¶¢à¶¸à·Ħ":12640,"Ġà¶¢à·Ģà·ĥà¶¸":12641,"Ġà·Ģà¶±à¶ħà¶½":12642,"Ġà¶ļà¶½à¶½à¶º":12643,"à¶½à¶ļà·Ģà¶»":12644,"Ġà¶ħà¶°à¶º":12645,"à¶»à¶´à¶®à¶º":12646,"isation":12647,"Ġfocus":12648,"ĠLo":12649,"ams":12650,"Ġà¶Ŀà¶±à¶º":12651,"ĠNations":12652,"eline":12653,"acity":12654,"ĠFa":12655,"ĠWall":12656,"ayout":12657,"Ġ205":12658,"Ġlittle":12659,"ctions":12660,"Ġà¶»à¶®à¶ľ":12661,"à¶ħà¶¯à¶§":12662,"utions":12663,"à¶Ńà¶±à·Ģà¶½à¶§":12664,"Ġà¶¶à¶¶à·ħà¶±":12665,"à¯ĩ":12666,"Ġcontinu":12667,"ĠDeep":12668,"ĠEdit":12669,"ĠLeave":12670,"plement":12671,"ĠCNN":12672,"ĠRichard":12673,"opping":12674,",.":12675,"Fr":12676,"Gu":12677,"à¶±à¶½à¶ºà¶ļ":12678,"à·ıâĢĮ":12679,"à¶»à·Ĥà¶»":12680,"Ġà¶ĩà·ĥà¶½":12681,"à¶¢à¶»à¶º":12682,"à¶¢à·ĥà¶·":12683,"à¶ºà¶§à¶±à¶¸":12684,"Ġà¶ħà¶±à¶·":12685,"à¶ħà¶»à¶ļ":12686,"à¶ħà¶ºà¶¯":12687,"Ġ215":12688,"Ġà¶»à¶§à¶ļà¶¯":12689,"...)":12690,"anic":12691,"à¶īà·Ģà·ĥà¶±":12692,"icism":12693,"ĠMil":12694,"à¶¯à¶±à¶ºà¶Ń":12695,"ĠGal":12696,"Ġmachine":12697,"Ġdie":12698,"acing":12699,"Ġ1886":12700,"under":12701,"Ġ12000":12702,"Ġà·Ģà·Ħà¶»à¶ļ":12703,"ĠOver":12704,"empt":12705,"Ġà¶¯à·Ħà·ĥà¶ºà¶ļ":12706,"Ġ148":12707,"à¶ľà¶«à¶ļà·Ģà¶½":12708,"Ġbeat":12709,"Ġchange":12710,"aceae":12711,"tegr":12712,"Ġimages":12713,"ifications":12714,"ĠCommittee":12715,"stitution":12716,"Ġsomething":12717,"Ġpoints":12718,"Ġà¶ļà·Ģà¶¸à¶¯":12719,";:":12720,"Pal":12721,"Te":12722,"bi":12723,"à«":12724,"Ġà·ĵ":12725,"à·Ķ).":12726,"Ġà·ĥà¶½à¶±":12727,"à¶´à·Ħà¶§":12728,"à·ľ....":12729,"Ġà¶Ńà¶ļà¶±":12730,"Ġà¶ĭà¶ºà¶±à·Ģ":12731,"à·Ģà¶§à¶ºà¶±":12732,"Ġà¶ľà¶±à¶±à¶ļà¶§":12733,"Ġà¶ĭà¶´à¶´":12734,"Ġ\"\"":12735,"Ġà¶ĳà¶½à¶¶":12736,"à¶īà¶½à¶ļ":12737,"ĠCa":12738,"Ġà¶±à·Ģà¶ľà¶¸":12739,"Ġà·Ħà¶³à¶ľà¶¸à¶ľ":12740,"Ġfe":12741,"à¶ļà·ĥà¶±à¶º":12742,"ĠFestival":12743,"Ġ1867":12744,"Ġnames":12745,"ĠKen":12746,"Ġgive":12747,"Ġà¶ĩà¶ºà¶§à¶Ń":12748,"à¶µà¶½à·Ģà¶½":12749,"ĠAnti":12750,"ĠAncient":12751,"ulla":12752,"Ġà·ĥà¶»à¶«à¶ļ":12753,"ireless":12754,"Ġ:))":12755,"Ġedition":12756,"Ġworks":12757,"Ġbecome":12758,"Ġà¶ļà·ħà¶¹à¶ļ":12759,"ĠQuality":12760,"ĠDissanayake":12761,"Buy":12762,"Che":12763,"Pakistan":12764,"cious":12765,"à¶»à¶©à¶ļà¶º":12766,"à·ĥà¶ŀ":12767,"à¶ļà·Ģà¶»à¶«à¶ºà¶ļ":12768,"à·Ļà·ĺ":12769,"à·Ħà¶Ńà¶»à·Ģ":12770,"Ġà¶ħà¶Ľ":12771,"Ġà¶ħà·ĥà¶»à¶±":12772,"à¶´à¶±à·Ģ":12773,"à¶°à¶»à¶±":12774,"à¶¢à·Ħ":12775,"à¶Ńà¶»à¶¢":12776,"à·Ģà¶»à¶ļà¶§":12777,"à·Ģà¶ºà¶»":12778,"Ġà¶¶à¶½à¶ºà¶½à¶Ń":12779,"à·Ĭ.âĢĻ":12780,"à¶ħà¶´à¶±à¶ºà¶±":12781,"à·Ĩà¶»à¶½":12782,"à¶Ķà¶Ń":12783,"ĠSo":12784,"à¶»à¶°à¶±":12785,"à¶Ŀà¶«à¶ļà¶º":12786,"ĠTech":12787,"andid":12788,"adget":12789,"Ġoffer":12790,"ĠFrom":12791,"ĠFriend":12792,"irit":12793,"unes":12794,"Ġà·ħà¶¸à¶ºà·Ģ":12795,"Ġled":12796,"Ġlower":12797,"à·ļ..!":12798,"à¶»à·Ģà¶½à¶´":12799,"Ġ131":12800,"Ġ136":12801,"ĠUr":12802,"à¶±à·Ģà¶Ńà¶¸":12803,"Ġà¶¸à·ħà¶ľà¶¸":12804,"illing":12805,"Ġunit":12806,"Int":12807,"Ġrespect":12808,"Ġï»¿":12809,"ĠAmazon":12810,"Ġground":12811,"ÙĨØ¨Ùĩ":12812,"Ġcoach":12813,"Ġfeature":12814,"Continue":12815,"duino":12816,"Ġgirls":12817,"ategorized":12818,"?âĢĻâĢĻ":12819,"See":12820,"[/":12821,"papers":12822,"sec":12823,"è¿":12824,"à¶»à¶±à¶ļ":12825,"à·ĶâĢ¦.":12826,"à·ĥà¶®":12827,"à·ĥà·Ħà·ĥ":12828,"Ġà¶´à¶ºà¶ļ":12829,"Ġà¶¸à·Ģà¶½":12830,"Ġà¶ħà¶ºà¶±à¶¸":12831,"à¶«à¶ľà¶±":12832,"à¶Ĥ.....":12833,"Ġà¶ĩà¶½à¶ļ":12834,"Ġà¶Ĩà·Ģà¶±à¶¸":12835,"à¶±à·Ģà¶ļà¶º":12836,"à¶±à·Ģà¶§à¶¯":12837,"à·Ģà¶»à¶ĳà¶½":12838,"Ġà¶ħà¶±à¶½":12839,"Ġà¶¸à·Ħà¶¢":12840,"à¶»à¶ļà¶ľ":12841,"à·Ĭ,âĢĿ":12842,"Ġà¶ħà¶½à·Ħà¶ļ":12843,"à·ĥà¶ļà¶½":12844,"à·ĥà¶ļà·Ģà¶»":12845,"oring":12846,"à¶ļà¶½à·Ģ":12847,"à¶Ĵà¶±":12848,"à¶Ĵà¶©":12849,"à¶ºà¶ļà¶§à·Ģà¶Ń":12850,"à¶ļà¶ºà¶±à¶§":12851,"ĠMachine":12852,"ĠTHE":12853,"Ġwoman":12854,"Ġbig":12855,"Ġdeb":12856,"oly":12857,"Ġà¶ĩà¶»à¶ľà¶±":12858,"ĠWimal":12859,"Ġà¶ļà¶»à¶ľà¶Ńà·Ħ":12860,"Ġà¶ĭà¶¹à¶§à¶Ń":12861,"Ġnear":12862,"à¶°à¶ļà·Ģà¶½":12863,"à·Ĥà¶ºà¶ļà¶¸":12864,"Ġà¶±à¶»à¶¶à¶±":12865,"Ġ146":12866,"aver":12867,"à·Ħà¶¬à·Ģà¶¸":12868,"phab":12869,"eya":12870,"ĠEnd":12871,"Ġconc":12872,"Ġchat":12873,"ãģ¾":12874,"Internet":12875,"Ġalways":12876,"Ġ*/":12877,"ĠTrading":12878,"Ġà¶¸à¶³à¶ļà¶§":12879,"ictures":12880,"reative":12881,"Ġbetter":12882,"ĠGuard":12883,"ĠFeature":12884,"Ġprogramming":12885,"Ġcharacters":12886,"ydro":12887,"Black":12888,"ĠEpisode":12889,"ĠHosting":12890,"ĠInstagram":12891,"ĠExplorer":12892,"width":12893,"AV":12894,"Ab":12895,"CL":12896,"LK":12897,"Pvt":12898,"QW":12899,"Se":12900,"van":12901,"Ġicon":12902,"à·³":12903,"Ġà¶Ł":12904,"à¶±à¶¹":12905,"à·Ķ_":12906,"Ġà·Ģà·ħà¶§":12907,"Ġà¶ħà¶¶à¶½":12908,"Ġà¶¯à¶ľà¶½":12909,"Ġà·Ħà¶§à¶±":12910,"Ġà¶īà¶¸à¶ļ":12911,"Ġà¶¢à¶ºà¶½":12912,"à¶±à·Ģà·Ħ":12913,"Ġà·Ģà¶±à¶ºà¶ļ":12914,"Ġà¶ħà¶Ńà¶ĩà¶»à¶½":12915,"à¶ºà¶Ńà¶ºà¶ļ":12916,"à·ĵ.,":12917,"à¶»à·ĥà¶ļà¶º":12918,"Ġà¶°à¶»à¶«":12919,"Ġà·ħà¶¯":12920,"ĠCivil":12921,"à¶¸à¶¯à·ĥ":12922,"ĠPack":12923,"Ġà·Ģà·ĥà¶·":12924,"ĠDin":12925,"ĠBig":12926,"Ġà¶īà¶³à¶½à¶Ń":12927,"Ġdigital":12928,"ements":12929,"Ġ162":12930,"Ġà¶¶à¶»à¶´à¶Ńà·ħà¶¸":12931,"à·Ĵ\",":12932,"Ġà¶´à¶©à¶Ń":12933,"Ġà¶¢à¶±à¶ľà·Ħà¶«":12934,"ĠProduct":12935,"Ð¾ÑĤ":12936,"Ġquest":12937,"Ġà¶Ĩà·Ģà¶»à¶±à¶º":12938,"ĠPrime":12939,"à¥Ģ":12940,"hamma":12941,"âĸ¬":12942,"auty":12943,"ìĿ¸":12944,"Ġexperience":12945,"English":12946,"Android":12947,"ospital":12948,"elligence":12949,"(\"":12950,"History":12951,"Per":12952,"Sec":12953,"ÑĦ":12954,"à·Ĵà·Ĵ.":12955,"à¶±à¶¢":12956,"à·Ģthumb":12957,"à¶Ńà¶½à·Ģ":12958,"à¶¸à·ģà¶ļ":12959,"Ġà¶±à¶½à¶ºà¶ļ":12960,"à¶©à¶ºà¶Ń":12961,"à¶©à¶»à¶ºà¶§":12962,"Ġà¶ļà¶»à¶«à¶ºà¶§":12963,"à¶´à¶Ńà¶Ń":12964,"à¶½à¶ļà¶ºà¶§":12965,"à¶ºà¶ľà¶«à¶±à¶ļ":12966,"ĠAB":12967,"ĠAT":12968,"leep":12969,"Ġpe":12970,"ĠPo":12971,"à¶ºà·Ģà¶»à¶§":12972,"à·ı..-":12973,"Ġbreak":12974,"ami":12975,"osph":12976,"ĠFeed":12977,"unn":12978,"ĠEth":12979,"à¶¸à·Ħà¶¢à¶±à¶Ń":12980,"ĠOld":12981,"Ġà¶¯à·Ħà¶ºà¶º":12982,"image":12983,"ĠVictor":12984,"à¶ħà¶¸à¶»à¶¯":12985,"izing":12986,"à·ĴâĢ¦âĢĿ":12987,"Ġà¶ħà·Ģà¶ºà·Ģà¶ºà¶±":12988,"Ġdesktop":12989,"ĠRateGossip":12990,"Ġchildren":12991,"mes":12992,"zan":12993,"åº":12994,"Ġq":12995,"ĠÑĤ":12996,"à¶Ńà¶ļà¶»à¶«à¶ºà¶ļ":12997,"à·Ħà·Ģà¶Ń":12998,"Ġà¶¸à·Ģà¶±à·Ģ":12999,"à¶¶à·Ģà¶½":13000,"Ġà¶ļà¶»à·Ħà¶¸":13001,"à¶®à¶»à¶ºà¶±":13002,"à·ĬâĢĮâĢĿ":13003,"à¶±à¶¸à¶¯":13004,"à¶ºà¶¸à¶ºà¶§":13005,"ergy":13006,"Ġ->":13007,"Ġà¶»à¶¢à¶ľà·Ħ":13008,"Ġà¶´à·ħà¶±":13009,"Ġ1902":13010,"ĠSem":13011,"ĠCID":13012,"ĠAS":13013,"à¶¸à¶½à¶ºà¶§":13014,"ĠPosted":13015,"ĠTO":13016,"Ġà¶ľà¶½à¶¶":13017,"à¶Ńà¶§à¶¯":13018,"olence":13019,"acle":13020,"ĠKandy":13021,"Ġ164":13022,"apath":13023,"à®¨":13024,"à¶§à¶ľà¶±à¶º":13025,"à·ĬâĢ¦âĢĿ":13026,"Ġà¶ĳà¶ļà¶ļà¶§à·Ģà¶Ń":13027,"ĠÐŁ":13028,"ĠUnicode":13029,"ĠQue":13030,"Ġamong":13031,"ĠFranc":13032,"arathne":13033,"Ġregard":13034,"arning":13035,"ĠMinister":13036,"Ġparticip":13037,"ĠDevice":13038,"Ġà¶¸à·Ħà¶ľà¶¸à·ĥ":13039,"Description":13040,"Ġpattern":13041,"ìłķ":13042,"ðŁĺĤðŁĺĤ":13043,"ilitary":13044,"Ge":13045,"Jan":13046,"With":13047,"fort":13048,"Ú©":13049,"à¶ľà·Ħà¶§":13050,"Ġà¶Ńà¶½à·Ģ":13051,"Ġà¶ĩà·ħà¶ļ":13052,"à¶¢à·Ģà¶»":13053,"Ġà¶Ĩà·Ģà¶º":13054,
[...]
